0291
009A
FD51
033C
FE3C
FD01
016F
02BB
FD04
FDB8
039A
014E
03F8
01A8
FD09
0142
FFD9
FF32
035D
FE6B
032A
01DA
0281
0324
FCEC
0128
017C
031B
FF68
017D
FE77
FEC8
FFE4
FFC9
03AC
0170
FFA6
0103
FDDF
FFC8
FFF1
007E
01B8
FF86
0321
03B3
FF6B
FC85
0357
FEF9
025A
FC0F
FD95
0108
03DF
02D7
03F2
FE96
037C
03C7
005A
FFFD
026C
FE00
0326
00DD
0116
FC60
01A6
002A
FBFB
F668
FC66
FBA5
0344
FFC6
FB20
00B7
FC0C
011D
FCD9
02A8
FEAD
02C3
01BE
FD42
03A3
00BA
FDCC
0470
02D6
0572
041B
0018
059A
05BE
FFCF
FD8A
FE04
FEF4
0000
FFF0
FDA8
FFB6
FE85
FDF8
FFB2
FE65
FD3C
0062
0273
011F
01B7
FFC5
FF88
FDCD
FC92
FE0D
035E
027D
04FB
0290
02BD
034F
0477
FE8A
0216
01E6
0163
FFB8
015B
0264
FBD4
FC45
FFBE
FCF0
0678
0274
00B9
009A
00C7
FFB5
0310
FF8E
0205
0000
02F2
0493
0233
F943
FF2B
03B1
0416
0096
015D
FDD1
01D0
01BE
0062
FE4D
00D4
FC6A
FDFC
0093
0177
0235
FEC8
FC65
FFB8
FFBA
0338
012D
046F
0073
0257
FDA1
023B
0092
FF61
04E4
0304
FE6F
0072
0216
02A5
FF86
004D
FDF5
01D6
FD88
FE27
FF6A
FF0D
00F2
026A
03A9
FFE0
FE2B
FF24
0488
0083
07AE
0221
FB50
0227
00A6
FE0E
FE6F
FC6D
0368
FFAD
FF9E
00E7
016C
04D1
FBC6
FDA4
FE90
011B
0090
FE21
0064
FD19
00CE
0209
FBED
FDB6
FF34
058A
01D0
00F8
FD08
0310
035F
032B
F944
0216
0136
004F
FFFA
FF7C
FE38
03FD
0426
01AD
0126
0014
041C
FF5A
FF39
038D
0328
015D
0362
0049
01A5
0145
07A5
FEB3
01B4
FF2B
FC9D
FEC6
FFF4
00B7
FD41
00A6
02AE
06BC
FD79
003E
FCDA
FCC3
001D
0164
0519
FC98
FE2D
FD87
FE9C
FDF3
FDBD
00ED
00D6
0076
01C3
FFAE
FE87
FFFB
FBD4
0453
FD9E
FD5F
FE36
FFEA
FAC8
01A3
FE65
FE25
011A
FF7A
016B
028B
03E4
0104
0102
FF6E
FC0C
02D7
FE3C
00EE
0220
047D
FF1C
FC15
FC29
FE44
FF25
FC24
FE64
0721
FFEF
FE79
FFAC
FF7D
044C
02ED
01CF
03D1
FA95
0159
FFCC
FBCB
FF85
015E
0158
FCBA
FCD4
FD97
00F4
FF1C
036E
0072
FC18
FC4F
00DF
FE60
01C1
052C
FF8C
021C
00A2
FCD8
FD4B
FA44
FB4A
FF1C
FC66
FB6D
FE36
FAE1
FDBA
030E
FEBE
FF89
030C
FE57
02C0
02AD
04B2
FCF3
011A
FDDA
00D4
FE31
0016
0340
091B
05B6
FAE4
04B7
FDDC
0593
FFA1
FEAA
0217
FD39
FC49
FD03
0271
0186
01F4
0397
FD14
0387
0247
FA14
FBA5
FC4F
034C
FB84
0411
FF48
00AF
0377
020C
FCA8
01B1
FE22
FDDD
FE90
021B
F8F4
FB69
FFD7
FB99
00E2
02BD
01CE
0001
03B1
02A8
FF3F
FE48
FC98
F660
F96A
FBDC
FE41
FC30
0177
04C0
02A9
021A
0381
0066
025D
0012
020B
01F0
098F
0241
006E
0290
0302
0394
FF95
FE08
039A
FCF1
004B
FFB6
03FB
F5B5
F767
F90F
F84C
F8F6
010C
FABB
FD56
0966
0514
FDB3
FB3B
01C8
0311
030D
008E
062F
06CA
0815
066C
03B6
FFBB
FE10
FF0D
0056
FF56
0689
0176
FE46
FA56
F66F
FC6E
F29A
F2CE
F651
F3BB
FA2E
F734
035E
01D3
002B
00D6
044F
FFA4
07E2
FE94
FEFF
01E6
FDAF
FD5A
03A1
FC1E
FF0A
FDBF
02CD
018F
041D
0634
FE28
01B8
FF57
FBD0
F729
F5A4
F2A1
F945
FC33
0790
0594
FDED
0481
0177
014A
FF8D
00C3
0481
FDCA
007C
0084
FD5E
020D
FF56
0695
01AA
059F
026E
012D
00B1
01B2
03B4
054B
FD06
FFD2
FB2D
FBD1
FD81
021F
006F
FE74
FC64
017C
FE65
0406
FE2A
02F4
02FB
FFFA
013C
FDE7
FE11
0792
079E
05FF
053E
0085
021F
FE26
02B7
080F
01A0
0461
FEC6
FD4B
FB6F
FC38
00F2
01A6
FEBE
038F
FEF2
0122
FCCA
FFFF
0184
FE11
00F3
0209
01A3
0276
0285
016B
FF7E
0261
02AA
FFF0
0038
FCD7
FF2D
0687
0263
FD23
FC26
FC84
FE5A
0354
01C3
FB31
008F
FC89
FB44
FFA6
01DB
FD9E
01CF
FCF5
FF39
0078
FE82
FF21
FE3A
FFA0
03D8
FF3E
04D2
051E
FC7F
FE1F
0202
05BF
0113
02C4
FA56
0029
FDE1
FC5F
FE84
02FB
0134
FF3C
FEC2
0312
014F
FEEE
0038
04E0
FE13
0166
025D
07E1
04DB
0156
04EE
0740
00BC
03C2
01FD
FF94
FF28
0047
FF35
FD8A
FB66
0025
01E1
FBD4
0459
FDF8
02D2
FC73
FD3C
0366
FF68
040C
027C
FED4
01F7
0415
0599
FFF8
FD45
006D
FE5F
01F0
0354
0039
FF79
0087
FD38
F928
00DA
0181
0006
FCFA
FBD5
0365
FEDB
FE34
014E
FEC2
FDF7
0326
02EE
04DB
0064
FFE9
002E
FE61
FFD1
FDD8
FEAC
00A5
0039
FF46
0026
FF69
04A9
0494
02B7
FC9D
01CC
FE0B
FE7E
0216
FDF4
FFD7
FF52
FE09
0194
FFFB
FF84
FDB7
030C
0303
FFCF
0038
FF57
034C
FF69
FE99
00A2
FF55
FD8B
0366
0054
003E
FFCC
FD6F
01FC
0159
03CF
FFC2
0231
FFD0
FD0D
FFCD
FFEF
FC38
FE41
0222
FE3B
FE94
018E
FC12
FEF4
FE0A
02A1
FCBA
FDAC
0332
FFD9
FE0A
FCD7
0038
FF83
FCF6
03FD
FEA7
FF0A
026C
FD73
0190
