0080
FD41
0172
FF44
FEFA
02FC
020B
FF25
03C6
009B
FC48
FFF3
00D0
FFE9
0054
FC32
0147
02C1
FF63
0003
FEBE
028D
FF7D
FFED
FE6B
0148
FE0C
0087
03AD
03B8
0293
00C7
0146
03C2
03D5
020C
FD71
FFCA
FE6A
0240
FC84
0069
0211
FE89
01EE
0009
FC8F
013A
FF40
0045
FEFE
02CF
0311
01CA
01CF
02F4
0313
019A
FEBB
03EC
0359
00F8
FFF0
00E2
FD42
FC05
03D1
FD18
018F
03EE
04A4
FD2B
020E
FEC6
FD79
02DE
FC2D
0186
FC11
03E1
FC25
FD15
021C
0030
FE02
FD7E
FDA8
FE7B
FF3E
0079
FE88
0001
034D
034A
FC84
001B
FDC2
03D8
0319
02D2
00F4
0321
03C0
FFB6
FFE6
FF39
0047
FF11
FD6F
0205
FF2A
FCB8
01F8
028B
019A
015D
FF92
046D
FDA9
040B
01D5
FEF5
0212
FE71
0063
FEC8
041F
FDD9
0022
FC58
FFE6
FF96
FC95
032B
FF67
FDA0
025F
FE93
024A
FCF9
FD25
FD65
013C
FD5D
FECE
036D
00BE
FF0B
FBDE
FA56
FB6C
FB9B
008A
028F
002E
0196
FC80
FECC
FE73
FAA4
023A
FE02
029F
FED4
FEE1
FDD2
0283
FF42
FDEA
02D1
02F9
03CB
FC43
0096
FE69
0179
FC0B
FE3D
011B
FF0C
FC40
FDF4
01F9
FE30
FB4D
FC5A
FD76
FC39
FA54
FF07
FF67
FE57
FFCD
0260
FC40
02AE
FC3F
FEE0
032A
0363
FCE1
0169
FFA6
FFF5
FE78
FCC2
FE51
FEE8
FE9F
FD5E
FD00
FAF5
FE19
F724
FB09
FCB1
FC57
FB76
FB0A
FBE0
01AC
FE40
FF0E
034C
FF11
001E
02F5
02BE
0277
FFDA
0335
0167
FDB5
FC81
029F
FDF6
02BC
0014
FE89
FE48
FDF3
FBE4
FF06
00E9
0199
FB46
0185
FEAE
FCDD
FBCD
FD47
FDB9
0332
0398
022C
043E
0471
FE88
0413
02EB
FEFE
FF1C
015D
FD44
01E9
0387
01D4
04E6
FBAB
FDF2
FD17
0189
FC19
0191
020D
FE51
FEA6
02FB
FEAA
011B
FF58
FFE2
FEAF
00C0
0356
038E
FE85
FE7D
FF1A
030F
0058
031B
0361
052A
08C4
01D1
01D6
FA7F
03B2
FEB9
FE8E
007A
0033
0037
FD5F
FF91
01AB
FE1A
03CF
0175
02F3
03FB
FFA5
037F
FFE6
0290
001E
FF31
FFC8
0146
020C
06A9
049F
0047
FEE3
02AE
009E
021D
0318
038F
FD50
0288
FE74
0092
FEC2
FF50
FC22
0109
FF3E
047E
0421
0142
0011
0144
0042
04A4
FC0F
FBCA
02E3
0347
052A
0011
00C9
FDC1
0153
FDE2
FFAD
0288
04A3
006E
FBDB
0301
01D7
FD0D
FDAA
FDED
FCDD
025F
0473
035E
FF4D
0198
FE60
FFD6
FC71
FEFD
FDC6
FF83
0545
FE16
FBDA
FE4C
01B7
FD94
018D
FD97
0352
FE28
FDBD
03F2
026B
FF2C
03E1
004A
FFB0
FC79
02BB
001E
FEE4
01A5
0017
FE0C
FE3C
FF4A
FD7E
0197
FF3C
FF6D
FB61
FE45
FF1D
006D
0352
0162
028D
FE7B
FE36
00E3
009E
FCA6
FFC5
01FB
FECF
0240
FDF0
FFEB
FF2B
FBD6
FE63
025E
FA6C
FD75
015E
FD7D
016A
FF42
FB85
FF89
FD56
001B
00EA
016B
056C
0066
023B
01F1
02B2
FD99
03A0
0331
025A
FDB8
0126
047C
0444
FE6F
026F
FDDF
FDE2
FD29
FF9E
0173
04AA
0025
0330
FEC7
FF0A
0212
FFA2
028A
FD95
0015
027B
FCA1
FFB7
0038
FE39
0182
FD09
FD86
FE24
00C8
FF63
FDCC
FE96
FE33
FF5C
FEE7
FD11
02DB
0326
03FB
FDF3
01B6
001D
FE4E
025D
0082
0377
025C
02BA
FF26
03A7
FD1A
00CE
FE26
FDDD
010F
FC93
FE3F
FEFE
FF52
FD72
FCC1
FEAF
FFAA
F91B
FFE2
049D
0249
0127
FE9C
0021
011F
FEB9
FF5D
003C
FB42
FEFF
FEB1
FF3F
FF52
FE67
02E6
037B
0204
0458
013D
FCCA
00B1
01DD
FA63
FE30
FA45
FF1A
FF44
FE98
037F
FFBB
0227
FC46
FEEC
FE9B
FB18
FDD6
FE89
006E
0179
0256
FCB6
FE17
FFF7
FFA1
FB92
FCEA
FB6E
FCAA
FFA6
FD7C
FC75
FB2E
FD7F
FE4C
FF9B
011A
FE9E
0342
0184
0457
0037
FFF6
FB7F
FEE4
FC54
0316
00C3
038A
0181
0022
FE5A
FD18
0290
0108
02D7
FB1E
FD3F
FB3A
FDA7
000D
FF2A
00D4
FE03
018D
02DC
FF0C
00EC
FF20
01ED
FEC4
FF04
FCA0
FC5A
023D
01AF
FD5F
FC2F
FD25
FD86
0388
01CC
FF2F
FF59
FF59
FDAC
FA95
01B6
007F
FF2C
FF28
FE4E
FCF0
0202
FF7C
FEC7
050E
FEEA
01FB
FEDB
0260
FE6E
FC0E
FCB5
00C0
FF6F
00CA
026A
FCBD
FCAB
FD06
FFD1
0339
0033
02F1
FCCB
FD53
FE20
0023
0062
FEC0
FE9A
FF48
0410
FF4D
FFAE
FED7
FDF8
034A
FC94
0169
FDCC
FF52
0089
FC9A
FF1A
016E
0000
0074
0063
02DC
FD37
FD46
FFA8
FE2E
FE45
FDBC
FDEB
02C0
0032
FECD
00A5
036D
FFDC
FEAE
FCDE
FCF1
FDB7
FF19
FD14
0172
FCA2
00D4
FF55
0031
FE4D
FFF2
025A
FC0C
0445
0141
00A4
0324
0251
FF9F
FD69
FCE6
0241
026B
01C9
FE28
0567
FFD9
01DE
FDB6
FCAB
0089
FF5F
FF83
034A
FCFF
FD1F
FF4F
0234
02C0
035C
FFFE
FF42
0190
02B7
040A
00DF
FF6B
0366
FF46
011C
01A8
000A
FED2
FED5
FF19
0216
0333
020B
FE9C
FCF7
FD02
02C1
FEFC
FE01
FD63
03F3
FDDB
FD9E
00B8
FFE2
FD99
03A1
018B
02D1
0187
027B
0062
0311
FDDD
FCB5
02CE
FCD7
FEC5
FDEF
026C
0379
0361
FDF1
FED0
FF9F
