02C4
FE27
FF80
03F0
0292
0083
FE3A
FEDA
0210
008C
FF35
0346
FDE9
027F
0202
0189
FF5B
0032
FC2C
FDAB
FC9E
021D
FF1C
0366
FD54
FDB1
03C2
0099
0250
FC5D
FD84
018A
0030
03C9
FCC9
0181
FDAC
0362
00AC
007A
0277
01B7
0006
FEB5
00FF
FDB3
02E1
0122
00DF
019C
03A8
0257
FCD9
FCCC
0356
FC39
012F
0109
01C7
02BF
0330
004F
0314
FEC4
03AC
0326
0239
04C2
00A3
FCED
008D
02FC
0048
FF8B
00CD
0375
FD76
FEB3
012C
0341
FD07
0080
0358
FF10
FF26
FCF3
0368
FD86
FE1A
FFE5
00FC
02D4
0272
0256
024D
0176
0251
FE70
001C
017F
0096
FE9D
0262
010A
01C0
01ED
018A
FFE0
023E
FE4B
FEFD
0088
01A9
014D
0385
FE3F
FF9E
0085
FEFD
FE4D
FEFC
0267
FE9D
02A2
FFF7
0091
FFEE
F9E1
009E
FDE9
FF29
0217
FF3E
00DB
03AB
0412
FC28
0065
033C
0043
0357
FD01
000D
FE51
02E4
00FB
FFBE
0220
01CD
FDC7
FEE3
FD2C
FB65
FDE5
00AD
FC82
FCB1
FEA8
FD46
01D5
FE47
0177
FDF9
FE63
02C4
FDED
FE3B
013B
00F9
FEBA
03D0
FD80
024D
00C2
FCE0
00AA
FFAF
FC30
FBC0
FFB5
FD6C
FC00
FDD4
FD45
FEEC
FF2D
F964
0007
FABD
FE41
008C
FEB5
0261
FD97
FFFC
016C
FD1C
FC78
FE92
FF5A
FD28
01F9
FF98
000A
FDEB
FD0F
FB18
FE17
FC48
FD43
FCAB
FBC8
FB4A
FBE5
FA4D
FA7D
FE4F
FE08
FF49
FF3D
FFAA
01BA
0243
0016
0235
0111
FC28
FF03
0158
0264
014F
FCB0
FC29
FEE7
FDE8
FC0F
FC5F
FED7
FB73
FCD9
FBA9
FF37
FE13
FE50
FE13
FB04
010C
FBFF
FDC9
FF69
FBB7
0030
FF0D
0325
0141
FEA8
01AC
0181
FF65
FD64
FDEA
FC4B
FF81
FE5B
0005
FE10
FD5F
004C
FE33
FEB3
FA23
0133
0048
0041
FD19
00C4
FEB5
00B8
FC5B
FE0D
FFCB
FDF6
FCB5
FE95
FEBE
FDD5
FC5D
FEF4
FF3D
002B
FCC0
FE01
FF9C
FF2A
FE93
FC65
FC9F
0104
0011
FF73
FC58
FE7A
FEBC
FA3F
FA12
02CD
00C2
0151
FD7F
FC30
FE36
FD00
FE5F
FD95
FD64
FD52
FD36
FE4C
01B2
FBEA
FF02
0282
FD2A
00C7
027C
FDE2
FEFC
FD8A
FFFA
002F
FDCF
01FC
FCF2
FBBE
FECC
0304
0052
FDFE
0288
FDC5
FCC0
FE1D
FE28
FCAC
01AC
FE1F
FF38
004C
00C3
FEAD
FF58
FD64
01BC
FF60
FE60
FEBE
FF64
02E5
013C
0095
0072
0164
FEDF
FD76
00A7
02AD
FFAD
FFD7
FEFB
FD28
033A
003B
FF51
010D
01F2
0449
04BA
FF04
FC25
FFCF
FF73
00D7
FE18
FF52
FC9D
FCF8
0007
016A
0015
FE84
FCF5
FD9C
FF2D
FE36
00FF
FE7C
034F
0271
0199
02EA
00B4
0668
0337
0591
0276
0276
004D
FDB2
011F
02F5
0137
FFA0
0275
022A
052B
FFF7
00A9
003C
FDBC
038E
FF22
FED5
FF72
017A
FDC7
00B6
02E8
019C
0438
021B
06BB
03C8
0336
038F
FFAF
0116
FF6C
0185
FE44
04F0
FD07
0071
FFC8
02F1
00BE
017A
0293
FEEF
03DD
0168
FF71
0401
FD65
0595
006A
0306
03C7
0167
036D
046C
055F
0102
0245
03A8
0413
04E0
02DF
FFB4
03BF
03F4
02E7
FF6F
04C3
FEDD
0151
02D5
FED0
FFA1
FFAC
03E0
FE9B
012B
073B
0356
03D0
041C
0409
02FD
0031
030C
01F9
0359
009B
FEFD
06C9
0214
058E
015E
0144
04A0
04A9
0342
FF87
0190
FF09
FEC6
FFAA
FD3A
FFC6
FEAB
01FE
0594
FFA5
017E
0313
028A
02D9
047E
037C
0252
062E
024D
03E0
FFE7
0140
00CD
FFED
0110
0532
036E
FF8C
0063
038A
010D
FEA2
033D
FF9D
03E2
FF00
FFE4
0292
035D
FE8E
0516
FDA2
0171
019A
0212
0155
004E
00E4
FF89
FF17
FDF9
0091
00E4
0179
0018
03E5
02F6
FF10
009A
034A
FD7D
009A
0128
FC0F
031D
FBE0
0344
0210
FE09
0117
FE84
0234
FCBA
02A4
FE2F
00CB
FE05
004C
0088
FC88
FCDB
FFD0
02F6
0210
FE51
0214
FC56
FE5D
0266
FFED
FE13
FB0B
FBEF
FE7F
0015
FE58
0473
01E7
0204
FFEA
01AA
FE70
00A8
012C
02AE
0136
FFAB
FFC1
FDC9
FD8F
FE5A
03ED
01B1
0182
FE8C
FFCA
0080
FD35
FFE0
0094
FC52
FC12
001E
FF5A
FDDF
FF2C
FF4B
FCFA
FFC2
FCCD
FBC4
FE0A
FEB4
FE38
0131
FF0C
0026
FBE4
01D5
FD9C
FF01
FD80
FE87
FD70
FC74
01B1
01E2
00A9
FCAF
FBE9
000C
F74B
FE4B
F94F
FD41
FA6C
01BB
FCD3
001C
FD2F
FCE2
01AC
FD7D
019B
FD32
FD83
FFB3
FC2F
0169
039A
FF10
FFF3
00C2
FE09
FDD0
FE9F
0075
FBAA
FBF5
FE20
FFFA
FB13
FCC7
FE53
FD33
FEEE
FB98
0114
0016
00CB
FC7D
FC18
010A
FF1B
FC2C
FDB6
0169
FD0C
FFE5
FCD8
0381
FD3D
01D9
01FB
0189
012F
FCB7
FF84
F978
00BD
FCAD
FB09
FCE8
0076
FBAD
FA50
F8E2
FC61
FBA5
FDD1
01A4
015C
03F6
02AF
037C
03FC
031A
FD77
FD31
0128
FF52
0103
020F
0153
0139
FB8D
FFF1
FDFA
0067
FF67
FD02
FBD1
FDA6
FEB4
00C0
0117
FF1C
FE24
FC80
FDE0
01C6
FF2B
FE58
01E0
FDD8
FDD5
02FF
02FA
026A
036A
019E
03D7
FFCE
02A3
FE3C
02FB
FD15
FF2D
FCBE
0020
FD1D
FFFC
FFAD
FF30
0328
02B2
03EF
FE2C
000F
00DB
FCBC
