0C5
0DD
0B9
FED
FBB
009
01A
FB6
0C2
FF9
0AC
0F0
F2F
019
FFA
F56
FA5
FF1
FC5
010
0B5
F2A
F93
F9E
00C
F05
08F
F6B
019
F45
06B
F9F
096
08C
F90
FCE
F61
03E
01E
FF8
0E8
0C4
F61
0C7
0C0
013
F67
02B
09C
F5D
F98
F70
F21
0E3
0A6
0E1
F9A
FED
FEB
FD7
0E6
0F1
0A3
039
F99
F60
0DD
F03
0D0
007
027
071
080
F85
090
08B
EFC
FCD
057
FD5
0A2
033
05D
059
F6A
FAB
0B0
EF7
FF4
00B
FB5
F79
F42
F61
FA1
034
F27
0DD
029
F4A
0BE
F31
FF3
EFF
08F
084
F05
042
0EF
F08
F40
FA3
FE8
042
005
F99
F07
0F2
006
FB2
FEB
0C7
FEC
065
07C
005
0E2
0AE
FFF
031
FA7
F17
0D5
089
044
049
0AE
02A
F4A
011
F7F
094
06C
0EC
062
072
F0A
F8F
061
F2B
F05
F20
FEC
F86
FDC
F99
F3E
076
00E
F6A
FCE
0E0
086
043
041
F5A
012
067
F88
03C
FC7
F2D
069
092
04B
02E
067
F54
012
FAA
F22
F7B
04F
000
F0F
F3C
F66
FA4
038
F71
08D
F2D
F06
F46
0DD
022
018
FD0
F0A
F0D
090
FA8
FA0
0D1
0DD
029
02D
067
091
F3B
090
006
0E7
079
FED
0E4
FE4
0CF
029
FB5
0D3
FF7
021
FBC
057
08E
F0C
05B
0C6
010
F22
05A
01A
093
0D4
00F
F6D
0B6
F4F
068
FAD
F45
0DF
045
FAE
09D
07C
0AD
009
0E9
FD2
EF4
02F
09E
06E
0C1
F15
F36
FE8
09E
F99
0DC
091
090
F68
040
008
0CC
F9D
089
055
035
083
F74
0DB
04F
00C
F57
05E
0CA
05C
018
F75
F2F
098
06A
F37
F60
FE0
0E6
055
F1A
058
EFE
FA2
FCA
F56
F61
0DB
F9D
F81
FCD
0F2
FEC
EFA
0AA
F2F
F09
04B
F45
02B
02B
F00
070
FBE
0E2
0C0
0B8
F61
FD3
F38
F9D
F98
FBC
F13
F87
0DE
F5F
0D0
0F2
047
087
00F
049
0AF
0EC
FA1
04A
FD6
03B
FA4
FF2
F1B
006
06B
F93
F32
034
008
0DE
038
FA7
F5D
0C8
F67
00F
F7D
018
F10
0BA
057
049
00F
0E0
059
032
F1D
0A1
FCD
F37
05F
FF6
F4A
064
066
0D7
F43
FA5
076
FA1
F47
06B
014
0D8
05D
0CD
F54
F9A
F4F
0D3
F29
F49
F20
F15
F22
0AD
094
F5B
F34
F0C
062
F86
08C
F1B
08A
086
0B1
F42
F58
0D5
082
042
0C8
060
F69
F66
FDB
EF9
F88
F13
0AA
F1A
F4E
F4D
04F
05D
0C2
06C
0D0
0D3
0BA
F81
FBE
F25
0A3
FA3
FF9
082
058
0F2
09A
FF5
067
FD0
0B3
0EF
055
091
FF4
FDF
074
F4F
F7A
0DF
083
079
F3A
F89
FE2
09A
0CC
0F2
040
FB2
F3E
F51
008
04D
079
05D
0F7
0BD
0CB
F43
F67
FD7
005
F9B
0AC
F0F
F51
0D6
06F
052
040
FE1
0B6
0DF
096
FAB
0C2
0C6
0D0
F88
0C0
057
090
086
FEF
F8B
02B
F93
0EF
F04
05A
09D
012
FC1
FA0
012
F4B
00E
F06
06F
F89
F2E
090
FFF
0B7
02F
FBE
F61
FA9
0F1
F26
F8D
F19
F0F
027
F78
05B
049
FA5
09B
F9A
F5B
01E
024
FA9
FB0
FEE
F8D
05A
039
F2A
0F0
F4E
FDC
0F6
0DF
F01
F33
F85
056
01D
F50
06D
00F
F1B
048
FEC
F91
FBC
FE8
0C9
FC3
0F5
011
033
059
0AB
09E
076
019
FEB
FF7
FE7
F12
07B
F07
026
022
FA1
04C
F6C
0B3
015
FEB
063
0A6
0C1
FB2
F37
FB1
FA1
08A
FFE
F56
0EC
0BE
F1D
003
0D1
F7D
F53
069
FC8
EFC
047
0B5
F16
005
0C8
066
F34
F81
FE8
F2D
F24
0BC
08B
006
088
F67
089
F65
F40
F1F
016
FC1
036
0F4
F38
FD9
FBE
FDD
05F
0EA
F9A
F7F
060
F8D
073
F48
F38
04A
019
0F1
FC9
060
FE6
07F
EFF
033
FC9
F87
FC0
035
096
0ED
0CC
01B
037
F24
0DB
F44
FF5
FFE
039
F34
FA6
099
F35
095
0EF
01A
0D7
031
0C3
FDB
FDB
F59
041
04B
031
F3C
F06
0AA
FDC
F2F
F43
0E4
F02
0D4
FBC
F95
032
F90
F08
03A
FDE
0AF
FC2
0D6
FED
FDD
0A1
F91
0D8
08F
F11
0CD
F57
FED
F7C
072
060
FB2
03D
F49
F53
0CE
0C1
F4E
0D3
0B0
F63
075
FFB
054
09B
0EF
F33
F41
F08
09A
03C
079
F85
F28
F03
FA7
06F
0F1
084
07A
019
016
F78
F68
F05
FA9
05C
0C7
F02
0D2
FCE
0E5
0D7
012
F99
F9F
EFB
FE4
09F
007
073
FFE
FCF
F2B
0B1
FC9
0F2
F4C
03B
081
000
094
FD2
F22
01F
FDB
0E6
0C8
F85
0BC
F36
FE7
0A6
00D
042
0B7
FEA
029
0A6
FEA
FC9
0DA
F1B
01F
F5E
076
FF1
F1A
F5C
F8A
FE7
FA1
F24
0C9
013
F3A
08F
F2D
082
F62
016
F54
00F
08E
04F
F08
FEF
0AB
03E
FC0
004
0D7
01B
0B1
090
F25
FC8
F32
083
0F0
F1D
F36
01C
EFD
F36
F6F
0C1
F27
F47
017
F32
0B1
F83
F79
F9C
EFA
F44
002
0DD
EFA
FAC
0D4
F8B
087
0CD
F91
FE5
05E
F9A
FB0
049
00A
FF4
FA3
F96
F24
F02
0DC
FC3
F5C
0EE
F4B
FAE
FF9
07E
0E9
05A
F37
F08
095
FBE
06E
0E3
F76
017
02E
0D2
F64
0AE
F4A
F9D
FDE
FBE
F04
03E
F23
0D1
F24
0BE
F29
07D
0E6
0C2
F35
0D5
F75
052
EFE
09C
F1B
F98
F00
F42
0BF
016
FDE
0E7
F1C
0D7
0C6
08C
FCB
065
06E
005
0EE
F86
F1C
F6C
F31
026
061
F85
F37
FCD
0BD
01C
F54
023
F97
082
F4A
F34
F0B
0A5
060
F1A
F72
F33
01E
025
0F7
F7C
FD1
0CE
F55
016
EF8
0F2
003
F0C
F5B
0B8
FC3
084
F1F
0F6
06D
082
F95
045
022
F5A
F91
FB8
F59
EF6
00F
F16
091
082
084
09B
F41
F61
F29
F95
F79
0BA
003
016
F57
071
0E0
F55
033
0BE
051
040
FB4
F28
FC2
0B9
021
089
004
F7D
0C8
033
F8E
0A1
0F0
00B
FD6
F67
09C
0F5
04A
065
F72
0B5
03D
06A
F98
081
FD0
00A
06B
F7C
005
F68
FAC
FBE
0E3
022
0E3
FBF
FDD
F11
F6B
060
F55
071
09D
FB7
0A3
F81
0B1
FA7
071
F1F
0DA
04B
0C2
F66
031
FA8
01B
0B0
F64
0F3
FBA
067
0C8
F48
F43
08A
021
0D4
03E
FCB
068
092
F4F
F83
F52
F46
043
F65
0C1
00C
FB8
F05
0EC
05B
F42
F4F
F66
F69
097
05A
F33
F2A
FD1
03D
0A2
091
0E9
FF1
FFB
09D
F0C
F14
F9C
F7B
FC1
FB6
F5B
FE5
F9F
03E
025
0E4
F50
058
0EA
043
060
FC8
F3F
EF8
F65
F16
FAE
095
FEB
072
041
F43
035
F2A
F4F
F64
0B9
080
099
049
083
002
F0D
FF6
0B7
F67
048
F5E
053
092
F3B
04A
003
0CD
056
FEB
FE7
FE3
FC0
07A
032
F2B
026
019
02C
004
04C
FF8
FAA
F47
091
035
F3D
004
015
FC8
F55
045
F2F
088
0E6
092
F7E
F42
FA8
0DF
0A9
FB4
0DC
096
F98
FFE
FD9
0DE
F7B
FD1
01F
F22
0E8
09C
093
F97
074
FC0
FC3
032
09B
FE8
0B2
F99
F7C
F00
0E6
084
F9F
F81
FD9
F82
0AB
F30
06D
FA3
F24
085
007
044
03B
F8F
06B
FA0
025
FD2
FE8
F04
F5F
FFD
F49
0BA
030
063
F97
FD0
01E
F60
0F1
014
029
003
0A6
FAB
F6D
0C9
F02
0E4
FE9
FDA
F38
089
FD8
05F
F9D
08D
0F7
F99
0EB
037
05E
0AA
061
FA0
026
05A
FE9
F08
FCE
F85
F68
F18
0DC
F77
057
FEB
FF8
088
F89
0F9
F1F
F61
052
086
FC2
097
049
FAC
030
0CD
F5A
067
016
F01
0AD
FC0
0B9
002
FB1
FAE
035
F21
0C9
025
F3E
F42
095
0C6
FA4
015
F4C
055
FA8
F62
003
F44
0CA
FE4
0A2
0EE
0CC
F1B
065
FC7
F75
07B
F5E
F71
FAE
FA2
0AB
FE6
F79
FA5
F50
FE1
06D
FA2
F8A
083
FCD
F23
F7A
FFF
F1B
0C9
F44
0C8
FDE
EFA
F07
F6D
F4A
F14
0C5
075
F20
029
FF3
034
F5C
03E
F9B
052
0BC
047
0DC
0E0
FFF
012
085
0AF
082
F82
F5C
F0D
0F1
0F2
F1A
060
02C
FDF
0CF
06C
0A3
04E
FE9
F45
07B
F72
047
FAC
FC1
FF3
0CA
05B
0C6
FAE
0C2
FB2
086
FCC
F12
090
0CA
041
064
F5A
0AA
052
0CB
0F5
F10
FBB
084
F3B
053
F28
03F
FF9
031
02D
0C3
05B
089
F35
F4E
FC0
0B9
0D7
045
F32
F67
05C
0DE
029
06B
05C
F9B
F79
030
0BA
FBB
F20
F4B
F70
F76
F1F
F10
FE3
039
0A3
0C6
F0D
0EA
0AF
FCC
01F
0A1
FBD
F73
0C9
05F
031
08D
074
028
06D
090
04D
04D
F22
02C
F16
020
F4E
F2A
FC6
F28
04F
08C
F49
FAE
FEB
0DA
0D7
F14
003
F17
086
018
08A
08E
0A7
F77
F04
0AB
FE2
057
FCF
FA0
0CB
F11
061
F2B
09E
0BA
08B
FD5
0B4
074
FE0
053
FB0
08A
F13
0B4
042
FF2
F63
FEA
EFC
083
0E7
F78
09B
06A
F4C
013
023
F2F
08F
F9E
091
F90
010
0DE
F43
F9A
F32
F22
FB7
F63
F1B
020
0D3
EFC
0E0
F79
FCD
096
0CD
FC0
F18
FAE
EF7
EFA
055
F10
F3E
06E
0EF
0B2
026
FD9
FB9
F0D
034
0F1
07E
0ED
F1E
0D4
F7C
04B
FE2
036
F13
FA3
0B7
F7F
F87
FEF
F35
07D
024
FB8
F7B
0E4
EFE
F2F
0E8
0EB
072
FAE
07E
0A4
085
F45
0A9
FE2
084
0A7
019
0E0
095
F65
FB2
F8E
094
F0E
F24
F3A
FD8
F14
F11
F21
FA3
F05
0BA
FF3
0C3
F50
F6D
09E
030
FED
084
FBB
01F
F62
0C0
FB0
054
0F1
F46
038
043
02A
F9A
F51
053
084
020
0ED
0CF
08E
070
079
079
00E
09F
F83
0BF
F93
063
FAE
07E
073
00F
0F1
006
F8E
01C
FDD
F18
F5F
06B
F3A
F2B
F4B
F53
050
01C
F5A
EFC
F9F
0EF
F87
F72
FD0
F63
F72
EFA
FC1
0DC
089
0C5
FCF
F0D
0DC
FDB
FC9
F41
FE1
F0C
F29
02A
038
0DA
005
EFB
0EF
0B6
0A0
FFF
FC8
0F5
F78
F30
06D
09B
046
F49
092
FC1
F8D
F1A
098
044
0CB
EFF
F81
F26
F30
F19
0E3
F84
F42
F55
03A
051
FB9
F1A
F37
071
079
0A3
011
096
FDF
F14
037
F6D
07A
FD9
F10
042
FC9
005
F1D
FB4
043
0E0
F87
0D5
F94
01D
09C
FA7
FCB
0C2
F32
0F1
0CF
F8B
0EF
009
F13
FF0
FA4
F66
F87
0DD
0CA
0AF
F84
FC9
FD6
FAA
0E7
01C
F74
08B
F14
06F
02A
F3F
F63
07F
F33
F4F
0B7
0BB
F6C
03F
012
FCD
F83
F6A
FC9
037
FE0
F71
08D
034
06B
F89
F22
F09
07F
FAB
F2A
FFF
0C1
FAD
EFE
0CF
0DB
FA5
02A
FBB
F3E
026
F0C
0D8
F45
04F
F0C
F69
F53
FBA
FF1
F80
06A
FB0
0A4
F99
FB4
02F
042
F0E
F13
F44
0D6
EFF
F2F
0E2
EFE
F7D
F23
0D2
0BA
F68
F91
F0C
FF9
060
0C6
F43
063
F12
08A
005
FBD
0B9
06B
EFB
F1E
F55
0ED
FB6
F3E
FAE
F5B
FED
FBE
F84
F66
036
00E
FCF
032
079
0CF
F0F
0A7
02B
077
F0F
F21
F95
00E
014
F0C
F02
086
09B
0A0
06A
FB0
04A
006
008
00B
09F
0B8
0C8
FC3
FCE
F5F
FA5
FCB
FF1
F53
01C
FE7
F7F
0BC
F5C
05C
F2A
0DC
F38
008
0CC
079
FDF
07A
F00
0A3
072
038
09B
018
FC3
F2E
FE8
F97
081
03A
0A7
F4F
FF4
0D1
03C
050
044
F0F
013
EFC
FEC
F77
06B
FC9
F7E
F3B
F8A
FF2
FFD
FDB
FC6
FB8
FD3
F87
0EC
066
0EB
055
FF7
F40
068
0F6
F42
0CF
FF2
02A
F81
F41
FA7
FDC
0F0
055
F67
008
F92
FB7
FF6
F9A
02A
F8F
09C
F55
FE9
0EE
F4C
0A0
F40
F78
068
F98
04E
F52
024
F85
0A6
061
F8F
F90
EFA
FD4
023
047
0DF
F19
0F4
F1A
0F2
03A
0A2
F9C
F9A
0B3
041
F91
FF7
FBA
0E3
077
FF4
F1F
FD5
0B3
085
F81
0DE
F7B
F22
0F5
078
F70
059
F0E
096
F15
002
F35
0D1
0FA
F2E
F7D
FB6
0A4
02C
F38
04E
0BD
F0B
F8E
0B8
FF6
01C
F85
F77
F93
FAA
FB5
F03
011
FBE
0B2
F76
F26
F6A
0C8
074
053
FE3
0D9
0EE
F5B
F7B
057
F9D
FE2
0A7
FEC
05E
015
F34
0E5
03F
051
F50
01A
0C1
FA2
F16
074
00F
0C6
071
F3D
014
0D1
FE3
00A
F16
021
01A
F61
0A7
F97
F02
0F7
07D
FCE
09F
07D
0BC
024
FE4
00A
F91
F62
F40
F46
FFE
013
0E3
FF6
08A
F06
042
FFA
F59
F48
08A
FD2
F1E
F8C
F8A
0A7
F98
01C
034
039
F19
F9A
FDD
008
03A
034
09B
FAE
019
F02
F66
F31
F73
F8C
0CE
FBB
084
04E
0D5
F7C
0B6
07B
F36
F10
065
F7E
097
0C5
FDF
F24
F45
08A
FC7
0F7
034
06B
032
027
FBF
F90
FB5
08F
FBA
FFD
0EB
0CA
04D
F37
004
F2E
0F3
051
056
0C8
09B
F31
FD8
FE6
F77
F0D
FCB
0B3
EFF
FB1
013
069
F5F
FD8
02E
07D
03F
075
F10
0A1
F82
FED
08C
007
0E5
F48
0F7
0C4
0C0
0B8
0F3
FC5
FAB
042
F9B
FE8
057
08B
05B
0D0
F13
F6D
075
01E
0BC
F9F
FF1
022
F30
FE4
F70
F67
096
03C
041
0A8
F3C
FD5
FBF
F3A
F3D
FC5
FD8
03F
F85
014
0F3
090
F2C
047
029
02E
07C
0DC
0AB
FE5
01D
02A
0A5
F59
0B9
FF5
0F8
FFC
F6C
005
FB9
0C3
010
0B4
FF2
05A
F7E
F36
FD1
F6F
087
097
FEA
F54
FFD
FCF
002
06A
F55
022
F52
FAD
045
FCB
F71
F5E
F24
FFF
02A
F77
040
078
046
034
048
F9D
082
0A5
F93
F66
F25
F86
FC9
F21
0E0
010
F3D
FFF
FAB
0A9
093
F40
FAE
0D1
F0A
F01
FA2
08C
FB1
033
0A8
0B5
F98
F0D
065
080
097
0E3
FB2
F20
06A
0E6
02A
F7B
F8A
F18
F36
097
076
00F
F10
F06
F64
F09
078
FA7
025
064
FA6
F84
FFC
0A6
FD1
0F0
F4E
FBD
006
007
0C7
F6F
F5E
036
0B4
F40
016
F7D
FC3
EF7
F13
F45
F55
FE7
FCA
F26
004
EFC
F60
050
FA3
007
041
05D
05C
031
085
FC2
092
099
070
09A
F54
FCC
098
F62
F1D
FAE
F17
EFC
F9D
089
F9F
FFC
F20
F8A
F0C
FB8
0C1
F00
09E
F02
0F0
00E
0F5
062
FE0
02E
F57
FB5
FAE
F1A
F61
0B5
F1D
0E3
0D2
FD1
FF4
EFC
033
FD6
0C4
F69
F5E
045
F1F
0D5
0CB
07A
04B
089
F65
069
F5B
F18
F29
0E8
F66
FB5
054
FF8
F1C
077
F9D
FB7
0A8
07B
F7F
FCE
F48
0F2
0EF
04A
F91
F2C
0DA
F29
F15
0BC
0F4
02B
073
FE3
F5C
02F
0C5
0E8
F37
F80
F3F
FD7
093
0A8
F45
FC1
03A
0CE
FF3
FFE
F5B
FF5
00E
F74
004
030
00E
F45
FAA
F50
F7B
0A1
0EE
F53
088
07B
0AF
085
F03
0C8
F24
FEB
0D7
025
F81
F6A
FE4
0E4
F17
05E
00C
094
0B8
044
FF3
0E8
F44
0D9
032
02B
040
F71
FE6
FE6
062
0D7
F9C
0AC
01C
007
FBC
F7F
FED
F4F
F3B
F85
F1D
FEA
F5C
F79
FA8
022
FD8
0A3
F0C
FA0
0B7
0CD
FA6
04D
021
F88
0CD
FDE
F31
FD9
F5A
068
0B7
094
0BE
F2A
009
050
F86
0A3
087
0F7
F00
04D
F8D
F0B
085
FDA
08A
046
053
048
095
0F6
FFC
F2A
0DF
FD8
09E
F5C
F0C
00D
03E
0F0
09C
0DA
081
F4E
04D
025
0A9
06B
FF6
000
078
F69
F35
F41
F56
06A
0EB
F31
FC4
F9C
040
F5B
0A1
071
FD0
FB0
0B5
09B
097
FB2
F80
FE6
054
F8A
0C7
F7D
F80
F66
006
F8E
018
EFD
0D3
0D4
F89
F19
06A
0F3
F3F
0D2
06F
F40
F56
FE3
F76
F3A
014
F9A
F71
034
F1E
FBB
F03
FF8
0CE
0E0
0EE
F5B
F7C
F4B
F25
F04
F08
0CE
F34
0D4
F63
F8A
F36
F9B
F4D
FC1
F1B
0C9
058
F8B
06A
05B
006
0C6
FFF
069
090
FBC
090
F27
066
F68
F36
0CE
F9E
F6E
FB6
F73
F24
FFD
022
FDD
F66
09C
F75
FD2
051
0AE
F43
089
0AF
0B8
F39
011
007
006
046
F04
024
F1F
0FE
F08
F08
F73
F58
F41
0E9
F2C
07F
F2C
021
01F
F16
F57
FD0
05E
FAD
F20
034
0D7
F48
F67
0D1
0ED
FE9
0E6
FAA
038
FC3
FF2
0D7
078
FF6
FF3
084
F79
FCD
FFD
F75
FD6
01B
F7C
0ED
F2A
F8B
09E
FC2
F9D
F83
FFB
F80
05A
F85
0E7
088
F28
F19
FD2
FC5
FD6
044
FE4
F5E
0D0
0E2
0D6
04A
0DB
085
F54
0E0
FD9
F87
FD0
FE3
06B
F15
FF7
094
F2C
F7D
F94
0BE
0B7
058
084
096
00A
F12
0EA
F41
0A8
08E
F27
FE1
07C
0E4
F08
FBE
FB9
06C
023
F4C
010
FB5
08A
0A0
070
F7B
03A
054
091
F37
0A3
085
0FA
FA2
FDE
F66
F4F
FDF
072
FC3
FDA
FE5
0D8
F35
06A
067
02D
F01
FCB
060
094
FB2
F6B
011
F5E
0BB
064
F5B
F37
01D
0DD
FDE
0D4
F78
FB7
F6D
046
F8D
FB9
FA3
078
F76
08D
F90
09B
06E
F83
F14
0A9
F2D
FA3
FCD
074
FC9
F3B
FE6
0D1
F25
FEC
F17
F7D
FDD
038
06B
F9D
078
04C
09A
04E
062
01E
FF5
FD7
0D0
EFF
0CA
FD1
F1C
01F
044
F3B
F83
0A3
0E3
05C
0F6
FF0
FB0
F26
EF7
FCA
F3E
F31
F50
F20
001
FDE
FEE
FBE
FD1
FD9
00B
026
066
05A
039
FD9
F3A
030
098
01E
0E3
08F
F91
073
01D
FD4
02A
053
0F4
096
0A2
F91
054
FB9
03E
0A7
FD4
01B
06C
0F3
F49
F6E
F8B
024
FE9
027
F2E
064
0D9
0EA
068
F79
063
FC4
FA1
FB2
F41
091
FD8
00F
FA3
F9B
F31
05E
067
0DA
FF1
F0E
0CC
0F0
F4E
F27
F1A
091
0C8
058
F0A
042
FBC
FE4
05C
084
0E8
F2E
F10
F53
F30
F57
0E6
F33
F1A
0CA
F69
079
0E4
0D9
07D
07A
FD8
0C6
0EB
FE2
F29
FA8
0B7
F0A
100
F96
F80
00B
FC2
FDD
01A
0A6
002
037
023
0E3
FC1
FC9
028
F56
052
F02
F7D
F03
0CC
05B
FCB
0F3
F8A
0DE
060
FCC
FC5
075
F1C
01B
F7C
020
FF8
F75
046
057
04D
083
F91
034
F6E
FCB
F67
07A
0CA
00E
0C0
FEA
0EA
F09
FC5
F27
041
FC7
FB0
05B
0F4
F5D
0A1
0F2
FA8
F78
FC3
FD2
02E
FA6
081
0A5
0A0
0E6
FCF
F45
FE7
FA2
013
F44
0DF
F7E
F56
05C
051
FEF
099
055
F62
F1F
060
F34
F99
003
01B
F6A
073
0C3
028
F7E
0EF
FDF
0E2
093
0BA
075
F28
074
021
0C2
055
F36
05B
FEF
093
F53
0A1
F71
F43
03E
F26
080
F82
F12
FFF
0D9
FC8
F0A
080
053
F14
F6D
064
0D3
F6E
F80
0DF
0C6
F78
0B2
0D1
0CA
FF2
0E7
F84
FA3
03A
08F
FAF
044
F38
F55
098
070
FE8
0F3
F26
0AB
F3B
072
090
06C
0E7
004
FAE
FA2
F5A
0D1
048
F60
022
013
F51
03A
0F7
010
FB4
FE2
F71
F3E
089
0DE
FF7
00E
F83
022
093
0C3
FD3
F43
F5E
09F
F09
F7A
0FC
FBD
FE4
042
F06
028
0AF
052
FFC
F19
F3B
FFB
033
F16
00C
0C7
F6D
04F
FBD
FC0
0B5
FD4
FB6
FC1
0B1
095
04A
0A1
FFC
035
0BA
03A
006
07D
FCD
F62
FA5
044
FDE
F50
011
FEE
0ED
FDC
0D4
00B
026
F40
FDA
F66
054
FD0
008
FDD
080
0DD
09A
0B9
0B9
095
FEF
010
0A5
F16
0F1
F4A
0C2
F7E
06D
FF5
F60
022
F5A
F69
049
FF4
098
044
F07
FBC
0F7
0EC
FB5
F16
041
F95
F86
014
0DC
F44
08B
FEC
06B
F5A
0C1
0E3
02C
F4D
0E1
062
FC7
FAB
073
082
EFB
F3B
07F
099
F13
04C
F4D
FB5
F01
F80
F4D
FFA
07F
FE5
017
F9D
068
0DD
0AD
FFA
0C6
FD2
0FD
088
F6A
091
0A3
FB2
06E
F33
06C
04F
044
0A6
F3A
F73
05C
074
FBB
F78
FB1
050
FE0
0D7
064
FAB
F14
03E
FE2
F74
F5B
FB4
F87
FBB
FC3
0A8
091
0F4
F31
F59
0E4
F5D
0F0
0D1
0E4
082
082
F51
F2F
0CC
F5E
F0A
075
027
F27
FA3
F08
088
030
002
FB6
F1C
0B7
FDD
08E
F59
018
F21
FEC
FEF
043
0EB
0B5
FF1
FCE
FC1
0AB
0B6
077
08B
F3B
071
099
F37
F05
F69
0C3
024
F12
088
F71
FE2
F94
FEF
029
F01
046
F92
08A
08E
042
FD6
FDD
FEE
FC5
F9A
F6A
008
F1B
0F6
F92
F8F
0E5
F69
0A6
016
FA5
F17
0AF
065
0F4
076
FA0
0D3
0E0
F58
FF0
FEF
FC4
FE3
01C
FE2
F15
FB3
F24
F82
0C4
005
FA7
0DE
F34
09D
01F
074
041
09A
F4E
015
F74
F67
F3A
FC4
F41
F9A
FA4
F7B
FAC
F57
056
FE6
F02
EFE
0B7
061
0A0
0A0
0DB
FB2
03A
FE3
0E3
FFC
FF4
F05
FB1
034
00D
028
0CD
F3F
04B
F06
09C
F99
F34
0EC
F67
025
08C
03C
FC4
F62
0F6
0AB
07A
F57
F9D
FA1
F56
FDC
047
08D
F99
0B0
04F
F07
EFE
F1F
09F
F8F
F93
FE8
0F2
FC8
0D5
F4E
F73
03A
016
FDC
05E
05C
0CD
03E
FDB
F06
02D
0B9
0B9
F46
FB1
FFD
F1D
0F6
07C
05B
07E
FD2
F37
0D8
F8D
07F
F79
F29
036
FD7
0F2
FBB
06E
F50
FC5
096
09E
060
096
F54
0B5
F5E
039
F62
F97
F18
0C2
0E8
0BD
0AE
FB7
F54
0F4
F80
08F
073
07C
F95
F4C
F64
08D
0EB
F2F
FFB
FB1
077
F32
0B6
0C2
EFC
F3A
FF2
F50
06A
023
08A
FFB
FCC
035
0C5
02F
086
080
007
F74
FD5
074
FF4
FAC
01A
FE1
07F
0D3
0B1
0D7
F60
000
056
0C3
F7B
091
055
F9F
FA9
F55
0F4
0CB
FF4
F81
049
F4E
F72
F77
0DD
EFC
0E3
034
FC1
025
07D
FA5
014
063
08D
F8C
05E
F67
096
EF8
F2D
084
FDB
FE2
F57
084
FFC
07C
F0D
008
F8A
F97
098
0E7
FF2
F8D
0F4
F10
FA9
FC1
07C
FB2
FBC
F2C
F04
FAF
FD7
0B2
F5E
FBC
F5C
FBB
F52
F69
F84
FC0
F1E
02F
0E0
02A
004
0B0
F08
0F7
028
F9D
F6A
0E6
0E4
FDD
F85
052
F5F
00C
0D6
FB8
042
FC3
F3C
09C
00C
073
04F
FB8
F7A
FC6
F73
00B
055
F8A
078
F14
001
F68
F55
091
0EE
F66
0D9
F5E
0C1
F84
F06
F9F
F9C
0EC
072
F61
FE4
F9D
F80
FE4
0B1
0E0
05A
F44
F82
FD3
0F6
049
072
0C4
01D
FBD
07F
067
0E9
F0D
F69
0DE
F7B
FD1
F3B
0C6
011
F27
FD9
F76
062
FC3
09B
F36
FA2
024
0A9
0A3
FE3
0B9
04A
F63
FDB
F01
06B
0C5
034
F54
F39
F2A
0CB
0B0
F4D
FE4
FB2
F15
06B
016
F7A
0C4
FD6
F93
099
F14
F81
FCF
F44
0A6
087
0D5
FD9
0BA
F22
0E5
F45
F7C
F6E
F43
0A9
044
F1C
F11
07A
F7D
F16
FAA
EFB
067
099
069
0E4
FA5
F1C
0BB
023
F41
F01
004
086
F20
0C6
FED
0B4
F70
04C
0D6
076
FC6
F68
084
066
F50
063
FB4
F36
FB0
00A
062
F21
F70
FD6
F1F
F68
096
085
024
FBA
068
082
0B3
0C7
F6E
0C3
F06
007
0A9
0E1
067
042
F7E
079
05C
0CA
0F4
010
F32
07F
F6C
020
007
0CE
F78
0A9
FD5
0DB
00C
0CB
FA4
FED
F9F
F18
F78
039
000
0C1
018
EF8
0BB
F99
075
0D5
095
FD5
0D1
00A
09A
FC6
F47
0BD
070
0C4
FA3
085
FE0
045
F54
FD9
FD6
079
F76
F15
0E0
076
F7B
FA7
F0F
0DC
F4F
FAE
00D
FE1
039
0D5
FE8
FD6
062
F11
014
089
024
F6F
F3E
089
070
055
F88
079
F9B
039
0DB
0A9
FB1
F8E
052
0D2
0F7
F58
F43
F90
064
FAB
024
0E2
EFB
F91
F2C
F10
FC6
FC6
0AE
000
0C4
FEE
012
04C
026
F92
F48
0D2
0A8
F09
FD8
F54
F45
FA8
04E
0FA
0B4
FD7
09B
012
FAE
009
F95
067
FC8
0AF
011
F7F
FC7
F6C
051
018
F01
073
F67
0CF
