040
00D
FEA
FF2
F6B
F23
059
FE4
FD5
06C
FED
FDA
FD1
F28
0A4
F9B
FFD
FD9
F94
F09
F69
092
F63
F8B
0C0
0A7
045
099
00F
FFE
0A9
019
FEA
FF1
0B5
09F
F08
EFB
F77
09B
FAE
04C
0AE
088
FFA
036
FD1
FEA
0A1
063
F6F
FC6
F9D
0AF
FEC
02E
F8B
0E3
08E
F9F
FBC
0BE
F4C
0BB
EFB
0AD
F09
05A
F5D
083
061
02E
F37
F44
0A4
0C7
FB7
FFB
FAF
061
FAF
F21
0AD
0BB
F7E
FEE
F7F
F77
F82
073
FB7
0B8
F73
FFD
FCD
FA4
F5E
02A
0A9
077
EFC
F78
073
FE6
047
FA8
097
FD1
F0E
091
FE0
F14
0EB
0A6
038
0B4
0C4
0F1
08E
03E
0CD
F11
0EA
F90
0D8
FD6
FAD
FFE
015
F61
F00
FDF
F6A
FF0
FC3
0E3
04B
096
0D6
004
035
FA7
FFA
0DD
F95
FE0
F10
F8F
F0E
0D4
00A
0EA
FF1
F9D
0B6
FDF
0E7
0C1
FEC
08D
050
0CB
063
0EB
08F
F5F
F43
0A9
F17
F9E
FFF
0BB
045
F8E
0EC
044
FA7
02A
FC9
01A
0FC
FAF
0B6
F8E
024
0B6
0E7
0C0
F1B
EF7
FEC
F2F
FA2
F3E
F3C
FB5
08B
F53
FB3
0D0
F18
017
0D5
FF2
064
0E3
00D
051
033
F1A
F83
052
0FF
04D
0B2
02F
0E5
F69
FF9
F8F
FED
0E2
040
05B
0A8
0F6
FD9
F93
105
034
0A5
088
0F7
F31
F15
049
0BC
050
F14
FFB
098
F87
09F
041
07F
038
FD0
F2B
FE5
F8E
0C8
FF2
F2E
F83
01D
074
F40
F44
002
0AE
076
FDE
FFC
EF8
097
062
003
0AA
FB3
F34
EFE
0DD
FA3
F48
F71
F39
0E8
F93
0F2
F35
F20
0A4
F4F
F8D
08E
0C8
0DB
02D
0B0
00D
F97
088
0BC
F66
04C
0AA
F2C
042
F93
FCC
0A9
F4A
FDF
F7B
0CA
093
F1C
FA6
FDB
FCF
0BD
0D5
007
F11
F2B
021
FCA
F07
053
FA7
003
F06
081
F37
0CA
045
051
031
F96
FE4
06C
0CB
094
07D
0D3
083
0AB
FCA
FC4
00F
006
08D
F96
FD0
03D
FCB
03E
008
F7F
058
0B6
FA7
0DF
F33
F54
0F6
FD7
F41
052
07B
01E
053
F6D
F34
FE1
F48
FF9
FAF
050
056
03F
FC9
0A5
0DE
FE9
F99
09E
FB0
01C
FC5
F65
F9F
EFD
027
017
08F
EFD
02E
055
039
F10
F03
068
05B
FE6
F08
0A7
0BA
F1A
05E
F90
04F
0A4
050
002
F50
0A5
F7A
043
022
09C
0B5
F59
F1A
023
F47
F93
0E6
062
0D8
0B4
094
0CB
068
FC6
056
F65
F5E
F9B
F38
F12
FB0
026
F33
FB7
FA0
F18
FD3
F7A
057
05B
F39
061
0E4
FA6
0DC
F27
F84
0BC
05E
02C
020
050
0A0
F7F
F54
010
09D
FD3
0B6
08B
F4C
F29
000
EF3
0D9
00E
F1A
0B4
013
F51
FAB
F49
FD0
FF2
0B8
FB7
0BF
FBE
F8C
F8E
F53
FAF
0C6
06D
038
0FA
091
FD5
F13
FCA
062
F9A
011
0C9
F6B
FDD
F61
0C7
0D3
007
F00
FF1
F7B
F64
F9E
F4A
F66
05C
037
037
F5F
EF2
FE2
F05
F7A
03C
F36
003
06E
0DB
0A0
018
053
09A
07A
FDF
039
038
F28
034
0F4
F9F
040
FE7
068
011
FFC
F40
FDA
0BC
089
04C
FA0
011
F8A
F3B
09A
FE3
08D
FF5
FC4
FCA
F8F
F8E
0B3
F29
012
07B
0C7
0A1
09A
044
0C2
04C
F3C
0C2
F0E
FCD
09C
0F0
0C5
FBD
086
05F
081
F6A
F1D
EFE
0BA
F94
EF8
0A8
FC8
059
EF5
F9A
F6B
0AA
EF9
F93
FEB
02A
08F
084
FEE
052
F58
05C
FE8
001
FD9
03E
0C6
0A7
0DF
FA5
0CE
037
0C5
F6F
07A
0D3
F5F
07A
0BB
08D
060
FFB
09B
043
F98
F67
F0D
0EB
F55
F1C
F36
FB8
F64
F8B
F23
090
006
0CB
F68
08B
07B
F89
F56
018
F0F
053
FBC
0A8
0EF
F0C
F93
EF6
018
0CF
028
FE9
08E
0A4
F9D
067
EF3
00B
0AE
024
FDF
0B7
036
0D1
F63
0DA
028
0A0
045
F6E
0F8
F74
F7D
F8E
FA1
0EF
0F6
F45
0B1
FA3
0EF
FAA
F7A
036
F54
0D3
F48
FD6
F54
F14
FD6
0D7
FDB
FE5
0E6
03C
F15
F2F
FE0
073
063
F7F
FD1
0C2
0E6
F3F
013
063
09D
0B6
FC6
FAD
09C
F0E
043
FE1
FBD
FB5
F8B
056
FAC
F46
F98
F57
FE2
FB2
090
F23
0D4
FDD
FC6
067
F9D
F30
0FB
F10
F35
060
0A2
019
F82
094
F76
F06
0A0
030
03E
FBD
FFB
FF6
F2F
0BD
0A9
FFB
04A
FEF
01B
FE9
080
FFA
FEC
F3A
F8D
F18
093
F04
00C
FCC
100
FBE
06F
FA3
F48
F82
0A0
F84
F31
EE6
051
F65
EF1
FEB
F8F
034
04D
F38
00B
F1C
FC5
FEE
08D
FC6
FD2
F70
099
07C
FF4
F4F
0F5
0DD
0FC
F59
042
F5A
FC9
FFA
FE4
035
01C
FA2
EFF
F37
F17
08A
00F
F31
07F
FD8
F34
F3D
FDD
F30
07A
F2A
0C9
057
0DD
028
FE8
F72
F6B
05E
FEF
F39
F3A
F66
F2A
FA7
03B
056
F5E
0B7
FBB
008
091
F9A
020
F8A
013
F85
05A
F73
0A9
0F3
FC2
F52
032
F37
067
FE9
03B
064
0D7
07C
01B
F2E
F9A
0F5
0AD
F20
FC2
FE2
0DB
061
FA7
046
FA4
0B0
040
FD6
F1A
F0F
F8C
F99
FF3
F98
009
0F7
082
061
014
F94
F4F
039
0ED
F8B
F9E
0B3
0B8
09F
056
01D
00E
070
F0F
F73
0D7
025
0AE
015
FD4
015
03A
FD0
F24
000
F0A
065
F3D
034
F7D
06C
070
FF5
FD9
FA9
04F
0AD
016
F57
F7A
F51
070
FD3
090
0AF
0A8
F9C
085
02E
F54
071
F43
F77
0CF
0ED
F13
055
0AB
F09
0D5
FDA
087
062
F64
0A8
016
042
F30
F15
05F
087
0FD
053
0CA
07C
F83
FDE
F0B
0B5
00C
F24
FAE
FD8
0BC
F21
094
F5D
03E
06F
FC1
FF7
0ED
01A
FB6
F93
F5C
09D
03F
F4A
FB5
045
0F1
0FD
122
001
0F7
FE6
0DD
0AA
F49
002
02B
F77
F19
F9A
061
091
F37
FA7
F7F
0CC
FD9
032
FB6
F66
F19
FA6
0F6
0A3
0B0
F7B
F7F
0AA
0AD
05F
064
055
0C7
082
F72
0C2
02A
0D6
0BA
F85
07C
052
F0D
FE6
F1A
085
0D3
0BA
065
F23
FE4
0E6
081
F64
FEB
043
080
06B
F0F
F4B
064
0FD
00D
123
FAF
09E
F43
06C
000
10B
F3F
06D
F29
F65
F13
081
0CE
0FB
F43
FB5
F4E
F80
FD0
001
FA5
FE1
F89
009
FF1
0B4
05D
F78
FC4
07F
08A
052
105
F6E
F05
FE1
F1F
F41
04D
03A
0D2
F45
0F5
024
086
078
040
056
0A1
0EF
F98
021
009
0D0
F1F
FF6
F39
F9B
012
055
F74
F03
F90
10E
FA3
FD4
08C
FF7
F6D
0D9
FEA
041
0EA
030
FC1
085
06A
FE1
0F5
FD9
102
0A3
F78
0E4
FE9
01C
08F
FB9
FFB
0F6
07F
F84
F1C
F71
0EF
101
F95
0A0
072
FB8
F94
019
FE4
F4D
F51
F93
F62
FF2
F83
0A9
0EC
104
F4D
FBF
F8B
0CE
F2A
F20
016
0AF
F84
FAC
03A
FB8
FE9
0E1
01A
F8C
FA4
0F4
F1E
F9F
F6B
02B
F6D
076
F40
0B5
FA1
FD5
08B
03A
072
F59
0A0
F92
104
F7E
0DA
F1A
F26
017
F4E
FAB
F6D
F2F
F43
089
FB8
0BE
FA9
059
0A8
FD0
F12
0B5
0D9
FCE
FF4
051
08C
FCE
0CE
04E
00F
FB8
F7B
010
FCE
000
FE0
0CA
0BF
FC5
FE8
F03
EDF
FD6
FAD
09D
F1B
FE5
08B
056
FE6
F9B
F8D
05D
F47
FBC
F21
04D
FE9
F37
FC5
F20
06D
F3A
059
FEF
0DD
FCF
F96
0C4
FCD
F72
F2A
040
FC5
F80
FF4
07F
F94
0D4
0AA
0BD
FAF
0DC
0D0
0D2
F72
FFF
0AD
F37
FDF
068
F46
0C6
0F8
0FD
F8E
FCC
F3B
F26
F58
0E5
FAD
F64
0DB
001
09A
0CE
FFF
F31
0F7
F99
009
0FA
F52
FC3
001
F5F
FD4
F95
057
F4E
09D
0CC
03A
0C3
0B0
F3C
F9C
08E
009
09C
F92
0E4
0E9
F7A
09F
0BA
022
F99
0E2
F6B
01B
0E3
026
F32
FF4
F45
F72
054
FCA
0BA
F62
102
FEA
F1E
FAA
F91
074
0C8
0DB
F26
FF7
042
0B2
F49
01A
F20
FC0
FFC
F41
FAA
055
F16
00F
F2B
FA8
FC9
F6B
FA4
07F
08A
F80
FBF
F73
F33
F7C
F5A
F89
071
F28
093
F5E
FBC
F8F
F2E
FA0
F8E
FEF
F50
07C
F6D
076
079
06B
FB7
07D
F29
FC4
00C
F63
057
01F
069
F44
FE5
01D
0B9
FE3
06C
041
FB5
11A
00D
FEB
08D
0BE
070
02A
01B
0E6
04D
0B4
F3D
FCE
0AE
F8C
FFD
01C
075
038
08A
F23
061
F47
F42
F58
FA9
FED
F5A
F97
FFC
F09
0F5
058
F7D
FE2
0E7
003
F4A
FAF
F85
0ED
0A4
F35
0E1
F8F
0A7
FAC
F39
FF7
04A
0A2
043
05A
077
F9C
FB1
0B3
01A
0FB
0F8
F53
099
FFD
F23
097
FDD
F52
082
084
0C8
02D
FB5
068
FD9
070
F6B
078
F04
F2B
044
051
005
0D8
FED
FF9
F48
F8D
FA1
0DC
F2E
071
0E6
063
09C
07D
017
0C2
F2D
0E8
F9B
F5C
FCF
106
FB6
0F9
FC2
F56
01E
F93
088
F82
FA5
F2C
F1A
0F5
FCE
0E4
F71
0B9
0E0
F95
F7D
019
F4B
F3A
FF9
FB4
F75
F47
0F0
F64
09B
0FB
052
02D
F42
F5E
FC4
00E
017
F2A
EF4
F3B
FA1
060
110
02E
FD9
0C7
FF2
108
095
0BF
055
F5A
FB7
0F1
FDF
0E5
0C0
08F
053
FA1
F54
F4F
00E
071
0AF
FE0
0FB
FE1
05A
0CD
0A4
069
F5E
0E7
F88
0CA
FE0
F83
FA9
0DC
FA3
F4C
F78
FF2
0E0
FC0
FD5
F71
F13
07F
0A0
F2D
F5E
FFB
041
F80
FD5
005
F20
0A0
0C1
0A9
0C0
F59
03D
02D
FD2
F19
F44
0F6
0A1
083
039
0E5
033
071
FBE
05F
F95
0A9
019
FFB
F81
F4E
0B3
07E
F73
F8E
F2B
008
F6D
F5C
0A7
FB8
FA3
FD6
039
FBA
F30
F7C
015
F9F
F72
07B
FC9
F04
FB4
0EF
032
FFD
083
0B5
0AB
0C2
0AA
F23
FF5
F54
056
046
FCC
0CB
F4F
F34
FB9
F10
F3A
F5F
FA2
106
0C6
0F7
FE6
0AA
F74
F51
0CA
F69
0A8
FA2
0F5
079
035
059
F7A
FB3
0CC
04E
F2C
FE3
FB3
043
FB7
094
0D7
F60
FC9
0B1
084
FB2
FC7
04C
04E
F76
00B
0D9
0BB
FE9
0C9
F2A
08F
00B
F3A
F9C
FE3
FEB
FE9
042
0FF
0EC
01F
0AC
0B9
0E0
075
125
0E2
F94
FC1
F65
03E
F01
0D0
FD9
085
F46
F97
FE4
0CF
0A8
FD1
0F8
F81
F1F
FAC
05B
FAA
004
0F6
06E
F79
F36
F6D
FB9
F7A
F7F
F88
F1B
109
112
0E0
FB4
FA9
FE1
051
053
032
F53
00D
FBE
FD0
08E
0A9
F36
F63
078
076
F0B
07C
FD5
04A
03E
FBE
F78
0DA
FB3
0EB
129
031
FA0
08B
F71
055
F1A
092
FF6
F33
FD7
04E
01E
0E8
0CF
0A3
F4B
05D
0E0
0FA
F06
F4F
F22
01D
05A
FCA
F8B
030
022
0D7
04B
020
0E6
F3B
0FC
F12
F5F
054
F6A
040
F5F
000
FF5
F25
052
FAC
F53
111
0C7
0B6
F86
F3E
FA2
049
03A
073
FEA
FA0
0BC
FB7
0EF
F76
01C
F4D
0D8
105
070
FBB
FA8
EF5
02C
0D5
F83
02D
F96
09A
F40
07B
0FC
F45
F09
F95
075
F12
F3A
045
0E8
0B1
05E
04C
FE3
0A1
0FA
0A2
063
00D
FC8
032
FE3
0CB
098
FD7
F9E
019
079
F1F
F8C
07A
0EC
101
FA2
F4E
008
093
0C7
038
04F
F25
00F
089
0CA
FAC
096
045
0D5
F60
F9E
02A
0E7
081
0B5
0B9
FC9
0E1
01B
04F
FCB
F6C
080
0F2
097
051
0EA
FA7
F5B
FED
FD5
086
08E
F36
072
05B
F9C
005
0E2
F74
047
F1A
09E
F87
02D
05F
F2B
F65
F24
F16
076
0B3
FFF
0CA
005
FA2
035
108
06B
0BA
026
F73
05F
0C3
FBA
05A
F66
F41
FD2
005
FAF
FEE
F50
09F
00E
0B0
F09
05F
FBF
003
FA5
FF1
F24
005
03D
0A6
FE4
0D6
F19
041
F5A
FDF
FE6
F10
F14
EED
0B3
F40
F49
08E
0A9
FBB
07E
F89
F3D
F16
0CE
F3B
F3C
078
0A1
0B9
FC7
0C9
F55
F28
090
029
FCC
01E
F4D
FA4
FF0
F89
F9D
FEB
F3A
06D
F3F
06C
FB4
01A
EFE
F83
FA5
F3B
F98
F35
098
07A
EEB
F9B
FBA
FF1
032
FBB
01B
F16
F47
016
F5B
0CA
FEE
0A6
EE6
FC1
091
EEE
F82
046
0BA
0D3
FE3
EFD
09D
F85
FA7
098
0BB
049
05F
F38
F5A
0C7
03E
0AB
0C8
0D2
F91
05E
0B5
FBE
FD8
004
005
11C
0BE
003
0CD
F8A
060
0AD
FBA
00F
F25
F3E
062
F5E
03F
0F0
F77
FE2
FF4
FEB
FAF
F81
046
0D7
0DD
FF1
055
05C
0A8
FFB
F82
F64
F8D
FAD
F1E
FFF
05B
F39
01B
04C
FD4
F76
0DC
093
FE9
0CE
FD6
F52
057
041
04C
F6A
F21
09A
FBD
0EF
F24
FB2
0C2
073
086
095
F5C
0F7
FF0
125
004
090
F15
F23
F0C
0E4
0D1
F96
0A5
068
FBC
0B4
0C4
0CF
00A
0BD
0DF
F95
0D3
EF5
FBF
07E
009
F7C
05B
ED9
FB3
F91
0D1
010
F9E
F47
F59
055
F9A
FA6
F08
F4A
076
050
0D0
FDA
F0C
F5D
07D
083
F91
08D
EF9
F87
0B4
026
F72
0CE
089
100
019
00A
FDD
FE9
FAF
067
F9C
F4D
FF6
F4F
095
00E
FAE
0E8
FF7
F96
F2F
062
F51
F25
0D9
F63
FC2
031
0B2
039
0E4
014
FB3
08A
FF7
F41
00F
088
0DF
06D
FB5
075
F6B
FEE
F29
F1B
FA4
FCE
089
0A2
F8E
049
0D2
F9D
0AF
01D
FB2
F50
005
FB0
F9E
004
FE5
F5B
F9D
F3D
F96
0EB
F6D
F6F
F64
F1C
F9B
073
F6B
F61
081
F24
F4D
09A
043
03B
07C
FCC
000
004
046
FF4
F8B
07B
FCE
06C
015
EFB
0CB
FC1
062
005
004
0BB
0B0
FC4
F95
F68
FC6
F85
0B5
F23
EFD
097
FDB
F99
05B
03F
F46
F52
F44
FF4
09C
05A
060
082
0D1
F88
022
F45
F1A
0B4
04A
F58
FE2
015
F4F
06D
F18
F9B
0E5
F6E
F0F
097
004
0CC
047
F9A
0DF
F87
0D8
0C2
FD3
03A
0CF
0BC
09C
FE2
FFE
EFD
00F
02C
FCE
F1D
EFA
F84
EFA
024
06D
F87
054
082
F1E
F45
EF4
01C
FEA
F09
001
FB1
035
FEE
07C
038
F28
0DE
FE8
F71
00C
F6D
F17
0E4
F20
0AA
0E9
019
008
FCC
FF5
0A4
F41
F07
FF3
F1E
F39
08B
FDF
090
086
00E
FC1
FFC
0DC
0A4
0AA
FDD
F32
F82
F67
08D
F9F
FBB
033
07A
F66
F0C
F5B
F8C
004
F21
FED
0A4
0BC
F95
008
F79
004
0CA
055
F43
F72
F19
F87
FD5
EFB
FAB
040
009
0AE
F54
F75
0D4
FF0
026
F7C
FDF
075
EF4
064
F3F
0CC
000
10A
02F
F37
093
FB0
FB4
05B
000
010
01A
063
FC1
FA3
F2A
F4F
0EC
096
03C
0A8
020
FE6
F09
F17
F7A
055
FBE
F78
F32
075
0BE
F7E
F71
0D6
EF5
F69
EF4
089
F80
F66
FFC
FB9
0D7
032
F67
F89
048
01B
005
F38
F9B
FFC
FF3
F5A
0E2
082
0B6
0DF
F6C
0E4
F61
0BF
FE2
02A
FAA
FB8
F37
FD9
F46
F3C
F6A
076
0D1
06C
034
FB4
F5F
01D
F82
F45
F46
019
F6F
0DB
0B0
F2F
FE5
F19
F5B
041
0B5
F0E
EFE
087
F9A
F05
08F
FCB
F84
FA3
F15
034
F6D
0C9
F8F
099
0C2
FE2
F5F
03B
FBA
0E2
FE4
F2B
F03
FD8
0C2
084
FE8
F30
FC8
F56
040
077
F17
030
FA0
060
095
FBC
0E5
01F
FBD
061
0B4
037
0AA
FF6
0A0
09E
08D
F7B
FDB
0D3
061
F21
0EB
083
FED
02C
F7C
F30
0B1
F33
08E
F95
00B
F8E
0D5
016
FDC
F9D
0CF
F7C
04C
F36
011
F2A
EFB
F1B
009
016
F16
00F
EF1
F1D
066
F00
FFD
08E
F16
FFD
093
F3D
0A3
FBE
0DB
FAC
FFC
FC4
07B
F9F
075
FA7
F47
041
027
FF7
F60
FB7
08A
020
FC0
FAC
0DC
035
F0F
094
FD3
F61
F3E
006
008
F15
FAC
0C2
F56
FBA
0E8
F5E
084
F4B
FFD
F4E
FD1
EE0
F35
0AE
0BF
F74
F4B
F6A
FCC
0C8
0A7
00D
FE7
0EA
09D
06B
F26
0EE
F9D
076
044
F81
067
0B9
0EA
FE1
06C
031
FCD
074
F9E
FCD
FA5
FB8
0DE
F95
FAE
02B
FFB
059
F63
F91
F4C
0EE
F44
F1E
FE5
0BF
F1C
FF2
08B
08D
F49
0AA
003
FB1
F39
031
F08
053
027
046
01C
FEA
FF7
0CC
FDE
F87
EEE
0D7
EF3
0A5
F15
F8F
04C
090
F50
027
F3C
FFF
FD9
FEF
F99
FD8
FFF
FC2
F29
F60
002
04E
F99
F48
F08
05C
0DD
053
F3A
F84
01C
FE2
F52
FA0
FC8
0D4
0C8
0FD
101
F12
033
05D
061
027
F36
0DC
F9C
FF3
F23
F13
F1F
024
0B2
FEA
0E1
098
FC3
003
05E
F75
F08
086
F8E
F18
08E
F61
02E
0AB
05C
F3F
0FE
0D0
F4A
F80
0A8
074
FEE
EFB
EF9
FD2
FC9
08E
0CF
084
010
F9E
0DF
FD3
007
081
F92
F9C
102
F44
F3A
F49
038
F27
070
F99
F51
F97
06F
02D
001
00E
F8C
019
F62
F1F
05C
FF9
EEB
FFD
F68
028
0F3
061
0D1
0EA
0F0
010
EEE
04B
FBD
025
F10
F7B
FE4
F3F
01B
FC2
0A5
050
FC0
FC4
FDC
06C
F91
0E8
0B9
0C6
0E8
FE9
09E
FE7
F27
F31
0AD
00E
0CE
05B
F41
F69
F29
084
0E3
F9B
020
FE2
FEA
FF9
058
09D
003
025
F8F
0EC
F0F
0C2
F6D
F10
07E
0C9
080
04A
F1D
F6C
09F
013
F05
048
00A
050
FF0
F08
EF4
F20
0A6
0AF
FDD
0B4
F7B
0B9
FE6
028
F22
F5B
01B
0DE
074
0DD
F52
064
F2B
0D6
EFC
FBC
F22
039
F77
F89
090
F66
0D8
F93
004
0CA
F39
F4D
03B
F46
043
FB3
FF1
078
FC7
FCD
084
092
017
F18
09A
F1B
F11
07C
018
FF0
04B
F51
013
FE0
0F0
F26
0F0
019
FC0
F7C
F4F
FCA
00E
FEA
06E
03A
FB6
F4C
00B
FC4
02E
0B6
102
0A9
000
0AB
10E
FC1
F2B
FCE
FC6
061
08E
F24
F90
F87
0F6
042
04C
058
FEC
0DC
01E
F7E
034
FBB
F86
06D
0EA
081
FD7
FD6
F55
F18
03E
0BB
F1D
FD8
F74
075
04A
F56
FDB
0E7
F82
F9C
FAE
0DD
FB8
0F2
FDC
043
084
F81
099
FF4
F73
FCE
0E1
FA6
F7B
F54
0E5
06D
0EE
067
FC2
F32
FD9
FD2
F25
F71
FF7
FCE
0C7
FAF
0AD
0BF
009
0B6
0CC
02F
01F
FFF
F09
F78
06B
05F
FC7
F6E
FF9
08C
F7B
F87
F4F
064
0EF
F1E
F1E
044
F9F
FB7
F75
FD7
08A
F95
F89
FCD
0A9
FF1
FF2
F2E
08A
0D1
F26
FC9
FF4
026
0B6
FFC
0D6
02A
090
098
0B5
108
F28
FBE
F96
FA7
F5D
F25
052
018
071
03E
100
09B
F31
F82
F63
01E
FD3
0A3
F51
005
0C3
F71
0F2
0F1
F5E
F21
0E5
05F
FCB
FAA
0B1
017
F72
FF8
F50
0C0
01B
F48
F4C
FEB
0BE
09E
073
F1D
F27
01F
0DD
F82
0D3
F3B
062
033
F1F
FA9
0C1
F50
FBC
062
FD3
097
049
009
FB3
FB6
FB4
0D7
FF8
0F1
041
002
044
F87
0B9
FBF
FB1
0D9
FE7
F7E
015
0CA
018
04D
0D0
116
FDC
070
F65
00D
04B
0F9
F37
095
0BE
FE7
00D
F76
010
07D
0B8
F89
011
F1D
0A1
FFB
F94
0AC
F50
F91
0B2
FE3
FC0
FDB
097
02E
050
0F0
028
F23
0B1
0CB
F3B
F47
026
076
F0F
005
02F
0FF
F69
FA4
053
FB8
03C
042
0C2
F81
08F
03A
F49
FB6
05D
09D
F2F
0D6
08A
F34
F24
04E
F42
0A6
0AF
F78
F24
F3A
00A
05D
F17
04A
0D7
FCC
075
F84
0F4
F3B
06C
057
FCE
064
033
FF5
000
F9B
F55
F94
F54
066
FF1
0A8
0E8
05A
0C7
0C3
FA5
09C
F27
040
F72
F83
FD6
FB5
09E
FE0
0A7
F26
0BE
018
08A
FCD
092
FD1
05B
F7B
F79
F55
FB6
F1D
F2A
019
096
0DB
F36
F50
10C
FDA
FE5
FB5
033
010
F5A
0F9
FB4
070
FD1
FD2
F24
05A
FDE
0AE
FEB
0EA
F66
0E6
0E5
0D0
F80
071
021
F0A
03B
FDF
0F3
096
02B
09E
0EA
F32
FE8
001
FF3
FE9
0E0
F03
0AF
066
F81
F4D
F18
05B
FE5
FDA
069
076
045
068
FCA
0DF
014
036
F88
0EA
F69
10C
109
FB1
012
021
095
F64
00E
064
FFB
F9B
058
F2D
F8B
F7F
047
0E6
FF3
00C
0DA
0D4
0BD
0CB
F34
09B
0A4
086
07A
F7F
079
FE2
096
F3F
05F
FAA
F51
F78
FFE
024
FF9
09E
018
0A5
0F7
FF4
FD4
FE7
FDB
F18
F18
F0A
0A1
084
070
0F7
09B
09F
F85
FF5
F1E
010
F2F
FB1
096
FDC
021
F45
017
011
F9D
017
F9B
F2A
FBF
F48
F32
F93
F20
F28
031
098
EFE
F3C
F8F
EF7
025
F4E
02E
04D
F3C
F20
088
066
FC6
FF8
0BC
031
05B
0AA
0B3
F3E
F2F
F08
031
F21
0F7
F29
F7D
FED
F57
FE3
003
0DC
039
F55
077
FCF
F86
041
0B3
F9A
FE7
F87
06A
000
10A
102
082
0A7
F2D
FE6
00C
FC7
F31
FBA
080
011
0D2
FC1
FF6
F2A
F81
04C
0EA
031
093
03A
F44
0D0
F89
FE1
F29
07A
F41
F86
FB3
F3A
FBC
F65
F46
031
F99
F2F
0AE
F24
F56
0D8
024
F03
F6C
009
0A0
0E0
F53
0A5
FA5
F46
F99
099
066
F87
036
FAF
0CB
F9E
F1D
F2F
078
FF8
FE8
F31
FE1
03D
FF4
051
00F
F62
F13
09C
F06
F4C
0E2
0A3
078
01A
042
0F7
09B
01B
055
088
F2A
09B
079
0A7
0F4
027
012
031
FAB
FBB
FC1
0E9
F36
058
032
F09
054
0D6
0A9
006
08B
F63
F23
0A2
06D
F2E
034
F0F
F33
F9B
099
FD1
F47
0AE
014
07B
F0A
09B
F5A
0C1
FCB
F75
FD5
085
F3B
F24
FED
F1C
04F
F57
F48
FBF
F55
FF2
F87
0AA
F33
F0B
06C
073
01C
FFD
036
F6F
F26
0B5
F6C
09B
F47
08C
FC9
08D
009
F99
F2D
0AF
F80
04D
040
FE6
F35
F3B
02C
F6E
100
F4C
F29
041
001
FFB
F7E
F6C
0A6
050
01C
FD8
FCA
01A
FEC
FE0
07D
01D
052
10A
F84
F1C
F50
042
00A
11A
F82
F45
F3D
0C5
0B3
FFF
FAE
FF3
052
081
FC8
063
03B
0D8
F6F
098
080
0B0
04B
FAF
078
F8F
062
002
F70
FF2
F71
F6D
085
FC9
F35
08F
058
F41
0E0
F18
013
092
0E5
FA2
FE2
026
FF2
FF8
F29
04F
0AB
0C8
00A
0A6
07E
0DD
F7C
FBD
FAF
0FA
002
0E9
FB3
01F
F99
FE5
0E0
FDA
F52
067
F93
FE6
025
F89
102
023
0D6
0C9
FC2
F4E
F04
0DC
09D
F13
01A
F2F
F3F
0DD
F20
00D
00D
0FE
F0F
08F
04E
103
0B3
11E
F72
FC3
05A
FCD
F9B
FCF
0AB
06F
00A
08B
0BF
F41
05F
0DE
EFF
FD2
0BB
F8D
00D
0BF
0AD
F02
F94
F06
004
104
FBB
F52
077
F19
03C
FE7
F46
F85
052
F78
0DA
028
0D8
F06
F95
087
097
EF6
FC8
FE4
020
F32
FE0
FEE
034
FA3
005
083
08B
FC1
0A9
076
F32
089
011
FCF
FB6
026
0C6
0D0
06E
028
F12
0D8
FC6
F6D
FD5
F28
F82
F84
0F3
032
0C2
00F
FD0
FFC
0B1
F49
05D
F15
F94
F49
FED
FFD
F55
052
F92
0EC
0AA
07C
003
0D0
01D
0A5
006
08E
FF6
F96
04B
FCD
0C9
FBE
09B
0ED
F93
097
0F8
FD4
F4F
EF3
F73
06C
FF9
F47
F4E
FEA
09E
F3B
FF6
056
FEF
F51
FF9
FE5
F24
081
F09
FE6
F50
03E
01E
036
037
084
10C
F40
F9D
045
F47
F27
004
076
039
FF8
09C
08B
F62
F7D
03A
FCD
0D7
0B3
08B
F98
FC1
F2E
F73
FEE
080
0DA
F07
062
01E
F93
F1F
FAC
FED
04D
08F
F18
02A
0B8
0C2
004
FAA
F96
02E
0C8
FB9
03C
0C7
04A
032
F40
F31
059
0C4
050
FC0
FB0
F44
F62
FF8
FE3
FAD
F84
F3D
F5C
118
074
0B2
FCC
F23
FBC
F7C
0C8
080
080
FE3
FD1
F58
0EE
08D
076
027
0C1
FC5
F55
FCD
0CF
04D
028
FA8
0E2
0F4
0C7
0C3
F95
0BC
F3E
FAD
FF4
0E5
FFC
048
F7B
