FCA7
FC02
0351
038F
0249
007A
FC7E
002C
0205
FC4E
FC49
022E
01F6
01F3
028C
FEAB
FD5D
FE8E
FEB0
0242
FE50
FD67
017D
031C
0348
03C8
FCF0
FCAC
FCDF
01EC
0392
FCDE
FF71
02EA
0055
032E
FD37
FEB6
FCC5
FCB1
02EA
FFDF
FE50
FE6C
01D7
FEC8
FEE8
027A
FCA8
FF5F
0181
FFCB
FE0F
024E
FE40
02A9
0337
FD0A
0316
03F5
015D
FD28
FF42
FC5E
0305
FEDC
00FE
FE1A
FF18
FC03
0062
0147
FF03
FF7F
0213
FD67
013E
0289
0123
FFB4
FEBE
032D
FD63
FF66
FE44
0050
01CA
00A5
FDE3
FD11
FDAB
00EB
FFE3
007E
0159
00D9
0060
FD0C
026B
04F3
FE72
03B9
FCDD
FF2D
FC38
FD32
FDD3
FE77
0241
FFB7
FF74
01FA
004F
FD23
FEC6
FCDD
FF9A
013A
FCE7
01DD
FE91
04B1
FDE1
027B
00D8
0393
014C
0095
FDA5
FF99
FC80
0346
00E5
FDE6
FF5B
FECD
007C
FBAA
02B5
FC08
FC73
0029
FDE3
0183
0096
FF09
FBBA
FDEC
0441
0306
017A
00A9
F969
010C
FFC6
00D2
FDAB
016D
00FD
FD1B
0044
F8C1
FFC9
027C
FE3A
00C6
0342
0019
FFF7
03AF
0138
FE1C
027A
FC78
FF86
FC89
FC51
FBD0
FD17
085A
FD01
FE2A
01D3
FF19
0173
FF0C
05E3
FEE4
FFAA
0110
0309
01D4
FBAA
FC31
FE0F
02E5
03FB
023E
FDFA
0123
0289
0035
01B6
FE79
FB75
FCE3
02D6
0437
006D
0474
FD13
FC83
FA50
0168
04BB
0317
FD96
01AF
FE0E
02D6
016F
FC5B
FFF8
FFFB
FCFE
FCE8
03C8
FE33
031A
0163
FDD7
0018
0041
003A
FA35
FAB7
0429
FEA7
03E7
017B
0435
020B
0104
0124
FD8E
0031
0227
0293
005F
FD31
FD2F
FC1D
FFB9
0160
FD2D
FEA6
0023
FE6B
FFD6
FEA3
FDCF
01CC
0474
FAE4
F673
0378
FCF7
FD89
0128
FF57
012D
0453
0601
02F0
F94D
0049
007C
F93D
FCF3
0262
02B6
FFEB
02D7
01EE
0173
02FE
0108
FE72
00D8
04F1
FA80
0439
FC20
FD43
000B
FFDC
FC95
008C
033D
FF37
FFF9
00DB
07F1
0782
01F7
FABE
FE6A
FD1D
0264
FDC5
003C
FD0D
01F8
01F1
FFEF
0291
0353
FBFF
FED3
04C2
F9F9
FFDC
F8EB
FB73
F67E
00F5
029E
01F1
0500
0559
0541
0034
0355
FF50
FD91
01FD
FF8D
FE89
02FA
FFDE
0304
03BE
0252
FBC6
03CA
FEF3
0323
024B
FD3E
FEF7
FDC3
F9DA
F6C6
0134
0050
0338
FFEE
0470
0415
063C
05D7
00BB
F9AB
FC83
FEFF
0269
FE3F
FDB7
05FB
FE4A
FF04
003F
0055
01E8
00A1
0590
FD66
FEAC
00BB
F800
F5C3
FE03
04B0
FF7C
FEDB
030A
074C
0339
0149
03E4
0047
03F2
FC28
0381
03BE
0161
010D
096F
01F7
06A9
FEA9
FD5D
FD73
000E
0137
FE32
FC42
FA59
F706
FE26
02DB
00D1
02A9
0766
FDB9
0333
02DA
FCFF
01E4
FDB2
FF09
FF22
03E1
FFE7
FDEE
0173
00FA
0262
FF2D
FF36
0559
0015
FFD2
FB5D
001E
FBCE
FA8D
01B8
FEDF
01D9
01AC
FD91
0228
F8EC
01F4
0257
FD46
00B9
FF7C
02EA
0221
FB5D
FF55
03FB
0063
00EE
0232
0095
FFDF
05EB
FE7D
0134
FB7E
FC3E
FA69
02A0
02B6
0516
041C
05D7
0369
FDC2
FEE0
FD9E
02BB
FF09
FEF4
FD48
FD97
FF97
0307
03F8
FC91
027C
FE8C
0242
030C
FDD1
0007
FD66
F32A
FA05
FD90
0626
FDC1
0256
004B
FF38
0113
FC7A
FDDC
0449
FC4E
FF45
FF15
FF5F
0249
F796
F896
FF71
FDA0
011A
0231
044B
FD72
FE22
FD58
F99E
FAA1
034E
0328
06AF
FF00
0209
FED8
0174
04B4
025F
0342
0025
0275
0033
0263
0355
FFE7
FEBE
FB99
02FF
0218
FE6F
0509
007F
00C6
05B2
03FB
FC08
FF19
FF31
FD73
0072
0078
04F9
FF5A
FF7E
0252
0076
0112
FBAA
FF56
FD22
0007
FE38
FE1B
FEE8
0096
039F
FF2D
0301
FF8C
FB2F
0052
02FC
047B
FCF2
008B
01DE
00F0
FF53
FB81
FE61
FFCF
05B4
FEAC
FF5D
01DB
0081
FE87
FDE5
FF0D
FE2D
0557
0582
FE41
FFA4
FF8F
FDBA
FE42
002C
FF07
FFD5
02F4
FF7E
019F
02E7
03FF
FC4A
FDAC
FC74
FD4C
018F
FDB7
01EE
FDD8
FD69
0273
03D3
FE65
FC40
FD83
0372
FE8E
FEC1
0402
FF98
0129
05EC
00A1
009E
00E3
0187
FCE6
FCC0
0006
03F8
FE7E
FD02
FC83
FBB9
0491
FFDB
013D
FBF9
FC70
FC6D
FDE9
0086
FC53
0194
FD81
FBE2
00F6
01F6
0128
FEA3
0111
048F
019B
02A0
0318
FFA2
FA1E
0215
FD48
FBAD
FEE6
0069
013B
003E
00B6
0313
01DC
FDD5
FF75
020C
FD17
FC10
FE7F
0118
0179
0068
FE3C
0593
FCD6
FE48
0463
FDD9
0453
0411
FF70
014C
FB47
FA1A
FFCF
01C8
0211
FC90
01EF
024E
03A5
FEB2
FCB8
019B
FE3A
FD8F
0035
0087
FED4
FE29
FE6D
FCF5
FF47
FBFC
F85C
FDC2
049F
0320
FF08
FD40
FF3A
FF0D
FFE2
0489
0153
00F2
FE50
0053
FE31
00E5
FFAF
FFD9
0206
FDA4
041E
02AC
02CA
FC7C
0161
FE6B
02C3
FD23
00E3
00F9
00FF
0152
FC2A
FB0E
FF1C
FF61
FF28
FF34
035B
0180
014D
FF3D
FF06
FC5C
FCE5
FDAD
FEF6
FCDC
FE3A
0162
00AE
0296
FF94
FCAE
03D5
014D
0117
FC11
0362
FD7A
01E2
014E
FEC3
FC0F
0136
01F1
0174
FF5C
0123
FC17
0252
01A5
