FF95
FD1E
0377
FDF4
FF35
FC9C
03A6
FE92
034B
FC55
005E
FC2D
FD29
FFBA
03F5
0016
0009
FE83
FEC8
FE85
03F8
FD7D
FD17
039C
03DC
FF8C
0181
FE96
0116
0220
031C
0134
0249
0122
FD5F
0232
026D
FE0F
FCE2
FDC6
FDA5
FC46
FF5E
FF2A
FF0F
024C
01AC
03B5
00E1
FD81
0106
02EA
FFCC
0188
02A5
FCC0
FD26
028D
00B0
037F
FD1C
00CB
FE34
FD2C
FEA0
0153
02E7
01AE
0226
009A
FFED
0376
FED6
FC3A
02DB
FCFC
00D5
FDD4
0301
FE95
01D8
00BE
FF40
01EC
FE77
FF8B
0073
FD1C
FD08
0023
0353
FD4F
FE47
FBCF
002C
FFFF
F97E
FD00
FE79
02C7
FDB5
FB0F
FF6D
FDAB
009D
FF44
FD63
0325
0393
FC70
FDF0
034C
FFC1
001F
FC25
0053
0112
008D
02F1
FD3D
FFE9
FF04
F93B
FA55
FEA6
FF45
FD20
FD4D
02A1
FD25
F983
0086
FDB3
0125
0270
FD40
02EA
FF29
0147
00E5
0155
037B
01D1
03C2
00D7
0516
01AB
017B
0110
0076
FDDD
FB87
0359
02F5
0050
01AA
FFEF
FE92
FEE7
FF9B
0295
00DD
01E5
01AE
FC9A
03D0
FD2F
FDDC
017C
FEEC
0073
0198
0023
0553
01E4
FCDB
0140
0323
0045
FE06
031E
FD9F
FF7E
FF1D
FE02
05C7
FF7A
FEBD
0280
FF7C
0151
FF57
040E
00F9
FF30
022C
0280
FF8C
018C
01A8
0382
057A
06D4
0551
0332
05AE
FED7
FE88
FF4F
01F1
FDA7
FD73
FE28
0258
0087
00E7
0378
00D0
FFE2
0195
FFB0
FFC2
0328
020C
FF2B
FEE0
016A
FFDD
0467
0183
FE10
0784
000D
048A
0487
0231
FEDF
FFE8
017C
0512
026A
FEC4
0269
01E7
0332
0124
0327
0097
005E
01A3
0075
00B6
FCDB
0144
0405
FF79
01B0
01C0
FE95
012A
FF80
0140
0312
FDFF
0314
01FD
0435
00AB
01CC
0321
0371
FD74
FFEE
FF01
0229
02CC
FF3A
0442
0433
007D
FCB4
FDC4
0161
02B3
FD7C
0504
0108
00A9
FEED
01EB
0146
FA63
011A
02F0
FFCE
0361
FED9
004D
002F
020D
027F
0046
024E
FC32
01B7
03B3
02FE
FFF1
01D2
FC6B
02E8
00E4
033B
00BA
03CA
FFD1
FE70
0392
02E8
05C1
0021
F73E
F5E2
FE2E
FF3E
FFF6
FEC0
0173
004A
01EB
FE0C
FF95
FA27
FDBC
FC53
FEE4
00DB
029B
FE11
029C
FD6B
FFFF
F997
00A7
0332
FC8E
FDC7
FADA
03F2
F062
F688
01A5
00A3
FC1B
FF53
FD34
0073
FDE8
FC4E
F5D2
FE82
0261
0347
010B
00A8
FEFC
FEDB
FEBC
FC87
006F
01EC
FABE
FF9A
FFA4
FEA5
0615
FA5B
EE11
FD91
FB5F
FFAD
03DE
044B
F621
FFF7
FB3E
FC71
FB5A
01C8
0487
026A
039A
FF44
FC32
02E4
0227
FC20
03A8
FF6E
01B6
FF6C
0300
061A
0204
F8A9
EE90
FFA0
0044
FF67
FFDD
FD1E
007D
FADC
FED1
FBA9
FDBC
FB5E
FFFC
0271
00D6
FFB5
FED4
FE96
0421
FD8C
FC5E
FF65
017E
FAFE
0018
FC4C
F614
F2D6
FCFA
FE7D
FFD2
FC32
003F
014E
FF7A
011B
0260
0256
FEA3
FD7F
02D3
FFB1
0012
0176
02EF
FE4B
038E
018A
FE96
FFA2
0052
FDBA
FC0B
F751
F64D
FF01
FF1F
0387
062F
053A
0255
002D
0297
0320
03CB
0211
04A1
02D9
FB68
0517
018B
FF95
02B3
006B
FD55
FC7F
FFCD
F846
F7B7
F672
F9B1
F99B
0116
F82D
FD09
0349
058A
014C
00E7
028D
028B
00FF
0363
0178
FF8D
01B7
04C5
0320
0132
FF8A
FC23
FF45
01AD
F8C8
F966
F6D8
FA4B
FAE5
FFBA
FA8E
FF05
FB35
018D
0023
FB4C
0128
02FE
044D
FC3F
01C9
FEEA
FEE4
FD45
FDFB
FE4C
0380
0005
FDA2
0214
00E4
FBA7
FE13
FBA0
F8F1
FD58
FF90
FD37
FB27
02F3
FD1A
FF93
0504
FE2B
0124
FD9F
FCB3
00D9
0256
FDE5
FD49
0106
FE33
FC9A
00EA
FE3C
FC99
01AC
FEE3
FD7A
FA6B
FC86
FB83
02B9
FFD9
FA93
0271
03DB
04B0
FF7A
02EA
055C
FCFC
FDDB
FD8A
FD9C
FF60
0112
03A9
00BE
FCDB
FC1E
FD10
014A
FCCC
02B2
FCC7
00F8
FBE3
FD24
FF1F
FBC0
F9DF
FD20
04E0
0079
FD2B
017A
0119
FFF9
0446
0061
FFD1
012F
FDEC
FCA2
FDEE
FDFC
005B
0292
02D4
FCCA
FD5E
FC6B
00F5
01E3
FCAD
FEF2
032C
012C
0443
0389
0014
0007
00B6
026D
FE84
FFBD
FE3E
038C
02E1
FE98
FC6F
002F
0094
00AA
FFBE
FEBF
FF18
FD61
00E6
0175
FED6
FAF6
FD48
04E3
0577
02D3
FCCF
FBEB
016C
FAA6
FDFE
FF22
013B
00DE
FE18
F9F9
FFA2
FE7F
FA54
FD62
02DA
FEF3
0023
030A
FD89
02EE
02DC
FC4E
FDAD
02CF
018C
00D3
FFEC
FF1C
013F
FE69
FF8E
025F
FEEF
FE7D
FCC9
025D
FB94
0178
FF91
FF93
FCE2
0096
FF2E
FD83
00DE
01CF
FCED
FDC1
00A3
FE9B
008E
028E
FBA8
FD90
0143
017C
0361
06D4
FB5E
019D
04F8
FD4D
015F
005D
027E
03B7
0113
006F
0047
FFC7
FE9F
0193
00D4
FF94
0389
022D
021A
FE00
031A
02C2
008C
FD25
F966
033A
FD2D
02B7
FDD2
009B
FB4C
01A7
0198
03B7
FF76
FCBF
045B
0236
02F6
023A
FEEA
FC50
0121
03FD
FF25
FC2E
FEF0
008C
FE3C
FCBF
FCEE
035A
FFCE
FD32
00FB
FFE5
03BD
01FD
0167
0506
01AB
0358
00A7
0206
0243
0203
0353
0218
FDF7
FD3D
FE10
0261
0040
0218
