0E8
FC4
F4E
F65
0B5
F4E
F12
075
F18
FFE
F5A
F2B
0A9
F4C
045
071
F09
FE9
046
F57
FD4
0AB
FD9
F3C
0E4
0FE
FAD
FAF
0EA
087
F94
0BD
F1C
F3D
06A
FEF
FF4
F18
F63
FDB
0E4
018
F89
F17
F36
F3B
F44
040
0CA
0B8
041
FD9
F05
043
FEE
F65
057
FCD
FBE
FCC
F87
0C9
039
0B3
F9C
F26
032
03E
F29
0DD
06D
012
0F2
0D1
082
FEE
FCF
FC6
F30
F71
0CE
005
F96
0B5
0EC
030
F1B
F3B
0B1
FE4
F09
F57
05D
007
0BE
057
F16
F63
F1B
0F9
0BE
029
034
09B
00D
004
0EF
FD0
F2A
F50
F2A
FFC
FF6
FF0
05F
F35
F43
F88
01E
F30
F11
0F2
070
F33
047
07A
048
0CA
039
F8F
08A
F37
F2F
F7E
FDB
F44
F9F
0DC
03B
F09
FDA
F53
F1F
F37
F65
F6C
056
054
F32
F4B
0C2
FFB
09A
F40
F87
094
089
FDA
0F9
F46
FB9
FDB
F55
FA9
F26
0A6
0CF
09B
F43
F71
0FC
080
F1D
FD4
05C
FA2
FA1
0EA
F03
F6D
001
FF6
02B
FE9
FD2
0A6
0FD
F0C
0B5
0FB
0E3
097
059
F10
0AD
F1C
F6F
F16
F0E
0E3
07F
F3D
021
0BE
FC3
F23
FDC
07D
F3F
0CF
FC2
084
0A5
FC7
015
FC7
F78
0C9
FA5
030
02C
083
0B0
F9D
F1F
068
F0B
F43
02E
069
018
F64
090
0A7
F0C
FF0
FFD
FF0
0AF
FB8
FF0
040
F76
09D
F55
F02
F22
064
0B1
074
0F8
083
006
005
FEE
F09
F8C
F26
0DA
FD7
007
0D7
0E4
FF0
F75
01A
0B3
096
039
05E
F0C
0B4
FF0
0E5
045
F1B
EFE
F16
F08
F85
FC2
FEA
0E1
0E4
06F
F89
075
0D1
F39
FA9
FC6
0A4
00D
03E
FE8
072
F24
F8B
EFD
0F6
FE9
FAC
0A8
0AC
F90
01A
0EC
F5A
0A1
029
F4E
F0D
F95
F20
F2A
01D
0DE
F08
03E
0F5
F76
FE9
F34
0B5
F19
FD1
FB0
F67
0B8
FD0
0B1
0F8
001
F59
F67
F7E
057
01E
F19
F15
0DF
043
F19
0D5
FCE
F21
F60
FAF
025
0ED
084
F42
F65
00B
033
FA8
05E
078
FE7
FEA
FFD
F02
07A
042
EFF
FB9
018
F91
0ED
0EC
043
F01
081
0AE
F98
F7F
FE6
F35
F56
086
099
F4C
0DD
F2E
0C8
FF1
F23
07F
05F
0F3
F0D
019
071
F0B
F31
F2F
F9B
09F
FF5
08F
0CB
FDD
002
06C
F54
F12
02C
FA1
0A2
F21
FF2
F40
02C
017
086
045
07D
F38
019
09A
F96
061
F17
0F2
0A0
0F8
02A
080
F8D
F16
F21
F97
F01
F92
0CB
034
F1E
0E1
0EA
0B5
09C
FC7
F38
0B8
06C
F01
F91
090
0F5
062
F0A
FFF
0E0
F59
FE0
FD3
091
FB3
F26
0ED
FB3
FF2
F16
FCD
FE6
083
FEE
0A4
0A1
0F2
FCB
F5A
FF7
F78
F7B
F0B
F1F
076
FF5
0C6
F37
F4D
032
FA4
081
082
F17
0F2
0A9
FB3
F4F
FEE
0F3
05A
0F4
FE6
034
0E2
F74
01A
FAF
073
056
083
00E
024
0D3
F64
F78
FCE
05D
F34
FBC
0D3
08A
F2C
053
F9C
F51
08F
FAE
001
089
FED
FD2
FA9
05C
0D7
058
032
F5C
F54
090
020
01B
FCA
F61
08D
04C
F55
F73
038
FC9
027
F9F
02E
0CF
049
FE1
0FA
03C
F47
EFA
F9A
F29
034
0B1
042
F02
F92
FF9
0C6
03C
054
009
FE7
F10
F47
F3B
F03
FCB
F6E
08C
0C2
0C2
029
FB2
0F5
FAC
F91
016
FB5
F09
07C
0FC
FE8
079
08C
05C
FA4
077
031
0DC
0DA
099
091
04F
F7B
FD5
0A9
064
0EF
F33
FE6
076
F74
06C
EFC
058
005
027
FBD
087
FB7
F47
037
FB4
0A5
F24
0DA
0B9
0A4
F40
FCB
FBC
F25
073
0B9
F70
0D0
0DC
F93
FF0
FCA
F70
0CF
086
FCA
FB6
00E
058
041
F0E
01B
F0E
FF4
FF0
FFA
FB9
F49
F87
FC2
049
0A2
00C
0D9
00D
0A3
FDE
F47
01C
0D2
F43
0E8
0A7
F5D
0D0
039
F28
01B
0D0
056
022
0B5
FDF
05C
F64
F4C
FBC
055
FCE
062
0C9
005
0B0
F62
FBC
0A7
F54
067
066
0B8
F72
F53
075
0B7
FF8
0F5
01E
F89
0B5
F40
FA3
F00
087
00A
FA3
087
F76
F60
02A
F2E
0A2
07D
00D
F70
091
06A
F1E
0CA
011
0DA
04E
018
F96
FE0
03F
F89
F92
F6B
0F2
F69
03E
0C5
0C0
F3F
FC6
FDC
059
F3E
FA5
069
035
FF6
0BA
047
055
FC1
FD3
03B
01D
044
065
FE1
FE4
F53
0D6
F02
F6F
05F
F79
0E7
0E8
F05
F37
F2B
076
FFD
0D5
FDF
F29
F2A
001
0F0
F36
F7D
F09
FC2
03A
FD0
F4C
0EE
0F6
073
F34
0B9
01C
F22
0C5
F6F
F4A
0B6
F98
053
EFF
F29
F65
0F5
008
FF9
FF0
0CE
030
0BD
FE5
0C2
F13
FC4
F79
0A6
0CA
0AC
F56
F34
058
0CB
FFF
097
F3F
07B
F3E
07B
F4B
080
F2B
FC5
FCE
033
F10
F10
039
08F
02D
023
022
F3C
0CE
0DD
094
FB3
0A2
04D
03D
FFE
0F8
F3A
00B
043
039
0FB
034
0F5
F1E
FCD
F75
F75
F4D
0F7
F2D
FBA
F7F
FA9
0BE
04C
FDB
F05
0B2
071
0B7
098
F33
0A8
F60
070
07B
013
0E0
0F8
F48
060
F10
0EC
F30
F9C
F8C
F0A
FD8
F67
03A
F77
FCB
F42
FBB
086
F88
F68
003
007
FE7
04C
0A2
FEC
F31
0AF
0AA
015
042
09A
FB2
FEE
FD5
F3B
004
0A0
003
F75
0B6
008
07F
05E
F29
020
051
097
F85
0C9
FD1
F2F
043
076
FC1
FB3
088
014
0DC
F5E
0B5
023
011
081
0EF
FF8
FD8
F33
F35
019
F72
018
07E
0D4
083
068
F6A
005
029
079
FF1
05F
F2F
F3A
F90
F0A
FC2
F57
0E6
004
F2B
0EC
F96
F4A
021
0D5
FEB
FC0
055
0E8
07F
F7D
054
F5C
FE4
F38
076
F01
004
0B2
085
021
0C4
04B
043
0D5
F17
065
F5B
034
024
063
07B
FCB
F57
09E
06A
007
F63
FDC
F7C
036
FDA
00F
0D0
FFD
FE7
03B
F37
FCA
F1F
016
0DD
FFA
FC7
02E
02C
F15
0C4
F49
08B
050
F7A
F91
F7C
0EC
051
F5F
03C
041
FA5
037
F7A
0DD
FE0
036
F73
F87
F6E
FF4
F93
F4B
F9C
F65
099
FE9
0B6
FBA
FC9
FD6
0E7
FED
FC9
F0A
0CA
FA5
072
FD5
09A
FEC
097
FD0
F94
FBE
0C4
007
F89
098
034
FAB
0C1
0BC
0A3
08D
0BB
04D
FDF
0BD
087
06C
0AC
008
FB6
068
F6E
F5E
0E7
0E8
07B
FEA
093
FFE
FDA
FF1
04F
F40
F98
0FB
FC4
0ED
05C
082
0FB
009
F46
F39
F90
038
F31
FC1
F6F
0F5
0E6
051
F01
FEF
0E9
F15
01C
F7D
027
F10
063
F7D
0B7
01A
038
FB6
F3A
0A6
F1E
FDE
F81
03D
EFF
FF4
082
0E1
FA3
F4B
F18
F8F
F9E
F42
08B
025
FBC
0D9
0B8
02B
09C
0FA
09F
F47
013
F47
FBD
F07
053
06F
F54
07C
F92
F98
F45
FDC
FC8
048
08B
FB0
FBD
F21
FDA
07C
032
04D
F21
F23
0D5
F0D
040
F35
FCE
F5E
0BD
048
FF7
F5C
F58
F00
088
F85
0C7
02D
079
FF6
009
FDD
0F7
01A
F7D
F8F
0E4
F3C
0DE
0CD
F5E
0A5
06C
FA6
06A
FAD
F90
0ED
FA7
FB0
0A7
02D
F15
07B
010
041
F26
FA6
00D
042
0FB
039
0F8
0F1
0AB
F95
0E9
F7F
001
0F7
0E2
F8C
041
FCA
041
F1A
03C
019
08F
0A8
F4C
0E4
0A8
05C
03B
0E5
07C
F7B
FD6
F4E
028
FEF
069
004
FF2
FBC
060
F48
F83
F1C
F6A
F6B
0BC
0E1
F95
059
FB6
099
070
FEB
FAB
08C
F83
0B1
FAC
FCA
FCD
F9B
F8C
0E3
F6C
0BA
075
F27
F80
099
FB7
069
0F0
0A3
F20
015
0A3
F60
0DA
0DE
0E2
0E0
0F5
0B1
FD1
00B
FB3
F71
F86
046
0AB
F8D
FC9
058
FB0
FD9
0BA
039
F08
0D5
04C
05F
007
079
0AE
096
F37
05D
F33
FD8
087
F56
0F1
F27
F92
062
F27
FA6
035
02E
FA9
F45
FEC
FB2
052
FB1
FFA
05F
FC4
08F
0CA
073
0F6
FB2
0E7
044
F0A
F25
FF8
0DA
060
06E
08B
F3B
F1C
07C
06A
0B6
066
F1C
FA6
F2D
028
091
05C
F56
F3E
088
F84
082
F3F
068
F84
F2B
F2C
FB7
033
FE5
009
FC3
0B3
F9F
0B3
F4D
0CD
FBC
FDB
0F3
062
086
06E
F48
FE6
0FA
00E
0CA
F93
F9F
0B0
056
063
F1C
0EA
FF2
0EF
020
080
0AC
028
025
F4E
038
F78
034
033
FD9
F62
0EE
08A
007
F86
0D2
F7D
067
FA0
F54
F30
F8D
F50
0C3
FF5
01E
F56
0B5
051
031
0B2
FF6
F57
FD3
F36
043
01C
043
006
F12
FD7
FD1
FDE
01F
00F
F6B
0C0
093
039
F6C
F25
F34
FD6
099
F71
F36
058
F1A
F2D
07C
FCE
0CC
0D7
F31
088
FB1
014
FA3
09C
F47
0C6
0B7
08B
FBB
0ED
024
042
F99
02B
082
F4F
004
F5B
F7E
FB0
FAC
065
062
00A
F79
FAC
04E
FC8
F59
050
037
0E8
FCB
F61
F40
077
FC1
FEE
F8B
F7F
0D8
F56
072
018
F17
F5F
051
F77
F18
FF9
0E3
065
F71
031
EFF
00E
05A
FD2
F74
F51
FA4
0FA
F7E
078
084
0DD
FF8
0A0
027
FBD
FC1
03F
0A6
023
F17
0F4
0AC
FBB
FFF
09F
F1B
FF2
FD2
049
F75
0E7
F81
081
041
040
078
011
FB2
0A1
F79
0E9
0DC
EF9
F8D
FA1
00D
FB3
09E
0E5
08E
098
0AA
0EC
F84
F43
004
F93
00F
059
F77
FD6
055
F5A
0B2
F85
0B9
060
FA6
F4F
091
F46
044
0CD
F6C
F18
F51
F44
003
061
F24
058
FCC
FE1
06D
000
0AE
0D0
F19
F35
FAD
04D
FD3
FB9
0A1
EFF
EFF
F9B
072
F92
0A7
F5F
067
09D
FD4
F9D
F4E
F61
0F0
F68
0B5
F88
FAC
01C
F76
00B
083
0D9
09E
00E
075
FDA
FEF
F0A
FE0
FD9
0D0
F5A
F0E
0AF
F19
0A7
F58
F32
FD7
FC8
F28
0A2
F32
F75
FF0
FF5
F8F
014
F64
F56
0B2
0BD
00F
FDD
FF3
0E3
042
0DA
0F0
00F
0CE
F6C
FDE
0A9
F49
09D
FE2
F87
FE4
008
013
05F
F1D
071
02C
02F
091
0BA
F28
FDD
04E
FDE
0F4
FB0
F22
FC8
F9F
FA8
087
F34
F2E
0C9
0D7
FC7
0F7
F29
FF4
FC1
036
FCC
07D
FE9
024
05E
03E
FF8
FB3
081
F37
FFB
0D6
01E
FA3
FE6
F52
F48
F77
0C6
003
0D6
063
F4B
035
FDD
F77
0F8
0CB
F69
FC4
F64
03D
F38
00A
F84
0A0
FA0
0C2
043
FDD
00B
FC2
0F3
FAA
FD5
FB8
070
0C2
F9A
0E1
006
0DC
FCB
FD5
0D2
F8A
F1C
F3F
095
F90
08E
F2E
F32
F46
F3E
0F0
014
0FC
01D
083
F67
F99
F13
F0E
0C2
0D6
F6D
037
F51
F73
062
014
F0C
F4B
FED
0AC
F46
F8E
081
036
04C
F60
F4F
F72
FD5
0D9
0A2
F22
027
F74
F1A
FA0
F82
0F4
0AC
012
F07
FBD
FF2
F78
F94
FE9
FB2
081
F27
F8E
00E
01D
FED
FF7
0F3
F60
F69
F6A
F76
08D
FD7
045
F20
0A1
024
FC1
01E
FD6
F30
FE6
007
FA6
F5E
030
F80
032
F3E
F2C
F3F
F77
F86
F59
033
F5D
F2C
F6E
FE9
FD1
01F
07E
0B4
FD0
F67
094
F74
02C
F9B
0AC
01D
F98
0D6
F0F
072
F09
FA7
F35
F4C
0C2
02C
FF8
001
0ED
060
EFA
FCF
F60
06E
F51
F01
FED
0D5
040
001
0BE
030
0C2
F84
F5E
FA6
F8C
FB6
FF6
F08
03D
064
062
F3C
FCA
F3B
0A3
F1F
08B
0E3
07F
0D8
FA3
00F
F0E
F90
F34
07C
F45
050
0AD
F41
F81
FDC
FD6
F3A
032
0CF
F91
0D2
0D8
F80
FF8
04F
FBA
021
01E
071
032
0BC
F50
04F
048
0AF
FC3
FC3
F49
0E5
FA0
F9D
F42
FE6
038
007
052
02B
F84
FB8
F3F
034
F6D
088
F36
F19
04F
047
0D4
F49
F18
F90
FC4
F8C
08E
022
F18
070
050
F96
FCB
F03
F58
FE7
0AB
040
FAD
F9D
0EA
F32
0A3
0D6
009
086
020
039
F03
F33
081
F8F
08C
07A
F6A
FDE
FBA
F03
F07
0B7
FD0
00F
F78
F10
EFE
0F4
F04
FB7
FFA
03D
01D
F25
F1A
004
F5F
02C
01F
FBB
0B1
F0C
F94
0C9
FDF
0A0
F3B
F28
FCD
0AF
0D6
F09
FCB
F05
FD3
FD6
082
0C4
F6D
FA3
F45
F7C
FAC
006
FCA
058
06E
F0E
038
F3B
06D
FCF
F9F
0AA
EFB
066
F95
083
07C
014
076
F1F
0CA
00B
0B5
093
088
F47
04E
02D
065
0B3
0E5
04F
08F
06B
FFC
0B1
0DD
FB5
056
09A
0BA
F59
FE1
F02
038
FDC
F30
0C5
F1F
00B
019
041
081
F38
016
F99
F24
F9B
FD7
FB8
0F4
FF8
0A6
067
016
F32
027
F99
F3D
F53
F3E
FA6
F99
032
0D0
06C
01A
F47
068
FBA
F4A
011
01D
FE8
0B0
004
F21
F75
FC7
071
F3C
F17
0C0
F41
FF6
FA2
076
F82
0D3
FED
017
F25
07C
FB4
0D3
08B
F2B
054
0BA
082
01D
FFB
09C
FD5
FE1
FF9
F17
FC2
F34
F9C
073
F02
FA0
FEC
0BE
FB0
0B8
F2A
F3E
058
FB5
0A9
06C
FFF
F5D
08F
F95
F78
0F6
073
F01
081
F49
FC9
049
0DB
FD9
095
00B
0E3
090
06A
EFE
04A
FEC
F90
086
0B3
F8E
FD9
0E9
0F9
FE4
00A
F10
06E
F1D
FF3
027
050
F55
F83
039
09A
F6E
0EE
033
05B
F75
F75
FA4
F47
F14
FA7
F4F
0CF
F8B
0E2
FB3
09C
FCE
0DE
F4E
033
FF7
FE2
FD5
F2B
F7D
039
062
008
FCF
F58
FD9
0EF
031
072
FE6
0E3
F64
01E
F9D
F61
FD2
07E
FA7
F05
F49
0F5
0B1
06D
FFC
F95
F37
F3F
F48
F6F
FA7
083
0CA
0BA
0CD
FF2
FD1
FF0
F89
FA3
FCE
F2C
025
F14
F9C
01D
F96
F05
FFD
06A
FE7
037
FA5
FD2
FAD
007
0C3
FBF
FFA
06E
095
F2C
F2C
EFD
050
0E1
F71
FBC
03E
F24
0AC
F49
F40
0B5
FB5
FBF
08F
FDA
09A
0D2
06A
F67
097
00C
F4F
F04
07F
095
0C9
090
0B3
07B
F38
00C
F10
073
F4F
F04
0CF
F5C
089
0BA
019
076
FC0
05A
FBF
F7C
096
0AB
0F6
006
F36
07D
FEB
FA8
EFD
F57
090
F69
023
FDE
F38
F6C
F5E
FEB
092
FC5
FB9
002
09B
06A
097
EFF
01F
0CA
07B
F4D
0D2
051
F55
F0A
0E8
0AB
079
0C5
034
060
069
F7B
F97
077
031
F39
054
0EA
0E3
F78
F2C
FA2
03F
0BC
017
F03
F56
FC3
FAF
05F
07B
FB4
049
0DA
F2C
09F
0EC
027
F50
001
EFD
FD7
0E8
F8A
0D1
001
FDC
035
FAC
006
04D
F95
0BC
F27
FA0
0E9
FC3
033
FD5
FF2
F7C
F3F
036
FB0
FB9
F08
014
EFC
082
02C
FBA
FF9
0E9
F46
06B
030
F82
065
0C3
FFE
F2D
08A
F6A
F96
038
005
040
05E
0B0
0D3
FD6
FC6
FDF
F74
FBC
0BC
00F
096
F48
F6C
FE2
FC1
F78
08E
0E6
048
F8C
F8A
07C
FD1
0DA
FDA
0AF
050
F79
055
0BD
065
0EC
01C
FFF
033
07C
0CC
F90
011
04C
085
FB5
073
00C
FF4
065
FDD
F3A
FC9
027
0B4
FA4
0BA
FE0
03B
F08
0EE
01A
029
0A5
FBC
FC5
013
F97
0CD
0F7
0E1
F30
FEF
F80
087
0DA
052
0D7
07A
001
043
FAB
FA4
FBA
06D
053
F60
0F1
01C
0FC
0E4
04F
F60
0FC
072
F11
01C
018
08B
F0C
FCB
0CE
F91
FC1
F6A
0FA
F2F
FA9
F0E
0E1
F09
FA7
02E
0B7
047
0B1
062
0A6
0A2
099
027
F4D
F87
0BC
05F
023
076
047
080
00F
F6D
F3B
FC3
0CE
F83
FBB
0BE
F6A
0A2
0F1
015
F74
0B9
008
03F
018
06E
0F3
F37
F18
FC6
F4C
F10
0A8
0B1
F41
FE4
0BA
017
093
F7B
042
02A
F24
F9F
F63
F79
F7E
FCC
F1F
FAD
07E
018
08E
F55
0C4
0EA
FFC
FB1
F8F
031
059
094
F61
F38
FC4
0C5
F7E
086
07D
F02
F9C
F4C
007
0F5
FAA
F4D
FDA
0F6
F1B
F57
FDD
F47
085
0CC
0E9
F77
080
F88
F1C
0C2
019
0DA
F02
FCC
FAE
F8E
069
F7C
03A
036
F7C
FDC
03C
053
F51
FE3
0CC
F59
04B
FBF
0C4
040
F80
0E7
09A
0D7
0D9
033
099
051
F78
FE5
FB9
092
F1B
F48
013
F4E
F69
F44
F73
0BC
0AA
040
FED
FAC
F35
057
F69
FD9
F87
FB2
03A
F4B
054
F4B
F26
FFF
FD9
0FB
014
F42
032
F81
066
0E1
F85
0C9
00A
051
FE3
0AF
F8A
F2A
063
F99
0A2
021
0CD
00C
EFE
019
001
0C0
F65
0AA
022
072
02E
013
FA9
03A
0D6
F52
029
062
098
05F
FAF
0DE
F43
01D
FC7
03F
0A6
F0F
0BF
F0E
099
F25
070
0EC
FFA
F49
0DB
FB1
08D
0F3
06D
F86
FF7
FDE
F9A
F8D
F20
0BA
FB7
F9E
F59
035
F75
FAE
0E9
0B4
0F2
F2F
FC1
031
F81
F7F
F27
006
064
FA2
F7E
0DE
F59
0E3
017
F2F
F16
0A9
F01
0CD
023
FD8
045
0A9
F76
010
09F
F59
FDB
FD2
F2D
03E
F69
002
00F
F37
FEB
0E0
FA4
098
F73
0F6
F0F
019
098
0E0
0C5
038
05B
FDE
FCF
020
035
077
FE3
044
03F
F39
F7C
02E
F54
010
0E0
028
0B3
065
F39
0AC
09E
0CC
037
0F0
FE1
088
070
F6D
058
0FB
063
070
09A
03C
FB4
0AA
FC0
096
F8E
FCE
07B
FFC
047
009
013
FC4
01B
F4E
07E
0B6
0A9
0D1
0B1
0E3
0DA
F7E
015
0F8
0E0
037
0CF
01C
062
0BC
F6E
EFF
07F
F2C
F9D
0F5
F08
056
F8E
FF2
042
F82
061
0F3
0C1
F87
F75
FD2
00B
FAE
049
0E9
0B0
FA4
F71
015
09D
FC2
F4D
F1D
044
F56
FC1
026
05D
01E
F59
0C3
FF1
F49
0A1
F26
0EE
065
F3B
022
F0C
054
0D1
069
FE7
0B5
F42
F69
02F
FFB
FDA
07E
089
F86
F8D
F32
099
F82
FEB
FB6
06C
0A0
FE9
032
FFC
F32
FE1
052
F7B
FD1
0BE
0B9
F95
0CB
0F8
FE3
01C
0F6
0AC
0B9
0A6
0AD
F9D
FB0
F3C
F19
F6A
031
00B
F59
F50
F57
F5C
062
FEE
056
0E4
008
F4A
F7E
023
08A
F1D
024
0E8
F89
F5F
F71
FB2
FF3
FDF
0DF
0CD
FA6
FCF
F3A
F09
FFB
F97
0DD
FD8
07F
FBF
0A1
FAC
030
FE2
075
0E8
F32
00C
015
086
010
067
FF7
0D5
0BC
075
07C
FCE
0BC
0FB
F69
008
F1D
036
00D
F3F
0E7
0C4
049
086
09F
F39
007
F03
F16
0D2
F7C
05F
0E8
FF6
F86
0BC
FAB
048
02E
F26
0D0
041
FE0
0A5
FD2
FDD
0D4
FC0
FFB
073
0E0
0BA
09B
048
FA7
037
018
05B
095
F23
FB0
EFD
05E
F09
F4F
02C
F5D
03B
0D1
F58
FE2
09B
075
0C4
009
F2C
F52
FF5
0CF
F36
F77
FC9
06A
FA5
0B9
0CB
FED
F54
F6A
00C
075
FB0
FF4
F21
F3E
009
062
08D
FDE
080
0F7
F51
F27
031
01B
FEB
F82
066
070
FBA
0C6
01F
FFF
FB6
F8C
F12
086
0CE
FE4
011
038
06A
0DB
FD0
F18
006
0D8
0D8
0DC
FB3
FE4
F73
F11
F0A
0B2
F87
00D
00A
FD8
F0F
F6E
F8D
0A9
F5A
04A
FB1
01D
FB8
F5A
0D4
F82
0FE
F49
F22
013
F72
FD2
FF5
000
F5B
F40
035
0C7
063
065
08F
F76
FE0
F23
F16
F75
F69
070
FF7
041
01C
FB2
0D4
F70
F0E
F31
FC6
0A7
F80
FE2
F8B
0E6
00C
FBF
F3E
046
FA1
FED
016
058
F3C
037
F14
0A5
092
0DE
0D8
08F
054
F24
083
F36
F86
F6B
FC0
0E7
0A0
0C2
0AF
FDD
054
FE8
0F8
051
09E
028
0BD
F31
F84
F1B
F8D
FA2
046
F3D
F2D
039
080
F25
FE9
040
F5E
017
F21
FC3
066
FD7
F09
FED
0A1
FB0
FDB
FEB
F89
051
0BB
F77
09E
08C
0B0
081
F6B
0F3
FB2
0B9
F42
07A
062
F17
0F2
06E
003
F2D
03C
038
0CB
028
F54
0BC
043
07A
03B
06B
0C5
06C
F87
F51
0F3
FF5
F1B
F2D
F90
00F
FDB
044
FB7
F4D
049
0B1
FE4
0BC
061
066
0AE
056
F12
012
016
0C3
F2D
F50
087
F28
F33
05F
F5E
0DB
F09
F46
0AF
F1C
F73
FCD
F92
028
F32
F1B
0DB
FEE
FE6
02D
0B3
F3F
0AF
0C3
FA7
0EC
F47
FD9
FD2
0B3
0E9
00F
F35
02B
08E
FB8
F4B
0D0
F96
F2A
FE6
0D6
F3B
09D
FD5
011
0F9
FA6
0DA
035
FC7
0C7
F64
010
F09
F6B
055
F0C
F6B
010
FE3
F89
FC9
F3F
FD0
0F6
F85
FA5
0D3
F3C
F5E
0B2
025
FBA
0E5
F39
F47
F4B
058
0B7
0A2
05A
040
055
0C9
0CA
F64
F4D
08C
FAB
FED
F1E
01B
F29
019
F1E
F87
084
F68
F06
0D6
FA5
0D7
0E7
0D6
FB1
F38
0D9
FE9
05F
F91
F9F
FAE
0AA
0B8
094
078
F6B
008
F73
018
F5A
029
068
0C5
F43
F49
0A0
096
FB7
07D
F4D
0BE
0B8
F1A
FBC
0BD
03E
F85
FD3
003
F84
06B
086
089
09C
0DF
010
094
054
F57
03C
0CB
FB6
0EF
09A
F98
067
F38
F95
01F
FCE
F3A
F4C
089
FF5
004
F98
0D5
0F4
F06
00E
FAF
FE3
045
FC3
F4D
F65
FC1
F19
0F1
FCA
F66
09F
F8F
0DE
F45
FA0
0B5
F05
0AC
0A2
F57
F15
008
FC0
0F4
080
023
F90
011
FF0
F54
F76
FAC
089
F44
F71
FE3
FAE
0D5
032
F46
F21
F40
FB0
FB9
02B
FA5
03A
FF4
018
0DB
0DC
F89
0B8
0E2
06E
F79
F70
023
F17
F26
F2B
FF9
FBA
F39
0D9
F97
053
0AE
FE4
0D2
F43
0C2
09F
FD0
FE6
FD8
0FA
0C5
05A
F5C
F06
0AE
0BE
F7C
FA9
031
04D
F6F
04D
0C2
02F
029
0E8
0DE
074
F39
F79
FD3
F30
058
098
0DE
0F2
F5B
FC3
F9C
08A
F4A
0FC
FA4
F9D
083
F63
000
F50
077
FC5
0FB
FC2
0FD
013
F04
046
04E
021
FC1
062
F77
0B3
04E
0E5
F0C
F82
FC3
F7E
0B5
FC9
051
F40
0ED
097
F19
F6A
F87
F00
FB5
F41
0DE
05F
F2F
F26
041
F79
03A
F72
F86
0D2
087
FE9
0BF
FDD
0B8
071
F7F
F56
F05
F1E
09C
0F8
FD2
F4B
01B
F53
0A5
F95
0F6
0BD
0B3
03D
0D7
05D
005
F99
0B2
F7B
F5A
FC7
F67
F38
FD8
FCD
073
0FD
F70
0A2
02F
013
077
FBE
F12
F67
01F
07B
FB3
EFF
F1B
0ED
FEF
016
F58
07C
FA2
FAB
0A2
0E7
F04
FD8
F81
0D7
0BA
0C0
0E4
F99
0D9
037
F29
F06
F4F
02E
095
F42
F21
F46
FAF
F1F
EFF
F43
074
F30
F97
F4B
F0F
F27
F2B
087
FB2
F52
FB7
027
FF4
0DC
05A
047
F59
092
F59
F25
0DC
02F
F3A
FBA
F9B
06E
05E
04E
0D2
F98
F18
0D1
F27
F37
FDD
F15
F5B
FDA
001
094
095
081
0E0
001
F87
F2D
0F8
FA3
F87
FA8
00B
F45
059
FDE
036
0F0
F0E
F99
F4B
031
0A9
F88
017
F88
F78
01D
09E
FB8
00F
F73
080
FEA
028
F91
05A
02B
0C4
F8F
09B
F07
F1D
F53
FAD
F05
FF1
0A1
075
FA2
04C
05E
F8E
FF9
046
F83
023
F0A
072
0E2
023
FD7
01B
081
FB1
0D0
FBD
F93
F24
011
FA2
F4D
F92
F8D
081
FF9
F35
06A
FD4
08D
0F0
F57
F49
F70
066
01D
F44
F92
08A
F2B
0AA
09D
FB9
F4D
006
F48
0E3
01C
097
F01
F27
04C
FCA
038
FA0
016
04A
07D
030
062
F53
F94
FBE
0CC
F89
092
FA5
0C5
068
024
FBF
074
F2F
099
0D6
FAF
0C8
009
053
0F5
0BA
FD2
0F4
0DA
FC4
F01
FC8
092
FF2
F34
F75
0D1
014
F9B
F5E
002
0A4
FAC
FBC
06B
0B9
F5B
09B
06B
0AA
F5D
07D
F57
F54
F09
07B
0AE
F84
FD0
F01
048
01E
F51
007
0A6
F52
0C5
F70
FD3
004
03C
0CE
06B
F6B
01C
0BC
08B
FB2
000
01E
F44
FA5
F4C
F76
F5B
0D8
014
F94
014
083
029
F05
FB1
F6D
0C6
F49
0B4
F21
041
012
F60
034
023
FDE
0C9
085
FC2
000
0FD
0DC
F46
FBC
FFD
F78
02F
F6A
F33
0A4
F51
FF3
084
020
F20
FE4
FD8
FDF
0B1
02B
01D
0B2
F72
FE0
0FB
08A
0AE
F33
01B
00A
FA4
F62
F7C
F20
FC7
030
