0F4
F5A
FC5
023
0E9
FFA
F0E
04C
F51
FBF
F95
FCB
00B
FC7
F0A
FB0
008
F6D
F50
02F
0C7
F16
FAA
F97
F22
F77
F93
FBD
F0C
FB8
047
0EE
FD9
0E4
039
F7F
FF9
06F
064
0BC
F94
F1C
F44
F67
FFE
F82
0E5
FB0
079
0FD
F95
F46
FB1
098
026
FE9
F27
033
FF9
0F2
0DF
FC6
FBC
F25
FD7
0FC
F6C
F09
0D7
015
03F
03E
020
068
053
05C
FE7
F62
0E1
060
F3D
FAD
F08
F9E
F2F
0F1
FCA
FEE
F4B
FA0
F40
FEF
FEE
0C6
FAB
065
075
FE3
FE7
F90
FE6
F5E
F7D
F10
008
0BB
099
F00
FF8
F61
FDF
036
FEC
F87
061
F86
01C
06A
00D
F0F
FB1
03A
07B
F14
0E3
FA1
0DD
020
009
02D
035
087
00C
068
0F5
0A2
F05
FA5
069
F53
F95
F4E
007
FFF
034
060
059
071
097
FC3
F57
0BD
005
F53
0DA
0CF
FCD
FA6
FA0
FB4
FA0
0D0
FDC
FEA
F60
F3E
FCF
F80
082
F23
099
F70
057
F54
FBB
0B8
F93
F7E
F24
0EB
07D
06C
089
044
0D3
01A
0DB
021
FBE
013
0DA
0E9
F0D
039
0D9
F34
F6E
F89
FB8
F56
F18
FB5
002
016
08C
096
FC6
F0E
F57
0C1
0BE
020
F11
0CF
027
0D3
F16
0CE
F56
0F6
041
0F2
FA9
F5A
0BE
F57
F18
F9B
FC9
005
F3B
0BC
FBD
F10
052
020
F05
030
032
F5E
F16
F31
F92
0E2
FE8
F71
F83
026
F6C
01F
007
F7F
042
02F
F83
FC9
F12
074
F77
094
03D
F60
F2D
0FB
0A3
0E2
005
FFD
FF1
F2E
F6E
F50
FE3
F74
0E1
06C
F77
08E
002
0B4
08C
0CB
077
F22
0A4
F89
082
FA3
F55
0B4
FFD
F1C
F2A
F5B
FC1
0DD
F3A
059
FEC
012
0FA
0B0
F9F
0C9
01E
F2C
049
0AE
02E
F0B
073
03D
F60
FCF
0CB
F21
F2F
FA0
080
073
035
F50
02E
032
F12
F3F
0DD
FFD
069
FE8
F74
01B
068
FE5
F69
FB6
0D6
FAE
075
0B5
073
03D
F48
F95
F00
F7D
FA1
0F9
F6C
08B
037
07B
035
F10
FA6
0A5
F2F
0AB
0FF
F2B
092
FFF
05F
F77
F3C
025
F88
F90
F76
F4E
F81
F89
F80
090
0EF
F22
F8E
047
045
FCC
FFA
0A4
0BE
FA4
F02
00E
0A8
FA6
F83
FA2
0D8
FC3
026
038
00D
02B
00C
0BC
FD9
F3E
F7E
045
03E
F99
FAB
F68
F9A
F51
031
0F1
F16
FFC
05A
076
0FF
084
092
063
0D9
F32
F4B
0D2
F73
04F
FA2
F7D
02B
08F
F08
07E
FD2
038
05D
021
001
F79
FEA
070
F54
0EE
F1B
062
065
0E1
FCA
F9A
072
F0B
056
068
FB7
01D
F36
01E
0A4
0C1
006
049
FAC
031
FF3
F62
F71
0A5
0A3
04B
F00
FD0
F9D
F2F
0CB
0B3
030
05D
F21
07B
F28
08D
04C
FC6
F21
F5F
01C
F88
04B
080
FFC
F4A
FAD
080
F4C
F3B
058
092
F66
F49
0FB
FD9
012
F3D
0FA
01F
011
066
F02
F98
FFB
050
040
F5C
0F6
089
FAF
F3A
FD9
018
036
004
F82
06E
F60
F7A
02F
0B3
F7D
0A8
FAE
056
089
0F0
F9F
054
FA2
011
FC0
F60
F6F
08A
FB1
F0F
FC9
08C
F79
08B
089
F76
048
F57
03A
F47
03B
FEE
03A
025
F25
FB4
053
034
FC2
050
F09
09C
FB1
F82
F5D
F24
F5B
082
F0C
FC9
F3B
F63
095
FEE
0FA
0BB
012
F0E
0AA
FF5
07C
0D9
041
04C
F63
058
FF4
F2F
F52
F65
0F0
04B
011
FB8
F6C
0C9
F0A
0D6
FD6
FAE
F57
0EA
060
031
F81
0A7
FAC
F39
02E
FBB
010
F82
FCA
0D5
0B4
0F2
FE5
06A
09C
F75
FAD
019
F91
010
0D6
05B
037
FBF
0CF
06C
F7C
06D
FA6
0A3
F68
0D2
07C
041
020
F60
FF5
FDA
0CB
0A9
F39
FC5
046
F70
039
009
018
F06
FDD
007
03C
000
0FE
0A2
00A
0A7
F9B
0CC
01D
F8D
F2A
F9D
0C0
03F
027
F0A
F65
0B7
086
F5C
FCC
F4D
02C
FFF
0FB
F71
F01
F1A
FCA
FD4
0C5
F21
04E
F2C
F1F
F2D
FC1
066
051
040
031
000
072
F70
0D6
048
FD3
F88
FB7
FD6
F25
F3B
F46
FCE
08A
F7F
FCC
076
02B
030
FA3
F76
054
F41
021
009
F39
06A
05D
0A4
F93
F64
000
F09
069
093
F9D
012
0B1
069
FB9
F45
FAC
FE3
FC4
FC5
05B
F7B
03C
0B2
F95
FA0
FF3
0F0
01C
054
093
036
F37
F2E
F84
FF3
046
FE0
027
04A
F9A
F1E
030
0DA
F1B
0EA
F80
FB2
FC5
0B8
F5E
F81
0A5
050
055
01C
FBC
F93
F2B
055
F3C
0DA
001
FEC
0C8
F6F
F0C
FBB
F98
FAC
085
096
05F
033
FED
004
FDD
03C
F6A
F62
F6F
F81
065
0ED
042
06B
02A
0E3
FC4
01F
F4D
F03
001
F57
03B
0E5
0F8
01C
F81
F9F
0BE
FD2
F9A
0E4
FCF
018
003
011
F86
F8E
FBC
F94
043
06B
066
F9F
FF7
091
F42
0A5
F45
F96
F9F
F84
FBF
07B
FBB
FF2
F7E
09F
FF4
0DC
0E4
04F
0D5
0FE
F6C
00E
050
F7B
FB6
F4B
F59
0D3
021
025
020
0B3
FEF
0D3
0E2
085
F36
0D5
F25
FF4
FCF
075
010
F7F
F5D
01F
F0B
FD9
F53
F5C
F86
0B3
0A8
023
F8D
0AB
FBC
02F
F21
069
FB6
02A
0B5
FCB
05C
03C
08B
06C
F83
F8A
0E2
056
026
F9A
FD1
FF8
FC1
FA0
013
03D
F10
0A5
0E3
055
067
017
022
043
F86
F84
06F
050
0C6
02F
F46
F94
FDD
066
F78
F4F
034
04B
FD1
F2B
FF7
F84
FDF
0EF
F09
052
0F2
097
0DB
FA6
07B
F26
FF0
0DA
F4E
0D0
02E
0A9
028
04C
094
086
0A2
FA0
02A
0B4
013
0F2
09D
FC2
F59
FA9
05B
F1A
041
032
FD9
FB1
F50
F22
F09
FA6
040
02B
F4C
F06
F85
0F0
FC6
F09
0CC
023
F54
F14
0D8
F42
F3B
FC2
F35
FBA
F86
021
F0A
F55
FC7
F6B
049
FA9
FEC
FC6
F9F
061
002
F7B
011
FA2
06D
FBF
024
084
081
F0A
FF1
F50
003
F11
F1C
03A
08D
0AF
07C
FE3
F0B
F52
07E
01A
F4B
F6F
061
056
F5D
F2F
FE5
F4D
0F9
F10
0A2
031
F8B
0CC
F43
07F
F6E
093
F20
F51
F02
FAF
0AA
020
03A
F04
0CE
F6A
FFF
F24
F96
FED
F28
02C
F6E
FD2
030
F6A
039
F1F
0D7
F86
F67
FBF
F39
F12
F10
FD2
F89
0D7
FEA
051
057
FCF
0E0
FC7
087
F6E
0FD
F9E
F36
095
00F
FAC
03C
F68
0C5
FBC
F11
03B
0C5
F2E
F25
027
04E
F9F
F54
000
04E
FB5
052
0F7
0F0
0FA
0EF
FBE
FD8
0D4
F1D
F3D
F3F
F4F
FED
0C7
0F1
F02
F49
074
060
F73
FD4
FD3
F52
03E
00D
06E
FC4
010
0FB
050
F52
025
050
F03
0A5
060
FB2
098
068
072
FB3
05C
F6D
FF0
03D
F57
FAD
06C
F8D
F55
FC4
0D7
07D
F93
FD7
025
04B
05D
0F0
004
F33
075
016
09C
FE8
F5B
FB6
F2F
032
038
038
F4A
010
0BD
FFA
F20
0DB
0DB
055
0E5
032
FC2
F80
0A3
F0F
028
FEF
F58
0AC
FE8
F09
F5E
F40
0FA
06D
07A
0A6
FA8
F01
F84
004
F77
097
03B
F75
F9F
0D2
0E0
F2D
04F
F6F
048
09F
F4C
F40
FDF
FB6
081
0E1
F40
FFA
F3F
081
050
FCA
F3C
FCF
FD5
0CD
070
0D6
F87
F2F
FBB
FBE
FEE
00A
0C2
F4A
0FD
05F
03D
F31
032
016
0F8
F52
0FC
F29
F5D
056
044
0B1
F28
F32
052
FC5
F7C
F2F
0F9
044
F63
096
F52
F27
F1B
F86
0CC
0AA
FFA
0B8
F6E
0ED
067
0DC
F79
F2A
F0D
01B
069
040
060
F50
0E9
028
08D
FF3
F3B
05F
04B
FAA
F0B
0BA
FED
F9A
080
FE1
F46
0F9
F93
0AB
0B6
037
0B9
01B
FFB
01A
07A
0CF
0DB
0C9
F9B
063
FDF
FE7
007
FD2
FB5
F98
069
F3B
0CF
017
FC1
05D
06D
FEA
014
F23
06E
FBE
0A9
F26
F94
0DF
0D1
FEE
F26
F66
03F
0BB
F1D
0F1
029
0BD
046
0D1
0FC
F7D
047
088
079
016
EFF
FE2
FE3
0D6
F0D
F4C
F54
FAA
0B3
038
F3C
0D9
F3E
06C
0CC
02C
0CE
FE9
0F4
F45
098
F1C
FDD
030
F9D
FEB
FCB
F81
01A
05C
0C8
00F
F61
F50
F13
FC6
F3C
F32
F1E
F67
F98
0A8
03D
F2E
026
F42
F8E
0A4
F73
035
FEF
FC5
F96
F5B
FD8
018
F63
00F
F78
0AF
F5E
0F2
011
FF3
F5F
00D
017
F66
01E
091
01F
051
F69
F07
F52
F98
F1C
F65
06E
FE4
F3D
077
F21
0A1
F11
086
002
07C
FF7
FA6
FD1
FF6
0C3
FD7
F92
F82
FF8
F84
FDF
0E2
02D
05C
09D
0FB
05B
FA9
F16
066
023
021
017
F04
03E
074
09F
F2E
F81
061
FD0
F58
0BE
F28
F6C
F0C
02F
FC6
F82
FD0
F34
02C
06B
0C3
0E4
0D4
F4C
0C3
F94
FBA
F0B
FDD
0D6
F20
FED
F5A
0A6
066
068
F8A
F29
FB9
F41
06C
FC2
076
FC0
FCC
076
FA9
F12
044
01B
029
042
050
0DB
069
F84
04A
0BC
0B8
095
067
0E6
FCF
F21
041
04F
F7C
053
031
03B
F03
090
056
06B
01E
FD3
F1A
FF8
0B0
0D3
05C
0F4
F6B
03C
001
09A
0BA
0B7
F73
0D8
F50
0BE
0B1
0AD
F85
F7E
0CB
0CB
056
F54
08A
028
00E
F94
F0E
020
0AA
0AD
F1D
0E4
F1A
F4B
FB6
FC5
FB5
F7C
F45
F78
F9B
FE3
F9B
0A2
03C
0A1
F1F
093
0AF
0DD
F05
01F
0FA
0D1
F15
0D2
0A5
085
0EC
F87
F50
0E1
0AD
FA6
F97
094
F29
F1D
F6F
05E
02B
FAD
0E6
F76
FAC
09F
F20
03F
023
0DC
08F
0A2
09A
FEA
FB6
0FC
F72
FEE
093
F69
F24
058
0F7
009
0FD
F98
FA2
0A4
078
090
047
014
0BA
F91
006
070
034
F45
054
05B
F3B
048
02D
FF4
F59
0CD
F61
F11
F11
F54
F28
F59
F79
06A
FA5
0E1
FD9
FF3
087
01E
F96
082
0F7
0BF
F7A
042
086
F76
F19
02B
0BC
FE6
0DA
06D
073
F81
0BF
0DD
FF1
07F
097
0EB
FA8
FE0
0F5
077
FCD
081
F8C
078
05D
FD4
0DF
07F
FCC
F42
F63
02D
FE7
07C
0A8
FEF
F0F
021
087
FD2
0C5
077
F14
037
0DC
001
024
001
0C4
089
FDA
FFE
021
F9C
08C
F80
FFD
06C
FC4
045
033
048
FD7
F33
F4B
F83
F8D
F80
05B
FA4
0B9
017
F7E
039
039
FF2
05B
0EE
FF4
F0F
0FF
F57
0AE
FDB
F9B
064
FFF
055
0C1
F35
04C
FFC
06C
0CB
00E
F93
08F
F1D
FF9
FD3
05A
F36
00C
002
F9E
F45
FCF
FA8
09F
020
0F9
F07
F79
F8D
F6E
033
0BC
F59
0FD
039
F49
0FC
0D3
FB3
F00
F52
F84
F4D
FDA
F2D
F5D
F10
F81
0C3
04C
0F0
F53
F8D
012
085
0BC
FEA
010
F32
029
F0C
F81
039
FAA
F73
02C
F4C
0F2
FDF
F9D
0CB
02D
048
038
FA8
0D6
FE8
07C
0BE
FDD
FBF
FC8
0A5
F43
055
F5D
020
F95
0B1
0C3
0F3
F00
093
0B4
F69
0EC
F81
0C8
0A1
FBD
074
0CA
F08
061
0B1
021
FAE
042
01F
FF5
0A3
F89
FB8
09B
0AF
071
FA9
027
F3F
F4E
03A
F03
03E
F09
0A4
FC2
0CC
0DC
05E
0AE
F28
068
F75
FBB
FBD
071
FBD
08F
F9E
F7E
05C
0BC
FD8
01F
07D
078
00B
FEE
FB1
F3E
049
076
F36
0D6
0FE
FCE
063
F3F
018
0D7
F10
067
F44
0A7
F87
FC4
F94
FB0
FD2
FC5
04E
F78
FAA
F7D
0D5
005
081
0AC
F69
0CE
F29
FC8
F99
FC8
0DC
F91
FD5
09C
FEF
038
FF7
09C
045
FDB
F70
F1E
FAE
07C
033
099
0DB
036
058
FEA
FDA
F5D
0F5
09C
F8D
048
04B
06E
0BB
F92
033
F6B
F79
060
0F9
FEE
F2A
052
F53
093
FDB
0B6
FC0
F98
FF9
F2F
F3D
06D
F4F
FC6
FF7
041
FEF
00C
F8B
F3F
09C
F34
F8B
F58
058
F6D
F64
097
0D1
062
065
09F
F48
F2A
0ED
065
FB0
0AE
04B
FEA
0ED
021
F84
0F5
FE9
FDC
051
F0B
F46
FD7
F16
FB1
0DA
096
060
FCF
FC3
00A
FE1
F71
0F3
F1A
F1A
0AA
067
070
F3A
F7B
F47
F2A
0F5
0BE
FCB
F3B
FCC
049
0EF
F49
01C
030
F8C
F53
02B
037
F35
04A
042
0C6
019
F16
F75
FAF
F5A
F8D
F3A
F7D
F6A
FEB
029
046
F45
0C2
F36
FF2
06E
F9C
079
F26
096
0ED
F9E
F0F
04B
071
F72
020
074
F62
F60
FE3
0F4
F71
FEA
F10
033
FC7
F56
000
0E5
F1D
0F3
F36
08D
04D
FA1
F46
F9B
0AB
034
FED
FFC
06B
F3D
FE9
F94
0D9
F9B
086
F39
FEC
07D
FC3
0F1
022
F4C
085
069
036
06E
F72
FE4
FD1
0A0
FAF
FFE
F76
08C
0CE
FD3
0A8
F25
FE5
F8F
0C7
00A
F64
F52
051
F9F
01A
F03
064
F91
F76
F99
F69
FE6
F20
07E
FC3
F39
082
F46
F53
0E4
F06
06D
09F
F89
0C1
001
F89
0A3
FBA
015
0F6
04F
024
F04
F94
F99
FDF
F50
0CA
073
00A
F5B
F2F
F43
066
F1F
FF5
F47
F64
F1B
0ED
F49
005
090
F44
F61
0EA
FC7
F6F
000
F20
F12
F90
F59
F34
0A3
0CE
F0C
F91
0F2
F05
FD6
024
0D3
0DF
072
F0E
F40
FBA
02C
F4D
FC4
F60
00F
00B
0A7
FC3
010
0CB
F2F
FC3
F42
0F6
0A1
053
F96
0CC
02B
09B
05E
F6B
074
0A1
F82
F63
F42
036
0DB
FA0
F7B
07B
013
F1E
03D
081
080
F3D
06A
FFC
FDD
0D3
060
F01
F64
F18
0B6
FA3
0F0
F67
084
F14
0B0
F90
F81
F92
FD8
FD2
06E
EFF
0C0
0DF
069
FE6
0F8
FD5
069
F9F
08B
FB4
FAB
0F9
F4E
F09
FD2
F84
F60
F15
FEE
FC7
F7E
0FA
042
F85
F65
005
FB6
0A2
F1A
04A
01A
FF9
0AA
067
F54
052
FD1
F97
FEA
FFB
F5D
09E
FF7
03C
FF6
074
F7B
094
0D7
0C1
0EE
F2C
F15
FD5
00E
F43
0E7
0BD
0E5
F07
FDA
02D
FB0
0B4
028
0DD
07E
0C4
03B
0D1
041
0AC
F93
0C4
044
FA5
F91
0E5
025
023
F0C
0F2
0FE
002
025
05C
08D
F2C
F13
0F6
F2A
0F1
F7D
03F
0BE
FF7
066
099
01F
041
FBC
FB3
FD8
F91
FC9
F1F
FD9
F0E
FF5
FB8
0D0
061
0B5
F78
08D
FD1
0AF
F05
061
0CA
078
F96
F70
04C
F32
0D5
01E
092
FBC
02A
FD1
0D6
009
F00
FCE
F4E
FF1
F36
F44
033
F60
0E1
07E
F5B
F96
F1F
FDC
0C0
F7F
0A5
085
0C6
F55
04C
02E
F1E
0B9
F94
FDB
F4B
036
0E0
FD7
F41
050
0CA
0CE
FED
F27
F2B
08D
F40
FED
0B2
FA3
FAC
0FA
F6D
0B3
027
FB9
FD4
F7D
F0F
0EC
03A
FBB
00F
F9F
027
F47
F47
F18
F9D
04F
FB6
F97
F29
0D6
096
F71
0A7
FD6
0AD
F57
FAC
0E1
FE6
F6F
07D
F11
0F0
F5B
FCC
0E0
0F1
0E1
F32
F2A
009
F2C
003
F8F
F3A
FA5
F7C
0E1
FC2
036
01B
FB7
F1D
09A
0A0
F78
0D5
011
09A
FE6
08A
FF7
EFF
013
FBB
F69
0A4
F24
02A
FEE
F46
073
070
F3A
059
FA1
F9A
0C5
F32
0C6
F5A
FB5
0C4
0BA
FE2
F66
F9F
096
F4D
F4C
FC3
FCE
FA9
F6A
0B6
0D8
F9F
F07
09C
074
02D
F20
F52
07C
00B
F92
F29
F0D
FDE
09F
06B
FEC
00C
F15
F66
F44
005
F97
FF2
0D7
096
EFF
001
F49
004
FFD
0F7
0C6
023
F70
F5E
0B6
05C
07F
09E
F8D
0BC
0C1
F21
F52
FE7
F8B
F52
05F
F57
F72
FAC
047
08A
F95
FA0
FEA
0FD
F96
099
FEC
F70
09E
0E9
0AA
F17
FE6
FCD
FE2
00D
F58
0EA
F13
0F0
093
01B
0A1
05C
0A4
F6C
FAD
F0B
087
F66
036
FB3
F22
068
05C
014
092
F84
F7E
FAB
089
F77
072
F0C
FA8
F6A
0D2
F04
0FC
0E6
08C
0FA
F01
FC8
F8A
F6D
0FA
F0B
F76
F12
F0B
04E
FE9
F15
F3F
0BD
FC5
00F
F96
FD0
FB5
F11
F70
FFC
09B
0FF
F96
076
FE5
06C
039
F48
07B
005
009
FE8
F16
F25
0BF
027
F49
068
F33
F59
081
0F8
FFC
F52
050
FAE
F0B
F02
F19
FF5
0EA
F4A
0F1
0FA
F82
0A4
F1F
F3C
00A
0F8
01E
F3E
FCB
F22
01C
008
F20
0E0
042
02B
02B
F37
FBE
012
055
F1B
FA3
F07
0ED
F2D
0DB
0A3
F96
FB8
FC1
F5D
01E
023
0D0
075
F9F
0B2
FBB
FD8
F0B
0C5
FBC
084
F34
FED
074
FCC
F12
009
08C
F5B
F9B
082
043
020
076
F26
077
FE0
01E
F12
F63
FC9
038
0C5
07E
01A
0E9
000
FC4
F8D
F98
08A
F29
053
07F
F5A
044
FAB
F63
F34
0F9
F61
025
07F
F11
012
FB9
038
F3E
FE0
048
FFD
0CF
F01
FB9
0BF
F9A
FD3
01D
0E7
03D
FF5
058
FDA
0FC
0D3
FDF
FBA
FE8
F35
FEF
FA5
FAD
0BD
F44
062
F48
0C4
FC3
F73
F4C
F10
F9B
F25
043
023
0B0
02F
070
01E
0DB
F28
066
F5C
FB4
0B8
F2C
F8E
017
062
FCD
070
F1A
F17
FF5
F8D
F1D
FD7
FB1
F9E
F8C
F37
F9B
F08
EFF
F22
0E9
F01
03C
FAD
FD2
FBB
FD3
05A
026
F16
0CC
F51
FFB
FE3
0AE
FF3
F0A
FE2
0D9
0EE
F41
F94
F3E
02A
08C
092
F9C
071
087
FCE
F84
F99
F4A
F2A
02C
F49
FAE
F25
F8D
078
FF3
F78
F40
0AB
011
06A
FCD
0F6
01B
07A
F99
F36
FB1
068
0BA
F71
095
F08
FC4
FD4
032
F0B
070
0B9
043
0CB
0DE
0B9
F6D
F31
F40
FA6
F77
FAC
FE3
F3A
089
02B
F99
F44
FDD
011
026
F88
083
F39
037
0EF
065
067
08D
0AF
FBD
FFD
08C
02E
0FD
026
F63
007
F39
03B
094
F10
F29
06C
F89
F46
0D7
F27
063
FA1
0CD
0BC
013
F69
02D
074
F40
06A
0AA
FA8
0BC
F74
FD8
015
03C
0FB
0F0
078
FC6
072
068
0CD
F85
027
062
FA1
F25
03E
0E1
0FC
0B6
0F2
FC9
083
F22
F17
FAA
F6B
0E9
0CA
F59
05B
029
0DF
F09
092
F66
F0F
F2C
0CC
083
05F
F52
F7B
FDB
FFC
F5C
F37
FDF
FCA
032
05B
078
0BC
0D8
F6E
047
031
06B
0BF
069
07E
F65
FEF
F38
0BB
0AA
0F1
FE5
F85
F8D
016
F65
088
F51
FDB
F82
0B9
014
08A
0D1
F4C
FD8
07D
0CD
F7A
F74
0A5
F57
FE0
0E3
00B
F81
FB8
FE4
04A
F47
0D1
0C8
FE2
015
FF2
004
FB3
06C
F25
0F8
F74
0C9
F46
F00
FA4
FBB
090
03A
014
0BB
FE7
0EA
067
F31
F98
FA3
0AC
01C
F0E
0ED
052
F4D
0A1
03A
FA8
FE0
075
F51
0CE
FB0
FF0
F75
F92
F86
FCE
F2B
0FC
027
FF1
048
054
F5B
FA4
01B
F4E
055
0B1
F87
094
F4D
0D8
FF1
F27
05D
F5B
06C
FB7
0FC
0AC
006
0DA
0CE
0A7
06F
F90
F7C
FF0
039
068
FB8
06D
FEC
0F1
01D
0FC
0CF
013
092
080
FC0
F86
0F3
0DA
05B
F4E
035
03E
0FA
FCF
035
FBB
022
F9F
F8D
FA3
037
094
F57
FF4
063
F1E
05F
02E
034
F42
077
F31
0FC
0DB
058
01F
F10
0CB
FAC
FA8
F62
023
F02
FF3
026
F03
0F1
0E3
0CE
099
0A2
F96
0F9
F85
083
08C
F1A
F4F
040
0B1
F0C
F83
FFB
F7D
0EA
FB8
08B
084
FF6
073
002
018
FCD
0A2
F41
036
F24
0A0
04A
0B6
02E
036
073
F2A
F1A
030
0ED
FAF
F5E
0D5
0A8
F4B
F82
0E5
F3B
FF8
F50
F55
F86
F86
F80
02C
F7D
0B3
F2D
03D
FFD
09A
06B
F13
042
F0D
044
FDE
FE7
FCC
FDA
042
06E
F74
08D
F5A
0F6
0C9
09A
F48
F1C
0BE
F61
F9F
0EA
F35
03F
07F
F16
FD3
F2C
FC5
08C
075
090
F31
FE9
08D
05E
F34
F58
09F
F5E
FC2
031
024
043
F34
0C5
FF6
F2E
F54
048
077
F88
08E
0EC
05F
F0B
FE9
F4F
FE6
015
F9A
051
0A2
FEB
00B
F43
FAC
F0F
0EB
FA7
F0F
005
FFA
FCC
0EF
F3A
09A
00E
00B
015
030
F72
FF6
F95
FD3
FD3
F58
F00
012
07F
F03
05F
0FC
045
0B1
09B
0E2
FB0
0DE
039
F4A
F44
05A
F3C
046
FC1
091
0FB
052
02C
F1C
F03
F3D
F15
0A3
F6F
00C
F45
F8A
F2C
01C
066
0A1
036
F88
05B
FE7
09B
F28
FFD
016
F02
011
FF0
03A
F3C
FBC
F1B
F18
F7D
F94
F03
0CA
FFE
0F6
F9B
FD9
FB9
0D2
0EA
F25
F54
F18
08C
0AE
F92
0E9
F86
FE9
079
0E3
F12
07A
0A5
F04
F14
F77
FEB
094
0F1
FFE
088
FFD
0FD
FF0
001
0CD
F20
002
FBB
F5E
048
FCD
090
0A8
088
056
0AB
05F
FFC
07F
0CD
0FC
FF1
023
FAB
FF4
F5C
0B4
0B5
0DB
0DA
F55
F99
0C5
F3C
02B
0B8
F32
0D4
FD5
F49
056
F02
05D
0C7
00E
F3B
06F
F35
F3C
FAB
F4D
F99
0F7
F55
02F
F94
FBD
026
F95
02F
FD9
FAE
025
FDF
037
FC9
0E8
0DD
0AD
FE8
F5E
FD2
FDE
025
0BD
08B
0F9
091
082
FEE
F80
F69
061
00B
FC5
080
F2C
F97
051
059
084
05D
F4D
08C
F53
0F6
079
04F
F10
093
F98
F43
F85
F80
003
0CC
F0D
FF4
F5C
0B6
073
09A
09B
FE7
FCC
F35
F4C
0C8
FE8
07F
FDC
0D8
FD9
F2E
0C7
FD1
0DC
FC6
F47
08F
001
F8A
F13
0CA
0E4
FB6
0E0
012
FBD
0CF
0C6
055
044
000
F5C
F5C
F29
F28
FDA
FAE
0FB
F39
FCA
FB4
09C
FCE
FDC
08F
0F1
00C
F12
FF3
F02
029
F57
FDA
0C5
F2F
FB9
0A5
038
0FC
F60
0F0
FBB
F6A
FCB
043
036
000
069
0B6
0FA
0ED
F28
02C
017
094
FA8
FDA
0D4
F8B
036
00D
08B
F53
F47
FC1
0B6
F0E
0B8
FA1
F93
F09
0A0
F10
FDE
F80
F4D
07A
065
002
F21
0F4
F6A
F9A
08D
04E
F83
F30
F28
FA0
FC0
F45
FE3
F00
0F0
0D5
0CB
FAF
027
06C
0A3
093
08F
FE4
0A0
FC4
088
F2B
FE2
F0C
076
F4D
F64
01C
08D
F48
FCB
04D
F11
069
000
078
F2D
07A
039
F3B
0E9
025
F8F
064
FBB
0F8
02F
0A2
F2B
080
0CD
F98
FC3
0B1
09E
F75
0FC
0FD
0D0
F1A
FFB
02F
039
004
037
FAB
089
FC7
017
F6A
000
04C
0FB
F2D
088
FC0
0F4
FE1
F3C
0F1
03A
FE7
FC4
025
01C
F5F
0BD
0F1
FA0
F2D
FB0
FE1
FBB
0E1
000
F94
F4F
0AB
0A5
0A6
FEF
06D
F0B
0A8
04B
0F9
FF5
FEE
F13
011
F46
FF3
F96
01C
FA5
FF1
0A1
0D4
F1F
0B9
087
F5B
066
F5E
053
085
01B
0C0
FE0
015
F91
099
FC5
07D
F06
0ED
0B9
FD6
F00
045
FA2
004
FE5
F82
0AA
F6A
03E
FCE
FB5
F5C
029
F50
F1F
030
F6E
0BC
FBF
F58
046
071
F44
F00
026
0DC
F18
025
F65
F73
031
FE5
FD7
FD3
FFA
F0A
0F8
04B
03B
F56
F20
06C
0F4
0E4
0F9
0E7
0B0
F1F
03A
F41
018
F60
F2E
07C
FC9
0E1
F0A
F5D
092
F03
F7C
FD4
01D
F4E
FA6
F85
F04
FE1
0C0
0D9
066
FF2
0BC
095
F8A
F9F
0CF
0E6
FED
02B
F36
F44
FC7
011
F0D
F79
F4D
F7B
02E
F79
F71
F32
0CE
F96
09A
FD3
F2A
F55
F97
0F3
0F0
0C3
03F
066
084
0B4
090
0F5
06B
028
FD5
FD8
FAB
FA4
000
057
03E
F71
0B6
021
FD8
044
0AF
03D
FB0
F13
0D5
F3D
008
F63
0B7
FB9
F44
F97
F58
0D8
0BC
F0E
0F9
0DE
FE8
086
F06
F94
006
01D
F47
F85
FD7
F0A
FA7
092
F65
03D
09D
FBB
EFF
F37
F6D
F1C
FB0
F83
FD3
F80
FBF
031
F2C
0CA
0D4
0D8
0B0
0FB
04B
FFA
0DB
FEF
0C3
025
FC4
FC6
F9A
060
067
F29
FE3
F70
00D
F48
060
071
FC2
FC0
0D1
F75
06C
FE3
FCC
07F
042
009
001
F21
F93
FF3
FD6
F96
08E
F37
FB7
F69
F34
F2A
0AC
018
0C8
065
0AB
056
FC0
088
F8C
F60
02D
05F
012
FD1
007
F65
0B4
0ED
FC6
02A
F2E
0A2
08C
076
028
FCF
F34
F34
01F
00B
FCD
F00
053
06E
037
070
