FDE0
011E
0034
037C
0104
FDC6
02B8
0084
0213
FFFB
02B3
0203
0238
004F
01C2
FC80
FCFB
003C
00CB
FF8D
03BB
FF64
00FB
FD2C
FC89
01D4
FEAD
FCFA
02A8
FEED
015B
FFF0
FFC6
019D
02B9
01C5
FFEA
0146
0170
0321
FFD8
02AC
036D
FDDB
FE92
FCEC
FF50
0228
FEEC
FE18
0224
FCC7
02A2
00E6
FDCC
FE1E
FEF0
FD7B
FD1B
FEF0
01FA
FDF8
FFF3
FD03
FD44
FD47
FF29
0193
025D
FF5C
0324
FC50
FF7F
01C9
FD82
0201
FFAD
03C7
0189
FFE1
FCB2
FF06
01AA
FD56
FC38
020E
027A
00A4
008D
02BA
FDF4
0333
FE95
02D5
00FB
FCAE
FC91
029D
FD6F
0373
0029
FFA1
FF2F
0344
FE6B
FF31
FD4D
038D
020B
0349
0310
01C9
028A
FC7D
00CB
FE76
FF4A
FE12
FCE1
FDF1
FFFD
01CE
0136
FFA5
0112
FF36
FF57
FE9A
FE75
FFEA
0142
FE21
FDB8
00D2
FC5F
FDB0
FC87
FFA7
FDDA
0362
FD35
FD31
FCFA
FE4D
FC76
0362
FC58
0113
FECE
0002
FEEE
0266
FFCB
FFF7
010D
0183
FF76
FF6A
012C
009B
FF50
0179
0348
006F
03EA
0108
0000
FD2D
FE87
FE37
FD6A
028B
0344
FE4F
015D
00FE
01D8
FD31
02D3
FFFB
0447
046F
01E1
0350
0146
028B
0253
015D
031A
FFF2
FFC5
FF47
FEC3
023C
00D4
FDF1
FFC9
FDDC
0115
FF1B
FCC4
FFF0
FE30
FC9A
FF8B
FE2D
FBFB
0272
FEFC
03AD
0091
02E2
0160
0203
0095
0198
01A1
FE54
FD43
FD2C
FF6F
00D8
00AD
0154
FE82
02BD
0071
008C
FD71
0339
0218
FB28
0212
0229
FEC9
018E
FC9A
01E5
0208
031F
FFA2
FF97
0117
FF79
FC67
FE25
FD96
FB86
01A5
0036
FFB8
FEAE
0023
00CC
0343
FEF1
FE06
01F0
FDF0
02D7
0030
FFDC
0234
01FC
0249
00F3
FF1C
0232
FEB0
00AE
FE31
FFB9
01E1
FBE5
01BD
016C
FF24
01CB
01E1
030A
FE96
FF5D
FC6E
0405
FEC3
0277
FE1F
0352
FF92
023E
FD13
02E1
FE58
FC2F
014D
FDD5
FEBD
00CE
FF24
004C
0131
0207
01BA
02C6
FE3E
FFBE
FD17
02DD
FFDD
FC08
FE5A
0234
0279
FEE7
018F
FCE9
0325
006F
FE66
FE84
FE91
016D
02C9
FF36
02CD
0247
0487
0147
0293
FF22
0335
0131
FEB9
04C8
0344
0046
FF60
FC5D
02E3
025C
01C7
FC22
02C4
0250
FB85
FCE4
FF13
FD6E
0015
FFE8
05BA
030C
FF5B
005E
0414
0326
FF20
00EB
FFB1
FC2A
01F8
FD68
007F
FD99
FC64
FEE1
FCB7
FC14
012D
FF11
FFD2
FEFD
FC09
0202
FCA7
0030
028D
02D6
02E9
00B5
0042
01AE
FE23
FFD1
0013
FE51
FEB2
01E4
FD17
FD1E
FC41
FC0F
FCE8
02AC
FC27
00BF
FD87
FEC3
FF2B
0115
0155
02AB
FE9C
FFC3
0366
03DF
009D
0475
0088
FF45
FDB2
FAB6
FFCF
012F
01A4
FDA2
FF06
FCD2
00F7
FE8F
FCC3
FDF8
FEC1
FBFF
FC08
FB0C
FDDF
FEDD
0188
FF5E
0765
04A4
017A
013A
0205
FF59
032E
FF09
FFB9
FE0D
FF66
FFA5
FBCF
FF4F
01E4
FEBE
FCF8
003C
FE8D
FF65
FFE3
FD5F
00A8
FC27
FAA5
F968
FB15
FDA0
02BD
06BB
0507
04A7
011C
001D
FEB9
FF06
0101
018D
0005
FDC7
026F
01FF
02EC
FBDA
0186
FC13
01D3
02C0
0381
FCBE
FC10
FF1A
F8E5
FD01
F7E9
FCC0
F9C0
FCC2
FE0E
FC67
FC8F
FF23
FC4C
014F
FC07
0182
FDCD
FFEA
012B
FD24
FC5C
02EB
FFE9
FC92
FD10
FED9
0205
0064
FD52
FAA2
FE30
F669
F3AC
F0C8
F0EA
F641
F852
F683
FF07
FE03
00F6
FD29
FE51
FDE1
038C
FDA2
FC78
FC88
037A
FDEC
0002
01DA
FC7E
01EC
0186
FDE2
0498
FB67
FBE3
FAED
FA8A
F941
F762
F51F
F621
FD18
FF17
01F1
FE11
0086
00B1
002F
009C
FD5D
02E5
FC62
026C
0298
FD0D
0369
FEC4
0289
FC6A
035D
FF6F
FF62
FC09
FEF0
FEA4
FF72
FBE8
FE71
FBBD
FB6F
FDF5
FD72
01AB
01B4
02DF
FD81
FF86
FE00
02DC
FBBE
040E
FDCD
FDB1
0143
FEE5
FDB9
FFAB
FF6D
FF00
03F5
0429
04C6
FF85
05DC
0339
02E2
0078
FEEB
FDAE
016E
FD81
FE8D
FF64
03F0
03D1
FD28
005B
01D8
0058
00C5
02DB
FE79
FC81
FC12
00F1
03C4
0497
FE79
041E
01D1
FF96
0360
0129
024E
0135
004A
0090
FC89
FF67
FF3A
FF65
FECB
FE5F
015E
FD28
0257
0318
0316
0051
03C1
01A5
FE90
0257
FED3
FDC2
045E
0419
FF2B
029B
0031
0190
0109
FEBE
01BF
FD4B
0308
FBBF
FD6C
FDF2
009F
FDCD
FC4F
012A
FF9F
FD37
02BF
0097
0070
FE7E
FF32
FDA6
FDBE
02A4
0447
01A3
0297
02A1
FFF2
040E
00A9
FF88
FFDA
000F
FE24
FCCA
00BD
FDB7
FBBE
FD29
02E8
0000
FC7D
FE35
FCD2
FFEA
FF21
FC7F
FD12
FFAC
0374
01BE
FF12
01C4
0379
054B
030F
0626
0113
0130
0196
000D
FE04
02AA
0156
FDE7
0392
00B0
FCFA
FF10
FC4A
00D3
FD54
FD60
000B
030E
FDAC
02BF
022B
FD91
0137
FE0F
FDC1
01D7
02CC
0073
0629
00CD
03A1
FFE9
028F
0100
03CC
02A2
FFFE
FE57
0361
FDB1
02A1
00AD
022E
034C
FE16
0348
FC46
FCD1
FF39
00BE
01A9
FD95
02F1
FC9B
0020
FDE4
014C
037E
009F
FCA5
02EE
029D
012E
FFE2
FD55
00FD
020F
0303
00A2
014F
FC6A
FF35
FF5E
