FC5F
002E
0210
FF42
0152
03A6
0393
0014
FF5E
00E2
FD4F
015A
032C
00A2
00A8
039A
008C
FD41
003A
01E7
008A
FF05
FC79
01AE
030F
029D
00CE
0235
00FD
031F
FC81
FE5D
007B
0138
FE41
FC76
010D
FFB1
033B
FC53
FF44
03F5
00C4
021C
FD72
FFCC
0355
0267
02D1
FC63
0067
FD08
0201
FCDA
006D
015A
FE3F
02B8
00AC
0291
02AC
FC61
FF63
01AD
FC45
01EC
FE73
014A
FE78
000D
01BE
04E0
0290
033B
FD66
0322
FDF0
026C
0059
0210
01E5
FCBF
0200
003B
02FC
02D8
00EC
0080
FDBA
FD5E
0096
FEA3
FD60
FF55
0357
FFC3
01BB
FE8A
FFA5
FF98
04C6
FF6C
FD37
01D4
0286
0414
0374
FBCE
0253
FE1C
02D9
FFB5
FCB0
FC92
FDE1
0225
0142
0072
FDDD
FFB8
0381
FE9D
0153
03DF
FDDF
F7F4
02EF
FE49
0432
FE1A
FB82
FBAD
FFA8
01AA
0236
00BB
FF19
013E
00F1
FCF7
FCA8
FE2D
FD0E
FFC2
007D
FF2A
FF93
000B
00CE
01AD
FF20
FB52
FD4D
FF73
FCFD
04A2
FD88
FDAB
F99B
FC2E
0030
020E
01F9
01C6
000B
FECB
FC42
FD38
0165
0378
FFF9
FCB0
FB7C
015E
FFF3
013F
FE2D
FE55
FFAA
04F2
FB3D
0089
FF81
FE54
FBF5
029C
FD56
0243
03B8
0017
FF31
FB8B
03B1
FD53
0293
FCCC
0026
FEEE
02A2
0369
FDA9
01D1
01DC
FD71
FAFB
0028
00AC
FEB8
FBBB
002D
FBFD
0058
0245
002D
FE44
03B0
0365
FF69
0087
FD91
FC1A
04A5
01C1
FD9A
FC49
0026
018F
004B
00C5
01D6
0114
FDE1
00B4
0016
0233
02E5
0199
FB50
FAC7
01A7
FCD7
FD8A
FF90
FD2A
FAF6
FBBB
0189
0204
FDB8
FF42
010B
01B7
023E
033A
FE12
FC92
049F
FB8E
FB1B
FF9A
02AB
03DC
FF62
0223
FF41
00C0
FF72
0240
FF3C
00E9
FE2F
FE5F
FDBD
FB1E
FEC8
FD44
FE94
FEAB
FEC1
FF29
036D
FF9F
0000
0288
FDD5
FFC3
F9BB
FA7E
FB64
FD4B
005B
0132
0195
FA16
01BA
FE06
FD2F
FBAD
0468
004D
FBED
0078
0149
FE10
026C
0337
040C
021D
02FB
FDD4
019B
FC19
FFCC
00D4
FB3F
FF08
FF5D
0317
00A9
0310
0365
0149
FDD2
05A9
05B1
FD20
FF65
0149
037E
00E1
020B
00CE
041A
00DF
0038
FC0F
022B
0030
FEBA
FD2E
FF79
FBFD
FFAC
FF37
FDC3
0048
FE0F
0297
FF40
02B9
FEB7
066E
02AF
042F
06A8
FF4D
FFB3
02B0
031F
FF0D
036C
FD45
024F
FEFD
02FB
02D5
FCBA
0095
FDD1
FEB6
FB7B
FCB9
FD41
02E3
0108
FF79
0248
0055
FEE2
06BB
00C7
039F
009E
FCF8
FF3C
01CE
01D4
0181
024D
FC3A
FE99
FD88
FFB3
004C
0178
043F
FD7C
0214
FB8A
FCB9
F992
0686
0440
FD71
02B1
FF5B
0121
032F
04FF
FE22
FE49
FB44
FF6F
0238
FA71
FE33
FF70
FCFD
FC34
FE37
FC5B
0339
FF07
FF46
FE38
FD19
0103
FAAD
FB82
05E6
0074
0323
01B1
00CA
FE53
037C
05AE
FF3B
0134
FD98
F98C
FB3D
FC25
FCE3
0136
FEF4
0175
03C7
0318
FC89
FE84
FE86
FDBD
0034
FDF1
FCC3
F990
02B5
0156
01B1
0201
03D5
02DB
03FC
03C0
FE51
FEE6
FCA9
FD06
FE16
FD0B
FF18
FFBC
FFB0
027A
FD80
024D
020E
FFAA
FE5D
FD4A
FD97
FEA6
F602
FD74
FE4C
FF14
FEC2
FEA2
FC6E
FD7F
FCDA
029F
FD72
FC4F
FAEA
FBD9
FDBE
FC7A
02A3
FE71
FB71
FFD3
FE14
0223
FCCF
021A
FCD2
FEEB
FD67
F86D
FA0B
F83B
F82B
F947
008B
FB6C
FCFB
FC8E
FB89
FAD3
FDC9
FB8E
FF75
FDA5
01E8
FE06
0450
024E
FCBE
FD1A
02B1
FD0B
FC9A
FD65
01B4
FCB8
0094
F9A5
01E8
FBC2
FB39
FC20
FDEA
FCA7
FBE2
FD5A
02D3
0334
FE59
FFE3
026F
FD85
00EC
0424
02BD
FE22
0003
0255
FF7C
FC44
FEA1
FD8B
FE29
02B1
FC37
0269
020A
FF07
008E
0018
FE0B
FD8C
FC12
01CB
FEDF
03DE
FDA4
01E0
FF7A
FFF2
01C0
03F3
01AD
FE03
FEC6
FFFA
FCC2
FD9D
FDA5
FE56
FFC9
00E4
030D
07EB
0434
0590
050D
029B
00A5
FE6B
FF82
FEE3
FFA3
FCD0
02F8
0076
FC4A
FD48
0082
FE45
FF46
0014
0106
0113
0096
006E
009C
FD44
0113
FEEF
0096
0192
FE48
0352
049C
FD14
029C
005A
FFA3
FBB7
FE83
FC44
FF2A
01D5
010F
FC06
0296
FE84
FDD2
0199
FD61
030F
03F4
0380
FC76
026B
FC26
0224
017A
0265
FC4A
01E1
0135
0042
FC20
FD3E
01BD
0162
0298
FCC9
00DF
00DF
FDD1
FC6D
FF73
FE9A
FBE8
FE99
02CE
FED4
FF2A
FFEB
0114
FE11
FBCE
02D8
02B6
FEDB
FEAC
0313
03DE
FF2D
FB10
FCA9
01A4
FC10
0146
01B2
FBD5
FD96
02D3
02B9
FE93
0020
FF54
FE3B
00E1
FFDF
00B3
FE4A
FC29
0125
02FD
008A
001D
FF8A
03E0
0364
0027
FBF2
FBDA
03B3
FDCF
037E
FFE8
FC2A
01D4
0237
FDFA
FD1C
0298
0309
FC8A
FDE7
FEAA
0304
FC65
02CD
FE2F
FC7A
FEA6
038C
FF2B
FD88
0122
FE6F
FFE2
0089
FD41
FF6E
FF5D
0297
051B
02E3
00A3
FE8E
FFBB
FC67
FEAC
0301
0247
03DB
FC84
02B2
FC39
FDF4
FC40
0306
FC80
FC5D
FF97
FE0A
FEBA
00D1
FEA5
FE21
02BB
00D6
FF85
FD3F
0461
FD7D
FE8B
0388
FE2B
FE95
0138
03B4
003D
02D0
FDA8
FFE6
02E8
