029B
0230
00C8
FD60
FCBF
02DB
FC6D
00F4
FEE9
00AF
FFC4
014F
03CC
022F
FC35
FC0F
FCD7
0042
0025
FC53
FC92
FD47
FCD1
02AF
02F8
0352
FF8E
0240
036B
0192
FED5
0095
00D3
0273
FDF4
FD80
FE3A
FEE0
0273
FD27
FF79
009C
03BC
FDA9
0187
035C
FC6D
FC34
00CE
FDE1
FEA1
FC3A
01DE
005E
026E
0330
FC57
FF17
FD34
0098
FFEA
FCB1
03D8
FFB6
02FB
00B6
FDC2
0206
02B6
FF07
02D6
FF7D
FCC2
FCD3
00BA
FFC8
FF71
FFD1
03C3
FF32
00A2
FD00
0175
02B8
0297
FC29
010C
02D4
FE4F
0199
0104
FDCA
FDCD
00F0
FE02
FF08
02E4
FCD0
FD0D
0295
0103
FD0B
03D7
039B
0525
FC74
03DC
FF20
FD4B
FDD2
FF5F
FDC0
FDF2
FD98
FDB5
01FC
FE19
0152
00B3
FBDD
FF1C
015C
00A9
02A2
FF88
0423
027B
FFE9
00B6
0306
FEC1
00B0
FAD7
FD02
03C5
00FD
0385
FEEF
FECD
FED9
FE92
0265
0323
FDAB
02D3
025A
02E1
FE52
00AD
FB1F
FBEA
FD2A
FEFF
005C
01F0
FF23
FDD6
000C
0103
FF02
FE5B
01EE
FD4F
0053
038C
027B
FF6B
0278
00C8
0019
02D8
FF8D
03CA
0414
FBC1
FAF8
FD18
FCC8
0208
0176
FF55
FDC1
00F1
0037
01CA
0177
0238
012E
0141
FF56
FF53
0141
042C
FD07
00E8
009E
FCA9
FEC8
00A1
FFFE
FF74
0186
FCA5
FF07
FFD5
FD72
0328
FFC0
019E
FF3A
02A2
FDA8
FEB3
FECA
FEE4
0041
00F4
FEDE
FE36
01BD
FE91
FD9C
037D
FFF9
00B5
0080
FE34
FF2D
FFB1
012B
FF5A
FF31
FC6B
FFA0
00DD
FEA3
FF82
FF38
011C
018D
0109
FD73
02CC
FDF6
03E5
0473
01C4
03FD
0450
FE5F
003C
0082
0286
0213
FCEB
008C
011F
FCA0
FE7F
FBFB
FB20
FBE4
FCC1
FE77
FC89
00DE
FEDB
0056
FE05
022F
FD04
FF67
0008
FEA4
0179
01EC
03C2
FF62
02B1
FFD9
004B
FE1F
0187
00AF
02F4
FCD3
00C0
FE75
FD04
FE82
F974
FDB3
FBA7
0111
0353
02D6
039F
00BB
0240
0024
0154
0063
02AA
05A1
076D
0140
FD0D
FF3F
0285
FCAC
004E
FC5F
FD90
FE5C
FDC3
0182
FE62
FF07
FD9D
01F5
FEBA
019C
04F0
024C
00A5
04C2
0206
01E6
0304
014E
01D5
0225
FE72
04E8
0403
01B3
01D0
FE0D
FC58
0191
FF34
FFFC
FF7A
FB85
FFEA
FD38
FE83
FCF0
0148
0222
05C2
035E
02F0
0491
FFCE
FE70
013E
0175
014F
FC4D
0144
FCB9
00DF
FCC8
FE59
FDA8
FE4C
013E
008A
FDAC
FF39
0098
FEEE
FE29
0267
FE5E
00EA
0169
FFFF
FFF7
FF5B
FD9A
0155
FF6B
FABC
FD71
FFC2
FBB1
FE17
FF4D
FDB2
0358
FD28
0044
FC8C
0141
0321
0142
F972
FF2A
FDC2
0271
01C0
FD90
03FE
FF06
FFEE
FEC3
FF97
FEE6
0057
026F
FD68
03B5
FC08
0002
0123
FD8D
0139
FC91
01A8
FF77
0098
016E
FC3E
FEF4
FD85
FC5E
FE37
FECC
FCD6
FCBF
FE17
01AC
FE97
FBD3
FD2F
FDDA
0104
02BC
FE19
FBC9
001A
FD0D
FE7B
FF03
FC2F
FD25
FE3A
0038
03BC
02BA
02E3
0315
00E1
FE16
FEB3
FD85
FB07
FA69
FB05
FDAC
0124
000D
FDA4
0191
FE64
FFF9
FF4F
007F
015B
014A
FC61
0159
FBA8
FD0E
013A
FC50
0373
019C
00ED
034F
03A5
FEF2
FFCF
FB5B
FC92
FDE5
FB00
FA2C
FED0
FE64
FEAB
035C
0008
0049
FC6A
FFF7
FAA8
FC0B
0127
0120
028D
0026
0331
014E
0176
FE81
0543
FF88
0339
0531
02B6
01EA
000A
008B
FFB3
FE92
FCD1
0401
0319
042F
0138
FEF6
F9E6
FAF0
FF5F
FF08
0238
FF5D
017F
FEB9
019F
FC9B
FFC5
02E7
04E7
0040
03D9
00D2
0258
03A2
00AB
013D
01DF
040D
013A
0211
001A
0095
0455
FF0D
FDE4
FF69
FEFE
00D0
FF54
00FC
00AC
FC4B
01D7
FF18
0209
003C
FDEC
04AD
035A
0051
017F
0276
0101
0054
041E
FE99
0243
0113
FE66
03B2
FD74
FAF6
F9E9
FE3D
FD1A
0012
FB47
004D
0004
01DC
0227
0231
FC96
0025
011C
FF16
FCBE
FC8D
0239
FFAA
FFAE
FDD8
03A8
FF99
007C
0261
FC36
FC80
FDCB
FFED
00FA
FB62
0040
FC0E
01D4
0243
FEAF
FE78
FD25
FD89
FDA0
FE3F
00DB
FF6F
FC38
FF13
FEA7
00A5
FFE1
0205
012B
00EF
FE65
02A8
FEDE
0094
FA90
FB27
0067
FBD0
FEDE
013E
FF7B
FF16
FF17
FD6D
0061
03A5
FF37
FFCF
0271
0032
FB51
00AB
FFFF
02CA
FEFB
022E
0060
FE09
FF5C
FBC9
FA41
0152
FC6E
FDD9
FD36
FCB8
FD04
00F1
FD1B
000C
0036
0011
01B1
0186
FFED
03DE
FFE6
0038
02D0
014D
0139
FBBB
FD46
FCA0
FCFA
FFAC
FAB8
FB3F
FCEE
021D
FCF8
013E
FD59
FED4
0175
027F
FD3D
01DC
03BC
0185
034F
FC86
FEF8
FC67
FE2F
0061
0183
FC79
00B1
FEAE
FD07
FACB
FB0E
0089
FEDA
FED3
FD3B
FC35
02DB
FE47
FC76
FD5F
FE94
FDD9
FE4A
FCF9
023D
FC1C
009A
FD65
0315
0110
0001
FF1D
FBD2
FE70
FE54
FCED
002C
009B
00BC
01A8
009E
FD21
FFB9
02D0
005C
0178
021E
02D4
00DB
0268
FCD1
0049
019E
0219
FCB7
FE68
030B
016A
0076
FC06
0054
014E
FDCF
FF28
FFDF
FE1B
0065
FD60
0171
036A
02D9
01B0
0089
0227
FF85
0191
FD16
022A
FE67
025B
FFA5
FCA4
