025D
FEDB
0138
FD77
FC9F
FFB3
FC70
FE0C
02D1
FF28
FFC4
FCCE
0007
FF89
03B5
FDB3
FD27
FED8
020D
0161
FDA9
0290
FFF0
FE03
FDF7
FF94
FC6F
FE5A
011B
FD2A
FF8F
0358
FFCA
FEEF
0130
FC15
00A3
0009
FFD2
FE97
FFF4
0262
FC3B
FD25
FCFE
013C
02D1
FC83
00EA
0000
FD5A
FEC3
01E2
FF61
03E7
003B
FD58
0325
00D5
02F3
FEDA
FD31
FE3C
012A
FDDA
0108
FC7F
FF2C
0009
03E2
FF06
015D
01EF
FCEF
FE69
029D
018B
FF63
FD61
0342
0192
FC08
FDFA
FCE0
02BA
016E
008A
0233
FD9D
FFC0
01E0
01F7
0076
019F
0111
01A2
FEDE
FBF6
FE8E
FB99
00D9
FEA6
0212
038A
00C8
033C
0363
FE79
FBDB
019F
0369
FC85
03FC
FD65
0121
FE8C
FE92
00C9
031C
FC9D
FEF0
FF4C
FF8F
0232
FC80
FD66
FD4E
FDB4
021A
FAEB
04AF
047B
00FC
05CB
01E3
028D
0273
007E
01BF
FEFB
FE45
FC5D
0019
FF7F
FD7B
04DE
FFDB
0268
FE92
0333
02A8
FE5F
FE4E
01B9
FDB7
0000
FFA6
FF71
051A
01FC
FBA8
FB7E
FDCD
019F
041E
FF7E
FE74
FE25
FC67
0031
01FF
036D
FE26
034B
0035
01E0
013A
0483
01A3
02D5
02A1
FF8A
01B4
0286
FB4B
FB86
00BC
0161
0251
FF00
0492
0339
0410
0465
FEF9
FEF4
FD13
FF98
0010
01EB
0254
000F
01D5
FE0E
FEE9
FF14
0240
062F
FE73
0021
0367
FA25
0027
02BA
004A
036A
00E3
013E
00ED
FB7C
FFAE
01F1
FE7F
FCF3
009A
FE35
0362
FF72
02E1
FFBE
FA58
02AE
FCF6
033F
FE75
FFD1
0105
009A
FDB5
0102
01D1
0155
0342
0729
014F
FF13
0389
F8AC
FADB
FA9B
FFF4
FE20
FCC6
FF54
0319
FE39
029E
FF0C
042E
0434
02B0
0322
011D
FE80
0806
FCBC
FB1C
00A5
00BC
0698
FE66
0001
FC87
00EC
0227
0273
FEDC
FCDF
FF07
01FD
0084
0098
FDD8
FFB0
03D3
FEDD
FBBD
0004
FDDB
010C
FFCB
FC13
F2BE
F3D3
FCBA
005B
0332
0046
01F1
0110
037C
002B
FD36
FE72
FCF8
0320
030C
0314
FEF2
0359
FD3E
004E
0087
0113
00A4
FFDE
02E6
F925
F0D4
EEE2
F2F2
0192
00B0
04A0
FFA2
FF31
009D
01A7
033D
FF4B
04C5
FF72
FD3A
FD10
FF18
02B1
00D3
FE42
0087
0317
FC08
FA21
FAA1
F687
F1CB
EE85
F8F8
FF4B
032F
06FA
FEE0
0180
FF71
0340
FE6F
FF19
01E8
FDA3
006C
0132
F998
01C6
FC57
0032
FCE5
019D
034B
00B3
FAFC
F741
F7E2
F399
F685
FA66
01C0
0198
0425
FFA4
0162
FF98
011D
FBA5
FE23
FE9B
FE2C
FF6F
FB34
017E
FE64
FE6B
0153
FECF
FFFE
FC4D
FF9C
02E3
0251
FE75
FCD2
00A3
0181
0034
05AF
036D
0455
02F9
FF19
02EA
0024
0003
02CA
FDE2
FEC6
07E7
0253
0545
FDFB
FF09
FDB6
022E
01F3
01B8
02D4
FD08
FFB2
FE93
FFB1
FF9D
FC23
FFB3
0481
03EC
0123
02C0
054F
03AD
FEA6
00DD
0069
0326
0002
0114
051F
FFA1
026E
FAD3
025F
0256
0379
03C9
FD7D
00CA
FD3C
FE54
039A
033C
013F
0114
015D
0593
04EE
0257
0191
017F
FF34
040A
FE64
0381
FD31
01F4
FEB4
FB7A
0141
FF19
FCB6
0352
01B5
FDDA
02C7
0004
FEC6
FD73
F873
FEE3
FCBA
FB4B
FF8D
0015
04EC
01A6
00F2
FFAD
03E5
FB4D
02BA
0484
FD94
0120
02C3
00B4
FD4C
FE8B
FC95
FCF1
004F
02A2
FF81
FBB4
F6B0
F8EB
F66C
F48F
F8E8
F8C5
FDB4
FBCA
00AE
FF09
FF91
01A1
FE2E
FF1B
005B
FB2A
FD66
0278
FDB5
FF33
FB90
01D5
00A8
FC1C
FC7F
FF2A
FF63
FF8D
FED4
FB64
F934
F88B
F9E4
F73A
F87D
F837
FC81
FE27
FD85
01A5
FE31
01CD
FE6B
0280
FB8D
014D
FAED
F8B5
FF36
FFF5
FF1A
FE93
00FD
FD65
00DC
05A3
00B8
F9FA
FE38
FA4F
0164
FCF1
FC0E
F7F0
FB3E
FF7F
0049
FF08
FB4D
0301
FE78
FE7D
0143
00AD
FE66
F993
FF77
FEAA
FE74
FDB5
0355
0274
0124
06E8
0541
033A
05A4
0070
01A4
FFA7
049A
FDDF
04AE
00DC
FDBD
FE2C
0246
FCED
F9A8
02C5
0078
FD79
FB6A
FC14
FD46
029C
009E
FE9F
FC66
FCE5
0506
0242
0060
FD74
02C3
FF7F
0312
00A4
0029
0139
FB30
FD8B
FFA9
FFA6
FFFB
01EC
FCFF
012C
FF96
FA8A
FD98
0144
FD31
00FF
FCA7
0077
FCB6
0206
FEE9
0215
044B
02D3
FEA7
077B
FA90
FEAF
FEF8
020F
0216
022B
FD96
FBF7
FEB1
FDF9
FE5E
FF32
FBC7
FB01
FFC9
FF5B
02FB
FE44
FD26
FD69
03F4
FD7C
FF4F
FF42
038D
0562
00B8
008D
038D
FFFD
0364
FD4E
FAE9
00A8
0113
FC5B
FAF7
FEFA
FA2A
F6BA
FE5E
0079
FE1B
0040
FEBF
03CD
FD1E
00B4
028D
FD5A
FCFA
04F9
01C7
041D
FF29
00FD
015C
FFD5
FC7E
00C3
0069
FFE5
FE80
00E2
FFF6
0099
FA1A
FD58
F965
FD95
FC2C
FCCD
FCEE
FDB4
FED1
FCB0
02AE
027F
FD21
FE82
00F8
0153
FE2E
FF35
FEAF
0000
FD96
00BC
FF6D
0079
02F2
01C9
01F5
FEDF
025C
0378
FEEC
FCA0
FD1D
FEE5
03BD
00D0
FF9F
FE4E
0302
0288
FCE9
00F8
03FB
026A
029E
FE2E
0013
FF8C
FFC3
FE6F
FEB1
FC92
FDF1
FC96
012B
030E
FFD9
FCB0
FE44
0345
0263
0366
02DA
FE68
FD55
0038
