FE77
001D
FD4D
02DA
FC0A
0331
02DA
FE02
FFF9
02F7
FE03
FC14
0080
01B2
026E
00A6
011C
0352
00F0
FED8
FD25
FCF9
FFD3
01B5
009F
0292
0227
00E2
0337
FE91
017F
FD23
03A3
0239
FE98
FE20
0342
0425
FF12
031D
FCD0
FDFD
02FE
0185
FE90
0185
00EB
FF8C
01A3
FEBE
02DE
0347
023A
0058
010F
03CE
032E
FC2D
03BD
FF55
FD84
0171
046A
047A
009C
FF8D
0535
06A0
02C1
02A7
043A
003F
00FA
03E9
0485
FFB3
FE6F
028B
FD77
03B1
FDC2
021C
02CF
FD88
034A
00AE
FF0F
FC28
0294
FFEC
0361
FF6A
0392
076E
01A2
0316
005E
FB51
00CC
FDBB
FDC4
FEE1
01F4
FF07
FCDD
0335
0353
02B7
FFBA
FFB7
FDC5
FC40
0128
02EC
FD24
FD30
FF88
02F5
0119
0267
FF8E
05EE
0162
FFCE
FF24
F9D4
0000
FACB
FC7F
FEBA
FC9E
FDFF
FA34
FEC2
FE67
017E
FCD5
FD8A
FD20
03F6
02A0
FE48
02B7
FD69
0217
FFDC
039E
00F2
FF24
FEC7
05DD
FD61
03EE
FF59
02F7
FDA8
0476
0565
00FC
019E
0470
FCE9
FF56
0441
007F
FE50
00AA
FF6A
0168
01B8
FC59
01E0
01E0
FB01
FDB9
0213
FB5A
FB3D
FCE4
FF69
FF8B
FA2A
FD9B
FF6E
FD98
FCD5
0003
FBD8
FDF3
FCC7
FFFF
FE12
FA17
046F
FEE9
FF1A
0153
0384
FD86
FEA1
FE77
0301
0193
FEC8
0311
FB7A
FFDD
FFF1
FBEF
FC2A
FF33
FD08
FC24
003E
FDF5
FD11
F994
01E5
FAAA
FA42
0420
02C1
04C8
FF78
0340
0263
0318
FBCB
01DC
FFF9
FFA3
FF79
0329
02F6
FEE8
FF91
FD38
015E
FDD1
FC94
FEB1
F9C2
FBB5
010E
FCF6
F79E
F61A
F529
F8A6
F95B
FDFD
017B
FFB4
FC94
03D7
FCF5
FE63
FE39
FC59
FE31
FEFF
FD5D
FF5D
F752
0183
FAF4
0281
FC6D
0283
FE71
FC95
FD54
FD04
F74A
FEB0
FA7D
F80B
FF38
00C8
FF2C
FC0A
028F
02A2
F992
011E
FFB5
00BE
FF8E
FDA1
FF5B
FCEA
0083
FBEF
F844
F962
FC80
FF11
FFCC
F6D0
FBC5
FACE
FE80
F975
FF75
003C
FFAC
015A
FD98
FFB4
FD30
FF95
FB45
00DB
FF0C
0151
FD25
FDDF
0080
FA8B
F8CE
F84B
FB68
FC33
F934
FC8D
F747
FBDA
01C6
00A4
013C
FD0B
0370
00EE
FC18
03E6
FE73
FC12
0293
03C2
FE35
FE48
FE5B
FADF
FE3F
02D4
0690
0481
060D
FF73
FC7E
0027
FE91
FD3D
FE2E
FFDE
FBE1
FC7C
0156
0112
0152
06F9
015A
0335
0203
03B4
0031
01D1
FFDE
0145
FFCE
017D
FC35
00CA
FB93
01BE
0375
FF40
05AE
05C6
FE4F
04AC
FBD8
FEEC
002A
FF21
05AB
FF50
061E
0582
FF4D
FE6A
03CE
0058
0257
01FE
013E
FDAC
FEA2
0302
FEB0
F9C3
000F
00D8
0348
0015
03F6
FF6B
0352
01F0
FD6C
045F
0411
FD02
FED9
016B
0141
0139
03EE
01A4
0102
02AC
FDF9
0241
0499
FAF9
0116
00A2
FFBF
0290
FFE0
007E
02FF
00C7
06E6
061B
FF5B
00C1
FEF0
025C
0133
0111
0438
FEAF
FFCE
FEC8
031C
0132
0352
012E
FDE1
02DB
FD78
00D3
00DF
019F
02A6
FF49
0021
022E
0652
FF93
0A12
0940
00FE
051C
035E
019F
0206
01AC
0267
0247
053F
FBFE
03C2
00BA
012A
02D9
FFF6
0181
FCE1
0207
FF8A
FEF9
FD3E
017A
0032
04EF
FE30
0082
030C
0123
FBDA
0137
FFA1
01C9
FC1A
0429
043B
0351
0368
05B6
04C0
FEE4
FF4E
FD2E
FFE2
FFF3
FC58
0205
0411
0494
03F3
FF3A
FFFF
01D7
FBBF
05E8
04F3
01BD
FEF5
04C7
0171
0564
02F6
0043
FFF8
009C
012B
02FE
05EA
041E
0421
03C4
FF87
031A
0032
0194
FECF
FDED
01F6
FCAB
00B1
FFF6
036F
FFAA
002A
01E3
01B4
05CD
02EA
FFFD
008F
024B
04EA
0243
02B8
0075
02A7
FDA2
0204
FC52
FED6
0231
01EC
FCAC
0457
F8B4
021F
FDD3
FE08
01CD
058F
0353
0098
FE41
03EA
001E
0034
045C
FE59
01F0
02C4
FD57
FD56
027D
01D0
FD41
FD42
FCE5
FEA9
FDF7
0248
FF87
0403
FE38
0088
FDDA
01F5
0318
0129
0219
066F
039B
FEC7
FD69
03EB
01EB
FC6C
0182
00C5
00D5
0580
FEE7
0349
022B
0282
020B
FFE0
FFCF
FD7A
026A
02AA
FC45
0076
0213
042F
074C
FE85
FFCE
01F8
FD34
FE12
0470
F8D6
FD39
039E
0030
FEF3
FFD4
FDA9
FF9F
FD73
01BB
FF2F
0241
FFDE
FFBD
00B2
0386
FFD3
0152
FD53
008B
0141
FFE4
FE31
FEA3
F7B1
003A
FD14
FF05
F6EA
FC30
012B
FC43
0049
FF4E
FDB8
FF61
0169
FED8
0230
0289
FEB2
0352
0187
FCAA
00DA
FAE9
FC42
FE98
F9D3
FB24
F746
FC96
FAC5
FD40
FD6C
FEAB
FDAB
FAB9
FA8D
FA4D
FBED
F8B5
F97B
028B
0280
01F3
01C9
FE85
0321
FFAE
FE76
034F
FB94
00DD
01E8
01A3
FA5F
FBCE
FEA2
FF2B
FEEB
FD4E
0016
FD66
FDFB
FD8A
FB44
005E
01F0
FDF4
012D
025A
FD8E
03CF
008D
FC22
FDF8
03C4
0086
FC6B
FF16
FD7C
01FF
FFC8
01BF
FCE8
FC7C
FFC1
FC7C
FC59
024C
017F
FD5C
FC64
01EC
FD64
FD1D
FF9A
FEFA
033F
FFBA
01D3
FCB4
01DA
FE15
FD58
FE8A
FE78
FC38
FF36
0076
FDA8
028A
FFB1
FD46
0268
FC08
0382
001F
023E
01B7
FE0A
FCA7
FC5A
FE6C
0398
FD71
0226
FF24
FD4F
FD3A
