F43
0AC
046
FD6
05B
067
0A9
09D
064
0D7
0E0
FCF
F11
05D
05C
04B
F69
F87
077
091
F64
01F
0D4
FD1
021
F04
02B
044
053
F53
FC5
00B
023
030
095
FEE
028
0F8
0EC
FA9
023
0A8
08D
08B
F2F
0D4
F6E
0CB
F32
F3D
0A2
094
0CF
038
F73
FA0
096
FF6
F78
0D2
F1E
F19
0B4
FC6
F9F
02D
FE7
F02
F88
F9B
FF6
096
0A4
FC6
F30
FE0
02D
090
0DA
085
F5B
F6C
FEF
00C
058
F6B
014
F01
03C
03F
087
FB7
07A
019
F08
F19
F7C
FE0
F39
FAD
03B
FBA
F8A
0FC
032
013
F1A
00C
F10
FFB
017
F88
FF5
056
06A
FDF
F67
026
0F7
F5A
0C8
0A8
FB0
02D
00C
04A
F39
014
F8A
079
F01
F30
026
007
F48
0D0
F9B
FC8
EFC
053
05E
FD4
0CB
046
02C
FB0
0AE
FAA
FA0
FF8
098
FE4
F57
010
0F0
013
04B
0D5
FAF
05A
FE1
F4D
F66
F4D
F11
0C7
0DD
FE7
0F6
06F
04A
0CE
0B5
041
F5D
F63
017
FC3
F20
097
FCD
0F4
066
0E8
F0F
08D
F66
FEF
F63
FF3
F72
0E9
05C
F40
02F
F9C
0D4
09F
033
FFD
080
02F
FA6
EFC
0A8
F91
F22
0A6
FF4
F34
0DB
FDC
0D8
FC9
F69
0F6
F4A
F39
026
F7F
01E
02D
FE0
FFB
0E4
F1C
008
FA3
F55
031
058
005
03F
033
069
F1E
FF5
F0E
F98
022
F7D
F21
039
F8D
F2C
FF5
FC9
0AA
FA6
F48
075
0C4
08C
FB5
0C6
070
06E
FBF
093
0C2
064
068
F57
0AA
F3D
FB2
0AD
02D
F7C
F38
082
0D1
02E
F70
0EF
08D
0BA
050
017
FF4
002
F81
00A
F6D
FE7
06E
031
07F
06D
F3A
01C
05F
044
020
FD3
0C7
0DF
089
FF9
0EF
006
F17
F9F
FBF
F1A
04A
F66
FC9
065
06D
F88
0B0
FE2
F82
0A6
07B
078
027
F63
086
F2C
064
FD7
094
F77
FC6
022
099
F13
EFF
009
006
045
0CC
F1A
FB0
04E
F19
FAE
095
0C5
F45
F62
003
040
038
F6B
FCA
092
071
0AD
F10
0A1
F14
04C
0D3
F9E
07B
FE2
F2F
F97
F5F
0CB
030
F62
F0D
092
097
0EE
F72
0DD
F79
079
F71
F00
0DE
FCE
F8A
06A
024
F95
06E
080
F0E
064
F87
FD7
FEF
005
0BB
0E3
FD0
04A
042
041
09A
093
0CA
0C9
EFD
FD1
FC0
FC3
0EC
FDB
F28
F4F
035
F06
F5B
F50
F8E
0D7
0C2
060
0E0
013
07A
F60
FD0
05E
F1F
03C
01E
08D
09B
F7B
0A2
F73
004
F35
F6B
FA2
FA8
FE0
F4B
093
03E
049
F7F
0EF
F45
0F3
0AA
01D
F21
F7B
03A
FC8
066
FF0
F86
003
0F6
F57
051
0EC
0B6
071
FB5
0EC
0FA
F1E
FA7
F7B
FB5
F66
F5A
034
088
FA1
F12
FF2
FF7
050
F93
03E
EFF
FB6
06D
FA5
FB3
FF7
FE0
086
0CD
062
0B9
024
0C4
0EC
016
FF7
0C4
F99
FE5
F75
02D
F00
F5F
0DC
F63
03D
032
02F
026
F45
0CE
F38
0F4
F0A
091
F12
006
007
0FC
FED
04B
F7C
051
F7F
0E8
085
F76
095
FC1
F90
047
0EE
036
F63
0E5
092
058
F7A
F48
0DE
0B8
F9E
0AC
F6C
FE2
FF0
07C
F43
FBA
04F
FFB
F5C
F92
F7E
F06
0E8
F72
F75
081
0C3
F57
036
F59
0B4
00A
F3F
011
023
0C9
F1D
FF2
003
F26
0A7
0ED
F94
0EC
09E
F1E
F01
F1A
FC7
0A4
045
05B
F82
0F4
FC0
F54
0AF
050
039
034
FBE
000
F76
04A
0EC
F8E
F39
04A
F30
F7C
FAA
FD9
06A
F46
08E
FC9
0EA
065
FBF
F51
0FB
F3E
05D
019
F92
F2F
F7B
026
F08
F2D
F2A
FF0
F07
F1F
026
FC8
0E8
F37
0C1
F2F
FE7
0A1
FE4
0C3
006
0DC
F8C
0F5
06E
F9A
FB3
F5C
03A
030
029
0F7
002
F5B
F0C
0EF
FA0
F78
0A8
0E7
03A
094
FFF
F8C
0F0
F06
F4C
F91
0DC
FD9
060
FB9
FCA
F61
077
0C7
0EF
097
0C5
0FA
04B
F31
056
07F
F84
F0A
014
F67
0D6
F88
019
FFC
03C
00A
0EF
08F
09B
FE0
FBC
0DF
09C
F3F
0E9
F25
0F0
F80
0F3
F10
038
FCE
F92
F11
F20
0A2
F0A
01F
F66
F26
0B1
F6D
03A
FC8
087
F02
F6D
FBB
FB9
0C2
0A9
F14
0C6
F16
F41
099
08B
099
FB8
09D
FFE
F64
030
05A
0BD
0A9
F4A
F36
079
FA8
FD5
039
FA2
F4D
FCE
0A5
04C
F2F
07E
FE6
026
055
F98
0E2
06B
0D0
F70
04A
FA8
FC4
F7F
08C
0C9
051
0D1
FEE
FDA
04F
0C9
F66
06A
FF7
0E1
FBE
FC1
FF5
0E4
F49
FF0
059
F47
F51
F60
010
0D9
FAE
0D6
0A1
02D
0D5
FD0
092
0EB
FCE
00E
0E8
FEE
F38
085
0B6
0AF
F4B
F50
0CB
F33
0EC
0DC
09D
FB9
09E
0C5
F42
001
06E
0D6
0EA
02B
F47
0C0
086
07C
0D9
0EF
F16
026
039
09B
FCF
F16
0AD
FAE
0E1
04E
F29
F23
065
033
004
FAB
023
09D
0E9
FD6
F4E
076
072
018
FD5
0F0
0A4
FE0
009
F38
0B2
0C6
07F
0E8
070
FB9
048
01A
F68
F74
0B2
026
F81
0E6
F8E
0D9
0CB
061
08D
095
F31
06B
FBE
F33
F44
00E
017
05B
FA3
F8F
F5F
FD2
038
0E4
05D
F25
F5D
F2F
F27
02A
049
F66
0D8
073
074
0B2
F07
097
097
EFD
FB4
0EF
024
08E
080
FD0
04B
F02
F2B
04A
F4C
028
F5A
F50
0E8
FC9
04A
00A
F56
F0C
FC6
F83
038
099
FC4
0F0
FB0
FA7
047
F0D
F78
F42
01A
03F
F19
02E
F63
07A
0C3
F0E
FC0
FC5
FB1
049
F24
049
FA6
019
FFC
043
FAA
F13
FE7
07B
F0F
028
F12
F11
FD2
F28
F33
067
0BF
F8A
FA5
0C0
F55
0C1
052
FCE
FF1
01C
0F1
FF6
0B1
F05
02F
066
0A4
039
F64
F38
F7B
03C
FED
03D
0D3
F27
FC3
0EF
F9B
057
0A0
0CB
089
084
F1D
043
F54
0D9
F99
042
F50
FA5
F64
F6D
09D
F0C
0A5
00B
055
F0F
F37
041
F50
F1C
0D3
FE9
08D
005
083
FA7
F10
0B6
F36
099
018
042
F90
F0A
049
073
F10
F08
0EA
F05
0D8
0E9
FFC
0C2
018
F33
F7A
F73
FA0
F16
F96
F8D
F95
F9D
F2B
05F
05D
F9F
FE3
025
F61
07A
08E
FC6
F12
FE3
02D
FC5
FE1
F00
0E8
084
FB3
079
01C
090
FC6
0EE
092
F0E
F96
0F3
F91
0FA
F3E
F61
F60
FB6
024
FA4
FA9
0FC
F53
F93
FA0
0CE
FB5
023
041
029
0F0
FC9
055
0A2
FEE
F09
F38
F75
F1D
F0A
016
094
F96
067
FEA
F4E
0C2
06C
078
F5F
FC7
040
097
FE6
0DF
F62
F12
F35
FF6
FD2
0ED
FF0
0AB
F5A
F20
FBE
F3D
FD0
F71
0AD
019
F90
FCF
FEF
FAA
F1A
0CE
F29
F09
F2A
F9F
0E2
F4E
0D0
0EB
053
035
F0A
0B0
F02
F08
07B
F9F
0C2
053
048
F18
083
0DC
0F3
FB1
029
F5C
F86
FF8
F9D
F28
FC3
05C
01F
FDE
010
01F
F13
FA9
045
F48
076
FC0
0B9
FEE
09D
072
095
FB3
0A0
FCD
028
FDA
F2B
09F
099
057
0C5
07B
06D
0A5
F65
F03
FDE
0B5
FF2
F13
F34
FA1
F60
0DD
F3A
087
01B
019
0BE
0B7
F3C
097
00E
F3F
FF5
008
072
0FB
FD9
0A2
FE4
092
FE3
0B5
F85
F16
02F
F5B
07D
F47
087
F31
F82
F97
019
00E
F4F
FC7
087
F29
03D
F32
FE2
F77
04F
022
F21
F84
F32
039
F66
F4B
05F
077
F1C
FE8
F18
F30
087
0DB
F20
06B
FD9
02E
012
06E
FEE
F17
FA4
F21
09B
F79
0A3
0DB
F10
F23
F1F
FD2
F36
049
FAA
F10
F24
F21
FA2
031
F0E
0AE
0AA
F58
F43
FE8
F85
FD8
0A9
F7D
0DB
FCD
08A
F08
FCD
04F
073
F39
03E
F0D
FC2
024
0A8
01C
08E
067
FBC
0BB
03C
F6F
0F6
F10
FE3
F88
FAC
FC4
055
0F5
F02
F3C
0B4
F5D
0D0
007
0A9
09B
F51
0B0
0D4
078
F13
080
EFF
F87
F21
0E7
F34
0E6
0E2
0C1
FEE
0B6
F21
F51
FA3
081
042
F40
011
0CC
017
048
076
FB2
F1A
058
0C0
05B
FA7
030
F75
F2B
FF2
075
F8A
FA9
0CC
F90
F89
F5C
0D4
063
093
0AF
F72
F8F
F4D
F28
F9B
07E
FD5
00F
0EF
052
0D5
F68
014
FE2
043
F9D
025
F60
05C
0BF
F23
087
F76
F81
FB7
FCC
FC7
0A5
F22
0DD
0B4
F12
08D
0A3
FF8
094
F70
03F
0D6
FB7
0E2
F3D
FEC
FE9
071
05D
0CF
FFB
FF7
02B
0CB
05D
F62
F92
FBD
016
FBA
FDF
073
0BD
0EC
FDC
F43
F22
084
F78
F0B
F4B
09B
F7B
EFD
F88
09C
F8D
F4B
F8E
F99
F1F
0A1
FC0
FD5
F5B
EFE
0D0
0A8
F00
0C1
F92
F7C
FAC
F81
FDF
F0D
06C
096
052
FC5
F3E
F1D
F0E
08E
072
008
F3B
F97
039
0E8
FBB
019
0F4
041
F31
F6B
FDB
F31
FD5
F36
FDE
F8E
F1C
FF3
FB6
098
03C
001
076
FC3
FB2
01A
012
0B2
FD8
0C6
025
0A6
0EC
069
0A0
F84
F46
02D
0B7
F42
08B
F95
F02
00D
02C
FED
0FC
046
04A
0A1
03A
0DD
F73
0E7
06A
FEF
019
037
FBF
EFE
F78
F0C
F62
F9C
FAD
034
073
0DB
F5F
006
0A4
F5B
02B
07B
FD9
02B
F0F
009
F51
FC9
F6F
F78
062
021
FB4
F1C
FAE
F63
022
058
FC6
078
F45
08F
F17
0A2
F82
0E3
FA1
0EE
0A8
F94
052
FC0
0B7
FA1
0EA
F73
F60
F17
0C9
03C
FFD
037
F63
F7E
FFD
F6E
F04
F15
0F7
006
F4C
F8D
0E9
F5C
0CD
F2D
F55
000
F67
08F
0A6
059
07E
097
076
F60
091
019
FAD
F04
F10
0CF
F15
F04
F35
FB5
087
02D
F76
F90
F2B
FDC
08A
F32
FC0
F02
069
F0B
F5A
001
050
0C6
062
036
082
FCA
F15
F60
F55
005
F4B
0DD
097
00E
067
025
070
041
0DA
F01
05C
F72
082
F44
04C
066
0C8
FB0
025
0CD
03F
F1F
04A
028
050
064
08E
FB1
03A
058
FEF
F33
FCD
0A8
06A
F15
057
02A
F7F
FC0
03E
FB7
F9A
FB9
FA5
FB5
FC6
000
FCA
FFB
020
FC5
07D
FB6
0C3
FBC
054
F23
F81
FF9
06E
F9E
FBB
F5C
0DB
037
089
05A
053
FD0
F1E
055
FFF
059
FA9
01A
F1F
0F5
F14
037
F0C
062
F74
FC9
0CF
FD4
06D
0D6
032
0E7
F5C
F0B
0B7
0AC
FED
F4C
FDE
FCC
F71
F61
F44
F9F
0F6
F7C
00D
029
0DD
0C5
F71
F3E
FCD
F65
06F
000
0EB
027
FEE
09E
FD3
093
061
02E
FE1
FA8
FA6
FE7
FA1
02C
FAC
0B6
F3A
016
019
0D8
FF0
0B2
078
F4A
F14
F80
F6C
F1E
0C4
0D0
03C
001
F8D
F7C
FDF
FB3
F5B
F81
02E
01D
067
089
0D7
F52
0E4
054
0AB
092
F14
015
FFD
FC5
0D6
F0C
F7C
091
F9F
00B
0D6
00B
F15
0AD
FE7
F7A
05E
005
013
032
FA7
F28
F2F
005
080
F93
F33
FEF
02B
F9A
01B
FE5
044
06F
0E8
F15
076
0C5
00B
F3C
0C0
F06
F57
FD5
FE4
F53
0BE
0D2
F51
F3D
FA8
07A
059
0A5
089
FA2
00E
096
003
F32
024
FC3
0F5
0D7
F71
F5B
0C3
078
0B7
0AD
FEB
F19
FF9
0D4
0D5
036
FC5
FA1
030
06A
060
0D8
01C
0CF
09B
F2D
01A
F34
FAC
0FC
077
F3D
044
054
FE8
052
FA9
F6D
021
F16
F46
048
04C
06E
022
F25
FAD
0BD
FAA
FD8
FD1
F89
FFC
F7B
FAF
F96
010
01B
F12
098
05C
FD8
027
037
035
F59
00C
09E
0A8
0AF
FF0
0C1
FCF
0B7
0D9
FBA
F44
F4A
06F
FA2
F71
0A6
FC2
FFC
F02
F28
038
032
FBC
FE4
08A
F8C
F2C
F9F
FF4
00B
FAB
0D1
F90
046
FB0
080
FA4
0E2
F4F
052
F97
06B
FCD
013
02C
FE7
067
085
FED
F8D
0E4
F47
047
0ED
08F
F1B
FE9
FA9
FC9
053
024
FBF
099
FA8
085
08B
F62
0AC
03C
FD5
FB6
FD6
F83
0E3
033
026
F90
F62
F2D
04C
F4C
F47
039
FBA
F01
0D0
08C
FA8
FAE
010
072
F65
FC8
FB1
F51
F12
03D
080
FFE
04A
05A
F6C
0AA
0F0
087
013
042
042
FB6
F36
0D9
0C3
F95
FF5
FAA
F72
FAF
031
FD9
F9B
00E
F8D
F27
F7F
FC6
0CA
05A
F6F
FEF
0CC
0C0
084
FE2
F1E
F99
038
0BF
F32
0E0
01C
004
F4F
F5D
08D
0B2
F3B
F25
FE4
FCD
0DE
055
F8A
043
FF9
00B
068
074
023
FB6
FD9
FA4
041
F96
04B
0B2
F06
F33
F52
F0B
086
F75
0BB
029
F7B
F38
0F7
075
040
FC1
074
058
FDF
01F
FB0
FF3
FB1
084
F17
0AD
F12
09A
065
FE9
FEA
04A
FD1
024
FAB
F7E
0CF
015
096
F22
F4D
F5D
053
0AD
04D
FDB
F09
04C
040
0BE
0C5
F02
00F
F07
05F
004
05A
F6D
055
0C3
000
F2C
044
0F0
FC1
0F5
F28
0DE
044
F19
F8C
015
0A1
0A2
F6D
03C
032
FE3
FFF
FB2
04E
EFD
FD6
F8E
003
F77
F67
0A7
F57
045
0C5
0E3
000
00A
F9E
F66
0C1
093
F77
F08
08D
04F
00E
0C7
0B6
F47
F8C
01D
F59
FD9
0C8
0C8
0C7
0A1
F17
F9C
01C
024
FBB
0E8
0FC
FCE
F57
F72
F05
07D
F01
0BF
097
080
0AB
0B5
043
0A4
053
FA2
0E1
00B
FAC
F16
F83
FE7
0AD
0DA
0BB
FDB
058
F1E
FDD
06E
007
FFB
FD8
F68
0EC
013
FDB
FEE
05F
F24
F51
027
F1E
00D
0AD
03C
FBE
0F6
01F
F6D
076
FEF
0B6
0D7
FEF
FBA
F87
055
F68
F5E
087
060
012
F0C
028
FD0
0E2
0AE
F7D
F7C
F45
FAA
F1B
FAB
F21
F69
FD6
FEA
0EA
06F
06C
FCD
F03
F19
F27
05C
F22
01F
F48
0C2
EF6
F10
FF2
FB8
094
086
F4D
0A3
F71
092
F6F
04D
025
F65
09F
0F1
0DC
F35
FD5
0DC
09D
F6B
FB0
F6B
F5B
FA5
F63
0E1
FFA
053
F45
FC2
0B7
F5A
00E
095
F18
FF3
0DF
081
012
FDA
F81
FF2
09A
086
0C1
0DD
F1D
06D
025
F71
FB3
0E7
F0C
F71
036
F7D
FF2
0A4
0EB
043
0F0
F09
01E
04C
0B9
F00
FBF
09A
FAE
F0D
064
0AA
0F0
F69
FD4
F08
0A1
FA4
F57
06B
0B7
FF5
F8A
FD5
F78
084
F9B
F99
0AE
098
0B0
03D
F78
F2D
0BC
FA3
FF5
F05
015
055
025
F53
0C2
FD7
F91
FDC
FD0
F70
05C
014
0AC
FFB
F67
F25
FE2
F51
F96
F33
FA5
F18
FA2
01A
03F
058
F25
013
F89
F39
F20
08A
0A4
F77
F36
F7B
04D
0F5
083
FE0
F28
0B4
0BC
044
0F6
F61
088
05F
0DB
0A6
FD0
F8D
F0D
0C2
FC1
03D
05F
063
02C
08D
F1B
0F4
FAF
F92
060
00F
02D
0B1
F3F
01E
F4E
0E1
0E1
06A
F2E
058
074
014
077
F75
03D
028
F17
FA4
0E1
038
F25
09A
0C2
F7B
0CE
FA1
FF9
F99
06E
047
FB3
007
FAE
02E
0C7
F96
0CD
FD9
077
001
0AA
0D4
FA4
08D
007
0E3
062
09E
0BF
08F
0D7
0C2
0D7
F66
F79
F65
F48
0E5
FAE
F13
FB8
07E
001
F84
003
FA8
F9E
F14
0B2
FA7
0A9
07B
FBC
05F
F2C
0B0
0C9
0BF
FA9
F6D
FBF
F2C
0A8
FA3
07C
F62
FB5
0C4
FC5
089
0D9
F07
02E
F77
F50
FDF
07D
05F
F07
007
FDB
FD0
056
0CF
0A2
F60
F14
0CF
09C
F22
F24
FD6
F2A
080
008
0D6
050
F37
F09
09C
FC8
0F3
F05
076
F52
F78
FCC
062
0E7
FE0
FD8
084
04D
F1B
FE0
04C
FB4
0E3
019
0CB
0BF
FA0
F6A
02B
F89
0EE
F9C
F5E
F6A
F44
0AE
0DE
060
FC0
F57
043
F22
FB5
FB1
FBF
F23
0E6
F9D
078
F1A
F62
07A
0F9
001
F22
F28
0E8
082
F0E
097
F61
F2C
FE8
FA2
0F4
F3B
F6C
02F
FD5
FC5
037
F3C
050
F33
FC0
0AD
FD8
FB9
0C7
F8F
F06
FE1
F8C
FB3
F86
001
F48
FA7
FA1
FF8
031
0D2
023
0AC
072
F61
EFD
F4C
F43
08F
08F
F75
0F2
0F2
F88
045
F62
FC9
028
021
FE7
FCA
F61
092
077
F67
FB6
F46
F90
0E8
0EE
FB5
092
0E3
0CD
FFA
0AA
F46
F7B
FB0
FF7
F4A
F67
F82
FC5
0E2
010
FDD
FBE
FDE
008
F08
0D4
009
0A9
0DF
F7F
F56
F0A
FE0
026
067
F58
FB6
040
0AE
0A9
F15
FD0
063
F5E
F2F
F47
0A2
0FA
025
F4D
F11
061
F42
05C
0E3
FBC
FCF
F84
00F
06C
0E5
FCE
0B5
FED
091
0CC
042
F1C
0E0
FAD
057
FC4
F58
F20
FC8
F6E
004
052
0C8
F21
095
F74
FEC
F02
017
0E1
003
F43
FCD
FDC
F6F
F3B
09A
04E
F27
F18
0CC
F90
F61
0DD
F05
02B
FC9
00B
07F
FA4
FEE
012
091
F37
FC8
F19
FB2
079
F7B
FCF
FEA
0AC
F5D
00A
F63
038
F15
08F
FCB
FA8
065
F43
F10
09F
0DD
0BA
0CF
FE3
F0D
F21
0F6
FD5
F14
F05
F36
FA1
067
F4E
FEF
F0B
035
0A0
FA8
012
086
FA1
078
F10
FDA
0CB
038
FF8
F49
028
F45
019
02D
0DF
0B3
08F
07D
062
05A
FE3
0B1
0F5
F3C
085
041
FB8
09D
073
F35
F96
036
FB5
FF0
027
FC1
FAB
0EF
F8B
0E5
F4A
F45
F51
05B
F5F
0DC
FC7
F80
03A
F76
F50
F28
FDC
0E5
F01
F42
008
06F
0E1
F25
0BF
F1B
FA6
F38
FEF
F82
F61
FE5
F77
F4F
F85
FA1
0EE
0CA
006
09A
07A
F10
047
F23
FB2
015
047
026
088
090
041
F5B
074
08B
075
FB3
0C5
07F
F8E
F2E
0D8
021
F44
02F
FF2
FBB
075
FB7
F11
FC7
042
F19
021
07A
F60
F42
F01
F76
052
F97
F16
0D1
F50
FC7
F29
F57
F69
021
03C
07D
FF7
F74
F47
0EF
095
FF1
010
FB7
08B
06A
FE5
FE4
0D2
053
0B1
071
0D1
020
FAA
FA8
FCD
07D
079
F06
F39
F02
FEB
0B8
F37
F4B
F92
08B
F68
F14
097
05F
093
F88
F9D
09A
0B1
F50
00F
03A
F1C
05B
F82
FFD
0C8
005
068
F1C
06B
FBB
F7D
FBD
083
090
007
01E
FB9
FFD
0A2
F57
F36
FA0
02F
000
08E
F15
FCF
09D
056
F42
F84
00A
0DF
F3D
019
08F
F5D
02E
FB6
F3A
F37
0CE
F74
FA0
0D3
00C
0F6
01F
F3B
032
F5D
F03
F43
FE3
FB2
042
FDF
02D
FC7
F30
F02
F2C
0F2
EFC
0D8
0C3
FDA
F01
0EE
065
093
FA6
F6E
0B0
F5A
06E
00A
069
01C
0E3
F1E
F60
F44
F49
F14
FF9
077
F0E
0E2
0C1
0A8
FA8
055
FFB
07C
F3E
FB5
F07
FE7
0BA
FB7
004
F45
FFF
0DC
FBC
F4D
F23
F68
0E7
075
0D3
FA0
03E
0A6
F12
0D8
FBB
F28
F09
FB9
F25
0BD
FAD
F0D
0B0
F8E
FC8
0E9
00C
0AA
F4D
0C7
072
0D0
F03
EFC
FB9
F1F
038
F53
F30
0CA
F18
F75
F8E
070
003
FC2
01D
030
01B
F24
F42
0B4
0BD
FE1
0C9
012
F7C
FF7
02C
F9E
F02
F43
F70
094
0E0
080
F89
026
0CE
05E
03C
00B
02A
F0A
FF5
0F3
05C
EFB
0F1
F5D
0F3
FFC
F59
F4C
088
FDC
0C1
F08
F17
FD2
07D
0E6
007
FA1
FFC
0B7
02C
074
0D6
00C
0CB
FB5
0A8
F8E
018
FC8
F0C
0E8
03C
078
FCF
010
FEE
090
0E2
08F
046
FDB
F36
F07
0BF
00D
036
F19
F37
F57
F94
0CD
0E1
F00
03E
FA6
FE9
036
F1A
F11
02C
087
032
FE2
0C8
04D
0F6
FDC
FA9
F1C
0BF
FC3
06B
FE8
01B
F87
F95
027
FC5
F0D
F43
F39
0BC
051
049
F5D
F64
FF4
F01
042
091
F9C
023
0D3
0BB
F6B
F91
FD9
0E8
0EF
04B
F63
0E7
FC7
F42
F19
F9A
07B
042
08B
062
005
0B4
FE6
070
0C7
FD5
05E
F4E
0E1
FD3
F3E
F6E
029
0C1
0A8
0A2
069
0DD
FF5
078
F51
FCD
FF7
F0B
0F5
09F
F10
FCB
F50
FA2
01D
08C
F65
001
FDF
FD6
F88
FA8
0DB
07D
FB4
0DB
F28
FE4
036
00D
089
F01
048
FFC
F29
09D
FC9
F57
F34
F5C
011
037
0B3
015
03A
039
028
0C6
0B6
F3A
05B
064
F88
FA3
FF7
0BC
FDD
F07
0C0
F5D
02B
0D9
FD2
0CA
0BF
F99
F5B
011
FA5
F1D
017
F7A
0F7
067
099
F87
022
FA2
018
0F5
F85
F4A
FEB
02A
0C6
069
F0F
04A
F93
F8B
0B6
F74
FD0
0C6
F66
FD7
FA9
FA5
F36
FE3
FA4
0D7
026
F0F
0AE
0AE
040
EFF
FC3
0C5
0DE
FED
FA0
043
053
045
F60
FBA
0E0
F40
F3C
F6B
FA9
F7C
F2B
054
034
0F9
FCE
FF8
F15
F08
FE1
07A
F10
F60
099
FFC
FF6
02A
064
F1B
FDD
F76
0F6
F06
08D
0A0
026
00D
074
F1A
F21
F05
01B
070
0F4
F02
0AC
FD5
0A7
0AA
F20
FCF
08B
F50
070
FE7
0AC
F01
FC2
F34
F24
040
0B2
FEA
0E2
FD4
FFC
FBD
F9A
FBA
043
FE5
0BC
F5C
0E6
FA1
05D
076
F4E
088
057
0D8
FAA
00D
04B
FEE
05E
F57
F9E
F98
071
F76
F89
0B5
F87
0A7
FEA
0CA
FBE
FCD
008
07A
0AB
F5E
F7C
F9E
077
05F
020
06C
FD5
0A8
F81
FEA
F7E
06F
079
FE1
F2C
023
057
F11
F10
004
0CD
0EC
F5E
FAD
071
056
FE9
F95
0A8
0C1
F77
FB6
004
071
09F
033
01B
F75
034
F04
F01
0A6
F86
0EA
F07
03F
05E
0D4
029
F68
F68
0D5
072
0EF
0A1
F41
02F
0B4
FC4
FAD
0B1
0C7
0AF
FD8
06E
046
FDB
062
FF1
06E
075
075
F35
FCB
015
0CC
02A
0D9
020
02F
095
FFD
039
F18
F1D
F2B
FCD
039
F63
088
0B9
0A0
F72
F08
F78
072
0C6
010
012
0E8
0E5
0A9
FCC
0E9
0A5
0D9
04E
FA7
F3F
F07
F68
F1A
00C
FFD
085
F50
04F
04B
062
037
FCE
FB6
0E5
F55
F98
07F
008
F1A
FF9
074
0B4
027
031
F26
0BE
FFA
09A
FBE
020
F21
F4B
0AB
FA1
F5B
F71
0A0
FFF
FA8
0DE
F9E
0F3
04D
0EC
F68
F9E
0DD
056
F26
FA6
040
022
0BF
063
0D1
F0C
F0C
FAF
F57
020
EFE
01D
09B
FB5
F93
F7B
0A2
06C
06F
F13
0BF
085
0CC
F5C
049
056
0AB
F6F
FB5
023
F95
FB0
01A
F4A
0D2
0A2
01B
FC8
0A2
FCA
0DE
FB1
FF9
FD7
FD4
05A
052
F9A
F69
00F
F80
F24
F59
075
FBE
FA8
097
0B7
F1E
0F3
06C
082
F10
F77
0C4
01B
F48
0B0
F15
03D
F54
F1B
07D
038
F4B
00C
0C8
F47
FBC
F85
039
FE3
060
084
F2D
F23
007
F9A
061
0B8
037
084
019
0F1
F03
FC5
F17
F35
055
F48
043
FF0
F79
FB3
F44
0AB
02F
F91
0F8
FF1
EFF
0F3
F8B
06C
031
FD1
028
0C2
F03
FA9
F97
077
FB2
0AA
F0E
F31
026
F78
F3C
FF0
F55
021
0DC
FC6
058
0B0
0E7
F41
F09
F8D
FFD
F8F
F3F
091
F6E
0B2
F58
F33
0AB
0F2
F2B
081
0E4
FB4
F68
FD8
0B5
0B6
0D6
FD1
F3C
0FA
0E0
F12
F0F
066
0F3
0B6
F61
FC2
035
F17
008
F8F
0CE
F52
08A
0F7
FE9
06A
094
F18
FBF
058
FCD
092
035
FBE
FDA
09B
0DA
F7F
0BA
080
FFB
FB5
FA5
F91
EFF
FDC
073
01A
F8C
0EA
042
F86
022
0E4
FFE
05A
FCF
045
08E
F99
FD3
008
F04
FEC
0F5
FB6
0E3
F92
005
EFF
F48
05B
073
FAC
035
F0F
F6E
F42
04E
F1C
0E4
093
FB2
0E2
F00
F4F
FDE
F22
09C
007
F41
0C7
0A5
0E3
FCC
F55
090
07D
F08
02B
0E7
F70
085
06B
0BE
09C
032
062
0DA
013
F57
01A
01F
F16
042
015
F00
FD0
072
FE8
05E
08B
042
F0C
027
FDD
EFE
EFF
067
FFE
0B0
F3B
058
0C9
0F6
FC7
F48
F0F
FEB
FE7
0D4
FBC
015
045
FC9
F70
013
F91
000
F82
07E
F6B
085
06F
FC8
F43
EF9
07D
014
FE2
079
FFF
FD6
0D8
F15
F8C
078
F31
06E
F22
041
097
F07
F74
F20
006
07D
083
03B
FE8
F2E
F9D
07D
0BA
FC4
F9E
033
01D
010
F2B
FCC
F50
0BE
FF2
02C
FB7
0A4
F78
0B0
0CB
071
075
F99
08F
FB7
FF9
F17
FBF
FB4
00C
02A
FE3
F8F
F9F
