0106
FC56
FF69
0026
FC9C
FE2D
FF7E
FF08
026A
0088
FCE4
03FC
FE8A
03D7
FE8D
0028
00DA
00A8
01BB
FCC0
012C
012F
FD41
00FA
FFC6
FD24
0165
FCF0
FCA6
00EC
0088
FD26
02B5
03D7
FE1C
0393
0135
02D4
03E5
FD3F
FFAB
FF18
FC3D
FF19
00B7
FCE2
FE57
02DF
FF88
01BF
FF26
FF6D
01ED
FC2F
FDBB
030C
FFF5
00E1
FF32
01CD
03BD
FEEF
01FD
02EA
FFE4
FE1F
019A
0077
0237
031B
FED6
0275
031D
0309
001A
00DA
045D
0490
001A
03F9
FBED
FC83
015A
FEDC
0015
03D6
FC7A
0177
FCBD
0413
FEA7
FDCA
07C7
FE2F
FD40
02B2
053C
0010
011F
075F
031A
0125
03DD
011F
05EA
022D
FEBA
0202
FE2B
03CF
FEF8
0380
FDFA
FE59
0067
0028
035D
FDE6
FEC5
FF6E
0523
05B2
FEAA
FF5A
FEAF
0074
FD2B
FEC0
FBD4
FC5B
01F5
015E
FCFE
FC22
FEF4
0150
0433
02BA
FEA1
01F6
FDDB
FD89
0348
01EE
FEBD
02B5
FED5
004E
FF69
0401
FC87
FD58
FC62
0368
0272
026A
033C
011F
01B8
FED5
02DB
028F
0013
FC94
FF06
FFD1
FDCD
FF3D
026F
0393
03E5
FFFC
0226
00B2
03BB
FB77
0141
04B8
FBC8
FF25
FFE1
0142
FB6D
FABE
FF19
034C
004D
01EB
0371
FE6D
FFA5
FE9E
00C8
FE83
FE47
0256
FC98
00C0
FDE3
0204
FD3A
FFC9
F838
0232
0015
0140
004C
01FA
0130
FE1D
032E
01D1
FD12
01EC
0181
FF06
FF84
FBCE
0154
FD5F
FC2F
033A
02C4
0278
FF51
FCD6
016B
01FA
FAF1
0414
F9AC
03DC
FF39
FC06
FDFA
FD9B
008F
FC6D
FC54
FBF5
F8E5
FB96
F919
FA35
FFAD
FB94
0143
0360
02D5
0233
FEDE
03AB
FFD0
FDD1
010F
FC4F
FD39
FC20
FD69
FD3D
0115
FBFB
FCA5
F941
FEF9
FEC1
FE2A
F73A
FFF9
FAB2
F55B
FE98
FA18
00E0
00AF
FDAD
0260
035F
0258
0070
0224
028A
FCF2
FE50
FDE3
F912
FB17
FA06
02D4
016C
FEEA
F846
FC92
037B
0829
042F
044F
FD5F
FC94
0459
00C0
FF32
FFE5
04EE
009B
FEDC
0408
0233
026E
FFF8
FE80
FCB6
FDF0
0042
FBF2
0440
039B
007C
012E
092E
0261
06F5
046C
01E0
053D
08D1
08AA
0095
FCDC
001E
FBFE
00D9
09F2
00B3
FCD7
0333
FEF2
0284
0232
FE99
FD06
FD76
FC8E
FF68
03C8
FBBF
00BA
FE5D
FAEB
FECB
02E2
0447
0696
0639
0127
016D
FF7F
0153
0033
043D
0129
0275
FFB8
02FD
02C5
0086
FCA8
00E1
0007
02D0
FC9A
FC1B
005D
0214
FE60
FD23
FF4B
00A7
035B
03A6
FC89
FD9A
FF8C
0073
0061
0450
0204
0135
02A9
0005
0044
02B3
FFF3
01C9
01B0
03C9
FF4C
0185
013C
FA2F
F7F1
F972
03E9
0177
F996
FD12
03AB
0145
050E
FFD3
0903
02B8
0539
05F8
039D
FAD5
FB69
FA2B
FFEA
FC7B
FE3F
0206
02B2
FBA4
03BE
FE03
0408
FFC4
FE0B
FB93
F9C8
FB70
F7B3
FC24
FA3E
FC7C
FFD0
0218
029E
FF2C
FF2F
06A9
001A
FCF0
01C4
00AA
FEF9
024B
00A7
FD29
02B8
0190
0123
01FC
FFA5
FBE3
006B
0080
FDAA
0315
0167
0048
FFB5
007E
F7AB
FF69
06F9
FFEC
042C
FD7E
059E
FB25
0381
FCEC
FD48
034F
00D5
020D
0243
038A
0341
FF8E
02B0
FF27
0565
FB60
FE75
00B1
FC06
FF9F
FAA7
FE06
FF04
02FE
FF92
060F
00BB
FE1F
FC5F
FC21
FF5C
FB9E
02FF
014D
FED8
FEFB
0131
03FF
00C0
0183
FE88
071F
0460
FF19
035C
03CC
FF32
FE87
FC8E
0899
FFFB
00E4
FEB4
FB50
FBA2
FC47
FB50
013E
FA5E
FCA7
FE13
0335
007F
FD18
0010
FEB6
01AA
0251
07FC
FA48
0243
028B
0292
0161
0411
02C6
FF5E
01D2
FF2B
025E
0010
0296
FB7A
022F
FB27
03DF
0073
01A0
0221
008C
02EA
0025
FF21
FE83
FF0C
021F
FB33
02AF
FF1A
01D6
00B2
02E4
FF5C
05D8
04FB
FE25
040C
F96A
0046
F92A
028E
FAB7
FDC7
FCCE
0129
FFF2
00D5
FE1E
0042
0386
FF76
FD34
F8F9
FCA7
FE0D
025F
00DE
FF49
01E6
02E1
02CC
FE7F
01C2
FDB8
FD2C
0487
FEFC
FDF6
FFE6
FD46
FCFA
FAF8
FD2E
FE37
FE8E
FC13
0294
FC29
0288
009E
FF0E
FCFE
FE59
00C0
FAAD
0470
029D
FD68
0362
0170
0162
0610
0353
FEBF
FBC3
F78A
003E
F75C
FB16
FCBB
FBFF
00EF
02C5
FC22
FF7B
01D0
FF73
FEAC
FEC8
0588
FC61
00B4
FD8A
FE67
FF47
00AB
FC95
FB6C
FC76
F903
FD23
F7DD
F908
FB30
FA2B
FB53
01CB
FF94
01BB
FFC8
FC2D
036E
FE2D
FEB7
FE8A
0154
0156
005A
FFDA
FD76
FD1A
FCF9
F94C
FA76
FAED
FE63
FD56
FAB2
F9EC
F9D6
FC7F
FE60
FC2B
FE16
FC71
02F2
FD79
01FF
01C9
031D
0035
00CB
0309
0138
FDAF
01EF
0284
FF1F
0175
FF63
004C
0086
01A0
FFBE
FFAD
FB75
FA97
FFDC
FFEB
038B
FEB0
03E8
0487
01F9
FD99
FDF5
FCE3
0144
FD75
01FE
FEF3
FC3A
0167
FFA7
FEFA
FC80
0321
003C
FD0D
0393
FDBA
04DD
FE21
FD92
FFDB
FF6A
FC90
0106
0162
FC42
003D
016B
01A6
02C0
FC44
FCF7
FCE1
FEDE
02E6
0218
01B5
0154
FC4F
FD5D
FCC4
FE8E
02FF
FF34
FF52
FCE2
FCC7
0199
00E7
FF8B
0174
FF3B
FE98
FCA4
0177
FC18
0231
0297
FDA7
FFB8
