FAE
F29
027
F1B
061
08E
FE2
0D9
0EE
0A1
018
024
F95
0AB
0FA
01A
FDC
F0C
F9F
FC4
04E
F0D
F1F
0C5
F0D
FED
F0F
0AF
F94
0DA
0E7
052
F80
011
00A
0BC
F84
F63
084
0B1
F7C
081
F89
F5D
F93
F0C
F9C
F68
07F
FFC
00E
085
F95
05E
06C
FB0
FF7
045
0AB
0AE
FF8
F2D
F30
F5E
0E5
FFC
F9D
0E4
0D1
F91
090
F73
03A
FF4
07E
F52
003
0DA
0B3
F4D
0C0
06F
062
0F7
F19
F7C
FBB
071
0B5
0ED
0BB
04A
F14
007
001
FA8
01B
FCA
FD7
0FB
07C
0D8
077
0DE
FB6
096
FC9
FDA
01D
095
FF3
0D1
0C9
00E
F41
0C9
0B9
0D9
FA4
F74
FFF
09F
057
F4C
FA7
0E0
FE8
F63
F16
0DA
079
F4A
04D
0A2
0AB
FBA
F69
FD3
038
FF9
04D
095
FD3
F07
FA7
F20
F89
F70
F76
0C6
FCF
0E7
018
F6C
F99
0A0
F8F
F48
0D6
08E
0E3
FCF
007
FBB
05D
0D4
FD4
F7F
0B9
0C0
F32
0D8
034
06F
F1B
067
F72
027
F42
F37
F64
09B
FF1
0A6
F5E
0CD
083
FC4
048
068
040
F17
F1F
014
FC1
0F5
05F
FCE
FF9
016
FEB
F64
063
F93
F43
F98
F55
0EE
084
F02
F88
FE2
F5A
07C
FFB
F25
F4F
FC2
F1F
F90
F12
00F
07C
F54
04F
F86
FD3
F81
084
F19
020
FA3
FF7
0A5
FA2
F1D
FFD
F2D
F40
FEC
FDD
F49
081
00D
0E4
0EB
F14
F47
FD4
F04
F11
FEB
F24
005
F44
059
F3E
077
F37
F88
F84
F6C
074
F2E
079
F56
FB9
F15
F53
FD5
F64
F78
077
0E7
FA0
FF3
F15
FE5
0AD
04F
013
FB6
FD7
FE8
066
F08
0EC
F74
0E7
0DB
F1A
0E9
FE0
038
0F6
09B
FBD
F8B
0CA
F6E
FA8
F73
04B
FC1
0BD
F45
F69
0F6
FDC
0CA
07C
034
014
F79
01D
FCD
02A
0A5
F5E
F99
026
0C9
FBF
0B7
041
01E
009
0C9
081
FA1
035
021
FB5
09D
F95
F3A
0C9
060
F0D
F14
FAF
0F9
F7D
083
09E
F6A
0BE
025
F20
038
04C
0A0
F31
F34
F74
0EA
FD1
01C
F2F
FDA
0D9
F36
02F
051
FB8
F89
F2D
030
0C3
041
F86
075
F49
F7B
027
F01
FC0
09F
FBE
0E9
F67
F99
F2F
025
F89
0C4
F89
059
0BA
F9A
0AD
EFF
01A
F9F
08C
FBA
F0A
F36
0B9
093
073
04E
0DE
041
F40
F15
F18
FCE
090
F19
F71
F6E
080
F68
0A2
F55
F74
F52
FB9
094
F12
088
FAE
FE8
FCB
FA0
F9A
074
FA5
030
093
0CB
F22
0E7
F98
F22
0A0
08E
FB4
071
0E7
07F
F99
FC2
F2B
F38
0FB
019
FAD
FDD
0D5
F6E
030
F77
F11
F53
F52
F46
F5A
0E1
0BF
0CB
F06
01E
02A
F75
FE6
0B0
039
FDC
0F6
F57
F84
065
081
F74
0EB
007
0A4
04B
F1F
0A8
FC3
F26
00A
0DC
FAB
0EB
08D
FFF
FC1
FD1
FD1
03E
05E
F35
FAF
F64
090
F74
F87
F0F
0FB
08C
F95
0C3
05D
0DE
073
F8D
0DF
FAE
0FB
017
F80
046
F22
FA7
0C1
0A2
F9F
FAC
FAC
044
0DC
F3F
044
F43
0B4
085
0A3
FA6
0D3
0D1
06F
FD7
066
0C0
F8D
F6C
EFC
0E4
EFD
071
F97
FC0
08C
FD0
F72
F11
F10
FA5
F7D
FCA
0D0
064
018
020
F79
F5B
0D3
FEC
08B
F27
078
F44
0E6
F34
FC9
F8A
FC0
00E
0E0
F7B
F7A
087
011
F50
0DF
FAB
F57
F50
069
0D9
F46
05F
F64
EFE
FBE
07E
F36
F6E
FF2
F44
050
F0E
FE0
FC7
048
03E
FB3
F70
091
F3D
077
0C4
0BF
F69
027
F34
04A
0CF
F84
FC8
FFE
05F
034
0B3
03E
F65
069
FE9
F88
01B
0B5
F27
FD6
0C3
FCC
054
F04
EFF
056
0A5
FE6
F79
051
077
FB2
FC6
F84
F14
0F5
F4E
0C4
0D0
0A7
FC5
F2E
09F
F9C
09C
FDA
06B
02F
04E
06E
0E1
099
0BA
0DE
F5B
086
01E
0F7
F68
F93
F61
023
0F4
F4E
029
F33
F42
0EA
0AD
028
FAE
F3B
F4E
091
F1A
02A
F34
F6D
FA6
084
F8C
F53
FFC
0D4
F4C
09C
0FA
01D
F12
F97
0DD
050
01A
F55
0A8
021
F80
043
00A
01E
0A6
F72
0E6
F56
0B5
0E5
F9F
06B
F36
0D0
F0F
051
047
FEF
F2A
045
F62
092
FEE
F61
F7C
08C
F47
F8A
054
FEB
F5F
0C1
04F
FC4
F5F
FCF
F72
F80
066
0D4
0C3
F24
F44
F35
FE7
F8B
F21
028
0CC
FF3
0E7
FFE
F54
0D2
09A
066
06F
F2F
0C8
068
F14
0A2
0A6
075
097
F41
F02
087
F71
F9B
F71
0DF
067
FC9
FD2
F50
056
FF8
045
0F8
007
F7C
F4D
FB2
FA3
F24
06A
074
07A
FB9
01B
FA4
F7C
F46
F32
FC9
F9B
075
F4A
F48
0F8
01C
F66
046
F11
005
F41
F1C
0E5
03E
04C
034
03F
F85
023
063
F62
F7E
0CA
F2F
FE0
FCC
FDA
F3A
028
FDE
F39
0C8
012
F44
00B
05C
F90
055
F1B
07E
FBD
FF1
F03
F54
0F5
F1C
0B6
039
FFE
FD8
F54
01A
0CF
0F1
FB9
FC6
FDF
F3A
05B
009
0E6
F33
F20
034
0C7
F61
FAC
FA8
052
F0E
EFC
05C
FF9
0AE
FFC
099
F2E
042
08B
F19
F43
F38
070
049
F22
0D5
F1C
031
096
0D7
F06
FE0
0BF
F29
F0A
FCD
FFC
074
093
FE7
F53
F04
03E
F65
02C
058
08B
FD7
F6D
039
09A
FB2
F92
069
072
085
0B5
0AC
008
FB5
06C
03F
094
0CF
036
F6B
FB1
FD1
F05
F35
0DC
098
FFD
0F9
0D3
F7D
099
FC3
0A0
0A6
F15
F3F
00A
F18
00D
FE3
FBD
00F
FEC
011
FFD
074
F89
083
F2F
F1B
FDB
076
F49
0E7
FFC
007
0B6
0A1
0E3
FB9
F7B
015
F4F
030
029
F40
FCC
0E7
F0A
019
09E
0CA
0B4
059
051
FE3
F87
07A
0DE
0DD
036
04D
F8B
03D
0BF
FDD
FF5
08D
05E
FF5
F19
FD2
FB2
F56
055
FBD
FF1
FAC
F67
012
F0F
04F
F3B
09C
021
F03
FFA
F9E
F22
FC8
F2F
01B
0D3
034
F1C
0EB
F2D
F42
F98
0A3
0EC
F34
02E
092
076
F41
F2F
093
F4F
F63
0AB
FF5
FA0
015
FC4
F02
FCD
FB4
F81
F5A
0E1
FC0
076
FD3
FEC
093
FA3
071
0CA
F73
0CB
F13
0D8
FF8
030
F7E
F7A
0F1
05F
09D
0CF
F02
0FC
F28
00E
027
061
F25
0BE
044
F5A
FBE
029
02D
FBA
F40
F70
089
FC7
0B5
F52
F06
0D9
F76
FCE
F68
FD2
0EC
0BD
0B9
EFD
008
05E
0EB
F45
058
0EC
FD7
0F0
FBA
FEF
F3B
090
07A
FFD
F53
F78
FD1
F70
066
F6A
F6B
081
064
012
F40
01B
F48
0A8
F8D
F13
F64
FD5
0AB
0CD
08B
FD8
009
09B
FDB
FF6
FC8
002
F57
0E7
FBE
082
F3C
FB0
F91
FA1
F0F
047
F0B
002
015
F9E
FED
F53
F45
03F
EFB
F9F
09E
F8B
01D
072
0F0
01A
051
01F
0C3
F06
0D8
07B
EFD
0F0
F35
0BF
0A3
0E2
F36
090
08B
05B
0D4
FF1
04D
FC2
F80
F75
FE6
09A
F63
FF5
FA8
F7E
F1C
F2A
08F
F59
F2F
F06
FE6
F8E
F9C
FD3
F93
FCD
09E
F4C
036
F44
FA6
0EA
F3E
FF5
F11
F13
F93
025
F2A
084
04C
F98
06A
06B
F4F
F5B
025
078
F6B
F5C
0C6
FBB
00F
0EF
F5A
04B
F0E
044
017
068
F31
F08
F2D
012
F21
F81
FB5
02A
0C6
077
052
FAE
F90
002
FAA
0BF
072
FA2
00A
09D
07A
013
0C4
04A
028
F3C
0ED
058
FE1
F83
0AC
F5C
07D
FB6
0C8
0E7
F3E
FC2
08F
F83
F45
093
02B
06B
FC9
FD0
086
097
F49
FB8
FA2
0B3
021
06B
FC4
F20
007
F29
FBE
FB3
F6D
F82
042
0BA
F66
02D
082
F12
F95
FA3
F5B
02B
03F
0B1
0A7
FC7
060
0F3
F30
F7D
022
004
F5E
FBF
032
FCE
F11
071
FCA
07C
024
F0E
0B3
FD8
F72
0D1
0BF
09B
027
FEE
F1F
0A8
F1B
F1F
FB7
029
F03
F87
F41
0EB
0A5
039
F80
04B
F0E
03E
0A7
FF5
05C
0B5
0F1
04C
006
0F0
EFF
069
0C6
F7C
01D
FFD
F6C
FED
0AA
030
0F9
F1E
F7C
0A0
091
F38
021
F9B
0DA
F07
FA1
FE9
07D
F98
F76
FE9
F5C
F1C
F65
F13
045
0BF
FDC
032
FC8
FA9
F16
EFD
F66
F27
FB4
F7F
FE0
F9A
FDC
018
FEA
05E
FDD
F8E
0A7
FBD
FF4
05B
F5A
FE8
09A
F3D
FAE
094
0D9
F9F
01C
FB0
06E
FAA
F0E
055
F99
00E
0BE
03B
F51
FD9
FE4
F71
F8F
000
FB1
024
FC6
094
0D1
0CF
0E0
FD0
0E5
04A
EFD
F9E
FEF
04C
0AF
08E
014
F0D
FAF
0F7
F61
04C
0D5
0DF
FAE
0C8
F6C
F31
00B
020
055
08B
00B
084
02C
F29
05C
FDD
035
08C
04F
033
0C5
0F3
FDF
09D
0E4
F52
0B5
051
0F4
F4F
0AD
05E
024
F41
FFF
F86
FC7
0B8
FBE
F80
07B
06A
058
0BA
FF7
0D0
020
0ED
064
FBF
F31
FB2
0EB
05B
F56
0F5
FDE
047
0E4
095
090
F86
0C4
0E1
F61
FA8
0AB
060
00E
05A
F6F
04E
F2F
F73
0D1
0F2
029
F78
019
FA4
F86
FB2
0D8
F5D
F23
073
FAC
080
095
028
0C2
F0E
084
FD0
F4A
01F
03C
041
FCB
F29
FB1
087
F19
010
F98
F71
085
F7A
054
00F
0A1
07D
FB7
094
F7B
FEC
F4D
0DF
F0B
08A
F2C
F1A
FA3
0D0
FD2
090
F7E
FD5
F8B
F03
0C6
F76
FE9
0BA
058
011
039
065
FD9
F85
0D4
F04
0C6
F4A
F00
087
F9C
0D2
F4D
F4A
0E1
F55
FFC
030
05D
FDD
FAC
0BC
010
031
018
FB8
FE9
0E4
047
F0D
F73
F79
F81
0CA
05D
FA8
007
F07
F56
F5D
00B
055
F8D
018
FA7
FDD
0E2
063
0B3
09B
F3C
0E5
FB2
025
069
0B9
FB4
039
FEB
014
FB8
0B3
0EA
07A
F33
0E9
FD0
039
0BC
05D
FA2
07B
001
F4E
FDB
042
00E
08B
F93
F7E
022
09D
FB7
0BA
F65
06B
F1D
FCD
035
0D6
F6B
03B
F97
F35
F76
018
F22
FE1
0A8
05B
F76
F8E
FBF
0D9
F7A
0A1
F7E
035
F26
06F
F6E
FCC
00A
091
054
0A3
006
0AD
054
0D7
F7E
0F2
004
07D
F1A
0D4
F8C
FF2
008
F79
FC0
F06
021
0D9
F7E
F4E
F6F
013
0EF
F35
F41
F40
EFF
F70
FC8
055
FE9
0AC
0AA
08D
00D
0AD
F7B
FD9
FC0
0EA
068
F00
0F1
EFF
F47
FFB
F87
F6B
0BA
0D9
01A
099
FA3
F20
04B
FB5
050
FE7
FAF
001
FEE
F8B
F60
F6E
F9A
FEB
05E
F07
FA3
02B
032
0C5
0F3
019
0A3
F93
09C
01F
0E1
076
02C
082
F81
059
067
FD4
0F1
FFE
05E
FB9
076
F5C
0D9
0AF
030
01A
F2A
F17
F29
FB7
F1C
FAE
024
F08
0CC
F72
F60
FB9
071
F8D
0F2
01E
FD6
0CE
F58
0E1
F88
FEA
0A0
0C4
F3B
066
F0F
F56
FBA
F3D
FA8
FA5
0BE
FCE
F19
02E
F7C
065
057
FFE
068
0AF
FFB
0C6
FAE
0E8
064
F5A
0E2
0BD
F39
0F5
0F1
03B
019
F53
F1A
FCF
FDF
086
F6D
FFC
01D
0D8
F7E
083
021
0ED
070
F1D
FFE
FDB
FF2
F4C
FE4
F45
F29
0EF
0F0
FC6
09F
FF0
FF6
0A6
F8C
FEF
094
0A6
FDC
FD5
069
F0A
079
00A
F76
F38
0BC
FA0
00C
08C
0C9
0E8
FD9
F83
F74
F21
05D
057
FCE
FDC
F1D
04A
098
00F
F80
01B
FA5
090
FFA
F8D
F4D
069
054
F9B
F18
044
0A7
0E8
0F5
063
083
079
03B
047
F8A
F33
03B
FA7
0FA
026
036
F4E
FB1
FDC
01D
F28
088
00D
09F
FAB
FE7
F0B
F46
000
F72
00B
04A
F12
090
F10
F96
08C
044
F08
FEB
F43
FE9
FAE
F67
FF5
005
F5E
08A
0DB
F9F
0FD
F00
F7A
F50
05C
FE2
F12
F95
FC6
F6B
FF1
FC8
FF0
F4C
00F
0A3
FAC
F25
01E
F6E
050
EFF
0E0
065
F03
041
00E
06B
F68
038
029
0D1
F36
0C8
07F
F25
F38
F1C
F58
FC9
FEE
F44
FD2
FB4
0CA
088
F3C
FAE
061
FE1
0E0
FF8
05C
03E
FDB
080
FE7
05D
01C
01E
070
0EA
F2C
0F4
F98
031
F96
F20
0AF
F07
FEF
FFB
008
FB1
0C5
011
F70
0A4
F9E
01B
092
0CC
F99
FB3
FFD
FEE
0C5
013
FB5
F30
038
0BC
0F9
FCE
0A4
FC5
F89
FDA
F2C
F42
052
FE9
014
087
F50
058
F4F
014
F3E
F05
FA0
F22
F74
002
F50
0A4
056
061
F03
005
0C3
F14
F2B
FE2
F30
091
00B
00A
0C5
F90
F43
027
023
F55
F23
023
0CD
FDA
EFD
059
0D8
FF4
09B
FC7
F41
0DD
F99
F2A
FE8
057
F3A
F88
FD3
027
F90
FE3
0AF
FC4
0A9
FD9
F95
09B
0E1
0E3
0AC
017
F86
FCF
040
F35
056
0F9
0E1
F67
0F2
0D2
FF3
F84
F42
FC2
01A
F4D
F8D
043
F5A
010
0AE
F5D
F55
F07
F59
FDE
055
F07
04E
0E9
F9E
028
0E8
FF6
03F
F25
0A3
0CE
0F6
0D7
0A7
02F
068
FCC
FB3
FB3
F65
0D2
007
0D7
FFF
00C
FAA
F4D
F03
0B5
F11
F91
FA5
017
FFC
F8B
F8F
F11
FC0
066
088
020
FB1
F4C
0E1
0A9
FE6
0FA
FBB
068
FF9
023
008
0C1
04B
0AB
0F9
F4F
F17
FEB
F85
0BF
080
FD5
018
03C
FBC
061
0AC
05E
F3F
F9D
0C0
FE6
0A4
033
018
034
FA7
F1A
F49
083
FA5
EFA
FEE
0BB
F81
020
FC5
FC0
FBC
F15
F0E
F7E
F4A
FAC
FFF
0F8
032
EFA
064
0E8
052
F8D
0A7
05A
0B9
FED
08C
058
002
F32
04D
F1F
F40
0A7
FA2
EFE
F83
F90
FA5
078
02B
F04
04E
FB2
0BF
FC1
FBA
F98
F94
03E
01E
FDD
FEB
FB8
FD5
055
0AA
F91
F9E
FE2
F04
0EF
031
FE7
FFA
F98
073
0F4
066
068
FDD
0D3
FF9
077
F42
01E
FCC
F2D
077
097
FC6
F31
0B0
F68
FB8
070
00D
08C
F76
F4B
F65
07A
0AA
049
FC7
0BC
F40
FF2
F3F
FD7
0EB
F87
019
0D0
F2F
015
F6A
FF3
002
075
0A0
0D6
0B0
FF7
007
040
F66
04F
078
060
0FA
F0C
033
FA8
FFB
082
F5D
05D
FE5
0BB
0DB
FF9
FCC
0DD
080
F97
07E
0DF
09F
044
F87
049
0CF
FDA
F4E
05D
03E
FAC
07C
090
0CC
0CB
FB1
FE9
0B8
F88
0E0
F79
09A
F94
023
0B6
031
F70
F87
F92
F57
05D
F76
F74
0F1
0AF
F2A
05F
03F
F99
F6B
03A
F09
FAF
F01
008
F87
FB0
0F8
F20
0BD
096
FDE
041
F81
0E1
0A1
0E5
F02
F83
F13
0B7
F08
0CA
0DC
03B
FAF
F50
F2E
0EB
F27
003
FD6
079
F6D
014
080
08B
079
0B4
0BA
FF7
07C
01B
F12
004
060
FF7
0D0
008
F80
04F
080
0E6
004
FE4
027
FE5
028
00C
F69
027
F02
F25
F8B
F5D
0ED
0F5
001
070
0DA
080
F85
0F6
F90
001
0E0
FFF
0DF
F69
FB4
EFF
043
F55
F0B
00B
0A7
0E8
05E
FBC
F5F
F20
06A
F1B
F29
F36
033
0BD
F97
0D3
0AF
F0B
0F2
F16
009
FC7
06A
08F
FC6
004
0AA
F0D
FB8
F60
F6B
083
F39
FB5
074
F29
FAC
F88
F74
FAD
007
FFC
0D2
0AD
F7E
FFA
0B4
F93
FE0
FE2
062
F31
077
075
013
FD1
F33
054
010
F08
09C
082
F4F
051
FC6
FEC
0D6
F7A
F29
0F5
F6D
076
079
FCD
054
0F6
F17
057
0F6
017
FCE
0BF
04B
074
FF0
FA0
F4B
EFE
0CD
F01
020
091
F8C
08D
0C1
F88
F66
093
04E
F55
FD5
025
05C
F67
0F7
F5B
FFB
0FB
F92
F45
089
044
0F8
F1A
F31
F53
07A
FCD
F3B
046
0CD
0E1
F89
FC9
0BF
F50
086
0B7
FED
096
02B
F55
F56
0E9
013
F9C
0C7
06B
F27
099
0E8
FD9
0CB
F0A
F47
08D
0D2
0C8
FF7
F81
016
02B
0AB
F75
FF8
FFF
FA1
F46
03B
F3A
FD2
0F6
0CF
FEF
FF0
FCB
026
F6B
098
071
F8F
00E
F95
F73
096
FAD
F65
0E8
F7A
0EC
FA2
0B4
015
000
01E
F53
0C3
0A4
FAC
F59
FF6
0A1
FEB
FF2
096
FE9
F58
F11
FC7
0AD
F39
FEC
F18
FF4
0BF
FA3
07E
0F5
FDF
F6A
0F1
0F7
0FC
F8D
077
FB3
00E
F01
F01
0D7
08C
FF7
F33
FC9
FD2
021
0A3
092
F80
FC3
09C
0DE
013
094
003
08E
F25
00B
FA3
007
000
F11
074
F8F
0EC
F6F
F10
0C0
06A
094
FD9
F26
08C
F3E
03B
0D4
FC8
F79
0EA
F87
F7B
F3E
F83
F8F
FCD
F1B
F18
093
F69
FCD
FED
FC2
025
F19
0C8
FB7
0C6
F45
F5C
042
001
FB6
F6B
F8F
085
F39
F60
F94
F21
F09
F32
F60
F65
067
061
F29
FDF
0D1
FB0
FF9
061
F74
079
FB8
F16
F33
050
F39
09C
0B2
F66
098
071
0F0
066
FA7
F77
021
F6F
086
F90
0E8
F45
FE3
039
F1B
01A
028
F3F
F84
09A
F44
09D
0D8
F0B
056
F93
051
F24
F69
04C
F61
F42
0A5
F27
FE5
F1D
F59
FD4
0EF
069
0D6
F44
F45
F73
F40
F36
FD2
0D4
FCE
0B3
036
F0A
F35
081
089
098
062
07A
0E6
FA3
0DA
04F
0AE
FEC
FE0
0B3
F37
F7F
0A3
F5B
F23
0DD
09A
F10
008
FFD
F14
FB9
FD3
07B
011
F73
F50
FD2
F2B
FB3
068
F2D
012
02F
0B1
F0D
041
0DE
F13
015
03B
F88
F14
0DE
FF4
0B6
FD3
0E4
096
051
030
0A5
FC6
077
095
FEF
F5E
F8C
0B1
066
F46
F39
F08
F86
009
013
0C1
01D
00A
FF9
043
F1D
0E0
0B4
005
FFC
FA5
FB4
0F5
F51
F61
03A
F84
0A4
FFE
FB2
F7D
FBC
FE7
050
FB8
F21
0F9
0F0
FF4
0AE
FD0
0A4
F60
0EE
0D6
F37
FFF
FAE
008
07F
04D
01D
0F1
018
0EB
F2F
F49
F42
F09
F26
05A
0E4
08F
FF6
F1B
F5C
FAF
072
037
0C3
0AD
0F6
015
04A
FAB
F53
062
0CD
09B
01B
0CA
F99
095
FD4
F8F
FF2
00A
F60
03A
F14
023
FC8
04B
F1E
F70
0DF
081
F1B
F9C
F8E
F7C
F28
F76
FF1
0DA
0B8
0A2
F51
0FC
FFF
0F6
F66
0B5
0A2
F4B
01F
F56
F99
0E7
08D
0AC
0B3
02B
06F
F42
F38
F3D
F6E
02E
F64
083
FEE
071
07F
005
0D0
066
F0C
075
0C0
F24
F97
08A
0C4
099
0C2
F2E
F7B
FA5
FA8
F64
F5E
0D9
0F2
084
FE5
FBE
087
FDE
FE5
F87
F61
019
00E
0EA
F6C
081
F89
093
FCE
F16
017
01B
08C
05B
F14
F4C
FE9
09E
082
014
0A0
064
F8F
0BB
F4D
0D5
08F
FB6
FC3
F50
0DC
F1E
F90
01F
03A
F23
020
F43
01F
0F4
F44
F4B
04C
018
FF9
027
F5A
F76
012
02B
09E
FC8
F30
0AB
FED
F6C
086
F15
F83
08C
F59
057
F2C
FF7
02A
FFC
FC1
F83
FF1
0AF
04E
F79
02F
F55
095
037
0CB
00B
F61
01B
F49
F2A
FE0
FE2
F71
F1F
0EA
082
02A
0F8
094
004
0F6
F15
053
F05
038
F25
029
F1E
FD5
F7D
054
0E9
0A0
FA5
FC2
007
0AE
F7F
0CC
FF1
F41
FED
0C1
0E1
F28
002
FC6
03A
FCF
FDC
F1A
FDD
F5F
036
0EB
FD5
017
0BD
F41
097
05A
F53
0BB
F60
0F9
F94
F37
F17
FCF
F71
0EE
FAB
06D
055
F52
FDB
F6F
09E
F7C
04A
F96
F8A
038
03A
074
066
F15
FAD
FAA
F13
F44
062
F3B
F17
051
F3F
05A
08A
F3B
03F
024
F39
F28
01D
007
0CF
0A2
F45
06B
0B6
0F9
FA3
F68
0CF
FA4
F25
F92
04D
F36
F68
F70
0CC
F33
F86
F80
FD2
077
F42
FF8
02E
0EB
FF1
07D
F25
06E
F30
FF3
FAB
FAA
F2D
05C
04E
0A7
F99
09F
FF8
F13
F2A
F72
03A
F7A
03F
F78
FF7
FC2
0DE
064
0F3
0F4
03E
0C7
015
F21
0F0
FD9
F3E
F0B
F0B
0E1
F29
F14
040
FB1
054
08E
FEA
F9D
F22
092
F19
F65
049
074
F03
030
02B
F57
F94
F9F
F0D
F94
092
F1A
F56
0A5
0D0
07C
0F5
03C
FFC
031
F48
F67
05A
FF9
FEB
0DC
0A6
F2D
FD6
F97
F8B
098
0AB
FC7
034
070
F50
01C
F27
0E0
081
021
00D
FC4
0BC
056
0AE
02F
F93
01A
FC6
FDD
05B
0A0
F90
F1C
0AD
09B
09F
086
F80
F2F
0C1
F45
08F
09C
03D
085
F9D
F90
F27
F3C
FB7
FC6
FB7
F4A
F4F
0E1
FC2
098
0D3
034
066
F93
F15
01E
F45
01E
08D
F26
F44
07C
FA5
0E6
08F
FE6
FB8
FE8
0F1
0EC
0B0
FCD
F6E
FE4
FCA
F7A
09C
048
F98
F40
027
031
FCD
FE6
0BE
FF9
F63
FA0
F19
0DB
000
F1A
F44
FE3
FDB
FD9
06C
0E3
0BA
01A
0FA
08F
FD6
F05
F47
09B
FF9
0F6
F65
06C
0FB
FD3
0EA
0A1
0FC
0A7
F03
F5D
023
0AB
F3F
0A8
FA8
0BE
F8A
F7F
F26
033
00E
EFF
099
FBE
FBF
065
075
FFF
F67
036
F38
0D5
F72
F6E
0E4
0F1
022
0A9
FEC
0CD
072
028
FA0
0ED
074
025
F1E
FB9
0A7
FA5
FD2
09D
09E
FCB
F24
00C
FD4
F27
00E
0AD
03F
F85
FFC
F26
F18
007
FCF
F80
FE2
0CA
F4C
094
F1D
055
F9C
085
F26
FBC
02F
059
089
0BB
0C8
FDA
0BA
F82
0BC
067
F4B
0C3
0B6
FE7
FD6
FEF
03F
F2B
FD3
FFC
F2D
F9A
004
0CA
0BF
097
F12
0A6
07C
0BD
FE2
F5B
079
F29
012
003
FD6
090
F9A
049
0E9
0BB
F2D
FB7
03A
F53
FCE
F08
FF8
05E
FFC
0FB
093
FC7
FBF
0B1
0D2
05C
F1E
FEA
F02
06E
F80
0D0
FB9
0F9
F3C
FEB
086
0EE
FE6
047
099
012
F6D
008
FCC
096
FF3
FA1
0F8
0BC
FE4
FD9
06B
F76
06F
F9F
038
0D0
FA9
FF7
034
0ED
0EE
0AA
0FB
F5D
0D9
FC5
F8E
F00
070
F26
0D4
0D7
FF3
0A5
0C4
006
070
F39
0F3
0CF
F6C
0EF
FA8
007
F3F
0B5
F95
F21
09D
0DB
034
04F
FC4
04B
098
02E
0C9
F92
090
F22
F59
FE8
003
F1D
08A
0A4
F21
0B8
0C1
05E
F28
02C
FE1
F5A
F90
FC1
F18
F06
F8F
01C
F6E
069
085
FE0
0EF
099
0EF
F91
F9C
F60
0E4
059
FD7
01B
EFD
0B2
062
F26
062
088
007
F51
066
0EC
054
052
FD4
F4C
045
F36
F28
057
FF3
F5D
FAF
F0E
0EE
FC7
0A5
080
F1B
0E2
0D9
F17
08A
F52
0AE
0D5
FFB
018
FBB
F62
080
F69
0ED
000
F8E
041
FC1
FE8
FCF
099
FB5
F71
F19
F99
F54
01F
0A3
047
FCB
FA5
018
077
096
F77
F67
095
01A
EFD
F21
F3B
F4B
FB9
007
05E
0F2
055
F6F
F5D
066
F06
F30
F8F
FD2
04E
F1C
F9C
F22
0E8
01B
0B0
0B9
F04
F09
FB9
F32
FDD
0C8
EFF
F18
057
098
F52
FA9
FF3
024
FD9
0EF
FED
FE8
F09
022
F27
F47
02F
0C0
07E
0B2
07B
FAC
012
021
F7C
0C7
F53
FB8
F7C
FD1
FBC
FB3
FAC
F2B
F92
07C
021
FB6
FA2
08F
FE6
F3F
022
016
F4E
060
0EE
F63
FB1
FB3
F54
0D4
004
0D6
022
FDD
0E5
005
FB8
0EC
F42
FBB
08A
F7E
FF9
FEE
FED
FFC
043
0B0
0A7
FB0
F3B
09D
F44
0C7
0B3
FF9
097
F50
03E
FAA
0A5
009
F8B
032
FE8
F4F
058
F33
059
0BD
0BF
011
FF3
F53
FBD
079
09D
0F5
019
F17
0F1
FFC
03C
FB7
07C
F11
FE3
F1D
F28
FC0
F1B
F74
FFB
F56
FAA
F02
FF9
F2F
F17
08F
0C8
F66
0EB
0E8
0B2
FFA
02E
0CB
FC2
FE0
064
008
F43
021
0DD
FF1
065
0ED
F0D
F64
F8A
F78
02D
043
0BA
F64
0DA
F76
09D
F74
FBE
F62
031
FA8
FD0
FD7
FB4
0D0
096
F2C
08C
FCA
F60
02D
0CD
0CC
057
08B
FC7
FA7
F44
09F
F79
F3C
F6C
0B7
01A
FC9
FF0
020
045
FDE
003
F9F
F55
F39
0AB
0C0
F25
0E6
FBE
FA2
F40
F17
02E
0F6
F2C
F5F
07D
F81
0D5
FA1
088
F0A
FDC
F9F
041
0EE
081
F98
0E0
FBA
F3D
F8A
FC0
F26
FDD
F81
035
0DE
0A2
016
F20
0B8
F9F
01B
0B6
F75
0FD
077
F09
FA9
F3D
010
070
05C
040
F19
06B
FB5
F09
0A7
0AD
06D
0CB
F24
F5D
0AA
F03
F92
F22
04F
072
076
008
0C8
F42
00D
055
