083
F08
0D1
0AC
F0C
F92
067
F9D
FBC
FF8
F30
0BE
05A
F76
04D
104
0E5
FA1
FA3
F13
F9F
025
F34
0DD
03E
09C
FA5
F35
04E
013
0AB
02C
0BA
F39
FB7
0DD
F75
F6E
0B6
031
0DD
F06
FFF
09E
0C4
FB2
03E
093
F3C
F17
086
F57
058
F40
FA6
F19
062
FBC
EFB
F96
FCF
FC2
021
FF4
00C
092
0DA
0CE
012
0CA
FB0
F46
0C7
F9C
FDA
002
0B2
F94
0F9
036
F85
F5D
010
0B3
F92
FE3
FA5
006
FC2
064
0CA
071
0CE
EFE
F91
F60
F66
F49
FB0
060
0AD
F41
0FC
0B4
FB5
050
F0F
0E5
091
06C
F26
FD0
FA9
029
0DD
F83
003
011
F3A
F3D
F57
101
02A
00C
08F
F70
FEC
007
053
FDA
003
09A
FE1
F65
00F
FDD
FC2
FA2
F9E
F0D
0F1
0A5
F70
F1D
086
0C3
02C
05A
FB7
089
F9A
F8A
F14
041
FD7
0ED
FFE
03C
F53
09B
F34
070
077
0A2
08F
039
030
10A
F50
F26
027
FAF
0CF
0BC
061
048
F0B
FD5
0AD
0F7
111
06A
050
034
068
016
00F
F3E
F22
F5E
FB0
F72
F56
FB2
FE5
EEC
FB6
093
0BF
094
01B
0BE
FF8
004
0AB
FF8
F9C
027
FCD
FE4
F9F
08E
F1D
008
FC8
F7B
0A3
06C
087
084
07D
FAE
01A
F53
061
F40
05E
F4D
101
F9F
F6A
FEF
0A8
F4E
F3A
F95
F90
00F
0CB
024
FFB
F93
0BE
FB3
F10
F77
F4D
F6E
0F8
FDF
0B8
0E8
005
040
048
0C6
F97
F28
04F
04E
08D
0D3
081
FD8
F65
FE9
F9B
F2F
049
F10
038
FE9
079
0D7
013
F65
0A6
F44
0E8
038
0A8
FC9
F2F
FBE
F3E
001
0E3
009
090
F7D
F33
10D
025
FA4
0E4
F74
F21
0BF
098
00B
EF7
F62
FC4
024
0A1
025
0DF
0D9
0B4
0C8
100
F6A
046
0E7
07B
FB0
F7D
FD3
067
EF1
FEF
06E
0AE
0B5
06E
07D
FA9
0B3
F9E
F04
0D9
F49
F63
FB8
FEE
FE0
079
F30
0B5
01D
081
093
F80
03F
F89
FD5
0BB
035
0A2
022
F7E
042
F99
FA6
034
FBC
05C
02A
095
003
F47
0D4
0F1
FF1
09C
035
FB3
0C3
0A2
018
FFD
008
063
F7E
EFF
F52
FC5
F30
0EC
06C
FDA
FCF
05B
0AC
0D7
F8C
EF7
FF1
F61
0E5
EFF
04A
F66
FD1
05E
FD2
066
F59
014
019
FA5
F33
FA5
0BD
F69
094
00B
05A
014
067
0FD
029
F73
095
F9A
F1A
08C
FFD
F42
0B4
0DC
FE5
094
F82
F24
07C
007
F71
029
0E8
088
F50
005
FD6
F9C
FCE
0A4
FE8
F0B
043
F36
05D
0D8
08F
F64
F73
F6A
F8C
F9F
F0D
098
063
047
FAB
057
063
050
F7E
07E
FB0
F76
EF5
FF3
0EC
0C0
041
0AF
0B9
047
FE8
0B3
002
0C2
08A
027
F95
F5B
F4B
034
F31
0BC
0E3
05E
EED
F7A
096
089
F9D
093
086
F4B
076
F19
059
F21
F48
FE9
FB4
F52
F99
0D7
F47
F9E
08E
FC8
0C2
012
FCE
F77
FB0
FE5
F44
00A
0E8
0E4
FEF
023
015
FA8
082
FB7
01E
F39
F66
09F
EF5
0DC
0B0
FB0
F44
F86
F35
FB4
049
F8A
EF2
F4F
FF0
08B
FEB
06B
FF0
099
088
04F
F47
F43
002
02A
040
042
081
FF5
F85
07E
F16
107
099
0BD
F46
04B
06C
080
FD9
039
043
08D
FDA
F47
0D3
F6F
F56
F78
0AC
0FB
F24
F55
03E
FA6
FC8
F56
03F
087
F4A
058
05A
05D
03D
071
F95
F27
0B8
FC1
083
FF0
F12
057
06C
0E8
FBF
0BA
F43
0F4
F1C
F15
F3E
03B
FAE
0EB
09E
084
F4E
04C
FA0
FDE
0F3
F6E
077
F9A
F65
01B
FE9
04B
F3B
F4C
F8D
081
024
F17
F98
0AF
FCF
0E2
005
00C
01A
F07
0F1
00F
F5D
F91
FDE
F37
0C2
0EB
F4E
0A2
F63
FAE
0A5
0C0
096
FE2
FA7
EFA
039
FE9
FB6
FF6
EF2
F3B
F22
F39
0E2
F61
F4A
FAF
F2A
0B5
F87
F73
0D8
FEE
03F
073
F48
0DE
0A0
EFF
059
046
0F7
096
F92
FEF
F15
006
07B
091
FB6
0D4
0EA
0BC
F64
076
08B
FDE
09E
0AE
075
0DB
0DC
0A3
0C3
FD6
00D
FD9
F32
F55
F47
F61
F3A
F89
086
010
079
04B
06B
F4C
077
0D8
06F
0C9
0DC
0D5
FB3
F32
F7D
FA5
117
FC5
126
007
F44
082
0CC
0FE
F98
0B6
01A
FD2
008
FCD
063
051
FF8
08D
FB3
0EA
006
FB0
0A6
03B
029
02B
F72
F88
091
048
FAF
09C
046
FD7
F10
F04
F57
0CB
F5E
F1A
0F6
FB0
FF8
F3F
F5F
F59
FA4
0BF
030
0AA
F5A
F17
FF1
040
FD0
035
F13
0B7
F7D
047
013
FC9
0CB
F45
F40
018
FF1
034
F69
02E
FF4
0BC
0B8
F3D
0A0
F4D
0F3
FE3
FBD
0CC
072
034
00B
041
F26
FD4
F07
05A
012
FD6
FD5
003
0E7
0C8
070
F28
FCE
FB3
F18
FE4
F64
FB4
F23
061
0ED
022
FCC
F6C
FAB
F78
067
05E
F7E
FF6
0E7
FBF
FB6
FFE
0CA
07B
01C
07D
FDA
F4F
FE7
FEE
099
10F
F5D
F4D
0ED
F6C
FF2
FD3
0E5
0E6
0CB
085
F78
052
013
04D
FBE
FBB
0F1
F22
093
030
F03
0D3
096
F25
061
F60
F6D
0E5
000
F39
08A
F75
FB4
049
F3C
FA2
F53
F87
FB4
014
F9B
F7D
F3C
051
F73
094
F35
F52
0E2
F9B
087
02B
01F
F0A
FFE
099
0C5
014
0D6
FA5
00E
021
082
FFA
FC2
0ED
F75
0C2
F3C
0C3
008
F99
FF4
11B
F6D
FC4
04F
F6B
03F
026
02F
FBD
08B
FD7
078
097
09B
F27
05E
F85
F6D
F41
F9E
F5E
048
F30
06C
FBF
F7E
084
0D2
F49
F6C
F5C
01E
F7B
028
055
075
FB1
01F
F87
F4E
0A1
0F3
087
FB5
0A7
03E
FB1
0CF
F74
F8F
107
F83
04A
FC3
001
0AD
F78
0F7
0A2
02B
005
F59
04F
F64
073
07E
FBF
04D
07C
FFE
F09
F83
F63
FA7
0B8
00D
FBC
0C7
F72
FD0
048
F91
0DE
F83
F87
0C2
F0B
F6E
062
03D
026
008
035
014
05F
F68
052
FC8
10F
F86
FB9
023
066
0DD
028
FCC
0E9
F52
0E3
0FA
09C
0B9
F23
0F2
F6F
FDB
008
0F8
F17
102
08C
0CB
004
F26
FEA
013
077
0D0
045
064
03C
08E
F65
F5B
0AB
F28
F99
F5B
0B0
F92
0B8
09A
F8F
F43
FF3
F88
09A
FD0
F68
F81
F96
093
F85
F30
F87
F95
FA2
FC4
F73
F25
086
FDC
F36
FD9
F55
0B1
0EE
05C
021
0C6
FFD
0DD
F4F
F8E
08F
0A9
FC5
0D4
0F0
F24
FA9
045
F5F
02D
015
F43
F90
09C
F29
091
03A
0DD
EF9
069
03A
F66
F11
0C4
F3F
0DF
0E8
FA0
F19
085
062
085
FE4
105
F75
F49
F74
F33
0E3
F09
F71
F16
01E
FE3
0A8
FFB
096
FFA
FED
02E
026
FF9
FD8
F35
096
036
F28
F9B
00F
F27
03E
FAF
06E
00F
04A
0D4
F5E
074
F45
FEF
04C
0B1
F69
F98
0A7
F87
02B
F00
0C9
005
FE9
06A
FE3
FB2
01C
F3E
09F
0EA
FF3
FC7
003
FEF
096
0BF
F7F
01A
F5A
FC7
018
FF6
F95
020
040
F42
047
0F9
06D
F3E
FAF
018
0C3
0FA
032
096
0B0
017
F5E
01C
055
05B
090
F7E
060
F90
077
094
0D8
FFB
0A7
097
FA7
0A4
0D4
FAF
05E
F85
0E2
098
F36
ED9
F7A
F2F
02E
F52
0C4
EE7
FA2
FD0
F0D
087
F1E
0D5
F43
025
019
F9B
0B1
F81
0B0
049
0E8
FB7
F6B
FD8
F34
F29
F9E
0FB
FD0
FFA
0DE
F2B
037
12E
0CF
FEF
0EC
F68
F61
0D4
F58
0AA
047
FA4
F77
032
012
FFD
FCC
0A9
096
005
081
08B
F3C
F58
017
FE2
EFC
F30
F96
092
FE1
FF1
05B
F9E
FEE
0AC
F68
FFF
095
FF9
FAE
018
F1B
F81
021
0C1
03A
F96
018
FC6
FFA
FFE
F56
F3F
11D
090
07A
F9E
F5C
F93
04F
0B1
FBF
FE9
0CF
F68
078
FFD
FD1
071
FF1
FED
0D4
0ED
F9B
F6A
0FF
FDA
06A
107
0C9
064
FA5
075
055
0AC
0BD
09A
F6C
F81
F9E
FEA
08B
098
0D1
FFB
04D
F2F
F03
02A
09D
042
0C1
01A
F5F
F23
0AB
0B9
FF6
05C
F43
FE9
F4A
FC3
F75
F7D
FD2
FFE
049
0C5
F7A
FA2
0FA
021
0DA
057
FF8
FCF
06D
F6B
FAA
F9C
044
FA2
F6F
F82
F47
072
F24
FCE
F75
012
FBB
055
027
F45
0B7
04D
043
003
0B5
043
08F
F9B
039
0EF
FEB
FF5
F81
F06
F51
FF4
F36
FA8
F44
FE5
0B5
F2E
0CA
F90
FE6
07C
EFD
0EF
F7F
084
0CD
106
015
F3F
052
058
089
074
0B1
059
0E3
FA3
F21
08E
08C
FE0
0D0
F51
115
F5E
012
106
F6C
FC3
0FF
05E
F81
F6A
078
00A
FF5
02C
FCA
0AB
FE9
005
089
0CF
102
009
11B
F2E
034
095
F19
F63
F33
FFA
F82
08D
06E
FF4
F4D
05B
04F
F02
0D3
FEB
F25
FCE
F18
05A
085
FDB
0E8
058
FEC
023
0E4
0D3
F9B
FDF
04A
103
0B8
FE7
FB5
FBF
0C5
F2D
039
F84
FBD
F92
F5D
10A
014
FC3
075
F6B
0D3
0D9
F0B
0D6
024
012
03D
F07
F19
FA4
04F
086
09F
FFE
107
0DB
FDA
03A
0D3
FEF
04D
020
F47
017
0CE
058
094
EF4
018
FAE
0BC
FF2
03D
F31
FCC
063
096
106
00F
FF3
F7E
0E0
0BA
F1A
096
F31
03B
02B
05B
0E4
07E
F31
10D
F4E
053
FC1
04E
0A9
F70
FAB
054
00C
0D2
F9A
F73
0C1
03F
F37
056
FF3
08E
F6E
068
FFC
F86
F36
FEE
F54
FFE
0C7
F59
FEF
069
0A8
098
06A
FAE
F73
096
F9D
FF5
F30
FBC
09D
0E6
033
F65
0F6
F5F
0F7
0F8
0E8
FB1
05B
051
0DC
0E9
0B7
F0B
057
F90
F8F
03C
060
049
F65
F96
0C5
105
F6F
0AE
F50
F7D
F44
F69
F60
F64
F69
F45
F0B
010
F27
029
F96
F6D
FB6
06E
0C6
0B1
0B1
FC2
F9C
0DB
F41
0A1
F9D
FC9
022
032
0B8
060
009
F45
FDF
0A3
FA0
FA4
FB6
F42
FDD
F35
FDD
FC8
F6B
F06
017
079
FFE
F46
081
081
F0D
FFF
FE6
03B
FE8
F13
074
0E0
03D
F2B
F1E
FE9
0EC
063
025
11F
0EE
0D0
049
058
022
F26
0DB
FA8
0BA
08B
02A
08F
FE0
070
002
094
F4A
FD2
FEB
F3A
006
F1E
0A5
0D3
0E1
FB9
0A8
F59
0EC
F15
FEB
00F
F61
F30
0D1
100
F8A
02D
10D
07C
009
0D1
0D8
F6A
003
0D2
F7B
090
0AE
FF4
0C8
FBF
FEA
F30
FF0
FAB
F7C
07A
05A
FE5
018
011
02D
090
F39
FD2
122
FB0
0AA
F27
F9A
F45
00B
FB2
03B
F61
F73
0A1
03C
F72
02C
085
F1A
FCF
F32
F21
F5E
FFC
041
042
FA1
0FF
F6B
007
FB2
F26
EE5
020
F3F
04F
062
081
F2D
106
F8E
019
F6D
F77
0B1
0AE
04E
F5E
F91
F9D
0F4
0AC
01D
FDC
039
F10
015
054
F78
F79
0E7
0A3
08A
FDF
0DA
FEA
F91
F8A
F42
F60
F24
00F
FB9
019
082
0AD
021
06F
FA5
099
F0F
FF5
0C7
02B
0E2
FE4
FF4
F22
0F5
F55
FDD
F2F
031
010
0AF
0A7
049
018
FCA
087
FA1
090
08A
002
FB4
004
0AD
03D
07C
035
F1A
F8D
FA6
FEA
F84
F94
005
FB3
F4C
F94
F59
FFB
01C
FD9
FD5
FC4
01D
FA6
04E
034
027
FFD
F8F
FAA
F21
051
F64
06C
FBF
0B3
0C5
FD3
03D
FBD
F00
FB4
087
F0E
04B
08C
F89
F7D
042
F23
FE3
04A
057
FFC
03B
EF1
037
091
015
093
FF9
FBD
093
05F
017
EFF
037
FFF
0C3
02F
F24
0F4
015
074
EFC
F69
F61
FC5
F75
F77
053
027
0DA
0BB
F33
081
FC8
02E
0D0
0C2
071
031
FC4
F43
F2D
FE8
F27
F1C
04A
0AC
0A1
0C1
FC9
081
09A
F6C
F54
F2E
FD5
F09
EFF
FC5
F5C
F38
FFA
09E
F41
FFD
F4F
06F
EF9
FBC
009
F0F
FF7
F25
FFA
0C5
F3D
F52
F63
090
FDF
F5E
012
FA7
0C7
0AA
0C9
0BE
F8F
0D3
000
008
F74
FB5
F61
0AD
09C
F93
FC3
F79
0E5
01E
F1E
F83
03D
F41
FD0
FE4
F0B
FCA
0CB
F73
F5D
016
FA0
0D9
077
0D3
F34
04D
F5A
0A4
F7E
0BD
F57
080
012
081
015
02A
008
028
F1E
F51
F18
F65
F18
FE5
F8E
F26
EDF
025
F7F
FC3
F02
FC6
FF0
F82
005
FAB
FDD
F92
08C
FCE
FEF
0A5
F5F
007
04F
065
06E
F63
04B
0D7
F52
07C
05A
0EF
FCE
F2D
06D
FB4
0B1
004
FF0
07B
EF9
FA3
EF6
F43
029
08B
FBD
06B
05E
FEA
092
F60
FFC
F30
0B4
048
F71
F09
F5F
F1E
F05
0BE
F06
F64
F15
040
EEE
048
088
03A
F9E
EF7
FA5
002
038
F72
0BB
F1F
0A9
045
0E9
0F3
0C4
06C
F6B
FFC
F79
F1B
F61
F2D
0A5
0C8
FCE
F98
F30
0D0
0A0
0AD
FA5
F7D
0BB
0C4
042
058
F5F
01E
FBC
F63
ED4
F23
F9E
031
EFB
03B
EC5
FEC
023
028
F01
F2F
F89
FD6
F69
F17
F25
0C0
F1E
0A6
F5D
F23
030
F0A
FEE
ED2
FEC
069
F62
039
056
F74
0AE
0CC
097
011
0CC
00B
F4C
F38
F20
037
0F1
F6A
F35
FEE
F92
085
FB0
04F
F12
F86
0E1
039
F1B
F25
0E0
008
FF7
F83
09C
F62
F87
F7D
03F
0CB
F13
033
F8C
F9D
F38
05A
F9E
0E4
0C1
F92
EF0
FF2
0B8
F0F
020
02F
0C0
056
FFC
09D
F53
ECE
F97
011
EE2
0E1
F14
F59
06D
0A7
F0E
F71
F49
0C2
F2A
FCC
EF5
0C9
02D
02D
FB6
101
005
F80
095
FA0
FF5
0F1
F06
F53
024
F53
F11
F71
FA3
FDC
0A3
FCA
FA9
F62
FDD
F07
FCE
F27
05A
FBE
0A3
FC3
F68
0AA
F1A
FB9
F4D
F64
F95
FF2
FC0
094
FB0
0A0
F7D
FB2
014
04D
0A1
09D
F6E
05D
F09
FE7
F34
FBB
F15
FC8
024
07B
F0C
043
024
F20
025
FC1
EF6
F35
F6A
FFD
FC3
FF9
FDB
F44
048
06B
0DA
FC2
F37
0E0
026
0B4
EFC
FBB
F2A
F60
F11
0B1
07A
FB0
0BF
02E
040
FCF
F9B
F6C
F60
0E0
053
097
09B
04B
FFE
0E9
07B
0CF
FF2
FA4
FFC
EFE
013
FEB
03B
082
05D
001
F02
F83
F05
FC4
06E
FD3
06D
04F
F5E
FD4
F3C
0CA
0B0
0B6
0A9
026
F19
F31
03F
102
F1C
F94
FA5
FFD
EF1
F86
037
F8A
0C8
0BA
0BF
02A
FF0
008
02A
F38
F7E
F9D
04F
FDF
038
009
FDA
F18
F7F
0A0
F52
F41
04F
FBD
08E
044
0AD
F8B
FA8
FBB
046
FA4
F34
021
F6D
019
F5B
FB5
F58
F28
FAA
F5F
02E
049
F5F
0A3
F45
FE3
0AC
F41
00B
F0B
F0D
FCF
F36
FB9
055
00B
079
099
05D
042
017
F5F
FF6
FCE
FB0
FF9
069
031
098
F44
F0B
F1F
F43
035
F2D
06F
F5E
01E
07B
F15
F38
F23
F6C
F0D
054
0C2
0DE
0BD
0C8
FE8
0F7
FF9
037
FB7
F96
F5E
072
FC5
039
02A
08B
037
FF2
FFF
0D5
F03
0E8
077
FFC
064
093
FD5
039
F42
F0B
FB3
074
02A
0AD
099
094
0FF
075
001
021
F91
F52
0F0
F7C
062
024
0BE
FC7
F43
098
072
06B
0E6
F15
FA1
0FE
00C
0A1
F21
F5E
0D0
F60
F1C
0E5
054
F1E
FD4
0C2
FBE
F15
F29
FD4
059
00A
0BE
031
065
073
FB2
0D6
021
F52
FB0
077
007
F0A
FE5
FF1
FF8
F4A
F14
0E3
F83
0C0
F5F
026
042
0F0
049
039
F67
FD6
F03
F17
01E
01D
00D
0FC
0A0
F23
FEB
06E
F2F
00C
0EB
F3A
000
068
F60
065
FC4
FAA
081
062
FF2
FE3
F1C
FF7
FFA
F1E
0CE
0B9
F8F
F3E
030
FB1
FB1
0E1
02B
0C8
0B7
0A2
FA1
F8B
079
F4B
FC4
F1B
093
088
055
0C3
0A2
022
06A
06D
FD8
088
0C2
00F
0D6
FAE
06E
095
0E3
05D
016
089
00C
0DE
0FC
007
F5F
102
FF4
0A0
F56
099
FAA
10D
056
F50
FF4
F8D
0F3
091
033
079
F84
04B
FF6
10B
FCF
059
FB1
0EC
F35
050
07D
F9E
FD8
FF3
F0C
F9D
05E
081
FDC
00C
F1D
F44
F0E
05D
059
0CB
084
FDF
F3C
0C2
087
076
01B
07B
0D7
066
053
F18
F64
0CF
F89
0CA
0FB
0A4
06E
F97
0C6
F2A
047
052
06F
0C5
0F0
FD6
FCD
08E
FDA
FFB
0A6
106
094
0F8
018
011
10D
F35
FE6
F6E
F5C
FB6
FEC
0A8
005
010
FE5
102
051
FFD
0E6
06D
F83
017
094
018
F88
00A
02C
F95
0A9
02B
04D
FB9
09D
097
FD4
F13
05D
09A
F09
028
F10
F31
0F7
FF6
FC9
F85
FBC
F83
F1C
FB9
0DA
0D1
0E7
0E9
F93
05E
FDB
F11
F49
F6F
08A
F4B
085
F4E
07D
020
105
036
0FE
00C
F82
F43
FE8
036
0A8
080
05D
FB7
002
F51
FAB
FA8
0EE
FAE
12E
FDC
F75
01D
FF5
FF8
096
F9A
FE5
075
089
F01
F6C
F9B
F99
EFF
FC7
FD0
F62
FFC
FA5
0C8
FE1
034
FD7
0F3
FCD
044
FA7
F15
F7E
088
068
005
F21
087
FD6
FF6
F63
0A9
07C
F40
083
F18
F26
F91
077
F29
10C
077
F51
007
F90
098
0A6
0E8
F43
04F
00B
011
0D9
04E
03A
012
FA0
F7F
F74
F52
049
002
F6D
0A1
FCC
027
08B
04E
EE9
F5F
F5A
0A2
FD3
0CF
EFA
F79
0F7
04C
FBB
FBD
021
F2E
F2B
FAA
043
0BB
006
F5F
F81
F6B
0A4
F55
0D8
FF4
F6A
FA8
05E
036
075
00F
04F
108
048
F3D
0B0
FB0
F30
F1D
086
017
091
0C9
FD2
F38
05C
F35
024
F1E
062
057
0F4
F91
0DD
03F
05F
042
F7A
0F4
009
00A
0B6
F78
F49
0A2
0C1
09F
FD6
FA0
036
032
070
F6C
046
FD9
FB3
F6E
FD3
F28
FCD
F38
F68
059
0B1
F71
F8E
0C6
F4B
017
01E
FBD
08C
F7C
FDE
0B2
0FF
093
F0F
02C
F33
0E6
0B6
F81
FED
F85
08D
022
042
F29
0C0
FDB
F4B
013
0F3
F55
F48
F4F
F89
093
0F8
03C
0F3
01A
05A
F1F
06F
FFA
02C
0EC
058
F35
FC0
073
0BB
F6A
064
0F0
F25
F46
0E9
F22
0EF
F30
07A
0DF
05F
022
F46
052
037
0AF
F3A
004
FBA
F30
FA2
054
FD2
F64
085
0B5
018
093
0C6
F4D
00B
0D2
08F
0C3
037
F7D
023
0C7
08F
F1B
F3D
0AE
0AF
FAF
F88
0F8
F3C
FDC
032
FD5
0C3
F82
051
011
0DF
066
F00
063
FCD
081
FCA
FE8
F4B
087
0F4
0E3
FE5
0BA
F14
FD3
04F
06A
FCD
FDE
FA3
F0F
F20
000
070
FD9
FA2
08B
090
023
04F
FE7
088
0F0
FC1
F3F
F77
09A
0FB
0FF
0C3
04A
03C
0CD
009
FA3
F30
0A3
F76
FD1
0A7
F60
FA1
F75
F29
026
034
05D
088
0DF
F22
F17
032
0AD
08A
00C
FAA
08F
F8F
F0E
006
00E
F4D
047
FC1
FC8
026
F0C
F9C
025
08F
101
FA2
FB7
043
0C4
F5A
F7F
F2A
0BC
0A0
0F6
F49
04B
0BE
F09
F92
F5B
0B6
F89
F97
FE3
0D3
F88
F4A
F18
017
F5D
0E9
FC1
030
FAC
109
08F
F5C
03A
F2C
05D
0D6
FAB
0CE
FFE
FA4
FC7
088
F81
F47
0EB
05A
054
071
0FF
FB1
FEA
0CF
04B
FB8
0CE
F2E
F93
052
F32
F30
F90
FE6
0B3
FB8
04C
F07
F54
080
06E
F1C
014
F24
F57
FFA
04B
F15
071
082
07C
F5D
FCF
F70
F2D
072
F31
F34
118
FF2
F68
10E
F4D
0D6
F6D
075
014
F07
03A
071
0F9
F61
0D0
FA6
002
08F
FB5
032
F81
F77
F52
F53
F9D
F97
02E
F12
0AF
061
042
071
F92
FBF
F40
F28
034
0C3
0F4
026
FD4
0D7
F63
082
F96
FE6
094
08D
01B
EF1
0CC
02D
02B
06A
094
0DC
000
069
F32
F88
FF7
F12
00D
054
02B
F21
FC1
FF1
0B7
F8D
F79
FFE
FA8
F06
F34
049
093
FD7
F99
07A
FAF
0F5
0B2
0D6
F24
082
07A
FD6
FD8
067
FBF
009
04C
F36
F28
053
002
F26
F96
020
F73
F1C
090
FA0
FFA
F51
0B5
F3B
08F
FA5
096
FBA
F7B
0D4
F9B
0D1
07C
F2F
F8E
0CA
FB0
074
F6A
0E2
04A
0F1
F95
0C7
0B2
FBF
00A
FB7
100
00D
F96
FEC
F51
01C
05F
073
057
063
F75
F70
009
09B
0B1
F59
0F2
024
0AD
FE3
F88
0F8
F9D
0AD
078
F08
FA8
F67
066
0B1
0B9
028
037
0E6
054
0AF
FE3
054
0E1
F7A
053
051
FFB
028
FF2
FB2
04E
0B4
F0D
04D
07A
080
F3D
06A
EFC
050
F6A
074
FA4
FDA
0DB
F40
F9A
FFD
F37
05F
FDA
F23
0FA
0BE
FAD
FCD
F7A
FFE
F63
0ED
035
F8C
00D
F58
0AE
F28
020
FCC
062
054
0EB
EFB
FA3
F3D
EF4
0AF
0C6
0BA
0A3
F40
F18
040
09D
0F9
079
FA0
F81
034
0F7
FC7
F14
04D
0C1
F5D
09A
093
0B6
F17
F61
F86
0AB
020
017
F36
073
07C
FBE
089
F64
F6F
07D
F50
F34
021
099
FF0
FF5
092
0C4
0BE
F55
F63
021
038
0C8
01B
02C
019
019
044
0B0
FE0
F21
062
F03
FC6
091
F7B
F9B
0BA
012
0B5
06B
F48
F59
FD3
F4B
FF4
F21
F8D
F73
F01
F17
F0A
F63
0CE
FEC
100
0D6
0EC
FAF
F2A
0FA
F29
FFC
F85
067
000
040
023
07B
0A3
017
088
F79
F85
01A
093
F1E
F6C
FFC
FE3
F81
097
F2F
FA3
F28
0A1
0AD
F39
0D4
FC1
F6A
03C
001
FDD
06F
0E8
FF1
0CE
F34
F30
F55
0A4
074
04B
FA4
F39
0D0
F70
FB0
020
FD2
038
102
0C2
003
F18
092
039
0AF
F39
F3F
0B1
0FB
F21
F7A
010
0BC
F86
077
0DF
07B
FC6
F59
F67
F67
0AF
FAD
FC8
0BE
FB9
FB3
F62
F0C
F53
FD9
00F
008
0F9
F3F
FFE
03D
07C
F84
F15
051
F29
095
FD3
000
01A
F9C
08C
050
0D5
051
098
043
068
0A8
FD8
0D5
052
F73
FD3
F69
031
F24
F6E
086
089
078
F73
F7A
0BD
0A8
0C2
F8E
0AB
0B1
054
F43
087
08B
FCE
0B9
040
04A
F81
058
0D5
028
FF7
0BA
071
078
F78
011
F39
013
F98
F1A
05E
094
FCF
FD3
057
0EF
0C5
0DC
01B
046
0A8
F91
026
F26
FA9
F4D
099
FF8
091
FDF
065
04F
F90
FB2
04E
F94
04E
074
F2B
00A
105
F79
F92
F13
02C
045
05E
016
F3C
0CD
F70
FFB
037
F93
F30
0A5
027
F7C
FDD
F3F
013
041
0BC
028
08B
F76
F8F
F3B
F1E
0D7
F6C
F30
F9F
00A
001
F0C
FB8
F30
011
0EC
FFA
02F
072
F22
FE7
101
FDA
0D9
0A7
0E3
0F0
FB8
F3C
FD1
09B
028
EF2
F13
04E
F24
F2F
05B
0B2
F58
F1E
0FD
075
FFA
011
061
0CE
F60
F3B
06E
F65
F48
0B4
FEC
F64
105
F53
F82
05A
FB7
015
089
F17
102
F7F
0DD
092
04F
070
FDD
070
00B
029
104
0F5
FCB
FE7
F1C
09F
005
F67
05B
FAD
0F8
FD0
028
F19
018
F08
073
009
F9E
05A
011
F8A
FD1
F8B
07E
0D8
F0C
FE6
F4D
03C
F48
0B9
F75
F7A
F9A
029
017
F79
119
024
007
0F8
FAC
06E
F8B
07B
F22
040
F81
F4E
0E2
FE9
05B
095
F1A
0E1
F78
FFD
F6B
F40
FAD
F9A
062
0C4
0CB
EFD
0ED
03C
FB9
07B
F65
0B6
F13
067
FDF
06B
080
055
FBE
0E6
F2D
F10
F44
06D
F0C
F6A
055
F06
04B
00E
0A9
F6D
FAD
09A
F41
F18
F64
086
07F
F5D
F20
F8E
0C3
080
005
005
0A1
040
0F7
FD7
008
F47
F9C
FC7
FA9
0B8
032
F8D
FF2
FF7
F93
FFD
0A8
F20
F3C
FFF
F3C
F5C
F4B
063
F4F
003
0D6
FCE
F4E
0C4
F9C
F0A
FDF
109
01B
051
F09
03C
FA1
079
092
F94
01B
F22
F42
F74
F50
F9B
0AA
029
FCC
FA6
F16
0BB
F65
048
092
019
0A7
0C7
0C1
FBF
02D
FEF
F90
F8A
FCB
FF3
0EA
F7B
043
FEF
FE5
F23
FBA
087
0B0
F40
00C
FD0
00F
0C5
F7F
0A9
06A
069
F6B
FF2
062
FF2
F3D
0DA
02F
0EA
F1B
FF8
F4A
F20
01C
02F
F43
F8F
0C6
F9B
0BE
0BF
F42
0EB
FF1
01E
014
