0046
FC9B
00F9
FE13
038B
017B
0228
02B4
032E
FD2A
FDA4
005A
FBEA
01F6
01DB
013F
FE14
0246
FD10
010D
01C5
FE31
02C5
01CB
016C
FE70
03EE
FCCC
FE65
FE28
03DE
FF6A
FE72
0301
FEE0
FF3D
0090
FEF7
00DB
FE3C
0057
0258
00BE
039D
FFB1
FF82
FCF7
FCF7
FCDE
FEE7
FBB9
012B
FC8E
0256
039C
FEFD
FCF6
016D
FE65
032B
006F
FF82
FED7
FE32
0104
FCCE
FE5C
FEB1
0189
00DD
FB8E
FBDC
FD50
02A1
FC6D
0288
02E9
FFF1
02C0
00B4
0193
02B8
0065
FE90
FC82
FE64
00B8
FF33
0084
0073
0011
0004
FCD7
FF31
FD24
FFE7
FDDB
FAFA
FE3F
FF26
FD53
FC5C
0342
0049
FE05
02F9
041B
02AD
FBFF
FC0C
FD53
FDB6
027F
02AD
00BA
033F
FDBA
FEC1
FF10
FF43
0098
FC97
FC2A
FBB2
0055
FFFA
FC39
FCBF
FF6F
FCC2
FBA5
FCC2
FEBF
030C
04B2
FE8F
026E
020F
FF3F
FCDE
039F
008F
038A
FCB2
02D6
FCFC
FEA4
0291
FE25
0208
FE76
015B
FCEB
FC95
FFF8
FD49
03C4
FE81
0088
0014
FEB2
FEA7
FFC5
038B
FD04
FD0A
00A6
FDDC
019D
02B4
FC02
FCF2
FCDB
FFFB
FC07
FD01
00E4
0491
FDE3
FFB9
0273
FFD8
0307
FF2F
FEB8
03B2
FE9C
0203
01A3
FF39
FDAB
0565
015C
FFA9
0348
FDF0
0024
00B0
0016
0147
FE4F
01C1
0143
FE7B
FCCD
FE37
FF3D
004A
0161
0279
FE51
0340
0440
FCBE
FFA8
FFC4
FDEB
FE2F
0117
0368
FF56
002F
019D
0334
0370
0124
031A
0111
0240
FD72
FD32
FCDC
FD24
FE81
FEF2
FCF8
023B
00D5
FDC9
FE6A
FF5F
FDF5
0290
007C
FDBB
00B3
FEA0
FDF1
026E
FD7A
031A
036A
FD47
02C2
FE94
FC7D
FF45
FCFF
00B7
FFA6
FB91
FBA8
024F
FDEF
016B
004C
FE5A
FD3E
01D9
FE5A
02BF
FF9A
02E2
03C4
FF4D
019D
FE1D
01A8
FEEF
FF52
FE5D
038E
FD54
FDCF
01DB
FBC4
FD4A
FD0D
FED8
FF34
FCF2
FAEA
0303
FF98
FF6A
FC79
002E
02FC
031F
02DA
FE10
FD55
00D0
FD6E
FDCE
021B
FC1A
FDE4
02E0
FC17
FE8D
01A7
006F
FED2
014D
FD7B
FD64
FFF3
FF85
FFFE
019E
01CC
FE07
012C
0153
FE31
FC34
011E
00A4
02E5
FDD2
FDA2
FA8F
FD1E
008C
0368
FEFC
0283
017F
0117
011A
FE96
02AE
013B
024F
01F9
FC51
FB4C
FC9E
0000
0063
FE21
FEF6
FFCA
FFF3
FF44
009F
0320
FDAA
FC38
FBE8
FF0E
FD6A
FF31
0008
027F
0147
FF2E
033F
03A1
FD74
01E7
FE47
FC6E
012D
FD53
FDB3
FAC6
FD08
0159
0224
0270
00BB
0174
FE07
00B4
FFB8
FA05
FF34
FF89
02AE
0266
FC53
FDB1
024D
FCFD
0392
03E4
0472
0104
0070
0272
FBDD
FF9B
FBDB
FD5A
0191
FA6A
FF31
0063
01F4
0132
01F0
FB99
FBE3
F970
FDC1
016F
FD1B
0031
007C
0091
02E4
039D
04EB
02D7
0193
0526
0363
02C6
014B
04DF
FF79
0097
FF47
FF8C
02CF
023F
FE10
FE52
FE0C
FE45
FEB2
FB56
FD66
FE58
FFBD
01CA
FE19
FFB7
016D
FECF
018F
050F
029D
0266
0698
0559
047F
04BF
0584
007F
FC57
01B1
FD8E
0460
FFBB
FF17
01D0
FF0A
012E
FDD8
FC53
FBFB
FECC
FCFB
02C4
FCD7
0390
FFF3
FBC3
FD47
046C
0215
07A1
0201
07D1
03BB
074C
0497
028E
0030
0271
FCEF
01F2
FE10
0018
01FD
FDB2
FEF9
FD86
016F
FCB6
013E
FCCB
03D0
03C8
0284
FE3D
FD58
0515
0286
FF09
044D
02D9
04F5
FFAD
0301
0124
018C
02D8
FCA2
01A5
FE77
FFA0
FDAD
FDC6
FB85
01B5
FEF9
033A
003C
FD69
0209
FEEB
00FC
00E5
0212
FE93
03DA
FD42
00AA
0129
FCC7
002F
FDAA
FF9D
FFA9
0069
FEC1
0188
0063
024E
FE6A
FFA4
FD02
028D
01A5
FF93
0106
FEB5
007A
0232
FBAA
0282
00E5
FC01
000C
FD65
FA86
F7AE
FA00
FB82
FFA2
FDA3
0053
0165
00B0
FF03
00F5
FD04
0325
FFBD
02CA
0267
FDFF
0381
FCC1
FF14
007D
0294
FFB0
FD5A
00F5
0033
0008
FE3A
FBBA
FDDD
FC4C
FDB1
FE6A
00FB
FEE0
02BE
0146
00B0
0007
0039
02B3
FF31
FE50
FF21
FC77
FFEC
FC10
FFAA
FE55
034E
FF12
FDB9
FB76
FD0A
FC2C
FF4F
FC7D
FEEE
020F
FD84
001D
FCB5
FECB
00C0
FC33
0114
FD6D
0213
0110
0186
03E4
012C
FFD1
FFEB
FFFE
FDA7
0074
0323
028A
0334
FE80
FBD0
003E
008D
0136
FEDD
FF4C
0217
FBC5
FD05
0299
FFB1
030B
0431
FF74
0259
0063
00DE
0027
0051
0343
FEF0
0354
FC03
02F0
0161
FEE4
FF35
FE45
0309
FE0B
FFF3
FF93
0155
FF11
0144
FF16
0035
FD71
FD88
FC9F
000E
01C9
0531
040F
0231
02C7
0272
FCD9
02EF
0151
FCA0
0118
FCF5
025E
FEA9
FF40
FD39
FD4A
FCFA
0318
FF7C
FF73
FD3B
0213
00B8
FEE6
0053
FE47
00F3
030B
0270
0423
FEE7
0369
02E9
02EA
0108
FC5D
0165
0184
0040
FE55
03B7
016B
00F9
FD68
0341
FC81
0291
0113
FE5E
0202
FE36
0118
FCBB
01A0
FE5C
FDB5
01B5
FFA5
0257
FE50
03E7
0325
0324
0108
03F7
03A5
FC89
FCDB
FD0E
00F5
FCB5
00F9
028C
FD10
FFAE
009E
00E6
0271
01DB
FDF3
03C2
035D
FDF0
03B7
0179
0139
FE26
00BA
FD8D
FEB1
03CD
0159
