FCF
EFF
F07
F2B
F70
F5A
039
FCB
F95
00A
F66
0C2
077
FF3
083
F62
FEC
037
FE9
F30
003
F37
FE7
F8B
0DE
F95
0E5
F80
057
FEF
07F
0F6
F6D
F49
06B
FF1
F5C
024
FB7
005
F15
01D
047
F16
041
0B7
0C6
F38
0D5
F29
005
0BA
03E
039
FB1
FC1
062
FC8
0D2
09D
F51
0EF
F63
F46
01B
F74
F5E
020
FC4
F7D
017
01B
FDD
F06
FFF
F3A
FC1
05B
FD9
FEE
026
06B
F1A
0DF
FA8
F21
05F
F54
044
F14
F80
F1E
0C9
0B5
02C
0D8
F79
000
F01
F46
045
FF7
F66
052
F36
FD8
F8B
057
04A
FD4
025
0E1
FE4
F9E
F59
029
F6A
072
0CA
FBD
059
0CE
046
F43
06A
F39
059
F4F
F5D
003
F46
FBA
037
039
F74
067
F2A
FA2
FC2
F06
F3E
F78
F99
FDD
EFF
0AF
F55
0C5
0A4
0E2
092
054
F94
F21
0EE
FBA
05E
041
F27
F8A
F2B
00D
F18
07B
FBE
004
0EE
0C2
FE2
09E
0A5
FAB
02C
0B9
076
F40
F5D
0A6
F56
0E9
F43
0FB
F67
F3E
F5B
F28
0FC
F1B
F38
F26
015
F56
F43
0F4
F87
03D
FC4
03B
FBA
06B
02E
F4A
F3C
F42
073
019
01A
05C
081
0ED
FB2
FC4
013
0C3
059
091
F26
FB4
F7A
FDB
01C
023
090
0EE
018
0CF
EFF
FF5
FE9
054
0B3
01B
FCE
FC1
FA4
F32
076
FB7
F0E
019
FA7
002
FB7
084
0AF
F1E
0BF
FAE
F2B
034
F68
075
F24
05F
0F9
0DE
086
F1D
FA2
FBD
F0F
FC4
FB7
FDD
F62
034
0FA
0C4
F33
0B3
F7A
0A3
F88
FCE
002
F8B
F49
F40
07C
055
046
0A4
FEC
F8F
FA1
0F2
FF4
080
00A
F73
085
05C
F26
0A9
F2F
F46
F43
023
F29
051
FB8
0DE
FEA
0F0
F58
006
FAF
089
0D7
03B
06A
010
080
072
05C
F18
F15
F45
026
FC4
FAE
FCC
FEA
F2D
F98
024
03C
F45
0B8
06A
07C
FF8
F8C
FCE
020
F0A
0C0
F1C
FFA
02E
04F
0E0
FD3
F21
FB7
FB5
01F
F43
FE7
0B8
F6F
0A8
06D
F0D
F04
08C
F3C
F03
0EB
001
F48
041
F4C
006
F62
09E
0DA
F90
0C3
0D5
028
F44
0FB
064
F11
01B
FBB
090
F5D
094
041
0E7
FC0
02D
F2E
0D3
027
032
007
0DB
F7F
06C
F82
03C
F44
F87
008
FA9
089
F38
F84
059
F82
0DE
0E1
017
0F2
095
F36
093
048
F5B
FEB
07E
F36
047
F45
095
FD7
F71
FEF
05D
FD3
FED
071
0DC
F80
FFB
F37
06B
088
F6F
05A
FD0
F83
FD7
00D
0AA
05B
035
0CC
021
F61
F64
FA2
FEF
F40
F4C
07C
F85
0F0
F78
F1F
0B0
F4D
00B
0E7
F02
084
FAC
0F3
F52
FB8
0E1
FE6
F76
045
FB5
F86
0C8
0D9
003
031
FEC
FBC
025
0AB
053
FC5
FBD
0D6
FAB
F1C
F9A
011
0FA
F0A
F93
0CF
F03
09F
FC5
F0D
0EF
FD9
034
F90
034
09C
FC5
F33
002
FCA
F5C
0BE
0FE
FD8
07F
F74
FDD
F4D
F0A
061
FB1
0C6
0DA
F2F
FC3
071
055
FE5
FFD
08B
FA8
010
05E
0AC
083
FC2
FE0
F2E
0A2
FCA
0AA
F23
F87
0B0
042
F81
F8B
0AA
076
F8C
059
072
0F0
074
FA4
008
097
0C0
FC2
FA1
0AF
FA7
F17
FA0
F81
0B9
F77
02B
0B0
F56
F06
F4D
F7D
0FB
F40
09A
0AC
F55
0F7
0CB
044
0EA
F25
09E
F7D
F56
014
FC8
088
042
0BD
FFD
F01
F98
F96
0F1
082
099
F0F
090
083
F88
F15
F3D
012
F09
0A6
039
F8E
FE5
0A8
071
0B0
F7E
011
020
07A
F7E
09A
FC7
F38
031
FE4
F83
0E6
0A4
0B8
F48
F8C
F11
07F
06A
024
FF7
0F5
F70
0FD
0DB
F45
0DA
0C6
F85
07A
FD7
030
F4E
0B9
02D
F6B
0F3
039
048
0FB
F52
F7C
061
FEF
0C0
0D0
0E3
FCF
FA6
F69
04D
043
0AD
06A
F2F
FF0
FDD
0BB
F4C
F98
F77
F93
0D2
08A
FCE
015
03A
0F3
F13
07C
065
069
F2B
F19
0BA
047
058
031
0CC
FA4
FCE
F2B
065
001
FB3
005
FB4
0FE
FF4
F75
079
078
F90
07E
020
FF5
009
FF3
009
00E
FD3
0F3
02A
FA0
F9A
0CD
F4F
083
007
F66
0D2
F12
F83
02C
0F6
F3E
020
FC1
F1E
F14
FDE
FF4
F2D
05C
00C
F9B
F45
02C
04A
F84
F4A
FDF
F86
F21
F3B
021
FE4
07B
F21
F64
0EB
07E
0AD
0F7
FCA
F24
F8F
F64
F02
FAC
057
03C
FEC
007
081
F37
F89
F9F
0AD
F94
F3E
036
041
051
07B
0CA
FDB
0D3
FD4
F1B
F21
F58
F4A
F59
048
F44
023
F14
FEF
00A
09D
FD3
0D5
030
F2D
FA4
09C
054
F95
0A3
0CF
F0F
F15
F29
009
F87
F78
FF3
FEE
02B
0B1
F6C
0FC
FC4
FEA
F04
07E
F20
F42
092
0F4
FC0
090
01D
F4E
FC1
0E4
FB3
0D2
FB4
FD8
FFC
087
F73
08D
FD3
0E0
07E
0C7
F7D
FC9
F1E
F72
F19
0AA
F6D
FFC
FFC
073
01A
02B
04D
0D4
002
031
067
06E
F8B
FBC
F51
03C
08B
09B
07D
01D
F94
02D
064
FDB
0F0
F20
FA3
0DB
F0C
04F
079
F2B
0AE
04A
00D
FD7
FF8
F0B
086
0DA
035
031
089
08A
F2D
0D9
FA5
007
FA2
069
00D
F68
F82
FAF
09D
049
002
FF7
0C2
F98
062
0F9
FA0
029
FAE
FF1
F47
051
F19
FCA
05F
FE3
063
0B9
EFE
007
F0D
058
0EA
FB9
04A
F48
06A
03D
0D2
094
0DD
F35
FF5
FDE
FF3
F6E
0C2
FC7
FAF
F99
FCD
0E3
FE4
02E
F88
F34
0F6
F16
FBB
FDC
F6A
03B
F69
078
F66
F1B
043
092
04A
F39
018
FC6
FD4
F61
066
088
026
FCC
00A
0C4
F84
041
F88
FFF
F10
FE4
FCB
05E
F57
04B
090
F4C
FA2
022
F35
056
08E
F05
FEA
F56
F60
F2D
0C9
072
0AD
F74
07B
F73
F78
038
FFD
00C
0A9
06F
08E
F62
087
F68
064
FA3
0E2
0E1
026
F01
FFB
F33
08A
F01
0A0
06C
F76
F61
F45
FD6
FA3
08F
04F
F4A
F0E
064
FC6
007
0DB
055
0A7
FA0
0F4
FFA
F46
FA6
F9E
0FC
FA7
F69
FCC
05D
0EC
062
0E1
007
FE0
064
00C
F94
FD2
FAA
FEE
F5A
091
F0C
FFD
FFA
083
F15
0F2
F3B
015
F68
F99
05B
F35
F21
F6D
F77
0CF
0C5
F9F
FCE
028
02D
063
0B2
F78
F8B
FCF
058
0FC
0CF
FD4
0A1
0FE
0D7
0B8
F53
FDD
FA0
F81
09F
F08
0EF
F4A
F19
061
050
066
046
074
FBA
08C
041
F5E
051
0A8
0B3
F10
F18
0C8
FBE
FA2
FC6
0A5
0C8
0AD
FD8
F58
FFE
0C6
062
064
0EE
0F5
F51
F72
040
0CC
038
F15
F5D
F7C
EFE
F2E
FD9
08E
FBC
F6F
F9D
051
01E
07C
08F
06B
F23
013
FC2
0E6
FE8
FF5
FFB
0FB
FE0
F46
F85
0DA
FFC
FFE
F2C
FE0
FA8
0D6
FA4
09B
058
04C
095
023
F9D
09F
050
041
F58
004
0AE
054
FCD
047
F1C
037
FC9
0DB
014
F91
066
F46
F76
F4C
EFF
01C
000
028
052
FEE
F55
0D1
FDC
0D7
F96
F72
F84
F92
FED
F47
050
05E
F94
034
FDB
F32
0BD
F7A
FC9
F65
00E
F8D
0D1
078
F4D
071
FBE
FC0
FA6
F51
008
F80
FB1
0FB
03B
01A
0D9
020
EFD
F92
08E
022
060
030
012
FB8
066
FFA
068
0A4
0BE
07B
FC8
EFF
0F5
F2A
F9F
FB8
F35
FF5
F9D
F34
05E
FD2
013
F4C
074
07B
F01
091
027
FFC
046
082
096
0BB
062
0D9
0D8
FE4
040
F15
0E3
06E
F01
F2A
0D2
F8B
F0E
076
0DF
FA2
F7A
FC6
F2E
F99
083
F84
048
FB9
072
0FB
0C1
FBD
046
04E
047
04E
00D
09A
FAD
F64
F6B
F8C
0B6
025
025
F07
0D2
08B
0F7
F4E
F12
0C1
F39
FAF
F8C
01B
F16
F6A
0A2
099
0A9
F89
0DC
F4D
F05
0CE
F88
0EE
051
0C7
FA6
099
FAC
0A1
FD2
0B2
FE0
0C9
F23
065
FB6
F9E
01A
08F
F8C
032
F2C
FFF
F86
F2E
F9D
FD5
F7B
F71
0A0
F2C
F49
03E
F42
F91
F1C
F27
F66
F3A
0F4
0F7
F53
EFD
FB4
FB9
044
0B6
FCF
F9B
01C
0E3
FBF
0E1
0F6
048
008
082
F9E
FD2
F7F
0CD
0DA
0CB
084
052
04E
F6B
F18
F16
F1D
FD6
FC8
FFE
F43
08A
0AF
FF3
F28
FAD
0D8
F7B
F0C
FCE
0DE
076
F58
013
FFD
FC5
0D0
F0F
F89
FD7
FC7
05A
011
036
F0B
069
F29
081
F07
085
03B
05A
025
F99
0D5
067
046
013
0E8
F9B
0C6
0B9
05C
0E2
0ED
FF3
F0C
017
F3C
F22
066
FE0
F16
F65
F84
FD7
0D7
F18
F40
07B
F37
F6F
F50
F12
058
0E9
FDF
FF6
005
0F0
FCB
FB9
07B
FA3
09E
000
0FE
FAF
FBF
02B
F54
0C8
0ED
05D
FB0
056
F8A
F62
02A
FC4
F97
071
F49
07D
FD0
0D2
FFD
F00
FA0
060
005
F16
FD8
FF6
FF1
F04
FE9
028
F2A
0B8
0DB
F5D
FD9
0A4
FC4
022
F1F
F29
036
F2A
FA9
FAA
F45
0A5
F0B
F5D
FE8
0AB
F63
F70
036
F65
F3F
0E3
090
01D
083
028
F9C
FF1
089
0FB
052
078
FAA
0CC
056
F0E
FFF
FCA
FAD
F64
F69
FA6
F0D
F7C
F45
FF7
012
030
077
F2A
FFA
0BF
07F
09A
0A9
FC7
F55
0C3
FAE
F46
F27
F14
0B4
09C
F97
032
0C7
F26
FB1
00B
088
FD3
F0C
FAE
0B9
016
F87
F16
0F4
069
02A
F64
F9A
087
FB2
F54
FC0
FAA
F87
F03
069
F77
014
01C
08D
04B
FEF
0F7
F7C
FED
F8B
0AA
034
070
09F
F4A
09A
034
FC4
FED
00E
FA2
F37
FB6
FCC
0DC
082
011
FFD
05A
08E
F21
F0B
FB3
043
05E
010
0DF
04F
04D
081
F5D
025
F9E
06D
04E
073
FC1
083
FB5
F45
06B
007
FF0
0C1
F42
099
F50
059
0C2
077
F13
029
FBC
00E
0F8
F46
F60
F90
0BC
0B8
F4C
03B
049
0F8
F21
F64
F61
054
027
022
03C
036
034
043
0E8
070
0BE
077
F8D
019
FE9
F08
0D3
FB3
FCE
FF0
01D
024
FF9
FCD
07C
0C3
0E7
F99
04B
F47
FBE
0D2
071
0C7
05B
FAE
F99
F12
010
0E0
F4B
06A
083
01E
F81
041
06D
FDC
F3F
F01
F48
F38
F20
08D
F86
F86
007
072
FE5
F61
029
0B1
052
FD5
FDF
F3E
0A6
F18
F56
010
FF5
068
F2C
FFE
F4D
FF3
FE2
0DA
09F
093
F32
F21
F1C
0BC
0DE
F4A
F61
026
F0D
F11
F44
06F
FC4
FD8
007
F22
066
F41
0A8
FEF
F7B
06A
072
F19
FF8
F1D
F1C
F72
09B
062
F82
011
093
0AE
F27
04F
06E
FA6
05B
FAB
FF9
F99
0D4
F95
FB6
0E8
F65
FE4
F7C
F36
F09
F61
0F8
FBB
03B
0DE
F91
F65
078
FFD
FEA
FDF
F34
02C
F12
0BE
FEC
001
048
0A0
F2E
FB0
0AD
FCC
027
F62
F59
F70
0ED
F21
FB0
FDE
0AF
F7A
F88
F9F
F22
040
041
0FD
F47
FB4
FE5
FBE
F98
017
F41
F45
F15
042
01A
F31
0A4
06E
04E
F29
F81
076
F58
0E0
03F
F74
0C8
FB2
028
F83
076
04D
009
0D5
028
F44
FA1
FF7
0FA
05F
F39
052
095
011
04F
057
0A5
094
08E
F13
0D7
0E6
066
00F
00D
06F
F01
F48
FE8
F91
0D9
039
F67
043
FE5
056
FDB
F97
FA8
0E2
F81
FCC
F02
061
F71
0C3
FBE
FAF
068
F35
FA9
068
FD5
035
0CC
096
03D
F83
FB6
051
FFD
0D6
F00
F6C
0AD
07C
F12
EFC
0F4
F76
0E3
075
FD8
FC5
002
F3E
0BC
068
FD3
FC1
F54
FA7
FA8
F47
FFB
0A7
F0D
F12
075
0D8
F30
F84
01D
FC6
FCC
0EE
F88
FD3
F33
0A6
F10
F2F
039
0D9
01F
FB3
F16
F30
035
FB1
FC7
F9A
01E
F8B
FDF
01B
FEC
0C1
023
FBE
012
FED
F5B
F83
FB6
036
070
F0C
03F
0A5
097
F8F
F1A
FA5
FF2
F8A
F9D
00E
FAD
0E6
0F1
0FB
028
F07
F4F
F71
0C3
09E
093
FA5
FA2
F87
F2B
079
F12
09E
F06
029
0EE
08C
F07
00F
09F
F13
03E
FE2
03A
F2C
FE3
F44
FB7
F7B
FD5
FAD
F43
FD6
057
FF1
00F
FAE
021
FAD
F72
F1F
F5A
F0F
0A7
F85
043
05A
028
FD1
054
F8E
FC2
08C
F35
F7D
F59
FD1
02D
FE7
0F9
FEA
FAE
02B
FB6
049
FFF
FFE
FC2
076
0C5
0C8
035
FBF
094
0E1
F14
F17
FD7
F8E
F2F
FD7
FD8
08A
F90
0AC
FBB
FB5
03A
F6C
0D1
073
061
0AB
FA2
005
FE1
0CE
014
088
FA8
F77
075
F9D
FA5
F0A
0BD
0AF
F1F
042
09E
F90
0DE
0D4
F1E
0D5
046
0EE
F80
FCA
F59
09D
097
F87
0C6
FE1
FE4
FD3
021
F89
0D8
F6B
017
074
011
080
0E0
02F
0B1
000
FEB
FE7
FA5
F39
F7F
FAC
0C4
FAC
005
007
FB4
0CF
0B7
F11
F99
0B1
0DD
FA5
FAA
0AB
053
0CD
FDE
F19
07A
052
F85
056
F26
F2C
F56
F7D
065
082
F21
0A8
F32
FB3
F69
04F
0C6
003
F8D
0CF
0E4
F2E
0D6
07E
0AD
057
0C2
025
0FB
07B
0AC
0EC
FA7
F48
0C1
F1E
0A3
FE7
05C
FC5
FE3
024
F11
063
F11
FC7
F2D
F13
FD5
035
F9E
00C
0AA
F15
F0D
0A4
F49
FEE
F8D
F39
0AF
F1F
F81
F7D
098
F3C
053
02A
05A
F73
003
FEA
0E8
F8C
0C6
05A
08C
099
022
FD3
069
F60
F7D
0EF
052
F84
F91
F36
FCA
F1F
F67
051
042
082
EFB
FD9
01F
035
0D3
054
02E
06F
057
048
04F
05C
FC4
081
F7B
05C
FE7
0ED
097
FD1
FB8
FC5
F68
F73
07B
F95
FED
F8D
F26
0F0
FE3
098
0DB
0EF
F89
02F
F9E
F68
FC6
000
0BE
F90
FCE
F1B
FEE
02B
F3D
097
FC8
F00
0AA
FA7
07D
FA2
FB6
F88
020
FA9
F2D
FF9
06D
FC3
039
F36
0AA
F4C
00C
049
0AF
0C2
F0D
F60
F17
FBF
F52
FF1
F76
03F
FCF
FAB
F37
0D9
0BD
054
F1B
038
0AC
F52
02F
0DC
F44
049
FA3
FC4
FEF
012
03C
053
FF6
FC1
F1A
F03
085
06C
0B1
F98
091
0C0
03C
F9F
08A
0BC
F11
08C
0AA
F25
F1E
FEC
F29
054
F94
042
FA9
09C
FBF
F2E
F5F
0EA
085
F51
F13
0B5
F7B
01D
F93
F2C
063
F3F
F45
0B8
090
081
068
F14
0FF
F0E
041
F46
FC7
037
FCD
027
F09
FD5
F1D
FD9
05C
0D0
F9F
094
0C4
F46
F35
0FE
F97
082
FA5
F91
036
F4F
F98
F3B
0A2
F8B
F85
0A9
FDD
F3C
0CB
0E1
F7B
F0B
00C
00E
F51
F7E
F94
086
F45
0A6
006
03A
FE3
05C
0FB
F8F
07C
F8C
065
F61
046
F91
082
FEB
030
FF5
FC0
037
04B
04D
FA6
FE7
02B
FED
FE5
0EC
F4E
020
F29
F96
FE3
04D
00A
06B
FB1
F9F
FB2
F92
F80
0F3
FC1
001
056
FB9
040
06C
074
03D
F3A
032
02B
0F8
010
F00
F92
F35
0CA
08F
031
057
079
F69
02B
F94
0B4
F68
F35
037
F7A
FF6
0AC
0E9
FB6
0E2
080
040
F42
FCE
F90
F31
F9E
F71
F2B
0E4
052
0A9
04B
FFA
066
0CC
F6D
0F5
00B
F17
FEA
07D
FCD
FD7
0A3
033
050
008
F02
094
0F5
FEB
010
001
FD8
085
F25
0B9
052
00A
F1C
F69
FA7
FAF
EFB
FCF
FD7
FEA
08F
F21
F2B
FFE
090
073
FF1
F51
099
0CA
055
035
F45
F7A
F5A
FC2
FCB
029
F1F
F22
F50
059
0F6
F98
F82
09D
F5E
0C4
00E
FB7
024
0E0
F25
F2A
0F2
FB8
037
F4A
0ED
0BF
FB6
F86
F86
F58
FB5
053
F45
EFF
032
F1B
02A
F4C
FF3
0D8
F5E
011
0DE
02F
09C
0EF
005
F4A
FF8
018
F63
0DC
09A
001
0EC
01B
0CC
FF6
F97
0C3
FE9
0A1
01F
08E
0C5
F0F
F18
065
074
FA8
FF5
0EE
0C5
FE5
020
048
FA0
F16
FB6
F30
F39
F5E
055
F04
091
F42
F8A
0BF
F1E
FCC
F58
06E
06E
037
0FC
FBF
FA8
0C0
0E3
0F8
091
FE3
F87
FE0
00F
054
F34
FBC
F27
039
FEF
016
F31
F09
00C
F01
F6B
F41
05F
065
FA3
F31
F35
006
0CE
072
F81
05B
0F4
0E6
032
0F1
095
F58
F71
0D0
0BE
F37
0A4
FE2
083
0C4
F71
F16
FB4
FBF
F0E
0DB
0D5
FC4
0AA
FBD
052
0D4
071
0D3
0DD
FBD
0CB
F78
069
FC2
F0F
0B8
F0C
F36
F92
FCA
F14
0C2
0B4
095
04D
03C
000
0E0
018
004
FAF
0E0
0D0
0E2
F85
01A
04D
FA9
059
F45
01A
F98
FAA
F5A
0C1
01C
F30
059
F6D
F99
033
F8F
F09
F0C
FAB
FEF
0C9
040
077
01E
039
FDB
064
FD0
F66
FC2
FB1
01F
05F
082
F63
09B
0AF
F9E
F93
F4B
F7F
04B
0CE
FE7
014
09C
F43
0CA
04B
06B
0F4
F41
FFF
F57
FFA
FEC
FD6
0CA
0DE
F28
F72
F61
F4E
F85
FED
0FC
F51
F7D
F25
0CA
036
F85
FE2
FF1
FC5
FF4
FB8
044
0DB
085
0CA
068
F0B
F65
048
F85
0F6
09C
0E6
033
FCD
07B
F71
0A2
083
024
F11
067
0D2
0E7
012
FC8
F7B
006
F6F
FCA
00A
0E6
F21
0DA
F02
FD4
EFE
076
F7F
08F
F2E
F6C
05F
00A
0F8
0E5
06C
0B4
F7C
015
F9D
F44
0B2
F5D
F52
FF8
F0B
FD1
F3D
057
F18
F3F
F74
FD3
F52
F18
0EA
F8B
07A
F6E
0FD
F4D
F80
FF3
061
0CC
FA5
F14
F67
097
F0F
0A3
F2E
F41
F55
F60
06B
086
F3B
0DD
010
F5B
071
086
F17
F02
FDE
07A
FE6
F0A
F7F
F58
EFE
F7E
F76
025
060
F04
F13
001
032
025
FEA
0F0
07D
0E4
0BF
04C
0BF
02D
FCC
01D
F04
01D
FF4
00C
F19
FC1
F7E
FE9
097
FD8
FA6
0E3
03D
0A3
F1A
F49
FC8
023
0AB
F15
0EB
01B
08B
FC0
01A
0B2
F95
FF7
F4D
0FA
F06
001
F34
057
013
083
F79
F59
0FB
0CC
FCC
0C2
F99
0B4
017
081
FE5
F4E
F73
FA5
054
0B2
07C
F0D
038
090
035
012
FE1
F50
F03
FF6
0BD
F70
F3F
F06
082
F65
0D0
0E2
093
0C7
FE6
020
FFE
F32
FB3
058
0F4
F67
FEE
0F0
F4E
0AD
01B
FF5
FBC
F28
EFF
FC3
F92
080
F72
07D
03E
FF4
092
0F8
F50
03D
F4C
078
03B
024
F4E
026
042
033
F30
FE0
0B0
F2D
0DA
FF7
014
07C
06E
FD7
09A
FC7
FEC
03D
0F5
010
0AF
FFD
F04
0AA
035
FA6
00F
0CA
F60
FD1
F8F
FE6
FB8
0DE
F4E
F74
FEE
FFF
FDD
0C1
F52
0CF
068
0B4
0C7
0E4
0E3
0E8
FE0
F61
0D8
FF8
FC0
FF3
001
095
0EE
00B
F31
FA5
038
016
0A3
0D9
01C
F8F
FB2
0A7
07F
018
FFA
F07
0E4
F2F
FEB
FA1
093
0CD
FA3
0B5
057
F0D
F11
028
F59
FEB
0FB
0F6
0E4
FEB
F38
06D
079
07E
0B3
0C3
F87
0A6
F3D
F80
F98
F66
F45
07C
F34
F2C
F04
F3E
FD4
005
00E
FED
F89
FAF
0BB
099
FF0
0C9
F7D
F95
FAD
0B9
033
0A8
FFB
F48
F1B
F54
0CD
F18
F0B
FFD
067
F2A
F25
F81
044
021
0B7
057
F3F
01B
F78
FA4
0D7
078
F50
04A
F7C
0DB
077
F09
F16
0E5
009
0DC
0BE
F85
01D
088
F59
007
051
F8B
0DE
0FB
035
07A
019
F31
0E1
0BC
F60
FF2
096
FE1
F51
F8A
016
F06
F03
0E1
FB7
04C
029
0AA
012
0E0
0CA
02A
0DF
F2C
079
F91
07B
0A8
0DA
029
F0F
0C5
FD0
F79
F2A
FFF
F7E
0C1
0A8
F71
F5C
FF4
F1C
099
FF6
09F
F20
F32
05F
04A
019
079
F37
0CF
08E
0A2
09F
F55
0E5
05F
FBF
09B
071
0F6
F0F
FC0
084
F7E
FC3
FB7
05E
F82
062
0C4
F27
02F
0BC
030
06E
F2E
FF6
F57
FB2
FB5
F03
F21
F3F
FD2
0CB
034
094
F9F
0D2
FB1
0AF
F5D
052
FB8
03B
F74
08C
097
070
F2F
0B9
FB1
F49
FB4
FB1
FC6
089
F02
059
FDE
FA0
0F5
FFD
038
098
040
00D
052
039
FB6
01A
06F
0E5
F9C
0F4
FF2
0DF
FEB
FB1
09E
FDC
F92
075
F06
FF5
09F
0B5
082
F4F
096
F04
F50
F5D
086
00D
0DB
009
09E
065
071
0F3
F8F
005
047
F61
04C
FC9
091
004
F86
0B3
002
034
FE8
037
F85
F5A
0EF
F0E
0FB
0A0
0EA
F28
FF2
05A
043
096
FC4
0CC
F8E
FD4
FB9
0E5
04E
0F7
06B
F63
F87
0CA
042
0DE
081
0D2
F8F
F17
059
009
0DB
0D0
0F3
0BE
F1F
04E
F27
034
0E3
033
F49
093
0EC
FAE
059
F29
F8E
FE4
F96
F10
09C
F76
FD6
06F
0DD
05F
03C
0CC
0CD
FA6
FFB
F2D
02F
FBE
083
F8A
F0A
F7B
0C7
F11
052
095
F94
FC5
005
F4B
0EE
03F
0CB
0DB
F28
F82
FAF
FB9
F10
FFE
FA2
F46
098
05B
023
F11
FC5
F7A
FAC
FFD
005
FD2
053
025
F74
FA9
027
0D6
04C
FCF
FC9
F32
F5B
FD5
F89
0A6
FD8
09E
081
09A
F48
F43
FBB
06A
F94
033
09A
006
0A2
F68
FF3
F14
F35
090
F94
FC6
03D
000
FBE
092
F89
FA9
F36
09C
0F6
03A
F8A
01C
06C
0BE
F86
F56
FCB
F86
03E
F94
0FD
F78
087
045
F3E
FD9
F38
F08
FF2
01C
0C1
FB7
F1E
FBF
F26
F56
FB5
0A6
0A7
FE0
FE5
F40
04C
F76
F5D
095
073
031
FE0
093
053
F32
F98
010
F13
03B
0BB
F64
FFD
070
066
0D8
F67
F06
043
0E6
F10
071
09E
049
080
FE5
FFD
0AF
08E
F37
FA2
0BD
F16
FC4
0D8
F52
F76
FAA
F71
FBD
F74
04D
04C
F3C
08A
024
0A5
06B
089
F3C
090
0FA
07A
FDA
03A
F08
00A
0B5
024
F79
F75
F6F
FD2
F72
0EE
F4E
FE1
07B
06A
0E1
09A
F84
085
F84
F9D
087
F05
F91
05B
FB4
08E
09A
0B1
FBB
FCA
082
047
077
FB5
FD7
00A
F11
FE3
0CC
008
071
00C
0EC
02E
FCA
0C0
075
F3E
09D
09A
062
053
FAF
03C
09A
F4F
0F9
0F6
F0B
098
F17
F86
039
0AE
07C
F69
F8B
F9D
0B7
05B
FBD
F84
F60
FF5
F63
0B8
0FA
0E6
012
04E
FFD
F87
013
FE9
FE0
F16
FDB
03F
FE9
F63
04B
01E
062
0E3
FA8
FC1
F26
075
F8E
FEF
082
F3C
F2B
0FA
0D6
F4B
02C
069
0EB
FA6
FEC
0CF
0F6
093
0ED
06C
009
F06
03C
08B
022
04F
F69
0D1
008
F65
F1D
F10
F2A
04A
0BE
0E8
FF3
0BB
FA2
F1D
09D
0A8
FFF
02E
F04
F79
FB1
0A6
0A8
053
F1F
FC1
F59
057
020
0A8
094
FBA
05B
FFD
021
05C
06D
020
F2A
F2A
F79
F84
F0F
FFF
F74
05D
FEB
0F4
03B
090
018
078
F49
0E6
0D5
F17
F88
012
F7A
FE6
08F
FB7
F61
07E
F00
FBF
FF6
0DF
00D
0EE
0F6
040
08C
F98
061
032
F82
024
FA3
FAD
060
F28
090
03D
04A
03C
F4D
054
FB4
F88
F6C
00D
0C8
0A6
0B6
F1C
04C
FD4
039
FA4
083
07C
030
08D
F35
F8E
035
06B
F67
FD5
080
F3B
04F
F6C
066
04D
FBA
056
FCB
F2D
F9C
F46
095
04A
051
00B
FBD
F8F
FB4
08C
F78
F56
FE9
FD9
0C4
0C2
F16
F1E
F80
F2B
F16
F81
059
0A8
01F
F02
F08
F8D
F1A
044
FBC
F91
F3C
F1E
0BB
F82
F67
F12
F0C
F29
02E
FFC
FB3
F01
F95
0B0
05E
F42
014
F93
FB5
FC8
00C
FAB
059
06B
093
F2E
FC2
073
0A4
FA3
08C
FEE
017
096
0E0
01C
05D
0BD
F07
F95
F8B
0BC
F16
069
FFD
F2E
05A
F38
F4F
FD1
F04
FE1
0A1
FB0
0D7
025
0D3
080
FA9
F08
03F
039
F73
FBB
F11
016
010
0CD
03A
F35
0EC
0B1
F3E
F87
0F4
0AD
005
0DD
F5B
F28
F28
F5A
F85
0CC
049
026
0B2
F66
01B
074
0B3
F4E
F09
0DA
0CA
061
FFF
FBB
F83
0C7
086
F4C
0B6
F26
0C8
043
0E7
F1E
F89
077
F1D
001
0B1
FA9
F5F
F99
F0D
F9A
F56
030
F4E
F03
083
F38
013
0B5
F0A
F91
F37
0B1
0A3
09C
003
006
03D
FA9
0F2
FBC
F11
0A3
F68
06D
02E
F6A
0CB
FE1
F2F
FAB
037
014
F76
0E9
03F
FD6
031
