FF56
FE98
0080
02CE
0384
FC65
FC1B
FC56
FE72
FF6F
024E
FF39
FFB7
FEA4
FC05
FEB4
02A2
01ED
0390
035E
FDCD
FEA2
FE58
0051
FC60
FC38
FD27
FED4
00A8
FF67
019F
0400
0341
FFD9
FEA4
FF80
FED8
FDAE
FF73
0325
01D7
0235
0217
003B
FD4C
FE2D
022D
007E
01A1
FCF5
FE70
003B
FCDB
0080
FC01
FCF4
01DE
FF21
FEA0
FFCD
FD3E
FDB7
0285
0327
010F
FDDC
FCD9
00A8
007A
0049
0244
FC8A
FC7C
FE36
FEB6
FE2B
006E
03B4
FD04
FF27
020E
FCB8
014A
FF6B
0125
FC3D
00D6
0043
FDC3
0305
FF78
0350
0142
FD9E
FDD2
FC91
FAC4
01FD
FD4E
0054
FB95
004A
FE09
FBF4
FE2A
02F0
029B
0012
0110
FD73
033C
0352
0155
FDF2
FC2D
FCB5
013A
FE14
FEB6
FF91
FCF3
FC71
FF1E
FC80
FAF5
FDE5
FAC5
FE2F
FBD7
FEA3
FB1D
0067
FBDB
FC97
FD91
0042
FFCE
FE6B
02C9
FF27
01BF
0302
014D
FC3F
FF98
FFCF
FC52
FF1C
FD92
F8BD
FEE8
FBEF
FB03
FA11
FE22
FC28
FC38
00D6
023A
FB46
FE7C
FAC1
FE69
FED8
FAF6
0299
FC29
03BF
00CC
FFB7
023C
FFC0
0177
FE7D
FCF1
FD95
F9D7
F6DC
F992
0145
F8E2
01D8
FE6F
FDFD
F9DA
FFFC
FC89
FF67
FFBE
0211
0244
F9A8
0085
0151
FFD5
02F8
FF5F
FC78
017B
FDA1
FA5D
FB43
029B
018E
FB17
F825
FC2A
FC9B
FC7A
FA3B
FEE6
F9B4
FF09
FC73
FD35
FD50
FCAD
FCD7
0022
034B
FC70
FD28
02CC
005C
FDB4
0178
FD9F
FEEB
02FB
007A
053A
FDAA
FFCE
0189
FD53
FC6E
FF5A
FAA5
F86C
FC52
00EB
FECD
FE71
FBE5
FE1A
011A
00AA
0024
03D5
0373
0151
FEF9
020D
03A0
FF7E
FFF9
04E6
04DB
080C
FEDB
0265
FCE8
004D
037C
02B1
012A
FE92
FE67
01BA
0477
0732
0007
00F0
FF42
FD33
058D
03CA
FF34
FD53
00AE
FCA5
FE3B
04B1
FFBE
0327
043C
0658
061D
FDB9
0250
084E
044B
013C
0602
01B7
041E
0410
FEEB
06DC
FFB4
0195
0579
06E4
FF25
06E9
FF88
040D
FEC3
0078
FE02
01C7
010A
0484
0328
FB1A
01BD
FF62
FF9B
FC98
0A38
010A
06CA
04C6
0257
FC35
FFE4
061E
07E4
044B
0024
0376
03FB
03ED
FF8A
0262
FDDD
FD3C
0318
0330
0203
021B
0646
FE0F
072A
091D
050A
062F
056E
FFD5
012B
0128
04CF
FD7A
FCE5
FF01
FC33
FBE4
FFA1
0284
FFED
FF22
0580
FEC2
0367
03BC
018B
0419
011B
05C3
0254
00AE
0029
FE60
0213
03E0
0287
02E9
FD67
FDCB
F6D3
039F
FC0E
FC05
FEF0
008F
FEF9
FF12
FDAF
04E4
03F1
01B0
02A6
FC9D
FEDB
FD7B
FD8E
FFE6
FE88
FDA8
F88B
FD60
FE40
FDE4
0353
FE76
F94A
00C4
FAE2
FB3A
FBEF
FD7F
FF6D
0214
FF43
0103
03E3
04DF
0197
FF7A
FED8
FCAE
FE06
0010
0198
FD11
FC73
05EA
023A
FD62
0346
024A
04D1
FE82
FFDF
FA3B
FACC
FDA6
FABC
FE70
0589
0111
0371
01AC
0367
0359
FE8C
008D
FF3C
FD74
FF7C
FE85
01B1
FF30
01D9
01AB
FE98
031A
025A
0219
FF9C
FB5D
FD59
FCB2
0168
FE38
FE25
FD89
04C8
FA53
02F4
FF9F
FFA0
00E5
FB69
FF54
0339
FEFB
0096
FCE0
FE90
004F
044E
FEEB
001C
FB67
FF8E
FFD2
0134
FC5C
014A
0134
02A5
0032
00F9
FFA6
FACB
04E5
FFC0
0125
06E8
FBB7
03C3
0267
FF8C
FE02
FCF1
0161
FE0A
0138
FB5C
FEFC
FB4E
04F1
FD55
F94C
FC27
030E
FDCD
FDD9
04C2
02B0
023E
FDB4
FC0B
FE11
0125
007B
FF6F
FC79
0230
FC58
0365
0334
FE61
012C
FA78
FEF3
028E
023F
FF12
0377
FAA8
FBFF
FC8B
FE88
0027
FF7F
FE37
FDB1
017C
01B6
0059
FCE6
FD1C
F9D6
0050
021E
001B
FC78
0365
001B
01E9
002E
FEEF
FBD0
FC66
0386
0229
01F4
FDB9
F9AE
0219
01A8
03BA
F7CA
FD52
FA4B
FE56
FBBC
FF7A
FBD4
FC5B
FD8A
0050
01A7
FE77
0106
FD33
0229
FD4E
0213
FF39
FDFB
00CE
FE76
00A5
028D
0076
FC3F
0279
FBC8
FBB2
FD97
FBD0
F990
FF0C
FEE4
00A3
00F1
01F7
FCA6
01C3
0160
FD63
01EC
0268
03E4
FF34
FC59
010C
FC90
FCE5
03A4
FE17
FEAA
00BA
FF38
041F
048C
FCD2
00EF
0586
FFD3
0207
069A
FE37
FD75
FCD5
FC95
FFE1
FC84
FD84
0099
FF60
FF02
FD72
FE65
FED9
03E0
0448
0395
045C
0175
07CD
0127
FC11
FF48
01F8
010D
FEE4
012D
0222
FD1B
01AE
F91D
FD77
014B
FD6D
FF23
FD86
032A
0212
FC2B
01D4
FF55
FFA2
01BF
05B7
0253
FC5E
0086
FE60
00E4
0333
FDF0
0333
0213
02CD
0245
FE50
FD69
FCA6
003F
F9F0
FEF8
0006
FE85
0265
FFC5
0179
00CC
00F0
0145
FFE9
047F
FFB7
FF68
FF3F
FB9C
F7E8
FE3D
FCDB
FF05
0392
0127
FF9C
0469
0123
00E3
0298
021F
FF04
03DE
FCC7
FD6C
FC5B
035B
FF3D
FCEA
FFE5
FC95
FE00
00F9
FE18
0170
FE6B
040B
FD29
00B1
005A
FFC8
FE3D
FFB3
FF67
00B9
FFEA
FDE6
04EB
FFA2
FE24
0187
02F2
006A
0313
026A
FD73
021D
FFED
FDDB
02EB
FF0E
FD12
FED6
FFAE
FC6D
03E0
0065
01DD
0036
01B9
0292
01FC
FFC7
01D2
FCC2
FDD9
FF47
FD35
032F
FD96
0171
0137
FC78
FE22
