021C
FECD
03CE
FD3D
02E4
FF71
0181
012C
FC49
FDB9
029D
0012
0000
0049
FF2D
0337
FFAC
0233
FC47
034B
FDD4
00B0
FD29
FCCE
FF69
01C3
FFF7
FCD2
01CB
00CA
0170
0255
028A
00B0
0017
FD67
00F0
FE37
FF40
FC93
039F
001A
0026
FCA5
0268
0311
FC28
022F
FED8
FE9F
0021
0262
FEB2
0357
01DB
FFDE
0176
0193
FF17
03BD
FCA6
FEB5
FF62
FCBD
FE55
FDDF
FD80
FD96
033B
02DB
FD24
FED3
02F2
FD2B
004C
0218
03EE
0464
0110
FE2F
03C7
FDC1
FFA6
FD6E
FE84
0012
FC35
FD7D
FF0C
025B
0246
FC6F
0282
FF6D
0097
03CB
013A
FF0F
FE9C
F97E
0004
FE18
0023
FFB5
FF16
0571
049D
FDF2
01C1
02FC
0445
0313
FD90
002A
0346
0340
0398
FCF1
FE65
FCD6
FA3C
FD96
FCA8
F94E
0027
0313
FDDB
FEAC
FDD8
0011
026E
02CF
FF97
FFA8
0610
028A
FD72
00C8
02B7
FCC4
001B
0070
FFBA
FEC8
0045
FBD5
FE47
FE45
0046
02CC
FD6D
FD8A
0046
FFE7
FC42
FF45
F952
FD36
FDCF
FEDC
FAE6
FDF6
FE0B
03BF
0085
FC4D
FCEF
03E4
0058
0133
FC8A
03ED
0005
03C6
0087
FF5A
057D
01BE
FC79
0217
02E5
FE9C
0197
0065
00EF
04F6
FD38
FE9E
FC61
051F
FE98
FE3E
F920
FF27
FE96
0359
FE47
0030
FE01
FEDD
056F
FF90
020E
FD07
0216
FE5A
FEF3
008F
FB0E
031E
0116
FE5F
FF4D
01A7
FDD8
FF3F
0025
0157
FE16
FCDD
016C
FB4F
FEE7
023F
02C0
000E
FF68
00C2
FF19
04BD
02A5
FDF7
04D2
0572
FCE2
0113
FE04
FC27
0111
0153
FE66
FD3F
0067
FCE0
FCF6
FB3C
FF3D
FC72
FEA9
02B0
025E
FE71
FF6A
0347
FEAE
FE5F
011A
FEF1
0143
0247
FF3B
FEC8
00D2
0250
0157
00CC
0187
FD87
0065
FF69
0085
FC73
007A
FE0E
0192
FBCA
FE5C
FE19
012C
FC1D
01EB
FDFD
01BF
0231
FF79
FF19
FD2C
FFAB
FE71
031F
FE15
FE17
FFDE
FF04
FE06
017D
0047
FD6C
FFB1
FDFB
FC39
FBFD
00FF
F946
008B
0349
0001
02BE
003B
FF34
0469
FF9F
0086
FD36
0454
00FC
05A9
FF4C
04BC
006B
06CA
00FB
019B
04A6
07FB
0B8E
0248
0338
FDFE
00E2
F6DF
F8B6
FA8F
FE04
FA60
0355
FFCF
03BC
FC3E
02F2
FFA1
FDE4
FEA1
0107
03E3
00ED
FFC8
0337
02BD
FC25
FCB4
0431
FFC7
FF79
0422
FFAC
011A
059C
FDD0
FDE5
FE67
FBDA
FC4A
FFE8
FC0F
0312
FD4F
0056
05A0
012A
0507
049A
FFFA
00D0
02E4
FCDA
FFE1
FE3E
FFAB
FF5A
0565
0156
03B3
0168
01FB
02F5
FE1F
FCFA
FB42
FDDB
FE5A
FE59
0072
019B
FD0A
0332
FDB8
FEFA
00AF
0074
0413
FFF3
01B9
04D6
03A1
FFE6
FC31
FD31
01F3
03E4
037C
032C
0069
FDE2
0566
F80D
FCA5
0157
FB5C
023E
0271
FDB7
FCAE
0145
FF07
00EF
FE2F
0333
FF98
FFE9
05C7
027C
FB87
FB65
FE3C
03E1
00AE
0878
06A1
0608
0272
0767
03DB
FC5A
FB72
FE8C
FFCA
0307
030F
008F
FF79
FD85
FE38
FED5
01ED
03AE
05D1
FDCA
007E
0051
01BC
FCCA
004E
038F
01B9
019E
0169
0386
0503
FB8D
FAC3
02C7
FE7D
FD77
FB76
025E
FD9A
FE61
0144
FEFA
FE88
02B3
00CB
009B
FFC2
0094
0584
FDF7
FCE2
0300
0110
0223
03F9
00DA
05DD
FC86
02BE
020A
02B6
FFD9
0209
FF34
FE5A
0058
FFA9
032A
0290
FBC2
FFD7
FC1D
00BD
00FF
00F1
FE6A
FE07
01C1
F99B
02AB
FF37
03B0
0106
04DB
0214
000B
FF75
FEEA
FEE0
FBFF
FA3E
FC6B
FDE1
0091
03DF
FE18
02D9
FCDB
0297
FF33
FF04
003B
FC43
FB34
FFDD
0152
FE84
FCBA
025E
FED6
FF77
F892
FA7A
FEB8
FBDF
FA51
F714
F725
FDF9
0151
0353
FDDD
FC09
0326
FDC7
FFD6
FD8D
FC7D
F9C7
FA9C
F8C9
FBCD
FD94
FDA4
FF21
FEF7
FCE4
FB38
FA12
FD9A
F8D2
F8E7
F8BC
FA0C
FB02
F5BB
0116
02AB
FCA5
00F0
FC0F
032D
FD59
FB5E
FEC9
F703
F6F0
FDA3
FFCF
02C1
01EF
FC9B
03C9
FE7B
F6ED
F870
FF2F
FA54
FAA4
F9F5
FC9D
FE4F
F999
FD23
FC5E
FBEA
FF42
0229
FCF2
0092
FBCD
02B5
0006
FC7A
FEB8
01A7
FF53
FAD2
03DB
FD29
FCB0
FAB4
0755
FE44
FE19
FAFF
FC69
03AC
F952
FAE9
F9EE
F7B4
FCB1
FC26
FBF7
FFDC
0365
FFC5
FAF9
FB4A
FDED
FE7F
015E
04CB
FC03
FF44
0085
011C
FEAB
F89D
FFB1
FBDA
FFF8
FE92
FBAA
FED5
FD4F
FFD0
FA5F
F999
01E4
FDED
FD35
FECE
005B
0295
FDA0
0320
FE96
007F
0335
0252
057D
FE99
FCB6
FD59
FCD4
FFC4
FCCC
FA79
FDDA
FED2
FD6F
FC72
044E
0468
FDC7
025F
006E
FD4B
FD8E
0241
FEEC
FC73
0179
0293
040E
0173
0427
002F
FDEC
FC1D
FCC3
0414
FB90
FE8D
0154
F862
00B7
FD6A
FFC1
FBFB
FF39
FB3E
0022
FA9F
FC4C
FFFB
FE59
03A4
0323
00DE
0145
FF96
FE0F
01C9
0554
FE71
043E
02EC
02A4
0288
FF38
022C
0498
0285
FDB3
00A4
FF98
0167
FE5C
FDAF
FC92
FD5E
03AE
02BC
FCC0
FF5C
029F
FF38
032B
FE33
FEA7
FF10
FF1D
FD2D
003F
0164
0061
FDBE
0215
FF55
FF28
FD8B
0340
0355
02FC
024E
0293
FC55
FD1A
FF2C
0102
FC1C
FCEC
FC6A
