FC4
FD8
FBA
0CF
F68
F59
F5B
054
F43
F2B
0DE
08F
09F
FD2
0FB
F70
F9B
FB1
F75
F3F
F4C
04C
05B
F12
018
FF2
F04
078
F53
078
FCE
FAF
05B
0C0
0D1
0F6
FCD
FA4
000
F34
FA3
F26
F7F
012
FDB
F2D
02D
FA0
0C1
FA0
F03
0C2
F5C
087
FF0
03D
F8F
057
FF3
0C8
F0F
F06
F22
F32
0D3
0C9
05A
022
071
F60
0EA
F2A
F0B
0E7
0CF
FBE
FBF
01E
FC9
F9D
F60
FEF
FD1
FC7
FAA
F16
0C6
F2B
FAF
FFB
FAA
074
F87
EFD
F4D
F52
027
F29
02A
FDA
FF1
0B6
038
FBF
0DD
066
03F
F64
F77
012
029
FDF
04C
FF6
081
FFE
0EC
046
FF5
FF1
F0C
EFF
029
F6A
FE5
F2F
08F
F82
068
01F
FFF
0B7
000
F7A
F76
FE4
FCA
028
FF8
F29
0FC
063
0E1
FB4
0AA
FF3
FDE
F77
F53
0DD
06B
00F
F51
F13
F85
F57
F5D
FFE
073
0A2
F7F
05F
F3C
021
F29
FDE
FD4
F4A
053
FB4
0C1
FBF
076
FB5
F29
0C3
F4F
FA3
FB5
06F
02D
02A
F82
01C
F49
004
FD8
06F
03F
F24
079
0A4
086
FE6
0C2
F49
071
03E
EFE
0D8
F58
01F
F80
F87
FDF
F70
0AA
0FA
F6D
F32
008
F03
06B
F5C
FDC
080
F1F
F3D
F54
FF5
F1C
02A
053
FA4
020
F09
F5C
F7D
0BE
F97
004
0F7
F45
045
0B0
017
F1F
0EA
069
FD0
F8B
F9F
FF6
08B
F73
0C1
0EE
F89
FF8
058
F2D
F81
F9E
08E
0D9
048
055
F26
F54
0C0
09C
08A
015
FEB
F98
EFA
021
FD0
F2E
F8F
0B6
0E1
FA8
0E0
030
F5D
F8E
FDD
0E2
072
045
0BA
049
FF1
001
0CC
0D6
0AF
F73
0D6
F69
0F9
05D
043
05D
0E3
05E
050
F62
078
011
F13
F9F
082
F60
FBE
095
FA6
0C4
0BB
052
0C4
FE9
F97
02D
0B7
FC0
FA9
FD5
0EE
081
F63
F11
068
049
07C
0F6
F26
01C
F2A
F7D
F23
0E4
041
F71
FA3
F43
050
09E
F10
0CB
0B8
0F0
FDE
F7A
099
082
F4C
F07
FB7
075
073
05A
F6E
038
F83
04C
0D1
FF1
089
0A8
065
08C
06B
0F5
F2D
F1E
F0B
010
F0C
F98
F74
00B
FCA
F5A
0DC
F04
0ED
FCA
F60
0A1
FAF
073
014
08D
0AA
033
0D6
0C6
F2F
FE0
085
004
0D4
0B6
FEB
FA6
F1D
028
F0D
F02
FA7
0A1
035
F19
F22
0B2
F3F
026
085
028
F8A
FE0
03D
FF0
F4B
00D
0E6
F36
F66
04D
F9D
06E
0FA
F49
00C
0B6
FDE
0F7
FA7
080
09A
08E
044
0DE
F53
07B
FB3
082
06F
036
FA4
F73
F6B
0B2
F40
0C9
F73
FC9
F1A
04D
0F2
FE8
F5B
0A8
F43
FBB
FCA
0CA
F6F
F96
0A7
093
F61
F4A
FA1
04A
F70
0DB
040
FBE
F57
F66
059
FA2
FE9
F02
F6F
0D7
097
F89
079
000
F9F
FA4
F54
FF3
FE2
048
F27
F26
0D8
F68
FB5
0A3
F79
0E1
FCF
F43
FAC
02B
08F
FD1
0E2
054
06C
F41
04E
030
09C
088
0DD
094
F7C
08F
076
F37
FE5
0D6
F38
EFC
F34
0B4
F9E
FB2
F68
0D8
F43
F9E
F16
0D0
0DD
FCE
095
06F
F15
FBF
080
F36
0F0
FA0
07C
FB2
0BA
F08
F05
F5E
015
0F6
FAA
F00
FB6
FD3
FCB
0D4
06D
0CB
047
060
082
FAF
F3C
081
0CB
074
04F
028
0A1
036
091
020
F84
F88
0F8
0CA
F35
07B
036
F7A
0F6
FA0
015
F9A
F77
F54
0DD
005
F85
0BA
FEF
0EB
FF6
F96
FB6
083
FEE
094
F62
F62
F69
06A
F61
03D
F46
F91
FB2
F33
FF4
01A
07F
051
05E
05D
074
F01
0EE
F73
F13
0CC
042
0B0
0C3
0D0
060
F8A
F1D
FB3
016
F20
FDB
F21
049
F28
0AB
0F4
FC6
F91
01E
F54
05D
0C3
0C4
FB4
F95
091
F9E
019
F52
0EC
0EF
067
027
036
F85
010
F5A
F14
FC6
0CE
059
0BA
067
0EB
F56
05A
FD1
F19
030
FF6
F7F
F8F
F85
0AE
EFF
096
034
FED
F45
FC9
F70
0DC
05B
FAE
02E
F76
06C
0E1
F15
F2C
FA5
096
0D6
FFF
04A
09F
F08
F22
040
FB0
FB9
00E
F33
FFE
FEA
059
F07
0BF
02C
F0B
026
FD2
F04
0AE
FAB
076
0DC
084
F8F
0A0
039
0CF
F0A
09D
F0F
07E
F06
09D
07C
F87
010
058
02C
F21
FCB
0CE
05D
F20
F5E
010
04D
FF9
00F
FE8
08F
073
078
005
08F
0FC
FA2
F11
01D
FF4
02D
015
00D
F89
01A
0F8
FE7
05C
02E
F99
F20
F37
FFD
0F7
F8C
048
054
0B1
F81
0D9
FB0
027
F3D
F74
0BF
04C
052
034
FED
F50
039
F1A
F0F
FD3
F76
F33
FC8
F2E
06B
FEE
F23
072
F79
02B
F5F
0A5
0BF
00D
FAA
F5D
00E
088
F34
008
FDB
F4A
F90
F21
0F9
061
09A
FCD
0A6
048
03F
FC1
FFB
F88
FFD
007
F4E
F97
0B9
0D1
F56
0BC
018
F51
0AC
FE0
058
FDF
F65
0BC
0F0
FA4
F98
F00
09D
FF3
09A
05D
F67
089
05A
F18
FFB
0BF
0B4
F04
057
FB3
FCE
F15
00B
02E
060
08E
042
F1C
06D
F6B
F9F
05B
081
0B8
F94
05D
0D0
09E
098
F19
0CD
F6A
0AA
042
F09
0CB
00D
F95
038
0B8
028
05D
065
019
F7B
0BF
081
052
F01
F59
EFF
FCF
0D0
0A2
FA9
FFF
F58
0A1
FC2
0B8
FC5
09D
005
0D2
F21
071
F9C
F1B
0D8
004
057
01E
0F8
018
03E
FBE
0EC
F00
042
FE3
F97
014
F1B
FAA
FB7
FC3
F12
FE7
F4A
FA9
F61
021
0C2
F3D
F41
F22
F18
072
EFD
FA5
00C
FAB
088
02C
F36
029
F6E
0D3
035
F0E
FAA
FD8
F1A
0BC
FEE
F69
F10
EFE
0E3
FC7
FFF
F30
FB3
F01
FFC
F94
073
FBE
016
FC9
FDE
FC8
F02
007
FEB
094
F41
F6B
FA3
097
F05
F06
F95
0F6
0AF
F6C
05F
FDF
F73
F66
023
FB2
F74
F2E
0E7
FC1
0ED
FE8
F50
00C
FC0
FC7
05A
F0D
0A4
071
0DD
098
F2D
073
F49
02F
04D
FFC
015
017
FDF
002
F9D
03A
01A
F04
F7B
02E
050
FF8
003
003
FC7
F49
FEF
F95
F94
052
086
FFD
F31
F13
035
FF1
F7B
FD0
0AD
0B4
01A
F12
0D9
F47
028
EFA
0CC
F4C
0D4
07F
0C5
FB9
026
0C5
0FA
FE6
051
F9D
FF4
0F4
066
0CE
F22
0B9
081
02E
F9C
F2E
F46
F2F
F27
0E7
FE0
0C9
0C3
FED
F37
F50
FF3
0C9
0D9
0E2
F6E
07A
F95
05B
00C
0F5
FEA
FA1
0DC
FFE
F7B
FC6
0D8
F1C
05B
F1E
F30
F93
FDC
063
F78
F8D
0D8
F33
0D7
F2C
098
007
F9D
0A9
09E
0AA
03A
F5D
F1D
009
068
09E
0BA
0D0
F29
FB1
022
FC6
0AC
F83
FBA
F83
052
00F
099
F8B
05E
F35
F49
0EA
FB9
FC8
063
F41
FD5
FB1
081
0AD
F11
02D
0CB
0BA
FFF
0CC
F06
086
0D5
FD3
01F
0DF
089
FB0
F20
F92
FD4
068
090
0FA
FAB
F51
0F7
010
FF4
FDC
F57
092
FA2
FB3
F06
FE3
FC0
FA2
082
004
029
06E
093
FF4
F13
044
017
FE9
068
018
F50
FA6
08D
F7A
F37
055
F00
0EF
0F4
F41
0BD
0C3
014
F55
F16
FBB
02C
0DD
024
F69
062
0C4
F60
F4F
080
F5B
0A1
06A
F8B
0D3
0D8
F84
FF3
F9B
F38
FB2
FFC
FFA
0EA
089
0BA
0CD
F81
F40
F14
F70
022
FAA
080
04F
FD5
0F7
050
FBB
0EB
099
09E
092
0ED
F78
044
0C6
001
06D
0DC
F5C
027
F6A
07A
0A6
03F
09D
FFA
009
075
FE6
05E
049
FE9
02D
F86
0A0
09D
0C0
F0F
0D3
0CF
F7E
06E
F83
FB5
F65
047
0F3
FFD
044
FBC
0C2
F03
0D2
064
00E
FFA
048
074
09C
FEA
0AE
F7F
F6D
0C4
086
FE6
009
F0A
026
0A0
055
090
FEB
0BF
F97
F94
09F
0F9
0B3
0A8
FFD
F5D
02E
082
FA3
052
085
0CA
0F0
0AE
F7F
F47
0E9
0BE
0D3
F50
0AF
061
0EF
0D2
F5B
F74
F90
F11
013
F85
01C
02C
0FC
025
03D
100
F58
FF4
FE3
F6A
0B7
0B2
F36
0E6
F76
07B
FED
F24
F36
FC5
05F
FB1
FF9
F1D
FFA
022
F36
0BD
062
F10
FB3
00A
09F
0A4
0F6
050
00B
05F
FA3
FC9
F6A
F5D
069
016
09D
0EC
F7E
F82
FBA
F05
0C1
0F9
F93
FE6
F73
F6E
F30
044
FC2
0DD
0C7
044
09B
F6A
FDA
F85
01B
0C5
FBD
F65
05F
017
061
FB1
FF2
06A
071
011
0AB
FC3
017
092
FED
F87
F72
F45
F01
0F4
0A2
047
0DE
FF6
087
F3D
F93
FBA
EF8
FF5
F72
0B2
020
037
071
019
EFC
03E
06B
0F5
F0E
0D0
028
FA2
F95
07A
033
F8A
07E
F13
0C5
071
F90
09D
FE9
FE7
084
040
FDC
006
0EF
083
F9D
0B0
F09
F2F
02C
FF3
F82
F61
FA6
F4D
01D
0CE
022
FFC
FCD
FC2
F12
EFD
F7D
FF0
054
F8F
FD9
F40
0F2
0E3
F30
F70
02A
051
FC7
02A
04B
F17
0EF
FF9
F9D
01C
0C3
F78
025
F29
F4C
0A3
F99
FD0
076
002
0A4
04A
059
FF3
047
084
F3D
0AF
FC0
F7F
006
061
0CE
F3C
F4B
F5F
F11
F56
09A
0F0
05A
0B2
F48
0B1
084
03F
000
FEB
0CF
F10
F1B
0F1
F57
F6A
FAA
0B0
FCE
01A
FAE
F06
019
F22
0F6
F15
FB3
F98
FEB
F6A
F00
F70
01E
03D
032
F95
0E8
FDE
F60
F9C
0BE
09B
0EA
068
049
F98
0F7
FA2
0B9
0A7
0DC
019
FCA
06F
F4E
0BE
017
046
03A
F5A
0DA
F7B
008
0C1
F8F
F26
076
F92
F17
0CA
002
0C1
FF6
F1A
F9D
0A2
0B7
F4B
F08
064
F8E
0E2
F37
0BF
094
092
FCA
FF5
0DD
0AB
F5B
009
019
098
01C
F9A
047
FAA
00C
037
FAE
022
FFE
F66
F8D
F3D
06F
F80
00E
F23
F49
F29
06F
F50
0E1
016
0AE
F76
0FC
034
07E
062
F21
FBB
06D
F94
077
0D4
05D
0C7
0C9
000
0C9
0F3
F21
F3D
089
09D
EFD
0F7
04B
01A
065
F26
0B3
094
03C
0DF
026
F62
F6E
05B
FDB
F37
F19
F82
0DD
F96
F52
F6D
FDE
090
0EF
F58
F88
FAD
0F7
F11
0B9
065
F17
043
0BB
FA7
FD8
058
02F
FB0
F7E
0DC
011
032
F4B
0F4
06D
F0C
FA3
FC8
0AD
F67
F8A
F0D
09D
F1D
0CA
F63
F2F
0E4
045
FD2
FB8
0AE
F12
F4C
08A
037
F85
080
0E1
F65
035
F49
F74
FF1
F7D
0A1
FF9
FD9
012
F9A
FFF
F02
004
038
01E
011
F46
F74
0DF
F4E
0AF
FF6
F91
FA5
006
0C5
FCC
07C
FA7
F64
F58
FE2
FD3
EFE
088
FFD
FD0
F2E
029
082
0ED
02C
FE0
0CB
F58
0C2
F4A
0F6
F2C
07D
032
079
FC0
FB7
F67
FFB
F8A
043
F15
07D
F0A
0D5
0E0
FC5
F5B
F5A
F20
FE0
FAD
F0D
0ED
0E7
F9F
F35
F4A
F73
076
0CE
07F
FB8
0D1
028
03F
FAE
015
064
F63
051
F94
F1F
088
011
032
F1A
F5F
F9C
F15
FE4
F1F
FE0
F7A
FC6
0B1
F26
094
09B
F5F
FFF
F09
F35
075
0CF
06F
070
012
F15
0AE
02E
093
094
F4E
0B9
078
0D7
096
F97
0B3
F61
09B
0B1
FFD
F8F
F4D
F4E
00D
F1C
FC7
F27
FE4
0C4
0EC
000
F6E
FAD
FC7
F08
0D4
F4D
FB5
EFC
F62
07D
F05
F63
F4E
01C
FE4
F1A
F31
F04
053
F30
F70
047
FC5
F39
FD7
033
FBE
020
F7F
F44
F6A
043
FB3
F6B
FA2
099
F34
F4C
04F
048
F53
FB9
F08
FF4
FDA
F61
058
0B2
095
056
037
0A7
0A2
F6C
080
008
FCB
0E2
FA9
F12
F54
039
F42
031
FAC
FD3
FAC
0E6
007
0E3
F29
F69
F45
F66
F14
0C3
0D7
034
FFB
06A
FA4
F36
F83
020
F1D
FCE
FA8
0A6
F78
043
08C
F89
0B2
004
0F5
F3B
FC1
09D
F34
FF7
0E9
F59
FCC
004
0BF
F87
0A3
FEE
FB9
FE8
012
0D2
02E
064
094
035
FA6
F9A
06C
0D5
F18
FE9
F3D
F6C
F3B
F59
0C9
094
F97
F61
F85
FF2
F8A
0C2
000
F4E
0C2
0F6
05C
F40
F9D
0A2
010
F1A
F39
09F
08A
F46
088
015
022
0A3
F36
0FE
0BC
0C7
F35
F66
FE9
FA7
F8A
00D
F40
0E3
F2D
F9E
FF4
0F1
F92
0B6
072
F53
F46
FB1
024
069
008
09D
0CE
FD5
F84
FE7
F4F
FA7
FCB
02C
0A2
0DD
078
0EF
077
F23
F8D
01C
0F8
F55
F29
F22
FAB
0A0
03A
0CF
FC4
008
0BC
F22
00B
02A
F5E
FD9
0C2
F2B
092
0C8
0F6
04C
F61
0AD
0E9
FB6
05B
05E
FC1
034
F97
F37
F11
F1B
047
055
09D
F32
08A
F1B
F16
F87
F88
FD3
0B7
F9F
0BE
0B4
0B2
037
F82
F03
08D
014
FB9
F5A
FA8
0F4
0F3
05E
0A6
078
FF8
06E
005
07F
F42
060
F2C
071
0FB
0B0
0A1
00E
02E
FED
F92
040
F2F
FAF
F82
F30
051
04D
01A
F1D
085
090
0AC
FE8
0FF
0B1
0AC
0DC
F85
F74
0DC
095
01C
F53
F8E
FDF
050
06F
F8B
0D6
FA7
FBD
F9B
FAB
0E2
F2A
0CF
0BE
021
0CF
F82
F01
0AF
FE1
EFB
02C
FDD
077
F86
0E0
F23
059
F58
FBF
FD9
F0F
0B6
F61
FB2
F4C
F99
0E0
F3F
F02
FE2
012
022
060
047
F72
FB0
09F
0F9
0AB
01A
0C6
067
F8F
0F2
FA7
08C
FC8
0CD
FBB
F0B
F47
084
F6E
F37
FE2
F3C
06D
031
F8B
019
F64
05A
F35
FC1
F74
FA8
F61
F57
08A
F74
050
027
F1C
0E8
F37
F61
F95
0DB
FD4
FFA
FA0
FB2
FD8
023
020
F5E
F6F
0D0
F68
F1D
0E4
001
F9C
0A3
F0E
F81
EFE
F9B
0B6
F91
0DA
F31
027
FDE
F57
089
F99
08A
F4C
094
0E3
F2A
0A7
04D
01D
FFA
0E2
F70
F4C
0F1
FBF
F20
F0B
08E
FED
FB2
F5F
F71
053
053
F1E
F93
0E9
FAF
F71
024
05A
F39
03C
F98
F1E
FA6
032
06C
F0E
0CC
FAC
051
F59
F3E
FF0
F7E
05A
F71
F85
F49
06F
09A
FEE
FA1
F48
0CE
033
0D1
009
F10
F01
FED
02C
044
042
F90
F9D
FBC
F1D
FAA
FF6
FB6
FC5
FA0
093
011
FF3
0E7
0BB
053
0A0
084
09E
07F
087
F96
F77
03A
081
F9C
FB0
FD0
FAC
0A8
07E
098
FF7
FBB
0C0
FDE
F7A
028
F04
0A6
F02
FDB
F05
F0F
0B3
F0D
F52
F5F
FBF
034
FFC
03B
018
FC4
F7E
05C
0CA
086
F48
0E7
F8F
FC7
FFC
08F
0C3
048
F4B
F96
F31
089
09C
F22
092
0AC
F8A
FE8
0E7
F3D
EFF
FD5
08F
0F3
F24
FA1
052
F17
EFF
0EF
F54
FBF
F6A
F26
F43
FB7
FCA
F13
099
FAF
038
017
FB8
092
00B
FFD
F05
031
F69
F8F
066
00A
F0C
00B
FDA
05C
F09
0CB
086
03F
006
0FD
F77
F34
086
F53
FAC
076
F1D
FD2
090
02F
F93
05D
0DB
FDC
013
F0C
045
06F
F9C
0E8
019
09A
F98
0D9
F20
096
F01
0F3
0E9
FD4
06C
F2D
070
FF0
FB7
F5F
07F
04D
0AA
F01
0DC
FC8
EFE
029
F83
F62
01A
0AA
F93
F5B
043
09C
04A
0EE
F21
F1B
007
027
F84
FDB
F57
FCE
F9C
F7A
089
F32
FCD
FCE
F46
FBF
029
FF4
024
F12
0C0
F73
FB4
F62
FC1
06A
FAD
F97
FF0
F1D
0A1
005
059
F40
016
F54
F9F
09B
03B
FC2
062
09D
F41
02A
0BC
F4C
084
FED
FE1
F55
F50
01A
0DE
F67
F58
F7A
05C
0C5
046
0BE
0FC
F73
053
FF5
01E
01F
049
F6F
FAC
044
065
FB0
FAF
000
091
F54
F3C
083
FD8
F36
0CC
09A
F88
0F9
0F2
09A
F94
FB4
F17
F01
007
070
057
094
076
F3B
F4D
049
029
0CC
F93
092
038
0BD
022
013
0F1
FF4
015
FDF
FD1
0AC
0C4
F16
098
0DE
F4B
F88
F23
0B3
F66
F51
F90
FDC
0E4
FE2
F0F
05C
F74
0C1
03C
070
046
F37
0E8
FEE
0F5
FFD
FC8
FF6
054
0B6
0BC
F5C
034
0AA
019
FEE
F0F
0E2
01E
F5B
0EF
02E
078
F6E
0E1
FE4
FB2
F05
06C
022
0EC
011
00F
0AD
EF8
027
02C
F44
06B
FE0
EF7
FDF
F84
F5B
07F
047
077
F62
F15
0F6
FF9
01C
FE8
FA6
02C
FD7
03D
086
FBF
07F
F9F
0AE
031
06D
F21
FA8
FD7
FDF
020
FEB
F13
004
0B2
093
027
F20
04E
084
FE4
05B
0E2
0EA
0F5
08C
F54
03D
0EB
010
FF7
F56
0EA
059
02C
0B3
F56
001
05C
F9B
FFB
F81
FF4
FDF
083
F0A
03D
FB7
FE5
FD9
F6F
F7E
F1E
FBC
099
0FC
012
F53
053
072
046
F5D
FF8
F81
FAC
F18
00A
F84
F1A
F7A
FA1
FE0
0CC
EFF
F31
FAA
F64
F7E
F30
083
049
040
09A
068
0F4
06C
F03
F8E
FEC
003
F97
F34
F40
F72
0DB
F28
070
0AD
0EF
0C0
F1C
012
08E
03B
F81
097
04F
0D6
F5A
FFD
084
FA6
F20
053
FAF
F13
0BC
F86
FA4
0A1
FA9
08A
045
FFA
0F0
F6A
0AD
F0F
F51
F2A
F40
087
FDC
09F
0FE
03E
F02
F01
0D2
0E6
067
F80
F3D
F0C
FC4
096
FD2
FB8
0E6
FA6
0CB
F7D
F80
FE1
088
0E4
F31
0F5
030
057
FA9
050
053
EFE
0D4
00A
0FB
079
040
FD4
0F3
F5F
F69
090
0D9
051
F4E
08C
0E7
FF4
0A3
0A8
0D0
09D
081
FC9
FB9
05C
051
0D9
FE8
045
FA5
07A
F32
F7D
FF6
F5A
FA3
FCE
079
F6A
F52
FD5
F50
055
FF6
F1E
058
0B5
05F
FC6
F28
069
FB1
085
F0D
065
F90
05C
F13
F51
0E2
00C
FD2
086
048
F03
0CB
F9C
F51
FC7
F78
FAA
F1E
0CF
F9E
052
F2A
F9C
0C6
0AD
03A
F8D
F33
F83
030
FDB
F91
043
071
F76
0CF
FE8
F48
085
F80
032
F81
0C0
FBD
078
0C1
FF0
0D7
000
EFF
021
FAD
000
0EA
F31
0E3
0F2
009
FC2
F00
001
08F
097
F0F
0A8
FD5
F13
0AC
FAE
FB9
034
F7B
F05
0F7
00C
009
F97
099
F12
F47
F17
0E4
05A
0E6
0E0
F70
024
07B
0E6
F57
077
F2C
0CC
008
FF1
F4A
0E8
08B
F23
FB8
0AE
F0C
0BC
0D9
F57
0DD
0CB
FD3
0A4
F2F
0FA
0FC
F95
078
02F
FA8
F99
F19
083
0D6
0FE
F7D
056
0D3
03A
049
F6B
F36
F66
0ED
F91
F1B
0DE
077
0DB
FCD
F99
FFC
0C1
0F2
F03
FA6
003
06B
F66
0F2
067
F1F
FFE
F3F
0EF
00D
F99
F97
0B1
FC9
004
095
085
FC8
0A3
04A
FA9
F0F
095
F49
042
FFE
024
019
012
0DF
FA2
F4F
FAE
F7E
040
F42
FC0
FD9
FA2
0E4
FF5
FA9
038
03F
053
085
03E
F60
F2D
054
040
06B
095
FDA
F1A
F72
060
F51
EFF
F27
F7B
05F
0FC
FF6
03E
FA0
F0B
05B
FF0
099
003
002
F50
FF6
FE9
F24
0F6
FA1
00C
FD6
091
F8C
F18
00C
F90
FCD
FC6
0C8
FB4
0BE
F3F
05B
F15
FEA
FEB
F2F
0A6
F7E
03F
067
FD4
077
066
F51
F8A
062
F3F
09C
F78
FE3
019
0DA
F69
F42
043
0E2
F0A
0FA
0F3
FE2
0BF
009
051
044
04F
099
0A0
0FB
F68
F0E
F72
05D
FA2
002
F8B
FEF
0F9
F26
0BC
0AB
FDB
FA4
0F9
039
0EB
07C
FB1
0B0
06D
F75
FC3
FF9
F79
FA2
F01
FB3
F0F
05D
01B
FA3
000
013
F8F
F97
F9B
046
08F
018
0DC
F67
F50
0E0
081
0AC
F21
009
066
FEC
FF9
049
0A7
0E9
0A0
F96
FE5
039
071
FFB
F64
F2A
F77
FA4
F03
FE1
FC5
084
0C4
015
F4C
FD4
F51
0C0
FDB
0C4
F09
09A
F60
FBA
FA1
FF5
F8E
026
F93
F87
F16
FD1
06D
FE3
F0E
059
075
F71
F61
030
0F8
078
080
0EB
038
006
FFB
F9F
F8E
F8E
F0E
0E4
FBC
FBB
F3F
F87
02B
F53
05F
F7F
F2F
0F5
042
0E4
FC9
FB1
F06
FC4
087
0F7
FE9
F71
F02
FA2
0A3
0C8
F50
F33
00D
FAF
0E1
02D
004
F78
075
062
F2E
F95
0E8
055
F3B
F98
06F
EFE
F05
060
0C3
085
F25
0D5
F6E
0D3
F59
F3C
F56
026
F38
FE5
0F1
F94
F81
0D4
FCF
08A
0FC
FD5
06F
F67
0EF
076
0B6
F9F
011
019
0AA
095
081
F5E
F3C
F16
F9D
014
FD3
01F
02F
F8A
06D
F2A
FD0
FC5
0B7
F41
FB7
016
0BF
FCA
F0F
F04
011
FC7
F38
0B9
FD9
0E7
F6C
025
F8B
F06
FA9
FF0
085
F9D
F53
0B5
F4A
095
026
04A
FF6
F90
F94
F4C
0A2
03B
F8C
F99
007
FD0
F3F
027
FD5
014
F28
F5E
0A2
084
F81
F0B
04A
F6D
0AD
F51
04F
042
01E
0B0
0FB
F32
0D7
FAC
059
00D
FCF
F33
036
01E
F86
F64
017
0FB
01B
FD7
FE4
FD5
0D7
F74
0DE
03C
058
FB1
09D
F39
08E
FE9
03A
02D
F0D
0C0
F78
05C
0F7
F98
0F9
FDF
FE3
F89
F50
FF9
F55
FA8
F87
F8F
F22
F29
FBB
017
F53
0CF
FED
020
099
F57
F48
029
F2B
F7B
FFE
08B
FC1
01F
0E1
025
0F2
F42
0EC
09A
00E
071
F20
074
FC1
FA0
F37
FA7
F61
FB2
007
03E
F21
F19
046
F7B
F08
000
F3F
F96
0D4
FD2
FC6
FFE
F3B
FC5
F60
0A7
F46
075
FBF
FBA
EFF
F57
061
0B3
FB4
0E1
FDC
0AD
F42
F10
02C
FE5
FC6
F56
FCE
0A1
04D
055
FE4
0F1
0F5
06C
FE2
FF2
0E1
05B
F4B
096
0DB
041
005
FA1
FD0
05F
F01
F74
FC2
FF8
0D5
F4C
0FB
FCE
03A
F75
0BE
FFA
02B
FC2
FE9
F28
0B9
06A
F21
05F
035
F91
FCB
F62
060
FDE
FD6
00A
073
087
F3D
068
075
F40
07B
F2D
F79
F6F
02B
FF3
F0D
FD9
F3A
0E5
0A6
0CB
04E
F9B
FB7
0E3
F0D
FB2
03D
F61
F9A
F4F
FEF
00D
FBA
F64
011
0F1
F05
FCF
F5B
085
FE9
070
0C4
FB0
0E9
F12
065
098
087
02D
F66
F82
F32
F31
05A
FDA
01F
0A6
F1D
FD7
047
027
041
F6E
FEB
F42
FB2
0D3
0B5
061
FB9
F56
036
F6E
F9D
019
08C
0A6
0E8
0D2
FC4
0B9
01F
0AB
042
0B4
EFC
FC4
0A6
0C3
080
0E7
091
024
FD3
0C7
0C1
EFE
FBE
F9B
097
FC6
F84
023
0CA
F76
F75
FF0
005
F37
0F1
F8B
0D4
07F
FAF
FBF
F56
027
F1D
F9E
081
00F
0CC
08A
FFD
0A9
F58
01D
0E3
F0E
FF9
005
FAB
012
F4B
FB3
006
F3B
F2F
F89
0D7
085
0ED
0F6
F33
FFA
088
0B4
F16
037
0CB
F98
F6A
FB1
0BB
0F5
F51
F63
073
05D
099
031
F8B
05B
0BE
FE0
03E
F2B
033
FE3
FA4
0E9
0AC
078
08B
0E9
F90
0D7
F41
09D
F49
08C
F23
058
FD3
042
090
FAC
F26
00C
F27
0A8
001
01F
024
0E9
FB0
0B8
0AB
01A
040
0CB
0EF
FBB
00C
060
055
F7F
F95
06D
F8A
08D
F20
084
F8F
0F4
FF9
F38
02A
F46
F66
F0E
0B1
FCA
0B1
00F
092
FB9
F6C
024
F77
F52
F7D
040
021
098
FB6
064
092
F86
F57
028
F99
F4B
FC1
0B1
09D
F19
F76
083
06B
076
038
F3D
0BD
F34
F73
0CC
088
FA6
0F7
025
0C3
F35
F47
FED
F08
04C
016
018
0C1
028
0B4
F52
F37
017
F54
094
0C7
FD6
FDE
0DB
F76
F8E
058
F73
F48
F2A
F60
0A7
012
F17
F92
016
F07
FF4
053
011
084
027
040
F9D
F30
0AE
F72
FEA
FC4
092
FDC
067
FB3
0D7
FEA
F9A
F62
FF1
0A3
FF4
F20
F11
0F7
F16
FC1
065
FDA
0E0
02A
00B
FD5
0AF
FBA
F16
FD2
EFD
057
F00
0E0
0E8
0A9
06F
FEF
065
07E
0BC
F50
06C
F48
F71
04C
FAF
06B
FA9
F9B
086
F74
08B
000
0E2
0D8
08C
F16
F2B
003
0C1
F7D
FAF
F12
FFD
F69
F7D
079
F8A
F4A
00B
065
00D
F08
075
F44
091
FFA
0A0
062
FED
0C4
04B
F78
0B4
0D9
F70
039
096
FDA
0B2
0D6
04B
0CA
F36
0B9
F77
F00
FDA
F6F
027
015
023
FB8
074
FA0
0ED
FB9
FB8
F94
061
FBC
FA2
FA0
0DB
FC5
FD1
070
0A4
0C2
F0B
05E
FCA
070
FB2
0EC
0F7
014
F72
0F7
013
089
F88
0E0
031
F11
052
FFD
05B
F9E
0B0
034
044
F54
F27
F3E
F40
F21
FDB
F70
015
