FB4
0B0
F84
0A2
080
FB9
0D6
FF7
F97
046
FA2
FB3
F52
F42
05D
F97
F73
FC4
FE9
FAB
F41
F5B
0B8
FE9
FD5
015
098
F99
0DB
F9F
0D4
FEF
FCC
0C5
F45
F42
FAE
F9A
FA1
067
04C
043
FF2
08C
EFD
06A
F86
097
031
056
049
03B
0E2
FD5
FD8
F7E
F91
081
F48
F0D
067
F73
F01
F4F
F5A
F30
F0E
FAE
007
F10
F0D
015
F41
0C6
F68
F2A
FA2
0A2
031
F8B
0F2
024
075
05D
F81
049
06C
FBC
FCA
0B0
F82
F6B
F27
017
F01
007
0F4
FC9
0C9
03E
0F2
F13
F15
0EC
F89
0B4
FE5
086
08F
FE3
0F8
FAD
0BC
055
058
F41
00A
F6E
F80
042
0B8
0F7
EFA
F9E
F90
FC6
FBF
F8B
EF9
08C
078
FB6
032
FAA
F35
0A0
FD8
F44
F10
FF9
F73
F6C
0EA
F15
0DB
FE1
0EE
01A
F43
FA5
081
092
0F4
054
0D3
068
F77
F77
FB1
020
0D4
F0F
018
F1E
FAA
F5E
00C
FC4
002
FE2
03B
F5F
004
039
F5D
09F
03E
0D5
011
05B
000
033
F16
0A2
087
F38
FBD
0D3
014
068
0DA
F28
F91
F48
041
02E
F15
077
FFA
FE8
F9C
076
01C
F46
061
F99
F1C
0A6
065
07A
FD8
F9D
F78
0EF
09C
FCC
F82
0A9
05F
FF8
F6C
0C3
04C
0B7
F48
F25
FC4
0E9
F9F
002
F82
FAC
FAA
F4A
FB8
FE3
0D3
F3D
F24
F5C
0F0
06D
041
F9F
079
0BF
FC0
0DF
07B
FCF
08B
08D
0B0
087
F77
F1D
F07
F02
000
083
F12
078
0C9
0EC
F90
F36
08A
F39
FB3
078
F34
0B5
F97
0AC
028
04B
07A
FEC
008
0F0
F91
F44
F37
023
FCD
F88
F3E
F4C
0E7
FAB
FEC
0D4
F11
093
005
02D
04A
F99
0F1
03A
08C
FFA
F37
05C
0D6
F49
FEF
0A6
009
F01
08D
F8C
F2E
F26
FB5
092
070
099
FBE
020
041
0B7
FE6
FC2
00A
0E7
0DB
FBF
F96
0CC
F2C
011
0BF
01B
FCB
02B
FA9
09C
FF0
079
038
0D9
FB0
FED
052
FFD
F4D
F8C
FBA
0BA
F0C
016
FEA
0DD
089
F11
F5C
06C
099
F5D
F41
FD0
F50
0D9
0B6
F34
0CE
07A
F09
F4A
F20
09F
045
071
092
F34
F23
F26
FF7
07F
FDA
051
0AB
0B1
08B
F29
012
0AE
F35
F3B
0F2
0DB
0D1
01A
F9C
01D
055
073
F33
FBA
F61
FEF
043
0CF
F92
F7D
092
076
FD4
041
F49
FCA
049
02E
FDA
F22
008
F39
0DB
F63
03A
02F
0A2
01B
F93
0B6
F5F
011
071
FA4
F7C
0D9
050
FAB
052
F71
F7C
01F
07C
F32
FC9
0CD
074
F16
081
F11
01C
05A
FD0
F08
FAD
077
F85
F38
017
F44
FF4
F43
F5D
F13
06E
0C9
09B
0AF
01D
FC5
F50
F40
F0E
F08
065
FF8
010
F8F
F96
0EC
F31
FA5
0D6
0E5
F0D
039
F76
F9C
FE9
FEC
0F2
037
FA2
FAA
0D0
F6B
F73
0CE
FB3
FBC
08C
01D
FBA
067
0B9
FB4
084
FD4
F05
005
F80
EFB
EFA
FEC
042
FB6
FDE
0CA
0DB
056
FEC
093
F66
061
FB7
FEE
F8F
F87
FAA
0D5
0E2
0BE
05F
05A
000
0B4
FE7
02D
012
F8A
FC6
094
F7A
013
0B4
F00
0F5
F03
F3A
F76
FF0
0D7
F2F
060
F40
F7B
0F3
0F0
FC6
F6D
094
EF8
04E
013
FC0
0E1
015
0CC
0C7
013
07C
F2D
03C
F36
F53
0DB
FBE
078
FAC
FDB
07F
F82
01F
F54
021
F09
02A
0D7
079
F68
052
FBE
0DA
01D
FA7
FC0
F4C
0AC
FC7
07D
0B9
F43
0EB
F3A
F56
0A5
053
FDF
FC4
F7E
FE1
F37
FB5
F22
F3C
078
F49
F55
0E3
048
00B
00E
FB4
F52
071
004
F73
FFD
FA1
017
034
F45
FBC
0B8
08A
FF6
FFA
FDE
FA1
F7D
08F
F48
F7A
06E
FC8
F60
F16
F6C
0C0
FAE
FDC
F39
01D
0B2
05B
082
FCB
F3D
F3A
F66
F9B
F65
F7C
0F7
009
017
03D
FC9
08D
036
0D2
053
F2C
0C6
F6D
FA6
F25
F94
F92
F7F
070
030
F7C
FAC
F06
F3B
0CC
F89
0DA
F4C
075
061
06D
F67
FEB
0F5
02E
04E
FF9
FF5
070
EFF
0F2
00A
FD6
EF8
068
038
036
032
09A
0E6
003
07F
001
0B3
FF2
F7B
FA4
F7B
082
F70
097
FE4
FD9
099
07B
036
F2F
06E
0F3
FA6
028
061
FF3
FC7
F45
F0A
FBE
FB9
0B1
F8B
0F3
FD8
FB5
F34
0C7
F2D
F2E
07D
0E4
FD8
088
00B
0C8
FA9
FFD
F22
FBF
FE5
066
F05
0B9
F0A
F4C
FC5
F2B
F8A
0C1
FB0
F12
0AC
F23
F5C
FDC
089
097
F39
0A2
FFD
FEA
F19
063
0A1
04B
07F
F8B
FCB
EFB
FBD
09C
05A
0C8
0EB
0F6
0EA
00E
FEE
F8E
0FA
039
01B
056
FA9
06C
FA8
F32
F54
F23
09A
03F
009
02D
005
00C
FE4
F2E
EFD
0A9
087
EF9
062
09D
06F
F9D
050
09B
0F2
079
FD6
07B
0EC
FFC
0E9
0F1
03B
0F8
087
044
0B8
00A
0D7
F00
FD3
FE8
FEC
F87
FB8
F88
04C
FBB
07D
061
03C
F15
F0F
FA3
03F
F1D
F66
F2A
F6F
089
022
04A
FB3
F0F
056
F97
07B
F03
F66
0BE
0E9
FAD
FCE
FBD
085
0B3
0A1
F07
F23
072
FD0
074
005
FCF
034
0E7
093
FE2
FE9
F11
04A
00C
F90
F5C
05B
F0B
040
0E3
F74
068
F94
040
FD3
F58
000
0F6
07A
016
FF2
FB9
F62
004
F42
074
FFE
FEA
F78
FDB
FE6
F2E
068
046
FF6
0DA
00F
077
0F8
FCB
024
0BE
F02
FBD
0CE
0EE
FB3
005
FC2
FB5
F50
F7A
FE4
EFF
02F
051
068
0A5
FA5
F87
F61
FE2
FD9
FA9
08F
FF3
05A
0CC
F1C
0C3
F08
F86
F6D
0BF
FE9
03A
09A
075
F1B
01E
F26
F50
03E
F00
0FA
088
FE2
FED
F84
0A5
F27
094
00E
001
F9D
070
06B
0A1
FD3
012
0D5
F39
0E0
FF7
0F0
F5F
F03
F8D
FAC
044
FF3
FEE
F14
071
F4B
F48
0E1
049
F04
059
F40
FE9
F17
056
F16
EFA
FD5
008
F65
001
08F
F2B
F62
0D9
07D
FC2
00A
F70
FEB
F6B
0AC
052
F25
08D
F0F
0D2
FAF
0D4
04F
081
026
0F8
0F6
FD5
0E5
0E8
F66
F17
FB7
0A5
083
F69
F69
041
FB7
0B0
FE4
009
099
FE1
002
0B9
061
F11
FB9
FFE
0B8
089
FF9
04A
06B
00E
076
FD4
0A6
F6E
014
F54
F52
0E1
046
FF4
004
F71
093
024
F3E
FFE
0A0
0B3
09E
FBA
00B
0B4
F4E
F12
F00
095
FC5
062
FA2
048
0DF
0E1
0AC
F71
05F
FD4
F42
0B3
053
0F2
F76
F11
FB8
F99
053
F0A
0A2
F6A
011
04B
0CC
F31
F66
F9B
FD5
0C3
F71
0F8
F71
0CF
F9F
065
FA4
F44
050
096
F0B
F63
FE3
0DA
02A
F7A
072
F95
037
FD4
056
0CA
F3A
062
F2C
F8B
0DE
F35
0E3
0C9
006
0CA
00A
FCC
09F
076
033
F6C
080
02E
0E7
09D
09B
FD3
FB8
0E0
0BC
024
0D7
00B
F58
F9C
F6D
F8A
F3C
F5C
F54
084
0D3
FB0
04F
0A8
FB8
030
0C5
0A6
F92
01A
049
FD8
FA2
F64
003
FDA
F9E
F16
0BB
0BD
FB3
02B
088
0D4
F20
082
FE0
0F1
016
02D
F39
FD4
06B
FC8
FD0
F78
0EB
0E9
F0D
070
027
FAF
FBC
F63
F2E
F4F
FC5
0F9
F76
0EF
FB6
0F9
0C3
F9A
F3F
FD6
03B
FC6
073
FFE
043
FD5
FC9
F61
F76
F2E
0F1
03B
FD8
021
F1A
F4B
F5E
F66
04C
F71
FD5
0B0
F37
060
05C
01D
0C5
047
F48
0B7
0F1
F63
071
F2A
FF2
EFC
F5F
F61
F0D
02A
0C0
F19
FC0
F92
032
F1C
0D1
09C
056
0B7
FC4
029
03D
FED
025
0C9
F3C
FC4
065
086
0A9
F8C
F0E
FFE
F9F
F2E
067
036
F62
FD1
00D
0D1
F21
F2C
069
067
F8D
F04
FE6
FA7
0D4
03C
FF8
0DA
067
F30
F7C
F79
0E5
FF4
FCC
FEC
FBF
FBD
091
05A
0BA
007
FC0
F7C
F2B
086
F76
F0B
064
0AB
002
072
0F6
07D
FF7
04A
00E
EF9
062
00E
FA2
F53
FBE
003
087
0B5
FBD
FAB
FB7
F2E
03B
0B9
051
F5A
074
FBE
01F
090
FE1
F98
F47
FD2
FD0
FBD
F67
F2D
00E
040
095
FE7
0EC
023
0CD
F5F
F29
F81
083
FBD
FFF
08F
0F7
0D6
078
00C
F15
FBC
00A
034
09C
F43
F28
0D8
FA9
FCD
FC5
FD3
038
F4A
016
FD1
061
FE7
041
FF1
FB7
03D
093
F7B
025
065
09D
09E
043
FB2
F25
F55
FE7
F52
07F
0F7
08F
0F6
F9D
038
FF4
082
03E
FA0
0E9
0D6
037
0F3
068
FE5
FDC
F91
0EF
FC8
FC7
F1E
FA1
041
FC6
0A0
07D
F3F
0A3
F15
045
FCF
F03
035
046
F41
F1D
FFF
0D5
047
F1D
00C
FDA
081
FC8
F79
00B
F58
FA9
F40
00A
F93
FC2
FDA
F62
F08
F36
F57
FD5
FA5
F48
0CC
F2A
FF1
F54
054
FAD
00A
F00
050
049
050
022
01A
0F0
F3B
FD8
F72
0BA
0E4
F29
0C3
058
08A
098
F5F
0E4
0B6
F1E
FCD
027
F72
F82
06F
F23
0C7
0AE
002
012
0AE
F5C
07F
0E9
056
022
F54
FD1
F59
019
035
FB7
0E7
0D7
FA6
0AE
054
FCE
0E7
FC2
F04
FFB
F9E
FCD
F34
F4F
FFB
0F8
044
F73
010
F6A
F6C
FA8
084
0F2
09D
FAE
06A
FA4
F99
F11
F79
0C1
0F9
F45
FD5
098
0E6
FF5
0D8
F2E
F74
099
F95
002
F7F
EFC
059
0F7
09C
0D0
0C8
F74
068
F0B
0B5
0C0
F15
F58
FBF
F97
FC7
F52
F5E
0D9
FF3
023
0F7
039
017
F16
F2B
062
F0E
034
F59
F25
F14
05E
06C
F9B
F65
F72
F8B
0E7
0EC
FC4
0ED
FCB
FB4
FF2
FAC
0C0
F2C
07E
002
F1E
024
FBC
004
0B3
0CB
0E7
FC7
F41
0BD
FEE
034
092
F69
0E9
060
F01
00B
03B
FBC
079
F93
0A3
F54
F53
FC3
02A
F88
05E
FC6
03A
FDA
0EB
031
063
F0C
047
037
F96
F0A
F62
0E3
0BD
0B1
F73
F20
F2A
FF7
F67
F2E
0D4
F07
0F3
FD9
0F5
FD7
F2F
F8C
F03
FDE
087
0E1
031
F5A
0F8
0F3
0E6
FB0
0E8
09C
FCF
0CA
060
016
FCA
FE3
0DC
03E
0B6
040
029
FF0
F92
04C
00D
F3C
00C
F4C
0BD
0A1
FBE
0F4
0AE
016
FB1
F49
05B
052
FDD
05E
0AE
FFD
F99
0B5
FB3
FEC
0BD
06C
0CA
F2D
F12
FED
F62
FE6
FC1
076
09D
F56
F28
040
F6A
02F
FA0
F5F
F6C
F36
F26
0F6
F42
F42
FDA
F94
F05
05C
F53
FDC
F13
08C
086
0D3
0FC
FCC
FE1
FAD
F4C
FF8
FE6
FB3
077
028
07A
0A5
0C1
044
F6C
F5B
0F4
FB7
FAC
0F3
F77
F10
F6F
0E3
F1F
EFB
F40
0EE
FDB
0EE
FDC
FBC
056
FCA
F04
FA9
0C1
F7A
FCF
F41
F93
09F
0BC
0D9
F7E
07C
FFA
FE9
066
079
F31
099
FFC
03D
0D4
043
F5F
FB8
0C6
F97
FF1
F97
F6D
0E4
FA9
FEA
04D
F9B
FA7
00E
0B4
072
0AB
F34
07F
0B3
0CB
F17
FF3
F60
0C9
FB9
07C
F1A
0AE
059
EFC
0E3
FFA
09D
0AB
0EE
0CE
0E1
F5D
060
05A
00E
0C4
F20
F8C
FF0
FCA
0F3
FC5
F9E
0AF
FF1
021
FC2
005
0EB
F39
F14
F18
F66
F02
008
0BC
085
036
02E
100
FB4
FFF
F73
F08
000
092
015
F36
0C2
FDE
FCA
045
046
01D
057
FA3
090
080
FF1
FE1
030
FD4
F43
F06
0AE
0D0
0B6
07F
F18
F42
052
F70
017
F41
0AF
048
F7B
0DF
F6F
0E0
00D
F58
074
0C6
013
09D
F80
FA2
F25
F76
F2A
049
07F
010
0AF
07B
0AA
031
F43
F0F
F14
F33
FFA
044
FE3
0A4
F02
F11
F42
0BE
04B
0D5
084
F03
054
F94
FD8
040
F9B
049
FD1
F0E
05C
F14
F7A
045
03E
0B4
02B
03F
F7C
F2A
093
FF7
075
FDE
FAA
016
F80
FEF
041
029
0F0
F38
09C
01B
09E
0B2
04E
FE6
F99
055
074
0AD
F59
F59
FE4
F41
F92
FB4
0B3
0BA
0C9
FD3
FFF
F89
0BD
F2E
F6F
F62
061
0E6
06C
07B
FF2
F2A
06F
F65
FE3
072
F4C
0F4
00C
F09
F57
F6A
0E9
F34
F93
0CD
FAA
F08
FB3
0E5
FE5
040
F90
091
0EB
F04
F5D
08C
FBA
00E
07F
0AE
F12
FC2
0A4
F55
0DA
09C
EFA
F73
F4A
08A
014
0CA
FFA
F24
FA4
0C2
F49
F1C
F76
026
F1E
FC5
F90
013
036
08C
04F
F4C
F04
F67
005
F55
086
07B
043
FA5
03B
079
098
FD7
F6A
0F1
07E
029
FB7
F8A
EF9
0D3
F96
F6B
088
07E
057
0E2
0F8
FAB
F12
047
F1B
0A4
F0D
FE6
055
087
0CE
F25
F1C
099
05C
FE9
0C0
FCD
FFC
0DA
F40
F07
F9E
FB9
059
F5A
F6C
03C
FA6
FED
FCC
F8E
FB7
F41
0FD
FC0
F8B
F73
FD7
00D
034
083
0EF
059
0E9
F75
FC4
05D
05D
F39
FB2
04C
0A3
061
F7C
FB6
01C
046
FEF
0C5
FBA
F30
FD8
FDC
0C1
F92
07C
028
F6E
0B0
FBA
0F8
F61
F00
090
F94
FD4
061
FA2
F0B
07E
F5D
0C7
0F4
00E
09C
FD0
094
0C2
F5D
02A
0A8
097
F82
F99
FA3
FA5
F52
FB1
0DB
F11
0F4
0EB
0B2
0DB
FA2
06D
081
05D
08E
065
FAD
0DD
067
F5B
0D4
0C5
0C9
06D
0AE
F41
0E2
FAF
F00
F22
F6F
00E
07F
F45
0E3
F29
07E
EFD
F82
0F1
0E2
F4A
EFB
031
EFD
088
018
F6B
0BE
0C9
0A5
FCE
009
0E9
087
F33
FEF
075
F9F
F60
FC8
FF4
024
F0C
FDB
FDE
FE0
FC6
F49
0E9
04E
F11
0F5
033
F3F
F5C
04B
027
F36
F81
055
017
093
F11
014
F53
04D
F6F
FBF
FC6
FCB
F46
F0E
FCC
F9A
F7C
F16
FDE
09B
019
014
0B8
044
0F4
F74
FC6
09F
04F
F90
F1F
0A2
032
F05
F40
FDB
00C
FA1
FF3
05E
0E7
03E
F07
050
0E5
038
0F4
FCA
060
F81
FFB
0EE
0AA
0CD
F85
00D
FB4
0D7
0B7
FA8
0D9
F80
F83
055
086
037
F61
0FC
061
FB2
005
F9A
F81
FBF
00A
025
033
FD7
0AA
0EE
058
F19
F6A
0C7
F74
F53
F31
01F
F53
F85
0CC
06A
F8F
FAE
F89
F31
F71
0A8
F82
FD1
015
015
090
032
F8B
FC7
FED
091
02B
03D
F0E
0DC
FEB
F96
0BE
F7C
F1F
FF1
F76
0E0
FDD
07C
014
FD3
FFE
07A
05F
0F5
FE2
066
F93
F56
0AD
F55
FFB
07F
04C
06E
F96
0C4
FE4
05A
0A9
F80
F5B
021
025
012
0EB
019
F38
FEF
F52
07A
0D4
F00
F40
040
038
092
004
092
0B9
FD0
F0C
EFF
064
0C1
F83
02B
F5F
046
0A4
03B
069
FDE
052
F9B
0B5
018
F29
FBC
0F2
F0B
FCC
F99
095
070
0AF
04E
F0D
00E
FB9
0C6
04D
0AC
F0D
FEE
F8A
067
06A
F8B
0E6
055
07E
09F
FB1
0AC
095
068
F12
04F
F15
0C2
064
FAF
F2E
FBB
FFF
002
06D
0B7
0ED
049
045
06B
03F
F3A
F31
0B9
F3F
073
007
F3A
0D5
F6F
F8E
F5A
0A2
0CF
F56
00F
F7C
09E
F18
019
FB6
FB1
095
091
07B
FAF
F49
F5C
F7B
FDE
02D
0EB
006
0CE
091
072
00D
F0E
0CD
0DB
F2B
FF3
098
EFF
0A6
FB2
F47
FAC
0A3
0F2
00A
093
00F
F31
F3C
F2C
F63
09F
093
015
F2E
F87
FE8
F04
FE0
FD1
F9E
011
F0D
0D0
FB8
FEA
F5C
F5F
07F
F1B
0B1
FCF
FC6
F38
F9D
F74
F08
F1D
03F
0D2
028
F5F
011
FC5
FD9
063
F6A
083
F33
004
0F1
0DD
05A
0F1
F85
0D8
0E9
018
069
F73
04A
F4C
083
F31
0AC
F3B
F15
05E
0A9
0BC
0E7
FC3
FC1
F70
08B
0A7
F69
0B9
FDC
F2B
F1C
F7F
F45
F2B
FED
F32
F56
0D6
0E5
FF7
0B7
046
096
FDD
FF3
F2B
05C
FC1
0A1
FDE
0DE
06E
F49
F6F
F62
F5F
F5C
058
F41
016
049
F64
071
F2D
0EE
0EB
FB3
FFB
F6B
0E5
093
039
08A
FAA
0E4
0C3
024
FD3
0CE
00F
0A7
041
0FB
F31
009
0F7
08A
081
F52
FDE
F28
040
FC8
F33
FBE
0D8
050
078
0EB
F9C
FB8
FEE
03B
01B
039
F2E
04E
F5A
F5A
F61
F94
FBC
F6D
086
01F
0E2
FE5
00D
067
0E4
F1D
FB0
F19
06E
017
F3D
0EE
FBF
0B7
FE8
F3D
F8A
07F
0CB
FAA
F2F
F8C
FE7
F79
FCE
005
F2A
FA5
035
F67
08F
013
FF4
06F
FBA
FA3
05B
05F
052
0C1
0CB
088
F02
00D
F28
FBE
0E2
036
0A2
FCC
0C2
024
021
F2B
F9D
F6D
052
FCD
FDC
F44
F3C
FEC
047
032
FC6
F54
091
0AF
F15
F76
F42
FBB
FBE
F83
051
FC1
F68
0B6
09B
F5F
0A1
FEA
F9E
F20
F32
EFF
FCA
F92
0E7
053
084
0C1
FDB
F2B
008
006
F58
FB6
088
098
FBB
083
FDA
0CC
03B
0ED
070
080
F34
F93
053
0C0
FA4
0BE
F75
F9F
0DE
004
0EC
F10
00D
015
0F7
F5A
0CC
FE9
F26
0F2
0E1
F9A
F10
FCE
F7E
009
077
0BF
024
01D
023
F2B
073
F5A
039
001
0AD
09C
FD1
026
FCA
F0A
FF1
0E3
0D5
FC1
00D
F1F
F5F
0A7
F6C
F34
F2A
0D2
07A
FA9
FC3
0E7
FC3
F76
09B
065
FA7
FEE
072
F43
06F
FA1
0AF
003
F01
FED
EFE
F15
FAD
F60
025
F85
FBB
092
F55
F17
FD5
0A3
03E
FFF
FF4
09C
FA8
022
050
F27
0FC
FD2
F8C
09F
FB8
F1F
0E6
04F
F34
FB3
F0D
F28
F7A
FDB
012
F5B
0C3
0DA
043
02E
0C7
FC4
FD0
F57
015
FB2
FCF
090
0A2
019
0EC
FFE
0F8
066
089
0F1
032
0E2
0DD
042
036
058
F2C
F24
0DB
0B9
036
041
0E4
0BA
F25
FCC
0DD
095
0D5
F39
055
070
F8D
0BB
FD4
020
FEE
0FC
0CB
F34
0DB
F7F
038
0BF
F83
FA5
05B
025
FB7
F45
0E8
F31
0BA
07C
F1B
F12
FEA
F90
FB5
F9A
022
F44
073
F6D
081
F38
F14
05D
075
F67
0AE
FB3
017
0A5
0A3
F4F
F88
FFF
088
FF6
F7D
FDC
F35
F1F
F60
F71
FD1
F35
04A
FC9
0E2
FD2
061
F94
007
FAC
FCD
F5A
03C
02C
FA6
F13
03F
F42
0CF
FB7
00E
F23
FC0
01A
0DA
EFD
03F
FD1
F29
0DE
0D2
024
F66
F4E
06C
FFB
F66
F90
067
0F8
0DC
F9F
088
02D
0CE
032
0C5
0CD
085
089
096
00F
FFB
027
F94
FD8
079
041
FDE
095
0F5
F89
00C
F7C
07C
0E3
0FA
F73
08D
F8F
006
F02
0D2
FE7
06C
F31
FDC
F5D
05D
01A
022
06F
F48
F3F
FBB
F9C
F33
039
F9D
06F
F37
FBD
051
053
FF2
F87
0C4
040
0DD
0CC
055
0DA
F5C
051
096
089
FD0
F01
FED
080
FB1
FD6
F3F
064
FE4
031
F13
F6B
00A
00F
FAA
039
F12
0D8
F0D
068
09B
EFD
F6F
F53
F74
0DB
006
F11
FED
FE7
00C
046
FD5
F46
0A6
094
FB6
F75
05D
003
F4A
F9D
0EC
FCA
F6F
0F0
F9B
0E7
F80
071
F8D
06D
F6B
F36
FB6
00B
0C9
082
017
F1E
F2B
FBF
023
033
F8C
031
0B1
F31
F26
F28
06B
02A
F69
09D
073
038
0EB
FF5
0D6
FFE
0C3
FAC
0E2
0A4
FE4
FEB
056
055
0CA
0CB
031
F6F
074
04F
004
F10
061
F53
FB3
011
F29
029
F6D
F32
078
FD7
FB2
F49
F75
0CE
F47
FF4
0B0
FA1
FF1
041
043
F18
F69
FB0
F66
F19
037
F07
FC1
FFC
EFF
F66
EFE
088
F83
FDF
057
085
FDD
0EF
0B6
0CD
025
0E8
066
F67
0AA
0E0
F51
F2B
FA3
F49
FF5
F76
060
F92
FF3
FC0
F4A
F77
0B8
074
FCC
FCA
FF2
F39
0AC
F4B
0A2
F50
017
0E8
02A
F9A
0E1
F85
F00
F6F
F11
04B
01B
FCC
F5C
F26
0FC
044
FE4
F17
01C
0A9
F36
FC7
FE5
F3E
F14
0FA
F0E
F25
081
031
F03
056
F5E
02B
FF2
F26
F03
014
FBD
F39
F03
0C2
FFA
0C5
FF6
091
087
F2B
F0F
F4F
05E
0B0
079
FA6
0E8
F00
F97
02C
FF9
FFF
FE6
0B4
002
F67
FCB
F51
038
014
F95
066
02E
075
030
F88
050
0B6
FEB
F5E
FCF
034
060
F44
F19
F03
F93
0B5
FAD
F4A
FC1
FF6
FF2
F52
EFF
F1E
081
0B7
F53
000
0C1
088
F79
F80
0B1
047
FCF
EFF
098
0B8
016
FCC
097
FCE
FED
F7F
F16
FAD
FB3
029
F5C
FF5
002
F16
FA9
058
05E
000
0EF
02E
0AC
09B
031
FCF
058
F7F
F61
F07
0C6
050
0E0
F14
019
FF4
08D
0D3
F9E
F2E
0D5
F1E
0E0
03E
FC3
F2E
FD8
008
FF5
F61
010
F4E
076
F65
FFF
F6C
0C1
0D3
03A
F83
04C
F1C
F39
053
FFB
072
FEC
FF3
FA9
F31
F90
F43
027
FC9
FBB
0DA
FF9
F41
FFF
00C
042
0DE
021
00A
008
020
04B
09D
F89
F2C
014
FB8
FA0
F9F
0C8
0AB
F85
040
096
F8A
F33
FA5
0D0
F18
01D
0F6
009
03C
0B4
F04
F8B
F5A
F13
006
F15
FC2
05D
FB8
F01
F26
0F3
F34
04A
04F
FE8
F03
F71
F13
FF9
0CC
FC2
FB0
F24
066
FDB
FD8
08C
F9B
F1C
095
F72
059
F76
089
F6D
00B
F97
FBA
023
0EB
0F5
0F3
EFF
F71
006
FD1
F09
FF1
F42
F8E
0E5
F62
06F
F91
007
FD5
032
049
F6D
0DF
027
F55
083
F54
FA0
F26
03C
041
FF6
0A9
FEB
092
F8B
09E
0F8
0DC
F27
0D3
0D3
00F
008
F31
083
F58
F03
FD3
0C7
F63
F98
FD7
F2D
0C4
049
F62
016
FF4
0D1
FDF
019
0D6
0FE
FFE
FE8
F14
04B
F9B
FCF
F94
08D
09B
F37
06F
036
FE8
014
0E4
0F7
F82
086
F0B
08C
F63
F7D
06F
F97
F21
0C9
F4C
F9C
FE6
F91
F44
045
04D
FED
FF9
090
F8E
030
087
F26
0DB
055
0B7
0BB
FD6
F1B
F7F
FFF
FB8
F21
0B5
F34
FA6
F78
00A
F32
095
FF3
0ED
035
0A2
F0C
002
FD1
F76
039
F12
FEF
F45
06D
FF1
022
F5B
03C
FAA
0FF
FF7
F93
073
0FC
F68
F9E
FF1
F20
F87
F67
077
09C
0CE
FFA
00B
002
F8D
05E
FEC
FF2
FA0
04C
080
0D3
0B9
043
01A
08B
0D4
062
03A
046
FC3
039
F93
FF3
044
FA2
F7D
066
0B8
F20
073
04B
FC0
FD7
0FC
054
01C
FBE
049
FDE
079
F5D
FE8
088
F51
098
F19
F0A
F77
FD0
FF0
F79
0A7
F06
08A
F34
0E5
F78
F56
08C
F23
024
F0A
099
F84
FC8
06E
FA5
F78
F69
0A8
FC0
F42
F8A
F70
F41
FDC
FC1
01D
FD0
FF4
0EE
F38
F93
0EE
07D
F1F
FD2
06B
058
0F8
F11
F08
0A1
F54
035
F12
EFF
060
F1D
03B
F46
0BC
077
FD3
0FC
076
FFF
F44
F25
F70
07D
F27
FDD
0B0
F10
004
F04
F38
F42
0A7
063
0C5
09A
022
0BA
FFF
F39
036
F9A
FE8
F7F
08C
06D
F1E
0B5
063
0E1
FED
0D7
EFE
FC1
FD3
00B
F30
0D5
09E
0D0
0C5
FE6
08B
F69
051
025
F29
FD4
052
051
016
F7A
F65
0ED
008
061
F1E
072
00B
F71
07B
F0F
F8E
F5A
00D
F46
F3F
08E
FF4
08A
0EE
019
0DA
FD6
004
07A
F85
FDE
F7B
054
FA8
0D3
032
00F
017
005
0C2
F0F
01D
05F
064
011
FB5
0CA
F0E
044
F97
EFF
F23
F7A
F6D
FB6
F62
FA0
F46
0E5
0B7
08B
F57
0F6
FE1
FC2
F54
F7B
0BC
F3A
FA7
FEB
F7B
0B9
00A
037
085
F2D
FC8
08D
0B1
F69
0C8
035
F6C
035
F3F
F83
FEC
0BE
05E
085
F3F
0B5
F9F
077
02F
FBF
F79
F18
0EB
008
FAD
F4E
FA0
0F8
F74
0CF
F97
F1B
085
F26
033
0EC
F6F
0F7
F35
F02
05F
061
F28
03A
093
0E2
FDE
0AC
F29
08D
F7F
018
F22
0BF
F20
F7D
006
0DB
F8E
F74
FC1
FCB
FC6
041
FAC
089
FCE
06A
028
055
00A
0A9
041
F56
000
FEA
F61
FDF
0D3
F24
0C5
07A
F98
019
F35
069
0DD
F4E
052
FEA
F79
05C
F40
093
FCD
F74
028
020
0D0
017
F10
FB2
F4E
0D8
F21
FEF
070
F45
F4B
FB6
088
FCA
098
F71
F24
0C2
0FC
063
F55
0E3
07B
084
FE9
F59
F73
F48
FEC
F19
F53
F77
02D
088
086
F4D
0A1
F2E
F25
FBF
F53
F5E
F6B
002
