0AF
0CA
0F1
FCC
F1A
FE3
059
05D
0B7
FF8
F33
09B
052
074
F36
053
06A
F61
FD4
FFF
07F
0D8
F50
F87
118
F72
0F0
0AA
076
F63
0A8
F82
FD3
FE3
006
039
FFF
F6B
04C
F90
F4D
0EF
FA6
FA9
F4B
05F
04E
02E
043
091
0CD
0B1
F97
F44
0BB
FC4
02B
FDC
F71
09F
FBB
F72
06B
F96
05D
04F
F4C
F74
FDB
007
F32
060
F8F
FA4
022
F15
0B7
059
F33
054
FEC
FCE
F29
0E7
F86
048
02C
F9B
0A9
015
F57
002
08C
052
FD9
07C
F90
007
F32
031
FB8
F86
FF7
03B
FFB
06E
0DB
0AA
F9F
005
F5F
F9C
FB8
0A2
FE6
035
043
0CE
00B
01E
10F
043
006
0B7
F47
0E0
FB6
002
F2F
F58
0CF
FE9
01C
07B
0B4
FB3
F6A
0FE
F61
FC5
FF2
FF0
F47
F5B
00E
07F
098
0B3
FD1
08C
0D0
110
00B
F39
FA1
014
070
F61
FC1
043
F6A
075
FA2
0A1
0B1
0B4
FD4
F7F
0B9
F87
0CD
051
FF7
F7F
FC7
052
097
0EA
017
0E8
FF2
109
F5C
F26
F44
FD8
0E6
F89
050
F2A
F33
007
045
F89
081
0A8
F2A
023
F98
F4C
042
FE7
0D2
FDA
038
F96
111
08F
F4E
0F7
FB8
0E7
006
F5C
043
0CC
F75
F69
FDF
002
F49
FF0
0E6
00D
FBF
0A7
F2B
FD5
0DB
FFC
04B
035
0D9
F63
0DC
F76
FD9
091
126
023
0F9
F41
F2D
0AC
F63
F4D
03B
05D
F53
F95
0BD
FA3
0D1
0E9
F2E
0EB
109
F47
FE6
FF5
F6A
F3F
098
10A
0EF
F36
F6A
0AE
0B0
084
105
F7E
009
0B9
031
FFE
076
F9E
F18
0B0
06E
F76
F7A
0DF
0FB
073
0A8
FCB
FD6
0C5
F0A
05B
040
097
FC5
07C
05F
0AB
041
001
047
122
FA8
FF1
FD0
04F
07E
07F
05D
F3F
F3D
F94
FE8
F84
FA3
046
F11
FA9
0AB
FA0
FA1
02B
F6B
F3F
FD7
F81
F40
0E6
07A
FA5
113
0B5
109
FC3
FA3
F48
031
05F
01A
0F9
034
0F9
0FD
FB8
0CD
FA5
F21
F53
092
F28
F96
FA8
F37
F8A
024
000
F39
F5E
FAC
0DB
09A
F86
FF5
0C5
F2E
0EC
04F
084
100
F4D
004
0C1
003
123
FDC
FF5
095
015
05F
0D3
F4D
F64
F44
0EC
F61
FAB
054
01C
0D8
082
071
F36
0B0
F96
047
0BB
02C
FC5
064
FB9
FEC
F92
013
118
05F
0B0
01E
08C
0E7
F97
0ED
0A1
F46
FF4
F8B
0A6
011
EED
FA2
F0F
F77
031
0D9
01C
F3D
03D
F6E
067
090
033
0C3
090
F69
F3C
072
FD8
F47
0ED
F8C
0B8
09F
0F1
074
F4A
027
00A
FCE
0D6
F99
F3D
F5D
005
0BC
F24
0A4
09E
F87
F81
03D
F3B
FFF
FDF
035
FE2
0EE
F38
FC9
058
0F6
09C
FE1
F24
067
F6B
FE3
F3F
086
FBC
F44
F68
08B
F04
FC0
F39
F1C
050
07C
0A8
0AE
F00
0AD
0F0
044
037
07F
06C
013
07D
F78
050
0B7
019
086
06C
092
FA9
012
084
0AD
F88
0BB
0F3
020
F40
081
0D5
F74
0D7
09C
018
06D
0D5
037
012
09F
066
11D
128
FAD
116
F8D
002
10D
FD2
FF4
F65
01A
F80
074
F52
F4A
078
F3E
FEE
EDA
032
F94
F1F
F7A
097
026
F13
F39
F5E
0D3
FA9
F43
F9E
FB0
07B
062
044
019
124
FE8
FD3
126
F96
FB4
038
F38
F62
0B1
F6D
055
F1A
0C8
036
F90
07C
039
F41
F16
065
FFB
102
FD2
F6C
102
098
021
F3E
0D6
021
0F9
050
045
FA6
FEE
07F
F79
048
EE6
F8A
082
F41
025
031
00E
09E
EE1
F7E
FF4
EE0
0CE
099
0C7
FC5
F29
017
F27
F5F
09D
03A
0A1
098
F84
0F8
FC4
FFA
F3A
FFA
078
FA4
FF7
0BA
FA5
F55
038
002
0B3
FA9
089
07A
F6D
FD7
0B3
06B
F8B
05D
0EF
F21
F64
0F5
FDA
031
FEB
049
0C1
053
0AC
F9F
F12
F1D
F96
02E
EF4
F57
F5C
076
EDA
0AF
EE4
012
F49
F3F
08E
F41
047
053
FF8
0CF
088
001
F80
FC3
0EA
F3B
098
039
FF9
0C3
F5D
FE6
FCD
F8A
F5E
0AE
FFD
F83
F77
024
F74
F78
0B9
063
F8A
07F
F3D
FEE
0AE
F4D
FAB
097
100
05D
FD5
056
0C0
F2C
08C
0E7
FC1
FDA
F99
0B3
FB6
08C
FBD
0C2
F3E
052
083
EB7
F82
FB0
F41
FCB
EE7
F49
09F
061
F06
093
FCD
F32
010
092
FB7
F21
F37
F36
07E
035
051
F4B
F66
048
0E9
01F
07D
FC8
087
F2A
F88
FB0
0C6
F0D
F8E
07C
F49
0C6
0BD
06F
F24
088
0CC
F59
05B
0B3
F34
FB6
F35
0F1
04F
06B
F70
FEE
0DA
065
EF4
F29
02E
0A7
EE1
EBD
F5B
006
F88
F0A
FAD
EEF
EB6
ECD
092
043
ED0
FB6
08B
F21
030
F62
F79
07B
F81
01F
F98
00F
030
04C
049
FA1
01D
113
0FB
FC6
0DD
0CD
0DC
F4C
04C
0B1
0AE
FF1
FCA
FA5
0FF
FF1
F3E
F18
F5B
FDC
077
FAD
0A8
097
03C
FFE
0C9
FB9
01C
091
F84
FF8
006
F15
F1A
F62
F19
059
F92
02F
FDF
FFD
F42
022
FC3
F9C
FE7
FA5
F08
FE5
F1B
F66
FF8
FA5
F77
0EE
086
09D
0A2
0A1
105
F78
FCB
064
049
F5D
08B
040
F72
F5D
0E1
F38
F21
FBC
F48
F68
0C0
0BE
005
F6D
10A
F7C
013
04B
0A2
0D4
059
0EB
065
F50
0C2
F75
F15
F87
F0E
FC5
EEE
F56
F3C
F4D
F53
05C
003
FDC
026
010
078
FF2
F72
01C
EC9
FA4
F7F
F66
FDE
FEE
071
FEF
032
FFD
F1C
FD4
114
0ED
0B8
089
0A7
F4A
FD4
07C
FD9
F50
09D
105
068
060
08B
FBD
F1C
0A6
0EC
07D
072
0C0
F18
F69
F0E
07B
F2E
0F8
08F
081
0DB
05D
015
F5E
F2B
F68
011
06D
056
EFF
F13
FBD
FA0
0B4
F96
FBE
05C
07A
F47
FBE
EBB
06C
F39
083
07A
FAB
EDA
055
F18
FDA
FB3
0B7
FA7
05D
0F1
00A
FE6
0E8
FE0
013
0C0
0B4
F49
09B
038
F9B
016
F0A
FDA
F40
FB8
F1F
F80
F3D
0AA
F81
F83
F95
092
FB7
031
F33
0A9
F9D
097
0B9
046
02A
F8C
F46
F6F
068
F84
F73
068
F87
F7D
FD8
FAB
027
0D2
090
029
044
F0E
F66
088
030
F21
F3A
F44
046
029
08E
FFC
FF1
F69
100
FAA
FF5
F57
02B
029
0D0
F57
F87
FEE
F5D
F23
09C
084
05A
F2D
0EB
0A1
04F
FEF
000
F27
0B3
F1D
FD5
0D0
015
06F
076
F28
032
073
F8A
067
F28
F36
009
05B
F87
F23
FAB
00B
070
EFA
07F
FCA
0E3
F8F
0B8
011
EF1
F00
060
09C
056
FA8
0A0
05E
ED7
022
F92
F1E
F4D
FC8
FCD
073
00C
069
F10
F8E
042
04A
F3A
0F7
10A
001
044
020
FE8
0A1
0B5
00D
FBA
F28
FCA
F13
0AD
0FB
0FD
F5C
0EC
0ED
F7A
FDB
0AE
F50
F8D
F12
047
F85
09C
F05
0A3
F58
0E4
F66
F78
F3C
0EF
107
00E
03A
016
F45
048
FCF
0CC
FAC
0E6
FB9
04F
EE2
F60
017
07A
0D7
FA9
FBE
F1C
F70
F65
FFF
F31
00C
F0E
F2A
069
F92
109
FFB
015
F62
FD3
EED
F2F
FC7
0ED
F6B
06E
05B
F0F
081
F93
F36
F3C
F36
0D6
084
FAA
F84
0F5
05C
063
F5D
F73
0C0
FD4
F7F
F79
FE6
F61
0BB
06B
F73
FA4
FBE
083
F9B
022
07E
0A6
F0C
015
092
FF4
059
F50
F64
ED7
F39
05E
FA5
F0C
F4F
0D0
F24
049
FFA
007
079
F4C
097
F67
108
FD4
0F0
FCA
0DA
071
08F
FCE
F78
FE5
0CA
0ED
042
09A
002
FF2
05F
F07
0CC
FA6
0B9
089
0D4
F06
FAB
F25
EE7
F5F
EEC
F27
F48
0A9
0F5
FA5
0B1
10B
0F9
0FD
F90
061
F1A
FB2
F16
0DB
080
F87
EEE
059
00F
F45
057
040
042
F8C
F3F
0A5
F87
0A0
F9C
F22
0DB
0BF
0ED
F56
040
F49
FE7
015
096
09A
02D
0D8
F78
F54
F45
0B4
FED
0B3
0C3
F4E
FD8
F73
0CB
F7C
FBA
0A6
FA4
029
03C
F5F
FB9
FAC
F2C
0D3
06E
F1C
035
00F
052
0D0
F53
F87
03D
FF6
F86
0EE
02D
FA4
0B9
FB1
F9E
FA3
F99
F3A
F72
ED9
098
F96
F76
06E
099
02E
02E
F6A
076
04D
05D
F99
061
096
0CC
FC3
03A
F5D
F0C
09A
0A9
039
0D0
F67
0E2
F4A
098
055
00D
0AB
F99
031
FAB
F8A
068
F56
0A3
F5D
FE1
F57
078
F93
063
0F8
F9F
FC0
023
F53
FAB
F80
0D8
0C3
0A9
0F5
051
F3D
FD2
FAD
F1F
098
F6C
028
ED0
0A0
FBC
03A
EEE
FDC
0E6
0FD
FA2
0A1
FE3
F49
FC4
F7E
0D8
F70
05D
FD2
097
039
FF5
011
F72
0A0
FEA
F3E
0AE
FEC
0BE
F50
081
048
FFF
032
030
F40
F39
063
EFF
0A9
FFA
012
FB8
05E
0E1
005
F01
0A1
F9B
F6B
120
087
F84
F6F
F11
088
F48
036
F53
F75
029
058
F06
ED1
F00
F5B
03B
F2C
009
FB4
FD3
F5B
0E5
109
0E7
F47
08A
088
0D8
0BE
01F
0B9
031
FDE
FAE
0C0
F4F
0B8
0BC
F66
F70
F2D
F98
0AB
FD6
F29
0B2
07E
007
FC0
09F
FB7
02C
F45
029
067
F43
052
F91
F97
042
0F0
0EF
FD0
FA3
014
F89
0AA
FB3
FC6
F1D
06D
FD8
01A
0CC
019
F05
FC9
FEF
009
0A4
F68
F8F
0A5
0F0
FEB
07A
0B9
FD1
F8D
F47
038
FDF
030
025
09D
092
F7E
053
EFD
050
05C
FFB
076
FB3
F93
0D4
0CF
F88
0DB
097
012
0D0
01B
F68
FD5
F8D
FF0
064
ED4
FE1
046
04F
F19
0B0
FB0
046
FE4
FC3
09F
FC8
11D
FD8
00B
06B
EF9
062
072
FDF
037
F0F
F54
016
FFC
05D
0A9
081
FCF
EFD
FF3
F30
FD0
F60
02B
0DE
02A
02A
F30
0C3
09F
F1B
005
EF0
FAD
F38
0E8
F71
F2E
F62
067
FE2
FC0
060
0A3
0A5
FDE
EFC
FDD
FA3
F79
F62
02F
063
0C8
020
F01
F09
EC9
099
F15
F80
FD1
F61
FE7
06B
07A
070
024
FAD
ED3
FCB
F40
F4B
F48
0CE
F9C
F42
F64
0CF
F74
0BB
F54
055
F51
FF7
08B
0A6
FFD
FE4
FBA
0DD
FC0
08B
F30
FCB
0D1
058
F4E
F40
09F
FF9
F5A
F83
F5B
0B9
0B2
F29
F32
0DF
F0A
0D6
FE2
091
FD3
059
FAF
FA8
F9A
F38
084
029
084
06D
F1D
F76
0C0
FFE
07D
FD2
034
F16
062
06B
EF2
FC3
EFA
070
053
FA2
FB1
F84
F60
F8F
F9D
0C1
EF5
FA9
F7E
FD4
FAE
0E2
F76
098
0CA
07F
F55
064
067
02C
FE0
06E
057
F64
005
F99
004
07D
0E3
0A3
F6D
FCE
016
F45
06D
F3F
F6A
004
051
F4C
F92
00A
EEC
07A
EF4
EDC
05B
EE8
FF9
F2D
EDA
F60
06F
FDB
053
F12
094
05E
F4C
F1E
FA0
003
042
FBA
F1C
FFA
F93
FD6
089
05E
08E
0A4
0F5
05A
0D7
F3B
FD1
F7C
FD5
F9C
F30
F2F
051
FB5
FC3
F9F
FAD
F43
08A
F21
FD9
F3D
F45
0BB
004
FBB
096
F52
F6C
068
0E9
0BB
F90
F52
F78
EEF
F4C
03C
EF8
F41
F26
F83
0BB
F34
F85
F7C
F43
FD6
043
0C2
F8D
045
F2C
F92
ED7
EEC
07E
FA5
039
F1F
005
FDD
FFF
095
F35
F69
087
00F
F79
F72
F9E
FAE
FEE
0C3
FF7
032
FA5
0EB
0C0
09F
FB8
FE0
05D
FB7
F13
02C
06C
FDC
FCE
085
067
FB0
F9A
FB5
0B8
055
F4E
FEC
F58
F5B
0C2
01E
FA1
FF4
08E
FAA
F43
03D
04D
FAC
0E1
0FB
041
EF9
FC4
FAD
FB2
FF0
0CB
F8E
009
009
FF6
002
F91
FE2
FB1
007
0BA
FF4
072
046
093
099
07C
FAC
018
043
F50
0E4
08F
F11
F6F
05B
0B7
07C
024
0F9
F77
F9A
0BB
0D0
056
0C7
02F
F85
0B0
FCF
F22
0DB
016
023
F66
031
F35
00B
F88
04A
0ED
FFE
02E
F56
0C9
F9E
FD5
027
0A5
09C
0C8
07D
FC3
FC9
087
0A6
0E2
F11
037
003
F6E
EFE
FD8
FB0
F34
089
F84
F56
F69
002
0B1
FF5
F59
0CE
059
07C
FCB
FCD
F3E
F6A
FDD
054
05E
102
034
095
07D
0A7
F3C
F43
109
00B
044
0F1
079
F74
F70
0D1
FF4
0AE
096
018
FA8
F5F
0E4
FE0
F3C
092
0F6
FCD
0EF
F5A
F92
077
089
FBD
F37
0B8
01F
015
F3B
02E
0D0
FE5
F4F
0EF
04F
0C5
FB6
FD8
015
10D
082
040
0D4
F72
0A6
FC9
FF8
00A
FEF
0D6
FA2
FA0
F6E
FD0
0E2
04A
07A
F92
F8A
01F
0A7
F95
F6F
F1E
0DF
FB7
072
F9C
FE9
0CE
FBD
05B
FC1
099
FEF
0AB
063
F90
09F
F2D
069
F3C
F5C
014
054
077
052
06C
FB9
033
FA0
FF0
0D9
FA4
FB6
F1B
080
F42
F00
001
025
FC8
0D3
F46
0D7
0F1
F28
0D3
05F
F39
FBC
F7C
0C3
F85
FF2
0CE
046
09B
030
FDB
103
0C7
078
081
F64
0D8
F79
FB7
071
F18
FBC
095
104
FC9
F38
0DC
072
F65
F74
021
10F
F78
F37
0AC
F31
077
0B3
FF7
FAA
05D
074
005
FBF
F6F
FE6
049
FC0
02F
01B
02B
FDD
FFE
FC1
F4D
FA7
026
F46
F72
02B
09F
09E
02E
0AC
F50
08C
F26
099
FC1
06E
F84
F32
F96
00B
FBA
F34
FC8
F75
FD4
FA2
FFA
FEF
00E
FA6
FE7
0DA
F2A
030
F22
0C9
0AE
F1A
060
FA2
08B
0C3
F0A
0A0
083
F9B
FE6
FE3
04B
FF3
EFE
0CE
0BE
F55
F1B
098
0D7
064
F3B
F1B
071
0C1
099
048
041
FAA
00C
FAE
06D
F7E
0D2
F3B
071
FE6
F54
FFF
FF1
0DE
08F
02F
071
0B9
F93
0BE
F1E
081
F97
F4F
062
F73
07D
F9D
FBB
FB6
F8C
09D
0E0
023
0EC
F37
00D
0CD
FEA
F51
016
0E0
F49
F76
FBD
F15
038
068
057
F8D
F89
030
FB8
FBC
FB0
09A
0B2
F29
079
F98
EFE
063
FD0
0CA
0B3
FF6
0B6
0CE
FD0
0DA
F29
F94
F94
07D
F5E
FCE
011
F48
03C
F1C
010
F5A
0C2
0BE
F2D
002
F74
06A
0B2
03A
051
0D7
0B1
09D
FF8
0EC
FAC
FAD
FE9
055
F75
0AD
F65
026
090
0C1
F4B
F8D
F86
0B4
F62
09F
F93
014
003
F02
F2A
0B2
01F
054
FF8
F2D
F0F
F30
0A5
0B2
026
077
F86
FF4
0DC
FD9
057
F5B
067
F9D
0CF
027
FDC
00E
FF4
0C6
FDB
F15
0D8
FF8
06F
0BA
F66
06D
F1C
0DA
039
0E5
0A4
053
0EA
0AA
087
F50
084
001
091
FE1
F0B
F38
FC4
F9A
F26
023
0D9
074
087
FA2
FDD
007
084
00F
09F
057
03C
0A4
F3E
017
088
F3A
002
F6E
F35
FCD
F1E
06C
0EB
019
07A
095
FBE
F91
062
F70
F8C
073
049
020
FC8
050
FB9
0FA
F8D
067
F1B
FD9
107
038
F4A
020
039
F38
F25
F5B
026
F7F
026
FD2
F85
F20
075
089
FEC
F31
0DE
066
0AB
EFB
F63
06D
F9C
013
017
FD5
F03
F54
F74
0BA
002
FD6
0DA
094
0C9
06A
F19
048
078
F14
090
030
044
F03
F74
F58
F37
07C
0A9
F5B
FD7
F80
FB1
F1B
0A7
FB0
0CC
F2F
F62
010
FAF
F2F
F26
F62
016
F84
F71
F61
F7F
F65
0E1
051
0B4
FE0
FBE
030
F92
F84
020
FDA
F2B
F25
07D
FF4
0C5
093
02F
04C
F22
FAA
F51
F16
021
03A
FAC
0D2
037
F64
F4F
064
F3E
FAE
F07
0A1
F1A
0AC
0D0
035
FCA
FCE
F81
02B
02B
099
0DD
0C6
FC9
051
EE9
F08
FDF
F1D
FE6
FB4
FAB
0DD
FC9
008
036
0F1
0E1
103
021
01A
01B
05A
021
F77
FE4
F2C
F92
F20
FEC
F16
F1C
004
09F
0AA
EF9
FC7
FC9
F67
08D
F93
F51
F72
ED7
01B
F61
FC3
F86
F05
0A0
07A
0A5
FAE
0DB
0A6
046
04B
0C1
FDA
08F
F7A
F23
100
0B8
FCC
0BA
F2E
0B5
07D
FCC
F92
0D9
034
FF9
F57
FDF
F56
08C
F4E
F87
0A8
051
F51
0C8
FA9
017
F6D
09E
FD8
FBD
F50
F64
F6A
0E8
0C3
F5A
094
FD2
F3F
02D
F9C
066
0C4
F6C
F27
0E4
06E
FCB
020
013
F12
003
F98
07B
F68
FA4
096
046
095
FA2
0B7
F93
05D
FD5
FDD
015
08F
061
109
103
F71
F8A
F38
08C
037
0E8
FFF
046
075
F44
051
026
FBC
068
08D
081
008
006
058
01E
0B9
107
077
FF4
01C
0E5
F11
F46
0EE
0D7
090
F20
F4E
0F0
FDD
059
FAA
00F
F0F
F21
FAA
0C9
0B2
075
FC7
F2C
0C8
FB1
08D
039
FAB
F42
EEF
F43
F01
0D1
10F
004
F4F
F6A
F9F
02A
FEE
0A6
04A
F61
FF7
029
0D2
F5F
0AB
F5B
114
004
019
F50
F3A
0E5
0FE
F5E
091
0AC
FC5
FDD
F7C
FD9
F3A
FB9
FC7
0A5
06F
F02
0B4
07F
F74
F4B
F46
03E
F5B
06D
021
096
F6A
072
00C
0D4
F3F
FC5
00B
067
F7B
07F
03F
F26
0A2
09F
FD9
062
0A8
F22
03D
0B3
0E4
F64
FD3
FA6
F63
01A
0D0
000
072
FFC
089
094
0FA
0B8
FDD
0A1
F6D
FE2
F4F
0A5
0AF
F11
FC9
F5F
FD0
096
FD6
07E
F75
093
049
FE6
F59
FC4
F34
F20
090
F02
F2C
0CE
F9D
02C
F6C
EFB
0D4
032
0B3
091
0D3
EF4
094
019
FC0
073
F19
04F
FCF
040
F2F
078
FC6
F8D
08B
F70
100
F8B
F71
F7D
FFA
FA5
116
F44
0DF
F2F
FCE
08B
F64
027
058
006
F63
067
09D
0DA
03A
F71
FF6
FED
FBB
F26
0EF
10C
024
022
0FB
F2E
05F
F17
0CE
FC1
F9D
0B9
FC9
FFB
F94
FD1
0D0
087
036
F06
FB7
EED
098
FAF
FA2
01A
FCF
F52
F3B
FEA
08E
014
F65
049
093
081
F55
FC3
052
00C
F4B
07B
F9E
065
029
FE3
0DE
0DC
F26
03E
F66
0B3
F3C
0BE
F5D
FEE
04A
016
002
FBC
FEA
027
073
100
01A
051
F7A
005
0C9
FCD
0ED
043
F44
F88
0E5
F80
F34
0CA
071
F6F
FC3
F60
F45
081
F2A
EFF
05F
063
FFB
0A7
F2E
FBA
069
00C
FD7
F94
0E7
086
F6A
06E
F65
FCD
F47
FCE
097
F32
F42
0D3
FFE
F87
042
0E0
015
F99
008
0E8
F1D
F89
F65
068
FD0
FF9
F29
F70
F7F
075
0DD
FE0
07C
095
08D
08F
FE3
02A
FF2
0F1
F27
0C5
0DD
F1D
FA5
068
F0D
FE8
0A5
064
FD0
F5D
FBA
037
FFA
02A
F53
FB2
05F
F72
FC6
06D
032
04C
F49
0D7
0E0
FF1
F2D
FD8
05A
F8B
F65
F6C
F43
0B5
075
0ED
056
F1A
0F8
F1D
087
0ED
F20
0B7
F74
0B8
FCC
077
020
103
016
062
FC1
F96
FEE
FFE
FDF
FF2
058
08F
F1A
F33
0FB
0BE
02D
021
F11
EF4
F6A
F54
085
F33
02A
01B
02D
010
F87
F88
00C
0D0
057
076
FDC
FC8
F63
067
FEC
01A
09D
017
01D
F88
0BE
070
034
0C9
0FD
F18
09E
F15
F6A
0EB
FEE
F1F
08F
0AA
F51
0AD
0D2
00B
050
016
F2E
07F
0B3
F46
FE6
F6C
023
022
05D
F8E
0C4
F70
098
F47
FBE
04E
F9C
F9E
FAD
F34
F31
07E
F61
06A
0B2
0CE
F57
07E
F88
0A7
FA8
F32
F46
037
FE8
F66
045
04B
0E8
047
F53
F25
FFD
0E2
FC3
0BA
053
106
FD0
F34
0E2
03B
072
047
FB4
025
FC5
F8A
00A
0E9
F9C
F5A
F3B
0B9
F5F
065
FCD
F96
09E
F22
F83
0AA
FB8
FDA
F94
F96
036
F44
073
F36
0A3
06A
0A3
F5D
FF5
09A
FE7
04E
023
06B
F96
F73
FD7
F02
0B3
0CC
F2A
037
F27
FB4
096
0A0
FEE
05E
F37
F3A
045
0EF
093
0DE
FFA
FBC
0CA
F9E
FE1
0E5
058
F00
FCD
FB0
FAA
08F
0EB
F5B
0B4
F4D
057
F86
098
F5B
057
F18
0B8
05D
060
095
0F7
F49
078
098
04D
0A8
0D0
FEB
FEF
F41
0E8
F59
FFC
08D
095
086
04D
FC8
FFE
023
F33
062
FF3
0DB
047
01F
FC0
F60
02C
F5A
F67
075
099
FB2
053
04A
0D5
036
0B6
F56
F7E
F8F
FAD
057
FE9
00F
0EA
04E
F14
052
F90
0CE
F81
07B
00C
F10
0AF
F39
0A0
F81
019
062
FDB
045
0F2
0C1
06D
07A
0CF
F3D
FFA
021
F50
079
0A6
022
0BD
F0B
0DF
EE7
FD2
F28
F1A
06B
010
FDC
F70
0F4
F87
FE8
F8D
FF8
F37
018
F90
F1F
053
F00
FEB
00A
F01
F2A
0A4
081
F66
0FB
F20
FC6
F63
071
FEB
0B0
F96
F84
F1E
0DB
FC8
05F
F62
04B
060
FFF
F8E
F57
0E1
013
FFC
F9B
F95
F5C
FE3
017
025
067
070
F37
F6A
0B3
045
F59
02B
F35
F5D
03D
FFB
FA7
00F
075
064
0AE
F23
F17
F5A
02E
02E
011
05A
0D6
F04
F75
F11
0E1
FBC
F3F
FFD
F07
F64
00C
F8A
FC2
F15
F87
040
F6B
F57
0B6
07A
0AE
FA4
F80
075
FAF
F8E
10C
F28
0C5
0B6
083
FE6
F0A
018
F4E
FE5
F44
F66
06F
F3B
0C7
F16
F6B
07E
F4B
FE5
0D7
FFE
F7E
03A
008
F4D
002
F71
022
FFF
FDB
066
010
F78
FFE
0A2
00F
09F
F58
0AD
F44
04B
FBF
0BB
F88
001
F38
001
F15
FAA
0D6
09A
046
F71
F83
02C
F41
06E
FEB
FAC
FD6
021
0CF
FEB
F89
087
F75
F7D
088
EEF
FDB
F7B
F01
F20
FC0
FFE
F7B
046
040
07B
F91
F45
045
019
04B
0B1
F85
0DD
F73
F22
F7F
F07
EFA
00A
06C
F6A
F06
FB6
0C9
FAE
FA2
04B
09D
032
06A
FE1
F8F
0D6
F76
0EF
FB7
021
023
03E
FCD
FD7
041
061
F4B
FB1
04B
05D
0E0
F08
F9C
F50
0BF
FE2
085
0C0
0C9
00D
FDD
FDB
FF6
0BA
013
06D
071
F22
F54
03A
F6F
0D4
06D
0F2
FC1
FD7
0C4
0A8
0C8
FDD
F59
0CA
F1B
F9E
F44
01D
030
F38
0D7
0D2
014
067
0B0
03B
07C
0D7
0D8
FF8
F0C
0F7
0DB
084
F99
F56
0E7
0DF
0CD
F19
0F9
FF0
FCC
0F0
F36
0E4
F91
0D3
0C3
0B1
01E
09D
05D
08A
024
F8E
0DE
EF1
FC7
FEE
010
F0C
FD9
03A
F3B
01D
076
0CF
02A
0CF
0A4
FA7
F62
F86
018
057
062
0EB
F7F
0DB
F22
096
F37
022
0B3
07D
FF0
FA4
F28
EF2
FA5
FBD
FD8
08F
031
08D
04D
024
072
08F
F48
06D
FCB
F7E
09E
F9B
F3C
FC6
018
F12
069
0B6
FE8
FDB
083
F87
F13
0A2
F78
FE7
0A5
FFD
F5A
072
037
0CF
05B
FF6
0B0
FF1
031
F1B
0D4
0D4
031
F54
FD7
F40
01A
FB0
FFF
0D6
F55
082
F23
036
01F
F5B
F8C
024
0B2
0C1
05C
063
0AD
070
081
095
01A
0AF
FE9
017
095
075
037
023
F3A
FBE
0E0
FF3
F50
022
F62
F93
FB2
0F0
F43
F7A
0BE
074
0EA
F2F
09D
0EC
F26
056
FA4
F10
FFA
05A
0B7
06E
F10
F4C
F2C
F97
F48
F79
0DE
0DD
030
FF7
FC7
F9C
FE2
0EB
061
F63
F06
0C9
0A3
F56
F57
F23
F21
F77
F32
000
F71
0BA
F77
004
FEC
005
0AD
FAF
FE7
F39
F60
F28
020
F17
075
01F
0EC
051
078
FEE
015
0E6
F5C
FFC
F7B
FCD
F93
FBB
0EF
003
F97
0B5
09F
FB8
F98
F49
0CD
FDF
F9C
01F
053
FD1
F94
F74
06C
FD2
EF6
F10
F56
0BF
F79
043
EFB
F01
08B
019
09B
F93
FB0
FC2
0D3
FD5
0E9
065
0A2
F44
F87
F31
033
02F
0B2
0FE
F2B
047
036
0EE
029
FCA
FC1
000
050
0BA
F30
00E
056
F00
F52
F0A
F0B
038
F7A
F3E
F48
FD3
F75
00D
EF9
040
FF9
F6F
06B
0F1
F14
032
F32
FAE
F9C
FBE
FBA
099
FCD
091
F7B
EFA
F35
F2C
061
F36
FCF
F92
0D9
081
092
F15
F3E
04E
0C3
FD7
07E
04F
11A
F96
03E
FDC
F5F
FE0
06F
0AA
FEE
F4B
F7F
00F
00E
018
FD9
F8A
07E
FFF
0BE
03A
FBC
FE7
022
0EE
0C9
F20
0E8
03D
072
F73
082
002
085
F1D
F61
F35
0B7
058
F4D
F92
F16
025
FCD
FE5
000
F9E
089
FEF
029
0DF
FD5
04B
068
095
FA5
F87
061
0DD
F15
0DE
F98
051
010
086
058
F87
F26
065
085
F14
0AE
FA6
07C
066
F6A
F8C
F3F
FBB
F90
0D3
F64
0F5
