025
093
F67
079
FCB
F86
F1B
032
02E
062
F8D
0E3
F81
F8E
07A
020
0DA
06D
085
060
FB7
0EA
056
076
087
0FC
F97
F85
FBC
0CC
FF1
000
FE2
072
FEC
F72
F91
08D
09C
005
00E
F74
081
FEC
037
F7D
FC2
F5D
0EF
0E8
0B6
054
F2E
026
FE7
F99
0B9
F2B
FA8
F9C
FCA
044
F53
083
0F3
0E6
019
F0E
F19
029
039
F0F
027
0FD
0C7
F03
F1B
FE2
FCA
0E6
0D7
0A0
FC7
F16
03E
01B
FF9
F68
0DA
032
00C
08A
F37
F69
F84
F43
033
015
097
FDC
F4C
F78
066
0A5
0E9
FC5
FA6
07C
FF6
F2A
FE2
FFA
01F
FA9
037
FCB
F25
018
014
F48
F58
FA2
089
FE8
F21
044
FB1
0C5
F5B
02E
054
09F
0DB
01A
0E8
08B
082
0BA
054
0FC
FBC
FEA
FB3
06A
F35
06F
058
F20
050
F01
F42
013
006
046
040
001
037
0E3
F2E
0FE
004
F03
FFA
F74
FB4
F99
0B2
0C4
06E
FF1
FD2
03E
087
081
FB1
FD7
F8E
021
0DA
F29
F7B
FEE
033
01B
09D
FEA
F41
023
08F
017
0FA
F22
0CE
F28
027
FA2
0F2
FD4
0EF
FC8
0AE
0E4
0B1
043
061
F47
FCF
F20
F56
FF8
FFF
F60
077
0B4
F2B
F39
F47
FD0
09B
0EF
FCA
0A8
0F4
0A5
FC3
0E6
05C
F48
030
0FF
06F
043
F85
FC5
F8F
001
059
FB4
FB1
0F8
F93
07F
0E9
F32
0AA
FE9
F11
0B9
FD6
0A3
F4D
F68
04A
F9B
077
F42
FB6
FB1
0C9
FA6
F91
012
F23
046
063
FB1
09A
01B
FE6
064
0DB
F69
079
0CC
FA3
0E5
F66
F8F
F36
F65
0B7
FB4
0C5
FC7
052
073
04B
009
FEC
F4D
0C8
006
FDB
09C
0FF
FB8
0EB
0D4
093
0CD
FF0
FB9
082
00D
03D
F04
0E8
F91
0EE
FD7
F9A
F5E
0E5
F2F
0E4
0B7
071
079
01F
000
F44
033
018
01C
FC3
F9F
F84
029
094
05F
F58
015
F4A
F25
F8C
076
F51
0BB
0B6
F19
F4B
FFF
0C3
0F8
07E
F90
089
F39
FDE
FB3
0DC
F99
FC8
0BF
083
FAA
0E2
F3B
FE1
F1C
073
F29
04B
033
0B1
039
FED
F6D
0EC
076
FB8
037
F96
FE1
FD9
05E
F68
0AB
F60
023
083
F5C
F7E
F8C
0A2
0E8
02E
098
015
0BE
F1E
0E9
01D
0A1
F42
08F
F5F
FB2
0A2
0A2
FDB
F6D
FE0
F53
F6C
F83
04F
F15
F5C
F96
FF3
FF0
0F9
00F
032
021
F3C
093
F59
F2F
087
043
F35
0B1
F50
00D
FC2
FD8
07B
013
031
023
09D
F41
F67
0B8
F88
FB1
FFC
F93
F65
0DC
041
FDE
0E4
069
F50
F83
FA1
075
F5D
FCF
FCB
F09
FF0
007
F7C
068
FF6
F3E
F15
0EE
FC5
05E
0AA
035
08D
02E
F73
0CD
0BD
0EA
F67
097
0B4
F19
F04
098
FEF
F51
F44
0E7
FFE
F23
F26
F2A
00F
F57
F62
0DF
039
FC5
F60
018
FB1
FD6
FF3
FA3
FA1
0CF
FD5
F1F
FD9
0D6
F09
F92
F40
098
F88
04C
0FB
FC9
F92
0EB
FD9
F29
027
F50
F67
03C
0BE
F63
03A
F6D
090
FED
047
042
0FA
08C
095
FA0
F1B
0B9
F5B
067
FAE
007
F96
FEE
003
0CC
0AD
F9C
003
F89
084
F5F
046
FF5
0A1
025
0F3
FE1
0FC
F67
027
0B7
0E4
0CE
F84
091
065
F78
F7D
F4B
F7E
0C3
077
08B
FE5
06A
0AF
02A
F68
F33
F02
F56
F2E
05B
073
0AE
0FA
F8C
F1B
F08
0E8
F74
049
F78
027
F6E
F0C
F4B
09F
048
040
0DB
06B
F9F
FB2
FAF
F09
F60
0EA
0F6
F5C
FBD
FF3
09E
FB1
FAE
025
016
FCE
F0F
F8B
05D
001
00F
F2C
048
F4B
F35
F0F
FC0
F1F
FF0
F3F
0AB
F7B
00E
06C
062
0C0
0FF
0A6
F5F
F8A
FF8
073
072
F26
084
0C2
028
F93
0B6
010
093
025
07E
F12
08E
030
FA5
F20
076
F65
0B0
08F
027
FFE
024
F23
00C
0C4
065
F3A
0CC
07F
05D
0AE
FA8
015
F81
FDC
0A7
F0B
01E
0BE
09A
016
0B6
F3B
058
09C
087
F2F
0C0
F86
014
F9A
07D
FFB
0F6
F02
F2A
031
FB6
F81
F43
F6B
F27
F4B
018
FA7
F25
08B
FBC
F07
008
0F6
F09
0FB
F0B
044
F34
F9D
067
F60
F09
070
002
017
060
0F5
F09
0C4
F67
00A
F11
0F7
03D
0C8
FE0
F9F
F51
F48
FAB
F11
F81
009
027
0ED
F45
0C9
0C4
040
F17
F42
011
FFF
05B
07D
048
076
F7D
03E
080
088
065
032
0E5
FA8
F48
FAA
081
FAD
0E5
FEB
F69
072
FE4
0C2
068
0FC
0DA
F7E
F87
FC6
0C4
F60
08E
F2D
08A
FAF
F2D
F4E
0CA
0CF
FC6
0B7
095
028
02B
F84
075
080
08F
F30
F21
0CB
F8A
02E
F48
039
0AF
0DD
038
033
0B7
FA1
F92
FE4
FD9
02A
0CE
058
FF9
FFA
F4F
030
FF6
010
F17
01B
049
0DE
F0C
F1D
F75
F87
F02
0EE
F76
F67
F33
057
03F
FFB
00E
F9D
F38
FB4
F92
040
0A6
F9F
FD1
F64
FA1
FF7
0E3
07F
F6F
0C2
F22
0CE
050
052
F2C
F14
FF8
F5A
F90
0B9
FC6
FF5
0BE
0C5
08E
F8F
03F
061
F62
F78
F3E
F9B
F46
078
078
FE4
04E
F6A
FA1
03F
FDF
F5C
F13
F33
0FC
0C4
0EB
F93
F36
022
F85
FCE
0B0
F25
084
F0C
F4E
0B1
0D4
041
F17
F93
0A5
029
08D
F65
F00
FCF
01B
FC8
F2C
045
0A3
FF4
07E
0F4
053
F31
F57
FD2
0D4
FB8
FF5
FD0
FD3
0EE
05C
FC9
F77
F75
0E5
020
F08
F86
F76
F95
01B
F7D
F9C
028
FFD
01B
F03
F8C
082
F82
FE6
FC3
0DB
F3E
062
07D
F78
010
08D
0BD
FFF
096
0D6
F0D
FBB
01C
0DD
068
F2C
F1B
08A
073
FE0
FF5
F96
062
01E
FF0
076
F26
FCB
F39
0D9
0E6
F7B
07B
0FB
F25
FC5
0F0
F46
0BA
FF9
0FD
F41
F77
011
096
FB8
F8C
025
0B9
F12
092
FD0
02D
0FF
FF9
FC1
FA3
06D
F76
F69
06F
04A
06E
F36
FD1
F13
FF8
F8A
0F1
0C4
F87
FAE
0F4
FF7
0DF
088
FAA
FA6
F1F
028
F41
F4B
FCF
F23
F85
FAA
FFE
06E
0E4
0E0
FD9
F83
FA3
F1E
F47
0E6
077
0B3
F54
F67
F34
0A4
F87
F31
03E
FD9
F7F
FB5
08A
FB4
044
FDB
FB3
FC3
08C
074
048
F37
F64
F24
098
0F8
F59
FDD
04C
FBD
04E
FA1
06D
FDF
F13
0DF
016
FBD
0CE
F2C
06B
02A
093
0B1
F59
FDC
F55
FA5
00A
FDE
F2E
083
0A6
030
04C
FAF
0EF
F74
F15
F36
03A
F78
09B
F55
FA7
F7C
089
06D
F60
F8B
0EC
023
FCA
00E
0F6
FB9
F13
FA2
004
F71
FDE
046
F57
0A8
02E
00F
079
03E
F8F
F3D
034
FA0
0A0
FA8
F54
F28
F91
069
0E3
045
FAA
FCC
FB9
FDA
F4C
02F
F05
07B
037
0C9
F4E
F9F
019
0EA
0F4
079
06E
F62
08A
051
F7F
FD7
F6C
FE7
F06
F50
05D
F22
07A
077
F92
02E
05A
F8E
02A
F37
088
FAB
F17
F79
013
FA8
F5C
FC0
FE0
026
0E4
0A2
051
0C4
054
02D
05B
FB1
04C
02A
FEA
FFC
084
F24
0F6
FBF
FCF
FEE
0E4
F83
013
07A
0F9
F13
0F6
098
042
03E
038
0D2
F06
F79
F93
03B
09F
021
088
F7C
F16
F6E
01F
006
FFA
05E
F80
F97
F86
F94
080
F06
F3D
031
F65
FB2
FA8
F7E
FAB
F06
F7F
0EC
0AC
F5F
F10
F44
F39
0B0
F6A
0A0
F00
F56
F71
09D
F60
06C
021
FFA
0C6
06A
F0D
F0A
F9E
080
0D1
F3C
070
041
F48
FED
F83
04C
035
060
FFC
F7F
05C
0F7
F91
03D
F21
FEF
028
F2E
F4E
048
F5B
0D1
F42
03E
096
0D0
FD8
071
0B3
05E
01D
FF7
F26
F26
F72
017
F10
02F
03B
07A
F01
042
FA0
FC5
06A
063
095
0D9
F30
FC3
F4F
F60
06E
07A
039
FE8
FCA
000
0ED
0D6
0D1
06D
0ED
F40
0A9
0DC
0AB
F53
FDA
031
F66
0E4
F6D
F02
013
F56
049
0A3
FAB
FFD
F95
F0D
FDE
073
0D5
049
F80
055
0DD
F9A
0B3
0BA
F0D
FB9
0AB
00C
0BC
079
FEC
F81
F5E
FAC
0C4
007
F16
F39
FB9
F84
FBC
027
06C
F12
06E
0E1
0AF
0A2
052
FC0
F4F
F00
08F
FBF
F25
0B2
FD3
F30
F60
00B
037
0FA
059
FEF
064
095
FBB
F9D
0AC
F28
FB1
059
F11
09A
F2F
02D
05A
F52
033
00E
031
050
F87
F3C
F76
0FC
FCB
0D8
074
FD0
04A
036
F96
F22
FF0
07B
F2A
05B
F5E
F35
0FE
F14
0FE
02B
FB7
F43
06B
013
F74
F1F
FD0
FA7
F71
018
F37
F4B
FC2
F15
F6F
FA1
F03
007
FB0
FC6
02E
FF8
F79
0A8
FF6
0D0
007
065
00C
FDC
F03
F14
F0F
F52
029
079
F50
002
FAC
006
FB2
F57
05F
FF5
03E
FDF
092
042
FF9
065
F75
F5A
F4F
F66
05C
0B2
F71
03E
010
F8E
077
002
01E
F5A
0D9
0FD
00F
098
03E
0CA
020
FF7
FE4
06B
F3C
033
01D
F78
081
02E
0F6
087
F73
F9A
FD8
F37
F29
F29
012
FA0
F1B
05B
FD9
0A3
0D6
FF9
0D2
F1E
F3A
0EC
FE3
03F
FF3
FB7
02C
F0A
063
030
F19
065
F27
F45
F67
F16
FE1
F84
0ED
F60
F93
FA3
064
0FC
FF2
013
033
0A1
07D
F8F
F3E
F8C
0C0
F03
F74
0F4
FB3
F3E
FF8
F4B
FCA
FEC
F3A
0AA
0C1
023
02B
FFF
057
08A
F1A
00E
F62
FF7
FCE
001
014
063
036
FBE
02A
0EA
F71
FEF
FE1
FB6
01F
024
F67
038
05A
098
F70
F70
FC4
066
F1D
0C7
F8D
0F0
FFF
0FA
027
F87
0AF
FD2
FE1
F71
0EE
FA5
F39
004
0F5
0B5
F4B
075
0B8
F46
00A
F1F
F12
FF2
041
F1B
01D
F6E
FA5
F4B
F84
0B1
0CA
FB6
0C9
F94
0F3
054
064
F16
F8F
F96
FE1
F7E
F41
01A
FD6
F77
F21
0C8
02E
FFC
FF4
0C3
0B0
F5C
0C2
F7F
083
0FA
F10
0C9
F40
FB5
012
FDF
FBB
05E
00F
F9E
04C
FFA
06E
F14
F86
FD4
04E
0A6
FEA
FE5
0EC
054
0FE
FBB
09D
082
F90
F97
EFF
0C8
F81
0D1
0DD
F80
0C4
FAE
003
F59
F4C
0C3
087
F52
F43
054
FB4
FE2
03E
F8B
F3C
F41
F59
081
08D
04B
F1D
04B
0EC
080
06D
05A
0DB
0B4
07F
F29
0D8
F21
F3B
041
FFD
00B
F8B
007
F5F
08D
FE1
013
FE1
0A9
0CA
FC0
0C6
0A5
046
0B1
055
0AB
FA4
06B
FCB
036
06E
F10
00B
055
FE1
0D6
02A
FB5
05C
081
030
F58
025
0D7
001
0D3
F20
FA8
FBC
FD9
F36
091
035
0C4
0D4
FFA
FB3
FBA
FCD
F72
0AE
0EF
FD3
034
053
0D8
FA2
05F
04D
F8E
03B
FA7
FD2
FED
F0F
FDF
086
FA0
02E
F11
011
FFE
F6E
01E
06F
F94
FA5
033
F36
05F
F3A
F09
0E6
F13
096
077
074
043
F84
0DB
093
F9F
F33
02A
079
0A0
0A1
F34
FAC
F2D
F26
030
0C8
F17
094
096
07D
0C9
09B
00C
09F
FF7
F7C
0F9
095
0CC
F87
0D1
096
FF5
FE1
0DE
F96
0ED
0FD
F29
F92
0EE
FD9
0F5
F11
F8E
F31
FE9
FB2
079
FF5
F24
011
F2F
0CA
FA2
014
F42
F4B
FBA
F96
001
F0A
0AD
00D
FFC
F3E
FB5
F6A
018
FF1
F03
F45
F1D
F04
F3E
025
042
FE0
012
050
FF9
012
F14
056
F61
0F0
05F
F91
06D
F86
F30
0F7
048
079
FAE
F33
072
014
F1E
FFA
0F9
F9B
FDB
03A
FF9
02A
00F
03D
FC6
0D7
F96
FD0
075
0B2
0EE
F44
073
048
017
0E1
014
FF8
0EB
0AB
079
079
F00
FCE
FC7
008
F98
097
F1C
013
04D
08C
0C6
FA0
F1B
F51
FF8
0DF
0FF
006
F2A
0DD
F07
0AC
FD9
F18
F8E
FE2
020
081
02D
FDC
0FC
05D
000
05D
FDB
002
0EF
FE3
F62
FE2
066
00C
F54
F60
FE3
07A
F11
024
F04
0A5
003
064
F07
FBA
019
F4B
00E
003
FE8
F20
F39
066
099
F75
F63
01E
F9B
0EB
F7E
0AE
F2C
F76
F20
FF7
08A
F4F
F2D
F49
0CE
F58
F14
0ED
FB1
0F4
013
FE3
01A
092
FE7
F4C
01E
094
F8B
F4F
F6F
F46
F17
09F
F1B
F14
F75
005
066
FD5
FAC
F61
0BF
098
0EE
F63
FA9
066
0F5
000
F5C
F29
FDE
01D
035
06F
F70
061
FA0
066
0A6
F3E
080
F38
0C5
F12
099
094
03A
0D4
0C3
F0C
F07
0FF
075
FE0
0F0
0AF
F74
FF3
0D3
0D7
F6D
F41
F80
03A
F8F
01B
F2E
081
F8F
039
F61
066
0D3
FD6
FB3
F27
08E
01A
FE3
0F1
F1D
FF1
0F2
034
047
01C
0BD
082
FDE
F77
08B
FB9
0A7
F94
F2E
F48
FBD
050
030
F32
F36
F4B
FED
F52
FF1
008
F16
F46
062
F0F
FCA
FB2
086
FA0
0D3
0F7
030
F52
0F7
FAF
0A2
084
FD0
0D1
0A4
0BD
F04
09F
05B
FF5
F6E
094
05D
FFB
FA8
085
F95
FA0
00F
F4E
053
02F
09E
F74
0A0
045
0DA
0D2
F62
F92
08E
0A1
F91
FA3
FF2
F63
F75
043
FAF
064
066
F96
04F
0AB
084
0B4
FE7
0E9
F43
084
0CD
0C2
062
0C2
F4E
F76
006
0A6
F99
0A8
04D
084
0CF
F9C
F7C
06E
F4C
05D
018
0DB
0F5
F3C
087
F7C
F98
FC3
F3E
FED
04B
FBB
F2D
FAE
0D7
F2C
014
FB6
042
F23
FBC
F71
079
F82
F68
F67
F91
00A
065
0ED
F52
0E2
F95
FF5
0BA
FC8
0E1
F04
082
FA0
F55
F72
F6C
0C2
F86
0C0
0E7
0F1
F3C
0EE
F0D
074
F61
0A8
F9C
0F9
082
F4E
075
02D
F6C
0DB
F1F
038
0AC
0BD
F31
06C
FED
016
034
0FC
FE3
0D2
FC8
055
F46
051
F49
092
FB9
07B
0AF
F46
063
08C
0B6
01C
08A
04D
FC9
0D7
0C9
0B3
FDD
015
085
0C9
0AF
F03
FA6
F75
0FB
F9A
F50
0A0
F57
F67
09F
F4B
0D9
066
0BA
052
FA4
F71
F61
0B2
FFB
F85
F62
00A
004
0F5
FE9
FBD
F3B
062
087
FF9
093
F7D
F71
019
F8D
F0B
0EB
04B
0F3
058
F39
FCF
F8A
052
F63
037
F2A
065
F36
0C8
089
0A1
F83
F1F
FF2
F0D
F24
01D
F5D
075
0BE
F50
09B
F93
FC4
02B
FAC
0A3
F71
059
F17
FB6
00F
022
FD8
0F6
FCB
F2A
069
F97
0B9
03F
0AD
05D
FD9
0BC
F0E
F03
F23
F34
F63
F65
F2A
F67
F5D
033
F5E
F35
087
F24
F28
FE8
F6B
FA2
08C
033
0C0
F3E
FDE
F87
06B
F03
F83
0D9
F32
F1C
F2E
F85
059
FFA
F12
F05
043
029
FE7
060
0D5
04B
F73
F64
F74
FF4
086
FE3
F99
00B
F64
0B2
F9B
0DD
03C
F92
F29
F95
FC4
008
082
0C4
F94
09D
F79
F63
FF6
F6D
F2A
087
0CD
F19
F0C
01F
022
F6D
0EA
F89
F10
0D7
FEE
053
F24
0D4
F3A
024
F75
F58
FB1
F42
F96
FB2
FD7
0D8
FE7
F8D
0D5
F5C
029
F26
F94
FE9
0ED
037
FB1
FA7
F92
041
F2A
FA1
F80
071
06A
00A
00D
FFD
0AF
FC4
0C7
047
0CC
F1D
FCD
0D0
FFB
007
08B
0F2
0BA
0F0
FA6
069
F5E
074
0C2
F91
F8D
00C
03E
011
0A4
F94
04E
0A6
F16
FFA
040
F17
041
F49
005
FFD
073
0A7
0E9
FFE
F8A
F7A
054
0A0
01E
F6C
F86
F41
0C3
F36
00E
FD0
F13
F5E
F7C
F14
F35
F06
072
FD4
06F
F2E
FC9
0D1
075
FD0
FC7
0BC
F67
FB0
F1C
0BD
0C7
FD1
05B
FD0
F3E
0F1
0B9
096
0B8
FFE
01C
033
040
01E
FD2
06A
0D3
F28
0B6
F8B
F87
0B6
09A
F45
0CF
03D
F72
F48
0DF
063
F7D
0F6
0A4
0A8
0EF
F51
07B
032
F6C
FD2
F5E
02C
FB4
F22
FC5
047
03A
037
0E1
F74
071
0F3
0A7
0B2
0AC
FBE
033
FC1
0A8
F27
FA0
0A0
FD3
0FA
F3C
058
FE1
F10
05D
024
F13
014
06B
07D
F59
F56
094
F38
005
FA2
FF3
FED
0A5
F5C
053
071
FAA
08E
F31
02E
0DE
084
F97
F99
F26
F2A
074
F34
F85
F31
F0F
FE1
08A
F01
F1D
F83
F85
007
FB7
F8A
FD8
FD8
001
F5C
03B
F47
07E
F08
0FE
F85
093
04F
0E0
F8C
017
F9E
F65
F37
08D
040
FC3
09E
FD4
FE2
0ED
04B
071
F4F
FA8
0A6
F39
0C7
F78
04E
012
0CB
FAA
F35
07E
FF3
FCB
09E
F59
0E5
FC3
FD2
F3E
009
0D9
F8D
FFE
F9A
F2E
F6C
F95
088
0CD
057
003
052
054
F4B
083
08A
FE7
F8D
FCC
040
013
057
0E6
FAF
083
FB2
FE5
F4B
F81
055
F85
0AB
FA4
044
0D6
F9B
F9B
F54
035
F36
F37
F64
F0A
F76
F0A
F0D
FD7
026
F7F
050
F3C
07A
FAE
FF6
05C
07F
F01
013
01F
F1E
F0B
FBF
F06
0A8
F80
0F8
032
F7C
FCD
09F
0E2
04E
F4C
FD9
0D4
FD6
0E8
065
FC8
0E9
06A
FD4
09C
F3D
0A8
F82
053
0A7
FB7
F77
0D9
F23
F5E
F32
F66
04F
F1C
F6E
0CE
067
FCD
F64
F16
F48
FB5
F80
00F
035
FE2
0A5
050
F83
F5C
F7A
FDA
0C9
F33
F05
0DF
0F0
0A8
0EA
05E
0BF
F74
056
F12
095
0A7
F68
FDF
FB1
09F
FFE
0B0
033
070
FEA
092
FF6
FA1
F49
FB8
F5A
F6A
F8A
0DD
0B9
F00
FAE
0CB
0DC
F43
F26
02B
F50
FE2
029
07E
09B
093
043
F06
F2F
070
0EB
FF9
F94
0FC
F7F
F12
024
01C
F9E
037
F7B
0D4
006
F90
092
064
F25
F3E
FDA
0C7
01E
02A
01B
F68
F93
F8A
FAC
0E9
080
0F8
05D
075
FB8
F46
08D
078
017
04E
F8F
F15
FCD
FB2
0BB
F94
0DE
F93
061
0FA
FB8
F28
0A4
F4D
096
FEE
081
015
F4A
F5B
0A6
098
01C
FD4
F47
F37
F94
FE3
04D
087
022
FB0
0F9
FAE
FBD
02B
06A
F62
F80
FB9
0CC
0D5
FF1
066
FC9
FBF
FBD
F7D
070
F6F
0AE
039
0B0
078
FEE
0A7
FC0
0D3
08D
F6E
096
F2D
049
F6A
0B0
0B4
0BB
F30
0A6
06D
0DF
065
F54
FAB
F91
FAC
F1D
08E
0D3
F45
F7F
F31
0B6
F37
F08
08A
FB3
099
015
F85
F9B
F33
06F
F86
F64
0C8
F54
0ED
02B
00C
045
FEB
FFA
00C
FF6
0A6
0AB
0F8
058
FA4
01A
FBC
F5B
03E
F86
0BC
FB7
FE5
F09
0D8
F75
0FB
FC6
0CD
FCF
F7F
0FC
F8C
043
FA8
F5E
FD8
0D3
056
07F
0A2
F50
028
07A
F59
F10
0A0
F4F
0F3
019
F41
034
FE3
F8D
070
010
076
FD2
031
00B
059
FFA
F69
F7E
FB5
0DB
FDE
FCE
039
F94
0E6
FB4
084
F0D
01F
0DA
F19
0F4
0D9
056
F02
070
F22
F57
03A
FE9
F9F
FDD
0D1
FC1
0DE
F2F
047
F0A
088
0E9
053
F4E
017
050
F5B
FB9
F97
FB6
F4A
F12
F2E
F36
021
F69
FD2
012
01E
F55
F3E
F28
0B3
F01
018
09C
027
085
0FC
FF3
014
FC5
F06
FFF
F87
067
014
036
F5F
06D
0C5
044
0A4
0B5
FED
F26
00C
F89
0B2
F1F
F1F
03F
F56
0F5
F8E
F75
F3F
099
FB5
00B
F21
F94
040
049
082
0D3
FFC
F8F
0FE
F5B
007
F72
0B8
F43
F3C
0A5
FA5
F4C
0E9
F8B
F9C
F91
07C
05F
FD5
052
F01
F25
FDC
01D
00F
0D3
FAE
03E
05D
089
FAE
F97
017
055
F80
0B4
052
F11
0FA
F98
0CE
0AB
FE3
FA3
F26
F6A
0FB
FAA
0E8
FB9
F4E
0A3
032
FF7
F5C
FD3
F69
FC5
0D1
F44
F55
F83
026
F3E
F0D
0A1
F3F
F03
FD6
04A
FFF
F3F
02E
FF8
F52
FF9
FE3
048
F3E
F85
FBA
FDA
F4A
FAC
FAD
F60
FC3
0E2
F39
01D
0BC
03D
0E5
FD0
F00
F7B
FF4
F06
04B
F72
FBE
FAB
F2C
FFA
F12
0E2
FE5
F44
0CF
082
054
0EA
FA0
FE3
FBD
F07
F5D
F67
0A0
0D9
0F8
F88
F48
0B1
FE6
F5B
F1E
FC4
FFC
F02
F96
F8E
F2B
0AE
037
FA5
F7D
0D6
F44
F66
F3C
FBF
09A
07A
092
05B
06B
F71
031
F82
09C
0F1
F78
067
FF4
0B8
08E
FD9
00C
FCF
F75
FA8
023
03F
0B7
FFC
FD2
0ED
0F2
09B
0B1
0B0
0B2
F87
FEA
0D5
000
089
FC6
03B
00B
0C1
049
FB9
F7D
00F
FCB
FD2
F53
FAB
FA5
059
FFA
F08
F5B
01A
F22
F43
070
0D7
001
03C
073
F43
FF4
02E
FE1
00E
053
006
F39
001
F83
F97
0DE
004
FC0
FF1
FD0
F69
F5A
079
FB0
FBC
F8E
FB7
085
009
03D
0F4
048
FC1
F15
FF3
FDB
FB6
F7A
F28
00F
F70
FA9
020
FA6
F67
F81
0DC
F63
070
F64
00A
073
FD9
02B
FBF
076
0B5
08A
FCC
033
FF0
005
02F
F9C
082
F0F
F35
FDC
0F4
072
03C
F9A
F4C
FC5
0CB
F5C
05F
0AF
F86
F8C
FA9
063
FC2
F97
065
F94
0AA
F59
FAC
FC2
FFB
FCC
FA2
F2D
FDB
FA0
FFB
F10
0A1
0FE
F7A
097
0DB
0FE
F61
07D
08B
03C
F81
F3B
0BF
FAA
F3A
008
FAB
FB0
000
0BE
032
FE9
FA9
0C3
07E
F99
F2A
F13
00F
F50
004
F37
F5E
0E2
FEC
F48
0CE
FFC
F34
FA7
0C6
FB2
0F5
016
00C
FE4
F49
F06
06C
F26
F04
08A
016
0F9
FD5
FBA
F70
FB3
F83
F85
0C0
FF0
FE2
09C
F67
F9B
096
FC2
F6C
F82
085
FC5
070
F9C
08F
048
0D8
04E
020
0EC
FEF
FA8
FBB
F82
FBE
FFA
F5E
03C
047
FDD
0B3
F47
0D5
F04
040
FDF
FB2
FE8
00A
F6D
FAB
FD7
0A3
04B
FEA
051
09C
062
FD1
0A1
04B
F61
FBE
F91
099
F02
F2D
F8D
FF0
F9E
057
097
FEE
FC6
F51
F33
FC5
F83
FA5
F3C
F18
082
F40
F03
0EE
02C
F49
021
094
0B8
F29
FDE
074
0C1
F04
F59
0A3
F32
0D7
FD4
F13
F43
01F
008
038
054
03D
070
08A
F44
035
FBF
FC1
087
0A5
01D
08C
042
F36
0B6
F7E
F52
048
F42
FDA
0ED
F70
F7E
0C3
02B
FCF
014
F68
071
F49
0F5
FFE
F71
086
0A6
FE4
F58
03F
F2F
FC2
023
F61
0D8
F15
FF5
F65
09B
FF1
09A
04A
FA5
0B8
01F
05A
0AF
F66
041
FA2
0B3
013
F00
F5D
F96
0AD
0A4
076
F5B
F85
042
0CB
FBA
081
025
F9E
0DD
0E4
065
F7C
0EB
0C7
00B
0E6
F6D
0D1
048
030
F10
065
F51
F4A
F47
F25
F0D
0BA
F2A
0C2
FC2
048
069
FE9
09E
069
F45
0B8
F7D
F44
0B1
07C
034
F8F
05D
0A0
0A2
00E
09C
028
024
F5E
F54
020
F5C
F39
F77
F9F
06B
FBA
FC8
04A
F69
F52
0B5
F2A
0F0
096
F2F
F76
F87
05F
033
092
F18
F5E
092
FC1
0E5
0E9
FEB
0E4
F71
F10
F9F
093
0EF
F8A
F0C
F5B
F07
0AF
059
091
F95
0CB
F17
F1E
008
F06
F37
0F8
F3E
FBD
F2F
044
066
028
0B4
0E8
F09
F62
FED
F4F
F55
F64
0C7
01E
0EC
F85
F87
F38
0FD
F70
070
01A
05E
06C
05A
FAF
F1A
F2D
039
0B5
F27
09F
FD9
0B8
F4A
FF1
00A
06D
F3F
0E1
F3B
F79
084
0D0
FA3
F33
034
016
052
0C0
0EA
F90
F3B
FA1
03C
07B
011
0FA
0CD
009
F94
09E
08E
F00
0B7
061
FA4
F63
F6C
0F9
053
FDA
F88
0D6
F15
F3A
046
0DF
089
067
F17
0D4
F17
F42
F5C
FFF
FC6
F9D
04A
08B
010
06B
008
F52
FE8
F90
F41
0C1
0DD
07D
F7C
0BA
F72
0CC
F6F
F81
07B
F23
008
0A1
F76
F0E
0BF
0AA
05E
099
FBB
07A
0AC
0D9
F43
066
F7F
05A
037
06E
0F1
F66
FEF
F9C
075
005
0C8
F16
08F
F23
0E9
F9F
0EE
FEC
F90
05D
F58
038
044
FAA
043
032
03F
F1D
090
0B3
040
F98
06D
F0B
F44
F81
FE8
F81
0ED
005
0BF
0AA
F9B
07A
F28
028
FD2
092
0F4
FDC
FA8
02E
F3E
FD1
0EE
034
FCF
0C8
037
0DE
F72
095
0CB
F66
0C2
031
F9F
04B
F17
FA5
FFB
FC9
071
0F3
F21
F04
FB6
0B5
F79
0AC
FE8
07A
F2E
01B
0C0
FFF
FAF
044
F8B
0C0
F7C
055
022
07C
FCD
008
026
FA0
03B
017
FF1
0B7
F2B
054
086
FCA
FDD
0AC
F14
052
F72
FA6
F9B
075
F74
