04D
036
0CA
10E
030
FE2
F4B
0E0
100
0BE
F6C
0E1
FE8
065
0FC
03F
F9D
FE4
0F4
F71
07C
F15
FD7
FEE
015
041
064
FF9
F2C
F1D
F47
F8B
F8E
FA9
063
FDD
FF7
06B
0C3
00F
056
FD6
FCB
000
0EF
FD4
08A
05B
067
FA6
005
FA7
07E
F5E
F2E
01A
00C
000
FFC
FB8
01E
FB9
067
131
F79
FC7
FD3
F94
033
0C9
F2C
066
0C4
090
F37
FE3
FD3
FFF
FB0
F8E
F09
0C2
001
F35
02A
F6B
EFF
F37
0A7
017
062
04B
FB2
059
008
F8D
FF2
F70
F4D
013
FDC
0C1
FCA
07F
FC0
F7C
01C
0BE
0D6
09F
EFC
FFA
0D9
0E2
FB7
FAA
0FC
0E1
0FA
044
049
061
FE4
F46
FA2
FFE
078
F8F
F75
0F9
F79
025
F8A
04A
04D
0B1
FEC
F22
0EF
FC9
0DF
F4F
F3D
F4F
06C
F64
F32
078
F0C
0BB
01C
0C3
F93
0C4
FBB
F1C
FCB
08B
F98
F55
031
006
053
04D
F50
020
FD9
02A
00E
0BF
FCD
04C
FC3
00B
041
F33
FAF
046
003
FAC
F67
FAA
FF1
06F
F4E
069
0E0
00E
F72
08B
FE5
00A
0E3
00D
FFD
109
FB0
F8E
FC1
034
0CA
FF6
07C
0A4
09C
0F6
058
062
F19
0C9
0D3
F64
09F
F7D
F60
EE9
EFB
FB2
038
0A8
FC8
F2C
F91
071
F3E
F65
F85
FF7
073
08E
FE4
EF3
0CD
041
078
F2D
0D0
0D8
F3E
F3D
FBE
0C0
033
0BA
F2B
F0D
079
F7D
F2F
0DB
F58
03A
08E
FD1
0F9
F7B
FBA
FC8
F5F
0A5
F23
FF0
085
F67
08E
0C2
F9E
FF9
0CE
08C
07E
087
029
0AF
F50
FAA
EFA
F04
F53
F19
F9B
F35
F25
FF3
01B
F23
043
034
EE7
050
F37
01F
FEC
09B
FEC
F72
0C8
03B
FAF
05B
081
F78
014
095
FDE
FF9
FD4
037
061
10F
05F
044
F68
FA1
FF2
FFF
F94
0FC
0E5
024
109
FD7
03D
055
0C3
0B9
FB6
07D
061
F85
092
F8E
F8F
FE0
06A
0C3
F05
F54
0DD
0A9
F00
0E0
067
091
027
FBD
003
05F
EF6
03E
068
0BB
065
F6D
FC3
0DB
0C6
F2B
0D5
04B
006
F5A
073
0A8
046
F31
0AC
FEA
F9B
FD4
0F7
0F6
F78
F38
025
F9E
F26
01B
0C3
F55
063
FD3
FD1
0D4
090
F50
01C
F4C
F76
F42
F6C
091
02B
014
F47
F22
F0D
017
FB3
04C
0B2
016
FCC
077
0A4
009
FA3
096
F19
F48
092
056
066
0C8
040
F5E
F54
F35
FCA
F7B
046
F5E
01C
FC2
F16
FB0
05B
F7A
F0F
FF3
FCC
FAF
F66
0AD
FCB
02B
0C9
FD7
F2A
0EB
F2B
FD3
0FF
F9B
0C0
F3E
FDE
F87
085
0B5
FC4
F82
069
0FF
F76
F60
F66
08D
FBA
F77
F7D
01B
F71
0BE
04D
021
05F
F1F
F32
F45
EF3
005
0C5
FE7
F66
F8C
F53
FE8
F9C
F8D
FAA
F36
F39
07D
013
0CF
04C
F58
0B5
027
EFD
02E
051
05C
F42
F99
FE6
079
024
00A
075
F7B
025
014
F5B
0B0
00C
0CF
0A3
FA3
0CC
07D
095
FBC
FA4
F61
FE7
F85
FD5
03B
F75
F67
0E6
025
F64
FC1
F56
052
028
FEB
051
04F
FDB
F22
FFA
F7A
F8E
FD4
F32
F4F
F6B
0F5
FCF
090
00F
010
F86
037
0D1
F2B
091
03D
F43
F41
032
FCD
FF1
01D
0DD
FE6
FE2
015
102
FF5
06A
029
02B
F31
F75
0BB
05F
07A
07B
0A7
080
00E
FFA
09C
F30
0B7
FD9
F3F
0F3
0F7
FE8
0CD
07B
018
04E
05F
087
02A
F63
045
F52
FC9
F3C
F74
0DC
FA7
F5C
FAB
0A5
06E
FD7
0A1
FB0
F29
072
FB4
F8E
F66
F1C
027
0A5
029
08F
09E
F62
0A5
FF4
F64
F59
00C
0B8
FB2
F7F
04E
053
028
F4B
0C6
028
FD9
096
FDB
0CC
07A
F83
09E
0F6
003
09B
0CA
07A
FEE
0C2
059
F47
0F5
0E6
F87
06A
073
0B3
FF0
FB5
F5A
FC3
FB1
F55
0FF
F58
FE2
071
0CA
0ED
F0B
F70
F24
F62
05F
041
0DC
F61
0B2
F7A
F33
F8E
F78
024
F4E
07D
081
FD5
065
073
FAA
07B
FF9
0E1
F32
F8D
011
F9C
F99
F38
056
059
0B8
10E
FDD
F2E
FEC
FD9
F76
F24
FD3
F57
FCE
FDF
FFD
F6E
023
FB8
0BB
03A
FCA
0A5
FB8
F04
F31
018
F46
FD9
F70
0B5
004
0B0
F4B
05D
FC3
FA2
FA6
F29
FBF
F3D
0B2
03A
FD4
094
FD3
03C
FBB
F72
0D0
FCD
106
F8B
007
F3D
F88
F6F
FC5
F48
0A8
F64
0E2
F7B
0B6
0C5
009
09F
F27
028
F68
F0F
FCD
0E8
FE6
0B5
0FA
0AD
10A
F98
003
0EA
F6C
FA7
FE2
FCE
F71
011
024
FA0
FB7
FD4
F59
FDF
075
F1D
07E
FF1
F60
0DC
08E
031
097
F74
FD3
0D9
F79
041
FBF
F91
FD6
0AF
003
F6D
FD2
0C0
F2C
F99
04E
0F6
F45
105
0CA
F53
F3D
FBF
FEE
FB5
F4E
F08
F27
FBD
FC8
F77
F33
F5E
F71
080
009
F74
F8A
FC0
FF8
FFF
F8D
F5C
FCB
FA4
0C0
0A4
FFD
055
EF7
04C
0E1
F13
FF8
014
0CE
F13
FF1
FBE
F87
F9A
026
0B3
0C4
FD7
055
FC7
FAB
F6A
F9A
F8F
0D3
0BB
F20
02B
F85
011
069
091
036
FAE
F6E
FB0
098
0E4
F42
103
FF4
FC5
0F4
FC8
0F8
063
F18
F11
052
FEF
F89
0BC
0AD
05F
F1D
0C1
033
F2D
02D
03A
0CC
0C6
009
05C
052
0B2
062
FD1
F58
F74
058
0C9
058
087
080
F31
07A
078
06B
F70
0F1
014
FE0
F5B
FD3
03D
F2B
FE4
F19
033
0BD
F76
012
F6B
F28
FD4
0A6
0E6
F29
F4A
FE3
F74
F83
FC4
F6C
FD7
028
F6D
F1C
07A
0B4
F5C
073
0C4
039
0BF
F2E
F2B
0A3
F4F
019
01A
FC6
00D
F77
F15
F53
068
0C6
F99
078
032
0A1
F8E
042
065
0A6
F4C
FBB
F74
0C8
FB7
056
0EB
F5A
007
0DE
FBE
0A0
035
F73
F29
F17
093
F26
FB0
F62
F53
0E4
F88
F16
F6B
F5D
017
F6A
0F1
F55
F43
015
F4C
F7B
074
FE8
03A
099
F13
F20
0DF
FD9
09B
F35
044
F63
FE0
EFA
F1D
03C
052
068
0A2
FA3
F4E
F55
F52
023
019
0BC
071
FF1
082
F60
07E
F99
F75
0CD
F59
FD5
FDA
F88
FC6
F42
FD6
F39
FDE
FD3
FFD
033
FBF
0E4
F2B
FFB
0F4
0C7
0A2
0CB
00E
0C9
EFA
FF9
064
07E
FBA
0D1
F69
FCB
F2B
0FE
F74
068
FEB
F76
F48
FA7
038
FDC
063
019
0C1
0C2
FFA
092
F5D
F1A
FA8
EEB
085
F1B
FA2
FB6
FD3
FBB
0E7
06D
F51
F8B
05E
106
F41
03A
043
051
FA7
123
077
047
F4B
FE0
050
FCE
050
F5C
0C4
F83
0E8
F71
017
042
F9E
F2E
038
0E0
01A
044
099
F68
03D
0B4
031
052
F32
F12
F60
07B
0B1
08B
0E2
F69
0D1
FE9
081
0A3
060
09C
FC6
FB0
F17
F92
0A3
FB0
0A2
F6D
FA8
047
06D
0C1
F93
F85
F94
F7C
F24
FB4
02B
F8B
FBC
F3B
FCB
0DB
F4F
106
F55
0A2
FD8
077
FEB
0AF
0A8
F7B
015
FA5
098
F40
090
05C
FFA
F2D
0A2
FB7
F20
F8D
F30
0EE
086
F28
FD9
FF6
0CD
F84
05A
F7B
0C3
0CD
F6C
0BF
FF3
025
F57
0C8
FE8
FEC
FEC
EF9
041
019
EF2
090
035
0DF
0D3
F81
F8C
088
0A4
F61
FCD
FB4
0A5
FA3
0FA
F8D
F89
0D0
128
067
0B9
0E2
086
09E
115
0A8
FE4
016
FF5
F10
06A
F41
FA4
FC0
F1B
0D8
FF7
F26
05C
043
F75
05E
03F
F69
EEA
071
100
FB5
094
03B
FE7
0E5
FBB
F51
03B
064
F98
006
08D
FA3
08C
06B
093
FDA
026
FBE
092
046
F4E
F25
07A
0CB
090
FCF
0DB
F52
F7C
010
0FC
FC5
F9F
117
0AF
FDA
F5B
000
014
08C
FC7
FE8
FC4
F6A
0F3
FBC
074
096
F0E
F2E
F45
F57
F9F
020
FEA
003
09D
0C1
EE8
08F
027
06E
F4B
FF3
F04
04F
039
06A
0DD
029
FC7
F15
F4B
F2C
F19
01E
FD8
EDB
F73
F62
03F
F2C
FC1
0D3
0A5
F8A
05F
054
FEF
F8B
0A3
F82
F4C
045
08D
096
F49
0A1
0A1
0AB
077
109
F53
F38
F1F
0D7
029
F75
072
FE5
FD3
011
08F
FDB
055
050
04B
020
0B1
F54
F8D
F52
EE6
033
0B5
F8A
FA4
042
F1C
F99
EEB
05D
F9F
012
0C3
FAA
068
F23
F22
02F
0D3
05B
0D7
FB3
F35
FA8
01A
00C
F87
0A2
F48
077
F68
F7C
0E1
021
0BA
F30
F49
0E9
0BF
0FC
080
FAF
0E4
0EC
0ED
03E
F67
00E
0D8
F42
FA3
07A
016
038
FD3
FF3
00B
FCD
F8F
FDB
FE7
047
FD2
072
01B
F68
03E
00A
038
0B4
08A
F80
F22
FFE
0AF
066
055
F5D
FC3
F5A
00F
028
F02
FAD
FD4
FBB
F30
F19
F00
FC0
0F1
F37
F43
FE5
F7D
046
EFA
F2A
FC5
FBB
F18
013
F0E
0B3
0D9
114
0B7
F54
0DD
F8A
0A5
014
F89
FD5
07B
0F5
0D5
F4C
F0A
F96
05B
0DF
02F
F1A
0A1
0A7
FF8
0CB
F24
0AA
FBF
0B6
085
F33
09B
0C6
0DD
08D
F9B
FE0
FE3
F22
0A2
F16
046
049
046
09F
0A1
FCB
F44
FB3
F41
FA6
F77
F67
099
0B0
F5B
017
057
05E
05E
0EA
01E
FC5
FE2
0CE
FA4
FFB
F64
0EA
061
0A4
03C
0F1
FE6
F23
007
09C
0F1
028
084
F13
058
051
FBA
05E
F41
F3F
FB4
0AC
002
0FE
FA6
046
052
F74
F34
040
F01
066
0CD
FFC
F51
F4B
076
0CB
08C
03A
F01
0A2
09E
0E5
0DF
F41
F9C
0C5
FAF
F7F
067
036
068
FBB
01B
086
037
FF4
F13
F37
F8B
FDA
F28
087
F37
FDD
0B1
FF4
074
FA8
0BD
045
FE4
FC9
F7C
069
F09
096
F8C
0B8
0B6
F44
F8B
F6C
076
F6C
059
081
FF9
F4D
046
F7D
F94
F59
0CC
07F
092
0D1
F47
F27
094
F4B
011
F48
0C1
FFE
0C4
F5C
F63
069
058
F92
F38
F43
F8F
0AD
F43
048
F8E
032
069
FFC
07E
F6F
048
036
024
099
F38
FB5
025
05C
F75
FA0
061
FE5
F3C
085
F98
04D
0A9
FC8
0D8
F7A
0B2
FCF
0CC
0D4
01E
FAF
F97
FD3
F8F
042
FDE
F2E
0C5
F8B
F46
F64
00C
F74
030
FFB
0E2
085
04B
088
FAA
02F
021
04B
10C
FFB
0DF
F63
FD8
F2E
028
0F7
FBD
086
F7B
F7D
EFD
055
F84
087
F67
F74
FB7
111
013
FCA
F2B
000
072
032
0D7
FF7
00C
FD3
0B2
014
012
F0E
F70
FFC
081
F80
EF5
F75
0D5
F5A
064
03D
F7F
035
07E
F84
01E
0C9
FEB
FA9
069
F4B
F42
0E4
F58
02A
F64
071
F91
FCB
013
039
F99
F61
F6F
08B
F8F
078
023
01A
0A0
F09
FDD
061
FD7
0CA
09B
FFE
077
FC1
F81
FE7
0A6
04C
FF7
F19
061
054
FB7
F4E
00C
042
090
0DD
FDE
067
035
F6E
0D1
F86
0E6
06D
FC7
077
090
FC4
028
04B
0E6
FAA
F84
FAB
02A
07B
017
08C
09B
FAF
051
F4B
0F8
FA0
F57
FDA
FFD
082
0C6
F34
F9B
0EF
034
075
F43
F38
00B
F5B
08A
080
F7C
F01
064
F68
06D
0B7
0BB
F29
F82
087
F9F
FEC
F24
FF1
010
06F
FA2
0AE
0EA
FF1
FD6
043
0FF
F23
F3F
05B
F7C
FBF
FB4
FB7
F71
FE6
FF6
072
085
F56
0A7
06E
F36
FF3
0E6
F03
070
F19
088
0FD
064
068
F16
04D
002
0B5
0A1
F0E
0A6
0F2
FCF
034
003
0A9
0B4
070
FEE
0A6
F09
F3B
FB7
07B
F88
FED
FB5
FAA
FAD
FF9
028
00D
F72
031
F79
0D4
FBC
02F
0E1
F4F
0F8
F35
093
0F2
FD0
06D
FFF
FE7
FB8
F53
066
F94
0CA
043
092
0A8
FEA
F7D
F9B
057
F6F
FDA
F9B
F77
F15
04E
F37
003
F8F
FD0
074
F12
F24
0AA
0B2
F2C
F6F
012
06E
F67
0CA
0E5
048
F21
F6F
F04
095
FB5
F14
092
054
FB9
FB5
0A3
F3C
099
08E
0A7
04A
025
115
0DB
F38
F9B
FE1
F28
F5A
F8F
F33
083
074
06E
FF8
F58
01B
FB3
F21
F30
FA5
F70
069
013
FC4
03A
F5D
FC1
FF4
0BE
F57
F40
F4D
090
F18
FC6
026
020
F12
F22
FAC
04A
F53
FF0
09A
FD4
0D3
03D
01C
056
0B7
FDD
0C1
FD5
F89
075
0C7
F09
FFA
068
0D3
061
FC7
FB1
FB0
02B
FC2
FC7
06F
0A6
F9C
036
F40
FB1
0B4
FD6
0BF
F16
FC5
F67
FE1
0D1
0C7
F49
F4C
F1C
FB9
09C
F36
F34
06A
07D
08E
0B8
FFE
F0E
FA2
EF9
F7B
07F
0D1
F05
F87
0E8
FCF
01D
F89
FBA
0F7
093
FBC
0D1
0D8
034
069
036
0AA
FE0
0EC
047
FC2
F6B
00F
FE4
0AD
05D
00F
FBB
0BD
F90
02D
F35
029
F9A
FCB
F35
F31
F32
0DE
070
000
FAB
0F2
F46
012
F99
055
0B7
FDC
F46
0D6
F05
FFA
FC4
009
FC9
FF9
0D4
F16
032
FB7
08C
F9B
024
F32
FAB
FF6
FFD
FA4
054
0BF
F49
F3D
0AE
FFF
04B
0B6
03B
FF2
F25
048
07C
026
FE0
090
FFB
0F9
026
0E0
084
001
F4D
FA9
0FC
10B
01A
0F5
09F
F67
0FE
F97
F9D
FEC
F74
0F0
0AA
FE5
0B7
08E
035
0B9
F6A
F9E
076
0F2
0DB
075
04A
F4F
067
012
02D
F90
001
00B
005
F3D
02D
0C9
FD0
053
0EB
060
F7D
F79
F11
F0A
098
F99
0C2
0D0
0B4
0C8
F2F
0D5
FF6
F30
FC1
FB6
034
F25
0D3
F50
EFA
08E
07A
FFA
0C3
F78
F5E
033
0F6
0C2
0A3
008
FA5
FAF
F43
F7C
076
FAF
0D3
0A0
084
FEC
F89
0DF
07F
F59
F44
F74
F75
07C
F33
06D
084
FD5
F7F
F86
FFD
F7E
090
063
07A
F93
FFD
F67
FC1
010
F71
F31
052
0A6
0BE
00C
060
0B1
FB4
FE7
08D
F44
062
044
F8A
F8E
089
086
FC6
0E1
0CC
F6E
F44
F90
FD5
09B
F33
F49
078
0F6
F9E
009
0F3
F92
F6D
00A
010
F1C
FDA
062
F94
F1B
011
0BF
03A
0AB
FEA
0A2
080
0B3
F4A
060
FA4
00C
031
F6D
0CF
01E
FDD
019
0AD
F34
F48
FCE
087
07B
FD7
0BC
01D
08F
EF7
FCA
F54
FD9
0C2
FBF
009
FAF
01A
F52
FD7
F52
017
002
FB5
F5C
0A3
055
F66
0AE
0C7
F9E
005
FED
00E
FD8
0E0
006
078
00C
F7A
FB9
02B
F72
016
F72
0B9
061
025
FBD
F14
F1B
058
F4E
02B
F46
0DC
043
0DB
037
FBA
F42
F11
F50
01D
FBA
0ED
FCA
062
066
F88
F20
052
FD8
0D6
F7F
05D
F08
FFC
0D1
F53
02D
FC6
F22
F28
0CA
0EB
FB4
0C1
00B
F21
FD8
09F
FFD
FAA
033
0BE
F89
0DA
FDB
0B2
F3C
021
0C6
F70
F38
FFA
0AB
FFE
00F
0D9
064
FBB
033
FDD
F25
FC7
F18
FE0
076
FE1
0D6
04D
FF5
017
FF4
F41
023
055
086
00D
072
FB5
FBB
0E7
00B
F38
01B
051
0F5
0D1
FF9
F39
FB4
FA1
F30
F83
06A
FBB
F4C
107
FF6
0B7
F7A
0B3
060
FCF
FE3
FEB
F2D
FC5
FE9
0BF
FD2
0FF
015
FF4
086
F1C
019
096
0AD
081
FFE
FCF
0C4
081
F5B
048
F91
F6A
F28
F61
FA1
F25
F95
F75
02D
F24
0D4
0F6
002
0AC
0D9
F26
F66
089
093
F5D
067
F0A
093
F94
0DA
F15
011
0E3
F2E
FF6
F86
FF0
FC3
01B
FBD
070
F6D
100
0A6
FDC
109
F2C
007
10B
F77
F7A
F72
F3A
FD6
F71
F93
EE5
0E0
FA6
FE5
F07
0B9
0C7
F0E
FB2
0A9
032
0B0
05E
039
117
FD9
F8C
F51
F52
F1E
06F
07D
F48
F68
028
F04
F29
FEA
073
F48
011
F15
F3A
FF4
08C
0B7
FED
058
043
F67
FC1
0C6
060
FCA
0DA
097
071
01D
F2B
0A7
F62
081
FC2
F96
F13
F1E
FD6
04B
FC6
F98
00B
F24
FEB
F75
0F0
06A
F62
060
060
023
EFE
FC0
F4E
F94
F7F
045
01A
F4F
04B
079
F2F
028
F6C
107
FAB
FEE
F74
02E
0C8
05B
056
06F
017
08C
F4C
FC3
024
FFD
065
043
017
FA5
067
F94
0B5
F33
F38
F6D
084
08F
0E6
07F
F37
057
0D5
F15
F29
029
07A
FCE
088
F98
F1D
058
FCA
F3C
0B3
0B8
FF9
F30
09A
087
F1E
08C
05E
055
F55
F75
FBA
0A3
090
06A
095
FDB
072
014
F33
FB5
FAA
FEF
075
06B
049
06D
F9D
05C
F1E
F1C
FCA
0F3
0D0
EFD
EF2
04E
023
070
FD9
057
FC1
060
F10
F90
0AE
044
001
10B
F7C
F5F
065
04F
085
046
FF6
EE3
FBC
FBB
09B
03C
0BA
0B9
F84
FC5
FA4
0F7
079
FFC
09C
068
FE8
024
F1B
F67
05B
F0C
00B
F61
F36
064
047
FCD
FF4
F52
024
0B4
0CC
F00
F74
FBD
FE2
F2C
038
078
0BE
00A
F3C
058
F17
F3B
F36
FD3
F5E
0AD
FB0
F5F
043
077
F64
F1A
0BF
F94
FC6
0E4
FA2
01E
061
FB8
094
FBB
041
F51
FF8
075
F14
FB0
FCB
F34
F17
0E1
000
086
00A
064
F0C
FE9
F37
020
F25
02E
F6D
F83
031
06C
045
0CD
F71
059
006
F93
F19
F73
03C
F77
F52
08A
072
0F7
EFF
0E3
F83
F60
05E
010
0D3
092
0A4
001
03A
F53
055
09A
100
F30
007
F3F
079
FAB
09D
FFC
F12
08D
092
069
FC9
0C2
0C6
01A
0FA
FEF
053
F8B
0A3
0D1
F15
F78
FB1
072
F53
0EF
F5E
01A
F62
FE5
011
115
FFE
F91
0A9
F83
FDD
FFF
0B2
095
0A3
0E4
0DD
08E
F9D
096
F70
F4F
FD7
F32
F2D
F08
089
0AB
07F
006
FBD
04E
F9A
FAB
020
FE7
EFB
046
020
0C5
0A5
FB2
093
02A
09C
EF1
0AE
F17
0CC
0BC
080
F82
F64
FA6
08E
F2C
0FF
051
099
FC5
FBA
F9E
025
051
01A
F46
FCD
0D5
FEF
F14
073
026
FB9
0C5
FF9
F69
FA3
FB5
F5D
FB0
100
084
0F1
F33
FB7
F9C
FC5
09B
014
F8B
0B9
F27
FD7
033
034
F9D
095
0C1
0EF
0E9
F20
F12
FFA
F88
09F
F21
095
043
FFE
F62
0D4
F6B
FB3
0EE
F2C
0AE
F8A
088
07B
F4A
0C7
FB4
F72
F28
0CE
053
FC5
0C7
0F6
F90
FA9
FDE
092
08F
0A3
F57
F02
0F7
0C3
051
F5D
03F
019
F07
032
F9D
FBC
0D9
F7C
F68
0A4
026
FAE
FA0
FCF
032
F02
FD0
F46
0CB
F19
FD5
F71
0EA
046
017
00D
018
026
070
F35
045
0F5
FE5
FDD
052
F5E
F6D
013
026
F90
F0E
F7C
F7E
F56
0BE
FC5
F61
F4D
0C9
09A
0BB
06E
F88
F49
082
06A
FB6
FDF
FA3
0D9
F49
0CD
066
044
0B4
F8C
095
FBA
08B
F22
FF6
059
F1F
084
FC0
011
F2F
076
06C
091
076
078
0A3
0BB
F8F
F5D
06D
026
F72
07C
071
06C
F60
0F0
000
F2F
FDA
080
F8B
040
FE5
F80
FEA
0B7
0C7
0C6
FE9
FD6
066
FDD
FBB
FDA
FAE
F12
FE4
FB4
0EA
088
F23
06B
094
0CF
04D
F46
FF1
0F6
F66
041
FC8
F72
F0E
08C
0AB
F59
F0E
F1C
FF8
F3E
074
036
F69
F10
FC4
046
080
F8D
105
092
0DD
FB4
FBF
00B
0BB
F1C
F71
0D0
068
F34
050
031
0A8
F92
0AA
08A
02E
0B1
F1D
F13
FD9
F70
0DA
03F
FB8
FAF
FEC
0CB
07B
0CE
0CF
032
0E0
078
F4C
F1D
F40
F0F
0D8
042
036
F1E
052
F8D
F41
F5C
FC8
F9F
FD1
FA5
067
F6C
022
F58
FA2
02A
078
0C0
FA1
FE7
F9F
0F5
F8E
03F
017
F1C
05B
095
0B2
FAB
F4C
F4D
FC0
F51
F3C
FF9
067
061
FE0
FEB
04C
FC6
F55
F53
061
FCE
101
FE2
F9B
021
F2C
F8E
F8A
072
F94
0AB
093
FE3
050
F17
F5E
0D8
083
F44
016
061
FFC
081
062
019
04C
0D1
0FC
F9E
032
0B3
04F
064
09A
FE2
052
FB2
FB2
F11
FC7
012
F2A
FD8
048
088
F57
099
06C
F41
F28
093
082
041
F65
F6D
0B5
F06
020
07D
00B
F1B
00B
0CF
F29
0A7
04B
0B3
F86
FA1
F6B
06F
FC1
F27
FA5
01C
0C3
036
023
0B3
051
FE1
055
F95
FE0
030
FAA
F98
01B
06B
0A9
F7B
FBF
FD4
08D
10C
F47
F34
FBF
F83
FE4
F7E
F5E
FD4
FC9
03B
FD0
F7A
F32
F47
0B1
FC9
F62
F23
FB0
F8C
03A
00C
0EF
0B0
0BE
F45
0A2
0CA
F2A
F9C
F9C
000
033
FC6
0C8
037
035
06B
0FA
F20
F2E
F16
F27
0B9
FD6
073
EEF
F2B
F64
03A
046
000
037
09E
0BE
F6B
073
106
0F1
0A7
F5B
FA0
F22
F2E
F54
FCF
F6D
083
F17
0DE
0B4
F88
04F
0A8
F61
FCF
0C7
01F
0D7
F76
0BB
F6A
0F1
F6C
078
0F3
FE6
076
070
069
055
FA0
F8A
08B
0E5
0F3
01E
F0C
F75
F5F
FA3
0A2
011
FB5
038
0EE
00A
F40
F2D
0B1
062
0E8
F37
F5D
0FD
09E
F3E
086
F0D
10A
F94
094
0E8
FD4
F42
F83
0DB
FFD
FA0
028
F0D
0F1
F95
077
000
0B7
0B7
0A2
F7A
06E
F8C
F94
F7A
F20
0D9
0B4
F1E
FCE
F39
0A2
F6E
FDA
F30
F0E
F83
FBD
FD3
023
09A
F9B
02E
0AC
FF6
F4C
F6D
F42
FF0
02A
057
FDE
084
0C4
F79
09F
085
0C2
F43
F46
F55
0AF
01D
047
F15
F9D
F7E
F48
015
086
EFB
F40
003
F3A
08C
090
FBE
100
F26
0C9
0A9
086
FA9
F06
08C
01B
016
08F
0ED
F9B
0DB
F4A
0A8
07D
FF6
0CF
097
F80
02A
042
0C6
04C
067
032
F24
F6D
060
FDF
FF9
027
F55
F3B
FB3
FED
F58
022
FA5
F2E
F31
09D
F3E
F29
F93
063
F4C
FF0
FBD
029
0C5
F89
F8E
08D
036
0B0
0AE
0E5
FBB
0A5
F96
F91
F4C
F77
0A7
F31
048
012
0BD
034
0BA
FD9
F4E
026
F9E
083
0A7
F62
FC5
FA6
024
F72
FDA
FAD
035
00A
0CD
F6E
F8B
FA1
F55
F6F
FA6
037
06F
F92
113
F28
F3C
10F
F40
FA1
00B
0D0
F73
F63
0AF
09D
F8F
FA2
0E7
01B
F40
F86
0EF
0F3
F9E
F84
FD6
FCF
031
F77
F75
FE1
F0C
0B8
05F
FA6
0A8
004
063
F48
EF7
F57
01E
F87
FE3
FE3
02F
0E3
048
07D
F83
082
0BD
F41
FD0
F3F
0A6
F5D
FAE
07F
FF1
0A7
F68
10C
F89
04F
F4D
0E5
F42
F9A
05F
F91
F44
0E8
00D
0FD
F6D
F3E
F6D
FF6
004
04D
081
06D
F12
057
FD6
FB4
FDB
09D
FC4
012
0B1
05C
F52
0A6
FE5
05B
02E
F8B
0C9
FFB
047
038
0C9
FC1
0C7
F59
0C0
F91
F4C
0B3
0F2
0FA
F76
FE5
0A1
FF9
FD0
032
0DD
EFF
F0B
058
FF7
111
F6D
0EC
036
FD5
FD4
FA9
0D8
05C
049
05D
028
FDE
FDC
FBC
07A
FDC
F24
F64
FA0
FAA
F3E
F4F
0F8
086
006
F77
0F2
020
F07
F03
F19
0D2
FEF
02B
05C
0AF
F15
FF6
F6C
05B
092
F47
EEF
08D
FD5
EFE
FB8
036
01F
062
F02
FEC
080
0FD
0C6
F4F
046
0DD
089
082
F6E
05E
FCB
013
F91
FE6
0B4
083
FA0
F25
0AC
111
F48
099
FF5
098
F36
FF8
F83
0B8
FB0
F3F
F9C
FB3
FFA
006
F83
FF5
FCB
104
F0B
08B
045
F4F
F57
FED
0D6
0B4
0CF
0BD
F7D
F3A
FF6
F06
F54
F5A
008
035
0A8
082
F9D
07F
024
048
08F
0C2
F0F
F11
F7D
0CE
FB6
FEF
048
063
0DB
FE6
0F5
040
F2D
041
F6B
0DA
F30
0A6
007
099
038
0B0
0D8
0C1
0E1
F2E
000
067
014
F54
F96
F81
F85
065
10C
F58
091
0DC
0BE
F6E
F3F
F9C
F03
F19
080
0E3
01E
F4C
00F
067
04C
0A9
F25
F30
0B1
F39
046
09E
0E8
F9E
078
030
014
0CE
FE7
057
F7D
FB5
015
0E4
F10
FBB
022
FBB
F68
035
0E9
F73
FB6
F09
F59
015
FE7
F87
F20
04E
FF4
049
F52
07A
FD8
004
050
0FE
FF6
FC8
FC7
FBC
F8F
109
F97
FF1
0B9
F66
F28
05C
0CB
F72
040
0B0
FC2
0D7
F85
F65
050
FAD
FFF
099
F46
0D0
FD5
09A
F29
013
0A9
038
014
05E
F9C
F55
018
FE1
06A
083
FE6
FBA
F21
065
F1F
F47
0AC
F06
F0B
0C2
F4E
FB8
F26
F61
096
F56
0C8
067
0E3
FF1
F90
0A5
04A
0AB
