FB1
F9A
F09
075
0D1
FCB
0E1
FDF
041
F67
F96
FBF
EFB
0DD
F5E
F43
F6D
0DA
0A6
F15
F19
0F3
081
0CB
0DE
09F
00C
060
036
F27
0C9
F7D
FD7
F05
0DB
F1E
FBA
0EF
EFD
078
F8D
FA3
FB6
03E
FB6
FB4
F1A
05F
F23
0A3
FDE
04B
068
0FB
0F5
FDB
F41
0AD
F90
F20
08D
0F5
0EA
F4F
F51
F70
01A
045
F4C
0C1
088
F10
0E8
F56
08A
FD1
0C0
09B
03D
F9B
FB5
F0D
0E2
FC7
F3A
FE3
FBF
01B
FAF
FF2
0CA
0D4
091
F79
0A1
08E
F04
F88
FF4
0F8
F46
FDF
03F
F85
F41
FFA
01D
FA5
F0F
FF7
00F
F49
FA7
017
0F9
F87
0C1
F39
F11
F47
01E
045
F64
0CD
0C8
FDF
0DD
F19
F62
001
F0E
F79
FE3
0B8
07C
F16
F1B
0D2
0D2
F4E
088
010
F21
029
0BF
FD3
09C
0BF
054
F67
071
07B
079
102
0FA
028
F5A
FA1
027
FC0
036
038
0BA
FEB
F35
0BB
02E
F6D
F65
F60
F9C
03E
FD5
FE6
F1F
069
FE6
F0F
F4B
0A6
083
0D3
069
0F4
FF8
F61
F86
FB9
F2E
0F0
0A6
FDE
075
F8E
069
01F
04A
08D
00D
081
0B4
00C
024
F35
FD4
0AE
0EC
F64
025
036
F33
040
F39
FCC
FB2
FFB
FE0
FD8
063
0D9
08A
F30
01B
F9C
FD2
062
0C6
0CB
02A
F1C
0C0
FBD
093
EFD
F9F
F65
069
0B5
FE2
F1E
0E2
057
03D
F88
FC0
FFF
F3C
015
08C
F66
022
F99
092
F82
F57
0CA
F41
F8B
03D
FE8
03C
0A2
0FD
FEE
0A0
FEF
09F
0EB
045
0B2
FD0
02E
005
002
0E2
03F
0FD
FE5
057
001
F94
04F
F6A
F7E
FE6
F7A
03A
F40
0A8
0D9
FC8
106
F89
08F
FAD
FD9
054
F81
FA2
0C7
010
FB7
0E3
0C0
F0F
FCC
EF9
05D
FDF
FBD
032
F6E
0B5
06D
0F4
FC6
FDE
FB8
085
048
F6A
04E
FED
FD9
0B0
F49
F87
FC2
03B
0C8
0E4
FCA
FFC
FA6
072
EFF
0A6
03C
F7A
F0F
02B
05E
F97
015
F4E
0D8
0A8
F6F
101
0B1
F51
FB3
0FF
0D0
0C3
07F
0A6
071
F30
F1A
FBA
0EC
FFD
024
F7D
EFE
045
EFC
EFE
F93
F98
0D8
007
F30
F93
F1C
F7E
F37
FE5
0DB
049
F2F
FDE
FD9
00B
091
FC3
001
04D
0CB
0E6
070
F5F
FF9
058
FBF
F9A
073
0D2
FA4
F85
F1B
FAE
080
0C8
F59
116
06D
F6B
FB9
F3F
078
080
FBA
FC1
010
10A
F57
F99
0A7
0FB
014
FBD
F66
10C
FDE
F42
F5F
02B
FAE
0EE
F69
F76
025
033
04A
F49
0F3
FAD
0CC
022
FE2
F45
014
FAC
F82
0AC
F60
FA3
05A
F13
05B
F0C
000
0C0
066
096
FB9
F7A
088
FFD
011
FA7
05F
037
F44
0AE
FB5
024
06F
FE0
057
039
F6B
08A
01E
FF5
FAA
FC7
0A3
F27
079
FEB
055
F9F
07B
0C8
F43
F2C
FE4
017
F07
FB8
071
F4B
FEE
FCC
009
0C1
0D7
006
0D6
097
F31
F33
065
F38
06D
0BF
FDA
F56
0DF
0A9
038
FF4
F71
FD1
FFF
F1E
EFE
F8D
FEF
02E
F19
F9A
0CA
EFD
0EA
EFE
0DC
0C3
095
F72
FA3
FAC
042
08C
07C
F32
01E
F90
0F2
0DA
F68
FD6
FA2
011
F97
FD8
0AC
067
F9F
001
FEA
00F
FE9
FAA
F8F
01E
FB0
F77
F13
0F1
03A
FB4
F3A
F23
035
F5E
0EB
04A
0B9
07F
F4D
FE4
0E1
085
F84
FC8
FA4
027
FE1
0D1
F6A
FC1
079
EFC
0E5
F13
FB0
0A6
F59
08E
F8E
FDC
F4D
002
0C9
FA1
FA6
F5D
0B2
10B
F5B
0DA
F74
093
FBE
030
003
071
0E3
088
FE2
FF7
F36
F46
076
F14
FA6
0DC
F8A
FEE
0D3
FD0
0CD
F1E
F55
0F8
FA1
F45
035
FD5
F16
076
F81
00D
F2E
03F
09F
010
007
029
EF2
081
F36
F01
05C
07C
FBE
F2A
02F
0E9
F0B
F44
F7E
07F
FF3
025
FF2
0A0
FE3
067
0D7
092
00D
0F4
FEA
F7A
FDC
0F6
070
0E8
075
FB8
09A
00A
F8F
0D4
007
F68
FD8
FDF
076
FC9
FD8
004
073
05D
F93
FF7
F58
0E6
F9F
FA5
068
04B
050
021
094
F73
FD6
068
046
F6D
058
F5E
FE2
F22
F4A
042
05E
F43
FB1
FDB
F3B
063
F7E
065
F7C
028
F71
07D
0F3
0BA
F40
0D3
06A
F86
0BC
F0E
FBF
069
10A
FFC
0BD
094
FB7
FF7
0AE
F61
069
FD8
F7B
F90
FA3
00A
093
066
FA2
083
F57
06E
084
F32
020
FDE
F3E
FA6
FE7
EFA
F60
F15
F0E
0D3
FE8
100
F45
018
0AA
073
0D9
077
F9E
F90
0BE
F1C
002
094
F03
F94
0DC
004
074
0ED
F4D
F47
FA0
FAF
018
050
F01
F30
FA1
090
0C0
0B4
FC8
048
FAF
0B6
FA7
07A
047
F87
004
074
F1C
FEA
F21
FE1
0C0
FEB
025
FD5
044
F4E
0A3
0D0
F3C
FC3
00A
0E2
036
F1E
F19
F58
0EC
EFE
0B4
FA5
FD2
046
088
F37
FBC
002
FB4
FBC
F4A
FF7
0F1
086
0C6
0B0
05D
FA7
0AF
081
FFA
FD4
F74
0B2
071
F3F
F98
0BE
094
F7C
F86
0D3
0E6
F8F
FAD
F7D
007
F1D
FA3
F14
F46
073
FF3
08F
0C4
F24
086
003
074
0C1
0AA
0C8
0B6
F6F
0EA
FD2
F3C
F01
FAD
F4E
017
087
F94
F39
04C
07B
F52
EF5
085
F34
FD8
F2E
FD4
F8E
0EB
FAF
FB5
0AE
F34
0C3
FED
F54
FAF
011
0A1
003
F48
F50
030
FF2
042
030
F5D
08A
F38
07E
0DF
0F6
F88
F63
025
0F2
08D
0B3
008
F69
056
FF7
0BC
0E9
045
030
FAB
0DE
FDF
F16
FB2
070
F86
02B
F73
F4B
F83
0C3
F11
FE0
0FB
F87
FAB
F24
F29
FD8
EE2
0D4
0A8
F1E
FBC
0F2
039
08A
F9A
F37
096
0DE
079
015
F25
093
FEB
074
072
F68
0B1
F23
F51
FC8
08C
F1A
FEE
042
FDB
100
FDC
029
F8C
0B9
FD6
FC1
0C1
F10
FA8
0A1
099
FBC
F7B
0CA
012
08C
F3E
0ED
FD1
0AB
F59
F46
FD3
F69
F0B
F16
0E9
0A1
F42
FFF
F2C
F5D
056
0E8
FCE
0C4
EF8
FC2
09D
034
060
060
08F
F97
0B2
F43
06F
01C
F0E
0D1
FAD
F4E
107
0DC
01B
F76
F76
F33
011
03E
0B2
F81
0ED
FB6
0C4
09E
FCD
018
101
F4A
0CE
FB4
FA0
04A
0DB
F4A
032
F3A
FB0
071
F1D
09E
0D4
0AF
FA3
F37
F2D
EFB
FDC
F2D
0DC
FA2
FDC
FD4
F6E
F57
F1A
FAB
F19
006
053
FAC
026
0C9
F3C
F80
F2B
FA0
00D
07C
05C
FC9
0A2
02E
FE6
F34
F85
FD9
084
FD4
0C1
072
FDD
F88
F26
FBA
02E
03A
092
F1B
0F6
100
0C2
FBB
057
FDA
0DD
0BF
F18
074
096
002
F71
035
0A9
F4B
03A
F4B
F5F
FC1
082
01E
079
0C5
F41
FC6
FA2
0F8
026
F0D
FEC
083
EF0
07B
F71
F2A
FB3
FCE
FB2
023
0E8
051
09C
FEB
F55
FD8
F58
0F7
0B0
FC4
094
F79
F75
0D9
022
009
03C
F63
F37
F87
0C6
042
FA2
F24
023
0D8
092
FC9
079
009
01D
F39
F69
F84
F7E
090
009
F26
F92
039
F89
0C3
F41
FBF
09D
F76
F70
F5C
015
0C7
07C
054
0CD
F62
F4A
075
0AD
F87
F54
0CD
0C6
FB2
FD4
0C7
FF2
FE0
006
FF3
F96
036
FE3
FED
F20
0F4
0D7
FB3
02F
FCB
F82
F79
F90
FC6
F3B
FF3
F55
0C8
013
F61
F5B
005
F77
FF9
03A
F9D
F3F
F82
FD3
F46
F22
F81
F12
08A
100
F5F
FE0
FEE
FD6
020
0E9
F18
08B
033
08D
074
F86
01C
063
EFE
09E
F4F
FDD
FBA
053
040
EF3
F65
FDE
F28
F80
F2E
F53
F64
087
014
095
F36
FC4
F77
0AB
F8E
F03
F98
06C
048
0DA
F44
F0C
097
F07
F7F
F4F
01D
FF6
02F
088
0AE
F86
081
0F0
F66
F37
0C4
0E4
FFA
0CB
0E3
FD6
003
FF3
F2A
0D7
0D0
104
F5A
F81
000
0D6
0C3
FB4
036
0BB
0B2
F55
FD3
EFF
F97
FA7
047
015
FA3
001
FFA
F7A
057
FCC
F79
F69
02B
08A
F83
F01
029
057
06F
088
093
0B9
0E2
0B9
F3E
F9E
F04
FFE
F7C
07D
F99
F9F
06C
F68
EFD
F64
00C
06E
FB4
F5A
FF7
F00
0D1
FA0
049
056
0E7
F3F
F72
065
061
0A0
025
F05
018
F34
0D6
F4A
FC5
083
051
07A
FE3
FAA
0CF
0A7
05F
F9E
047
0F1
0B6
0BB
FC6
056
069
026
FD5
FAA
FEB
036
F68
056
F91
F7C
044
FEF
FE8
FDC
0AD
FF8
F1A
F37
F0E
F73
0BE
031
F1A
02E
FB7
002
F95
010
FCE
FB4
F5C
099
0BA
07B
012
F61
047
F2D
041
028
F2E
F8B
0E9
056
0D3
F83
FD7
FDC
F98
F58
FA6
013
FD3
F66
F33
025
029
EF3
003
009
F54
033
05F
F3B
FFA
F64
05D
F1C
0F0
F65
FED
EF7
0D0
09E
EFF
F18
F2D
047
030
F40
F96
074
FCB
03F
F19
F84
F21
FA8
09F
F45
08A
0AD
F84
0E9
0C2
F1A
0C8
01C
0A1
FC7
F2D
FFC
F92
FD1
F49
F03
F78
F1B
02C
09A
FF8
0F4
FCE
0EA
014
024
F4F
0B1
FD8
F12
FFF
0B4
FC8
051
02E
031
0D3
F6A
0D1
106
052
FE9
021
F0B
F3D
FBF
F97
F5F
081
F01
096
FAF
FB3
000
FB7
FBC
026
FD6
F8A
02E
0BC
EEB
025
EF0
083
F88
0D4
07E
EF5
F07
039
0E5
F57
F87
101
F31
09B
F80
093
F11
FC2
01C
FED
FF1
01E
F2A
FDF
F5C
0F4
0B8
07E
F90
06C
FBA
0F8
039
FDC
098
033
086
049
079
0E8
FBC
F45
04F
FFC
0E4
076
FDB
FE2
F0B
06E
0DD
081
085
F26
F9A
0FC
0BF
09B
091
F91
0B2
0B3
F3E
F7B
F42
015
002
035
FDE
F4C
073
F09
01B
0B4
FAA
FFD
F32
00D
FCF
F94
039
F01
F06
0A0
F5A
0DE
F51
FCF
09F
07C
065
0B7
F5B
F26
037
F48
FCB
005
F85
058
02B
F36
F77
049
0BD
0FB
F2C
F54
0C1
FFD
F23
F80
053
02E
FDE
EE5
FB6
F0F
EFD
0DF
080
0EF
F05
F91
FCA
FAB
000
068
0A7
F18
0BA
FF0
EEB
F3D
0A0
075
085
FE3
037
04A
0FF
F72
F6C
F8B
05D
F50
FAA
F82
F26
08D
088
FCD
F97
F7E
F77
FBB
FB1
096
F80
052
FCF
0A6
04F
03F
F57
050
F04
03F
0C1
0B9
072
F11
0A9
FED
F53
FA1
097
F22
F95
FEB
FBD
0E0
F75
0CB
F67
FDC
099
0A9
07C
F9E
FFF
FB4
F70
000
F51
080
F0A
FDA
0CA
07B
F7E
080
F8E
0A6
F4B
016
035
064
F18
F55
FC3
FA7
0C1
0F7
0B6
FB7
FCE
04F
FB2
F2B
090
F1A
003
0D1
FB9
FD2
F1B
F9E
F0C
F35
FFD
087
0C3
F60
F23
071
038
F54
063
0A4
05E
0DE
FBD
089
097
066
F4D
FD2
F1E
F09
0A0
058
EFA
032
F12
0C0
0E7
0C1
FCA
08E
FA9
079
043
FFB
FAF
073
F7B
006
FB2
08B
094
F67
F94
F71
F28
FE9
F1A
FB3
FCC
0DA
083
02E
FF8
F85
FC4
0AD
097
0E6
0B1
FA9
F0A
029
FB6
0F8
0C8
09D
FA4
F90
F9A
FC5
F02
0D3
02C
FD4
057
094
09F
F19
FBB
0A9
FA3
FD8
075
060
002
FAE
0A1
00C
FD2
F82
038
0DA
00D
F81
024
F31
011
078
071
022
0F6
087
FB0
0FE
F35
FC5
F42
051
0CB
0CA
F2D
06D
F94
021
03D
FE2
08D
FE3
03C
FF4
074
028
09B
020
0FA
FF1
027
F32
F88
F67
0FF
0DB
F76
03C
026
FC2
0ED
0A7
085
F0D
F4C
047
FDB
066
FB2
F87
0B2
FC4
FD3
09C
F41
02B
002
071
FD9
0C5
F88
F95
032
FF4
F1C
FBB
040
0F4
0D9
018
F22
0C8
FB3
F88
0A8
F8F
05A
FC7
000
F1C
015
003
FBE
FB7
FEF
020
FB8
0B5
F9C
FD2
0DB
038
06D
F4D
F79
F57
0EA
F81
069
F7F
0AD
FE7
F4E
086
F3F
03A
F24
019
0D6
091
083
EFE
F8A
064
FEE
FB3
FA0
102
044
004
0A8
F5A
F84
0BA
08A
02E
F2A
FAE
0B2
02E
FBC
FAD
FD8
F51
01D
F58
09B
00B
F94
F3E
0B5
0E2
0EC
0BB
06C
05A
F3E
F26
002
F98
F4C
028
FD2
08A
091
0BF
056
0C8
F27
FF8
09E
FB3
0D7
FC1
092
0C8
063
F4C
F3C
006
038
01E
022
0B6
03E
0A4
F51
F8F
FA8
06E
04C
FA1
0BA
10F
0AF
FEE
F16
F0B
018
0A2
F04
F21
07A
FAD
01F
F94
0CC
FFB
F9D
F64
FA0
FDC
F51
F75
047
FB4
FBB
FE7
F28
F18
00C
04A
06E
FB2
F0F
F12
FB1
0DE
038
F93
FAB
0BD
0E2
01C
045
F2F
F99
F3F
F7C
F7D
0E9
000
071
031
F20
FD1
082
EFF
001
082
01D
000
063
F6A
0B7
02E
FDC
F9D
FB3
F1F
0E0
FAE
074
F39
FB9
FA5
F13
0D2
070
0AA
F6E
F9A
F96
FE0
053
FBD
F1D
021
FAC
F79
FFC
029
0EA
F64
060
F31
06E
09D
F8F
001
FF5
FF8
0ED
04B
09A
0E9
F15
F9B
FB0
0FD
F69
FF9
FFB
110
035
FBD
01E
096
0C2
F27
055
028
F37
09F
021
03D
0FC
FD6
10B
0E3
10A
FE0
0D6
0CD
F56
F53
0CD
077
F29
02C
069
FF6
06E
093
060
09A
062
0D6
FDD
0F1
092
083
067
FFC
114
036
0E6
FE3
F2E
FC5
F96
FDC
FDF
0BE
F8C
FB8
039
0F5
017
F62
01F
F67
FE9
071
FF4
0A7
0CD
041
FEB
014
06D
0FE
0F7
F99
0D1
070
F87
017
03F
FB1
F88
092
0DE
018
F37
F80
090
FCA
0B1
F9E
F09
FCF
F1A
07C
F60
FC0
F69
017
F4A
09F
FEE
04C
F06
0CA
0F6
019
FC4
015
0A2
F77
F3B
027
F76
06F
0FF
F95
FD3
0AE
F6E
038
004
FF3
0BA
F56
F9F
F95
033
008
F7F
0A6
F2F
08B
F5C
0B2
05A
0C6
0B1
064
EFE
0E3
F2F
0EA
F4D
F86
080
F52
03E
0B0
FA1
017
F6C
FEC
084
071
001
0FD
088
07A
0A6
F41
F5E
0BF
109
0B2
067
022
F5B
FBB
F72
038
F39
F2A
02A
F78
076
080
097
F35
FDA
0F9
FB9
F4C
0EB
FCC
0D6
F47
0F2
048
F89
FE8
F1B
103
03D
084
F6E
F71
073
0EA
FB5
101
098
07B
057
F32
05A
F92
0A6
F95
F0F
FCE
FFB
0E2
F9D
0DB
FA1
027
097
F49
0E0
F51
031
F5F
0DA
F65
FE4
0CA
108
FC0
05C
FB7
037
01C
012
034
F94
FDE
065
F94
107
F10
0DC
FFE
F1F
00D
F39
F9C
FFC
F27
0CB
F3D
F37
01D
0AF
F11
0C9
FEB
010
F53
F68
F47
03E
FA1
FF2
F0B
080
006
FCB
0C7
FD7
0DA
F60
FE9
063
0C8
FD7
0E0
083
0B3
F7B
F0F
047
0CF
08F
EFA
06F
F46
007
0B0
F95
F9A
F5E
FE8
0A3
03F
0B5
093
F91
029
073
04E
106
F1B
031
05C
07C
FD5
0C0
07A
F2F
048
FD5
0A0
FA3
0CF
0DF
033
F0E
019
0C1
0D8
F4F
08D
08F
FDB
044
F54
FB9
0B1
F20
F00
F42
FCE
FD1
0ED
029
058
026
FD2
F5D
027
007
102
0DC
F10
0E4
FBF
FDF
FF8
F17
09E
08A
FA5
0EC
FBD
022
0E3
FC3
F2E
0DC
F08
F05
08D
F31
FC2
0A5
0BD
001
F77
086
FE6
00A
0B2
01D
F00
F65
00D
F19
0E5
FB6
087
FEE
074
FDA
0CB
06E
FED
05E
0BE
040
092
FF6
FC8
FE0
FF3
016
F78
FF9
02C
080
005
F66
F02
0B7
091
FD5
F25
0B1
02D
0CB
07E
F27
F81
036
016
FA8
FE2
000
043
00F
F92
F07
F25
F58
043
FF0
FD8
09B
0AC
08F
F33
078
002
F36
097
FFC
0C0
03C
EFE
02C
0B5
0AD
FA7
FD0
058
00C
FE2
006
FC8
F0A
F4B
F2F
022
F64
FD4
07C
F9D
F8D
F0A
F93
EF1
024
FD9
060
0E4
0C2
F1F
F97
F6D
F6C
FA9
F8B
FF9
FEF
F37
0D8
02A
F5E
FD3
F98
F8A
FB5
0F9
F7E
0DB
008
0DF
0FB
FAB
FBF
0E5
005
03A
F35
05F
0D0
FA1
06C
F8F
FEA
F2B
080
010
09A
F59
0AA
F81
019
FF3
004
FD9
04D
F03
FDF
097
F22
04B
F07
06D
F42
FFC
F99
080
EF4
F04
F9D
062
09D
024
F8A
F67
061
0D0
093
FE6
F6F
059
FC5
090
044
0D2
F02
F11
076
0D4
0FB
F51
0E1
0D5
071
0D2
F72
F08
05D
006
FEE
FDB
035
0D1
107
FD9
00E
0AD
FDD
048
FD3
FEC
072
0E9
FF0
028
093
F10
FC2
F08
F1D
04A
F39
FAB
067
F08
02F
FE0
00E
FEB
F84
065
0AA
034
09A
F83
F20
F39
F1B
FD1
F65
03A
F4D
026
FBA
F6A
0C9
060
042
F69
F83
00C
0A0
0FF
FEC
08C
020
FEA
006
FAB
0A1
040
FAB
F6A
F7C
F63
0DF
00F
077
029
00E
FA9
045
0B7
079
00E
F33
089
FD8
FE1
FEE
037
098
0D8
F75
0ED
F86
083
FA1
0D1
0F3
026
06F
F26
04E
092
F13
000
072
F83
F6B
F6D
F3E
090
04D
06B
F22
097
F71
F5B
019
09A
F43
FC0
07E
080
FD2
01E
FA5
F9E
079
FDA
FC5
FE7
079
011
FDD
FF7
00D
0AD
F00
0C3
03E
037
FC1
0A8
FF0
FB5
025
099
07D
FED
F0B
FA9
058
FCF
F4E
F86
FF3
09B
03E
F01
0DC
0AA
0A1
FD0
0A9
058
FA1
FBF
047
F76
04C
087
078
F3D
04B
044
044
F0E
09C
FAE
0A2
091
F04
F19
021
F5C
F26
000
0C4
01A
050
FCE
FA9
0E4
F23
0A2
090
F1C
035
FC8
093
00F
F94
F97
06A
022
052
F2D
00D
000
F78
F76
F4A
04D
100
FBC
0A6
FE0
0C0
039
F6E
08A
F3B
F31
F39
FD6
FFE
EFC
073
039
0AA
050
095
018
033
086
083
0CD
01C
F55
FC8
F14
003
F39
0AE
0EC
F4A
FEA
058
04E
F35
073
F65
FBE
032
F5D
F8A
F74
FEB
F64
03A
FFB
F4A
035
FE1
031
074
0B6
F27
F7E
FB6
00F
023
F75
051
021
FD0
00C
0A2
061
FB3
0B4
031
08B
FE7
F42
F17
0F0
02D
FE2
FBF
071
060
FBA
024
076
066
06F
0AD
F5C
F07
0A0
F1B
0CA
FE9
0A7
FC7
F09
FC0
0E9
0D5
F99
F0B
FB0
FCC
F98
F3B
0C0
F53
0AF
0FF
050
044
F0B
04E
F15
F6C
0F2
F6E
0BC
04E
FEA
FA4
034
F4C
FDF
0B0
065
0E8
0A0
0C5
083
0C3
FDB
032
F7B
0E4
077
F7E
F8E
FD5
FB3
0C9
F50
FF3
049
054
F39
067
095
09F
F40
FC8
F85
04D
012
0B8
0A4
F72
067
F05
090
0D4
052
F7E
00A
00F
0AE
068
054
FF8
F0F
F81
09E
F58
F2A
04C
03C
F56
0CB
0D1
FB5
F62
FBF
07A
F55
F3C
00A
F42
F6E
FC2
F68
F47
FA7
0A3
FBF
F2C
FBD
F2A
0CF
0DE
F30
FAC
0D9
015
EF8
042
0F0
F31
0B3
0B1
04D
FCA
EFC
0DD
FD2
06B
FEC
F38
0CC
FC6
09C
0D9
F33
07B
F82
0EA
050
03F
FF2
F75
046
07E
077
091
F7A
F16
F16
09E
09A
031
F9D
0B4
067
0B1
06E
FE4
049
0FA
090
04F
000
F60
F5A
F49
F6C
FCA
FA2
FD2
065
F90
046
043
F99
F46
F03
023
099
100
089
09F
F62
F7D
F20
03F
FB5
0B7
097
F8B
05E
066
FD1
051
04A
F0F
F65
F27
0B1
014
F78
F24
FC8
F17
037
F26
0E9
F08
F24
F3B
035
F10
0BC
085
031
FF4
101
F83
F65
022
F55
084
F4A
079
FFE
FE6
F2C
050
0D9
0B6
F24
0E0
F18
0F4
09B
FA7
033
059
102
037
073
F75
0FB
048
081
F34
0C2
00C
F75
FDD
013
0AF
0B7
F1B
00A
FE2
01E
EE6
068
F90
F02
027
08A
035
F2F
F2C
F0F
09E
070
0A6
0E6
F6C
004
0A3
F71
00F
07D
0B5
096
F71
028
F71
010
F1B
0B2
FB2
069
0F6
0EC
089
09C
F4D
F64
F1A
068
F6D
F2B
F2E
03B
F8D
F23
F17
0EF
0B1
0C1
F39
05B
F47
FF7
F3E
071
FE7
07E
02C
F3B
042
0CB
066
FA4
085
F0F
0A1
03A
FFA
FB2
FF7
067
F86
07F
F55
060
F48
06F
EF6
021
F20
F8D
0C2
07D
FBC
F7A
F93
F51
0F0
F58
F5D
FFF
02A
0C6
051
F1D
FE5
F29
FD1
0DA
F6A
F2A
F87
0D5
033
029
FCA
FA4
FE5
0DD
F90
F14
F22
098
F5D
048
FFD
FFE
0FD
04A
044
040
F5C
F65
034
FB9
FFC
FA5
F64
0C7
FA0
FB9
F4A
087
F7D
F8F
F2F
075
072
F28
FC1
FFE
F90
005
05C
F64
078
06C
FFF
FD2
F6B
0FE
07A
F86
099
FCD
FDC
074
060
F62
0CD
F9C
FBA
098
F56
FBA
F58
F59
041
088
0FD
05E
0E7
08F
008
FEE
077
F75
04A
0BC
053
085
079
F61
FFF
04F
FED
FD9
FF6
F5C
0C2
F81
053
FA0
03C
FE2
F13
F88
F64
029
F46
FAA
F9C
04A
01E
0C4
0CA
FF2
F24
FAE
FF3
F0F
0AB
08A
036
FAA
F2C
087
F98
EFD
F89
F36
0EE
02A
F6F
0BE
F42
F8E
F8A
117
0CF
042
0C4
F42
FBF
FF5
F43
FD9
F03
F32
0A4
F6D
083
06E
0CC
036
096
09F
F02
FCF
025
092
0DD
0BD
055
00C
F57
EE7
F9A
0B7
F77
F5A
F5D
F8A
088
021
0F4
FED
FD0
F47
FA9
0AA
009
072
0A7
FB5
010
068
047
FA1
0CE
03A
0E2
FA9
FAB
FF0
098
0C2
F35
FEF
0EA
090
0CE
102
0C3
FF9
F72
0DB
F67
FBC
F63
036
066
0E9
075
033
F8D
FB9
082
F4C
FD5
EF9
F09
0D5
FCB
F3D
018
0A9
0ED
EF7
02F
FEF
F4D
0A6
EFA
050
095
F4B
F8C
008
098
0D2
FB6
FF3
0CF
0CF
FF3
F45
FBA
F84
F2D
059
FBD
F11
008
051
0B2
F50
0CB
FC4
FFF
FB6
FB8
020
F6E
F50
FE5
F72
029
04C
FE6
FB0
F59
0DF
0A5
F2D
025
050
011
F9C
01C
F7C
0A4
0E3
FA9
01A
FD3
EFF
F72
F0D
F18
04E
08B
EFB
EFE
058
F27
F26
020
077
F44
EFD
093
09A
033
024
0D7
F3B
068
019
FE1
F97
0B7
FD2
03A
0B6
04C
0C9
F2B
F56
08D
FD5
03E
F87
F9C
0F3
FE0
FA3
04A
0D0
F58
049
073
F67
F9F
0BD
F92
F10
F57
0F9
005
FA4
01F
088
F40
FC4
02E
F50
0E7
037
04F
F47
FF2
F82
F97
072
F93
0DA
F23
F41
0D3
0EE
090
FE8
F8F
F99
068
FEB
0BF
F3E
F51
029
04D
0AF
F9C
053
F87
EFF
0A1
F22
0AC
09B
0BF
0D9
070
F24
F1F
01A
037
F91
097
05B
001
0E8
FCC
F7C
F7D
04E
0AF
F1C
FDE
013
0E8
FA0
F5F
F6A
0AE
FB7
0A8
0F8
F22
0B4
043
09D
0D8
045
052
0BA
002
0BA
FAD
F39
F09
039
FD6
03F
003
0AB
F57
02B
F93
089
0D6
F43
02A
089
05E
0D8
FA8
F40
021
FF4
0D3
00D
0ED
FB7
0C7
04B
F72
0AB
0EC
F86
0DD
02E
05D
072
F63
F50
05F
F3C
062
10A
FB4
FF1
0EB
090
F20
FC7
00D
FFA
F94
F2F
0AF
F77
035
F2F
FBB
F21
FED
F04
FB8
0B5
F53
F86
054
F9C
F31
0E8
04D
F83
002
F57
F21
057
05E
045
061
01B
F63
FD8
FF8
F49
F3B
09D
0E2
FFE
EF9
F85
073
054
024
F0C
07D
FAA
0A3
03B
FF5
013
F87
F4A
09D
07A
FFD
0ED
F74
0A9
FFA
079
F39
07A
03A
032
046
F01
FF7
099
0A1
F14
FB6
F72
FB2
FA8
F91
F37
F3C
09A
045
F44
0A7
F99
F1F
F10
F38
08E
FCB
F87
0EC
0F4
FD3
F5A
F87
FEA
086
0A4
F1B
F74
F67
097
EF7
07C
0AF
FF0
FF4
F4C
F64
F1D
FB9
0F6
F64
F73
077
071
0F7
03C
0FE
0C1
FDC
072
F31
F4E
F14
FF9
09B
F14
09B
F36
F0F
0D6
FD8
007
FE3
034
FE9
F30
0D6
023
091
0D9
F01
040
F79
056
04D
0C1
FE7
0B8
FB7
FBF
0B4
09A
039
02A
F28
06B
05D
FC6
023
F80
068
0ED
F32
FD9
08D
037
F6A
046
FD6
007
FCC
025
F6A
03C
F9B
104
032
0C7
F4B
011
028
FEC
100
FED
04A
FE8
F65
0F3
FF7
FF6
0CC
054
0CC
09D
04B
019
017
0E8
06D
FD3
F3E
0FB
0EC
0B1
FF4
F67
038
F4F
F80
027
FC2
0AD
F87
004
FFB
0F3
03D
FE4
FE5
059
057
FBE
F38
036
F58
0F7
067
0E6
0ED
0DC
FC9
F5A
093
0A7
F20
03E
00A
FDD
F2C
FF1
F8D
042
0B4
10A
F3C
050
08B
0C2
069
