FE7
FE4
FB1
F69
FF4
057
0B2
F25
FA0
F33
F0A
FFA
034
F00
F50
0D4
0CD
07A
F2A
0E1
FEA
FFB
0B0
F72
F92
F4C
F5A
F6D
FD4
0D1
F4D
F7F
02E
0DA
FA2
F64
057
004
F96
F54
FCF
00C
089
0CC
027
F3A
026
F79
FA3
0C0
0A0
0CE
02E
F79
0E6
F12
00E
05F
07D
04E
082
0B7
F34
F9B
0D7
F12
F36
FE1
F6F
0A6
FAF
F3C
F2F
F37
F14
09E
06C
05A
F8B
FD4
F91
F8D
006
F57
FC7
045
0E5
042
F86
FCB
000
F91
0DF
003
053
063
F7B
F33
040
073
FAA
F85
05D
FB3
FC1
0EE
F56
FF8
F87
F9C
054
FA6
02D
FA5
0CF
FF1
00B
F82
043
F42
0D3
F83
F4B
0EE
F12
0D0
F3B
F43
00B
F56
062
06C
076
09B
0AA
FAA
FA1
09F
F51
04F
F78
FED
050
F59
069
FDA
F72
F92
038
07B
F80
057
F7E
FE9
062
085
FE2
FA9
098
F15
F85
FA3
084
EFB
F0A
0AF
08F
F52
031
061
F97
F30
03A
0D9
FF1
01B
0AB
083
105
F04
FD0
001
0CB
0A0
0AB
0BF
088
EF5
0EC
F29
0AC
F57
FBB
F87
035
F65
015
F17
0C0
FA0
F4E
00B
0BF
F2D
0B7
FD8
F42
F1A
0F8
074
F1B
F7C
F8A
F85
F78
F9C
008
0AE
0C9
F0E
FEE
0D1
FC5
090
F93
04B
FF5
097
F67
07C
030
07D
0A4
072
F0B
090
FEA
00A
FAD
F31
F8C
0AC
F46
FD8
F32
02D
F32
FAB
FD6
F01
0AF
F99
059
012
0EB
F8A
FCB
F85
0A9
F14
F3E
024
06D
0CC
08A
06B
0B0
FAC
F98
FF0
F59
F47
015
F7F
037
0D7
F86
034
F14
016
0A2
06E
05C
F7B
01B
0B2
00C
F32
087
0EE
069
FA1
F99
FA0
F33
032
0B2
05D
FE2
0B3
055
F0F
F72
03D
022
F52
0D8
F16
FD0
044
0CB
006
F98
076
01D
05E
FFE
F4E
FBA
F3F
055
0C7
0A4
F56
FAC
004
00B
F32
0AA
F6D
F12
FA2
F90
FF8
04E
F5A
030
FE9
0F9
099
FC2
F91
FD4
0D5
0EF
015
F22
048
07F
00E
046
018
07F
0F2
09B
033
06E
F9E
FA8
069
FFF
07F
F21
0C8
FEB
0AE
0D5
F60
032
FD7
F62
F6C
0A9
09F
0DA
FA1
0F9
FDD
021
FA4
F30
F4B
076
0BA
F92
FA4
093
F71
F7D
FC0
FE1
FBE
F17
FAD
06C
F55
F3C
072
FED
00A
FD9
F89
F99
05A
031
F89
03D
018
0C3
FCB
FDC
F55
069
F75
09D
F31
F08
00E
0D6
F6B
F16
F2A
0A9
FCB
058
0B4
070
FDC
017
083
017
0D7
F77
FC4
FC2
F65
060
09C
F77
F17
01A
020
01D
0D4
F85
0CD
096
055
00D
061
015
010
F57
F49
F97
07F
00E
0E7
F47
07E
01C
0D9
F5C
FBF
F0A
0AC
081
0C3
0DB
062
07F
003
096
F2E
053
F91
FF7
03E
F01
F8C
0BF
FBF
00E
0E1
FC1
011
06C
034
041
F4D
0D0
FF7
058
0B0
F22
027
0DD
FBA
04C
F93
0DD
F32
FD7
F1E
F4B
FE4
049
077
099
F6A
012
F29
0E7
0B9
FFA
FA4
037
F18
F45
063
FA4
0C0
0BA
F5D
0CD
003
FF1
000
0CF
0B2
028
F1B
F35
026
0A0
FC2
006
F92
09C
FA4
046
024
037
0BF
0B4
F01
0D1
FA5
082
F7C
F40
005
09B
050
03D
FF3
03C
F60
FB8
053
055
FBF
09D
0A0
F9B
05F
F15
0BF
F12
0D8
FDD
F23
0C7
07E
071
F86
F7A
0A4
0BB
F36
008
056
F24
FC0
090
0CA
03A
F9E
0CF
0E1
053
FB4
FE5
0D3
046
F27
F0B
0F8
073
FB7
FAF
F79
FAA
0BD
FE0
08D
0C5
009
F36
02E
FA9
009
0D4
F63
F0E
05D
0B1
FA4
EF4
00F
F38
F65
045
0E9
016
053
03A
07F
0E2
089
092
FB8
F56
092
FE5
0D0
F70
018
0F0
00A
FDA
088
F96
F4B
109
FE9
086
F4F
09D
FFD
FA4
0EC
02C
07A
F36
0B0
015
F38
F7A
0ED
F1E
F11
FD5
EFB
FD9
F84
087
FE0
0C4
102
00F
FDC
0AA
F49
0A1
0DD
F82
F6A
FFF
061
0BC
0A8
F77
04D
F40
FD7
07F
F6A
0AB
F69
F61
F7C
0E7
FD3
F6F
092
05A
F77
045
09B
F42
FA1
F3C
065
FD6
0A8
027
F21
FA9
0B0
F72
08D
001
112
0D6
F39
0C8
F25
041
F81
0E7
02B
0AA
063
0D9
FDA
F81
0D2
074
05B
0B9
F34
07E
FB0
0CA
FF2
0D5
FE6
F8D
04F
F77
F71
F29
F29
0D0
FDA
F73
FE1
0E4
0EC
F2F
0B2
0CA
00B
F7C
03B
F43
030
FA8
FF7
0DF
F60
F15
097
001
02F
F37
F5E
F6E
014
09F
F84
F95
071
FAC
F73
F3C
044
10B
FA4
0E6
FAF
01A
037
F7A
F8E
FA0
015
075
F6D
FBA
F95
F63
058
F82
094
FE1
FB3
FDE
FB4
0C1
F2B
0F8
F17
FF2
F5B
F42
076
06A
058
0C4
F97
038
03D
0B3
021
FBF
0B4
FA3
023
FE2
0E3
F3F
F32
032
003
04E
014
FBD
0B8
FE5
F70
FCD
01E
071
FA7
059
F6B
020
0ED
F3C
0D9
087
F71
059
F89
F45
0D4
0BB
058
F59
042
FE9
0FE
02B
048
F63
0C1
F59
061
0AD
111
F90
F71
072
F28
066
FC8
FDD
FE4
FC5
0E9
F78
F4D
082
F7C
072
03E
FB1
001
0A9
010
08F
09F
08C
093
F57
F6A
002
0C6
039
F41
FBA
FF0
F72
FD3
F38
0F3
F37
0B9
F54
FE5
F91
0A5
0B0
07D
F62
0EE
084
071
FB9
F5E
F03
F21
FBB
048
0E4
FE9
059
0C7
072
0BA
0AE
0EB
F8A
0D3
0DC
F2C
086
F91
FFC
FF3
F3C
00B
03B
FE7
FF0
042
029
0BA
FC7
F4F
FF8
005
00B
0D5
0E5
0BF
F04
F77
F59
10B
08E
FF5
0B0
002
FE6
0CC
FC2
06B
00C
F22
F75
F6C
09E
FB9
053
037
FC3
FAD
FEB
FAC
0A8
0F2
FD7
FDE
FA7
F7E
FDE
101
0CA
F6D
00F
0DC
04E
015
F38
08B
FB2
FAB
FC3
F5F
02D
008
0D2
097
01D
107
F79
F66
0F6
026
F7C
F34
F65
0B1
F30
0D1
0F7
F6C
FAE
0C1
F46
F2A
0F0
FF3
07B
F12
FDF
F2A
F21
01F
09E
F9B
F90
FFA
0E1
FCF
023
00E
F87
0A3
051
F8E
060
10B
099
FF7
073
090
F5F
FA9
FC3
F63
08D
F18
FD3
F97
07E
F29
019
044
FB1
F5E
F48
F97
F02
FF6
096
F99
086
0D7
F35
08D
0A5
06D
015
06E
013
F5D
100
0A1
F5A
F09
0A8
F88
0DA
0D7
F3D
0D7
065
018
FE0
FCA
0F0
F86
F81
05A
0B3
F7D
F60
090
F8A
08E
082
F1E
01E
0AF
FF6
FAC
FCB
09B
111
F49
0B5
F8A
F42
FF2
0F7
0CA
F61
F45
F17
F37
0EB
FF9
009
EFE
0C9
F92
F21
FFC
057
F6D
01B
FF0
F3D
F48
F0A
FF1
FD4
08C
0EE
FD9
FCB
0A9
0A4
F7B
F54
03E
0AE
060
F71
F97
03C
048
020
0CB
0FC
040
FF4
F5C
001
F3A
F8D
FD9
FCC
06F
07A
F93
0E7
077
045
F8B
019
027
0B2
0C9
03A
F02
081
0FA
0F0
0FB
0AD
097
0EB
F2C
0C0
F27
EF5
09D
FDE
0DD
04E
F34
028
FA1
EE6
F6C
002
FF5
F37
F57
05E
F67
F58
02A
08A
FAB
10A
FF3
036
FD6
FB4
00A
F83
0A8
FA6
102
F70
F34
F5B
F57
FF5
F30
F52
0F2
0C0
039
FEB
F43
054
FD9
F22
0BF
F1C
F73
FE6
0C5
0FF
0BA
085
0C5
031
FED
F2E
0B2
06C
0B7
FE6
EF8
03E
FEC
008
FDD
FAC
006
F44
FAC
00C
01B
F75
082
F68
082
097
F6B
03D
0E5
F7B
0C7
0A4
041
0A8
FC9
F25
F6A
0FA
F86
014
030
F40
0C5
0B3
077
FE9
0A9
FE7
0D9
FEE
018
F5F
F72
09F
F59
082
02F
096
0AC
021
071
001
FCE
0CB
F5F
0AC
F4A
04B
00C
F41
026
075
075
0C9
0C2
093
FF2
05B
F97
07E
06D
026
095
FE1
FBB
F32
0D5
091
083
03F
FD1
F9E
10B
FA7
0FF
039
05D
06D
F98
0EB
0FA
FB9
051
0A3
F1C
05F
041
F48
FAF
FF1
02A
101
FD2
FDF
F2F
FB9
010
028
F1E
F10
0A9
F4D
F50
F71
08B
F80
F87
FB7
023
FC6
0CB
0EB
073
FE2
043
0A0
00D
0E4
EEA
FE5
EFF
F7F
FF5
050
0CF
F3C
F1F
F94
081
027
FC1
F6A
F53
0E2
FCF
062
01D
0FC
F13
085
0E6
094
F9B
0D1
F85
F5C
0CA
F30
0CB
F87
FDD
0E2
F2A
F0C
F38
F19
094
FD7
F8A
08D
F6E
F07
FA8
0C9
066
040
027
099
045
FA6
050
FF0
0AE
0EF
F44
05B
01F
FAE
0C3
FD5
F63
FBD
F55
065
F03
FF0
019
F5B
F14
FF5
F5C
F67
02F
0A3
F7E
FFA
F5F
0CC
0F5
020
0D5
036
F61
003
FB2
0C7
105
FCB
F24
F34
022
031
FC9
F0D
0B3
F9C
FF2
090
0C4
0CC
F2D
071
F96
029
F5B
0AE
07E
01D
F45
06B
F23
FC3
F8E
023
F34
FA4
080
0F2
07D
0DF
F75
FCC
041
F11
F3B
F02
0AB
F5D
076
010
FA0
081
F97
041
F45
FC8
FE1
F06
FC8
F2A
050
F74
029
002
F75
F3C
FEE
057
F4A
03F
033
04E
F46
FC2
0DF
F9F
FC9
011
FD9
FA5
F55
0E1
F62
F35
F48
0A7
062
FB4
F56
FB9
056
F63
FCF
00D
F18
FA7
0C4
FAE
F88
F05
067
FAC
F73
0F7
F5D
F6A
0E9
0A9
0E0
FC2
F1F
020
F51
FBA
F56
F3C
FB2
07A
ED5
F13
059
FFB
F6E
0C6
FCE
FE4
07E
0D7
0BC
F64
FA3
F08
012
069
04E
F44
0D2
F78
087
072
F1C
F7E
01F
F5C
F56
08A
F5C
0A4
FCC
FD3
08B
F63
FC9
F79
F89
FDE
066
0AD
F2F
028
00B
041
F52
F5B
F2D
078
0B4
007
FA2
F64
088
027
FDB
FDB
0E1
07E
FBE
07F
051
FB2
057
018
032
0B2
EFC
059
031
03E
F04
FD4
F9D
026
027
F16
02C
F1F
F0A
074
097
0F9
FA1
05D
F2B
05E
0A9
FA9
FE2
09D
F9A
FAF
FAE
08D
033
0EF
02D
0DA
FEA
0E0
F60
101
00B
043
05B
028
0CC
F6C
09C
FA9
FB8
F3B
F71
F80
085
FDC
07A
02C
F91
FEF
060
059
03C
F89
F70
095
0A1
052
F71
0DC
F9B
032
099
0F3
03F
FBE
07F
FEE
0D2
05D
0A1
FD5
0D4
FE4
FB7
FF8
F49
F59
F62
0DB
F04
0FA
0FA
03E
FF4
FA2
0B8
F39
030
F91
FB5
F68
045
067
F07
0EE
05B
016
F6E
02A
022
0D3
00E
0BC
F7C
F56
0F4
FC7
F71
FB2
FD2
0C2
FD2
035
F3F
F4B
F56
FD8
F25
FA8
F02
FC0
007
F68
03A
041
FD1
031
039
075
074
FFF
F5F
0FA
039
F13
082
0C6
F9D
F4D
065
0E2
0FB
06A
00F
F0D
F37
FDD
F3B
084
0CF
FBD
08B
FE5
F42
088
FD7
F62
F04
F80
F51
03C
F9F
F12
F60
052
F25
0F0
05E
0C8
0CC
F74
F09
FE9
FD7
001
08F
FC1
F7B
0C0
0A9
FF0
F08
06A
F88
039
FF7
F4B
059
07D
097
FAD
F5C
F1C
F75
F77
030
046
024
0C2
04C
0F9
FC5
FEE
F69
0DD
FE9
FCF
FE6
005
060
FD6
005
07E
078
F89
048
0AC
06E
0A2
FCB
012
F75
0DD
0BA
066
F97
0C8
0F2
FE4
033
094
031
0BF
041
FCF
F22
0DC
F25
FFD
F3B
0D5
F1E
FA4
F4B
074
FF9
076
0AF
029
FE3
FFA
F8D
FCE
F16
0A5
F1C
0A2
020
FB0
005
03A
FE6
FF7
073
F3F
047
F2A
FCB
079
F44
F12
FE2
021
FF6
FC9
F6D
035
0E1
01A
FF8
0C1
0E8
F7D
0CD
08E
F1D
0D5
F76
0A9
FC1
0BA
084
022
0AA
053
0D0
0B2
053
F88
0AF
FB4
00E
FD0
09E
F72
FC2
054
0CE
F31
FBD
027
042
EE3
F60
095
EFD
FED
FCF
F9D
00A
FEA
07F
031
0BC
088
0F2
FA1
084
0F5
F6A
0AF
070
FC0
0BF
08D
F45
012
0BE
0C8
079
05F
032
FBB
FE5
FC3
F5B
08E
F32
FBC
F22
F97
F17
089
031
F0F
FD6
FE6
F35
F13
F5B
083
068
06E
EEF
07A
059
F9F
086
F5D
017
0A9
0D4
FD7
0D5
079
FB2
0BB
FD5
FD0
065
047
0BA
F87
F33
F08
F8E
FC4
08F
F0A
F5F
FA8
06B
0BF
FEA
F42
0AC
FB6
0D4
0D5
FFA
FE2
FAD
FD9
FBD
005
F48
0DE
027
FE3
07E
FA4
F4F
F9B
053
F7D
091
FC5
F5C
06A
F06
0EF
041
F76
0D6
FF7
0A9
0E4
0DF
F27
FA0
FA0
0C8
F99
05B
EF4
F37
F37
F23
03A
F86
06A
060
F30
FF8
08A
0A9
004
09E
F89
F97
06C
0A8
0AF
F01
F13
0BE
FE8
FF0
064
FE6
FB7
F72
FAB
FD2
FAA
054
FF3
0EF
F61
0FE
FAE
F45
072
FE2
FCD
F69
0A1
024
FC2
098
0CA
0A5
FAF
FFC
F3A
07E
F8F
FB2
041
F43
F2B
031
FEC
FD9
F2E
F38
EF7
F94
06C
0AB
049
F2F
015
F73
FB9
FF6
F33
031
083
F62
F9E
097
EE5
FA7
EE7
F41
058
0AC
049
FD6
050
055
0A2
F5B
F27
FBF
051
096
00F
033
0DD
02C
FF5
03B
F7D
0B0
0B9
F5D
0AD
F63
F3A
F56
059
067
FE8
051
FCB
F6C
06F
F08
FD5
EFE
0B9
F29
0C4
027
01A
0BD
F60
FF0
0AB
EFF
0E5
06F
055
040
F74
F44
F46
EF4
045
FC5
014
F33
FE4
0A0
F47
041
0AF
080
028
05C
FB4
FED
009
FB5
F74
F11
F6C
F92
076
08D
086
F40
F09
FAF
0E3
FBE
088
FCF
0C0
0C4
0CC
FB8
027
F8E
057
0B3
F51
FEF
F17
F16
F71
0D9
0E4
055
FCA
F84
0AE
F6A
07B
0AB
049
047
05D
FCF
02C
016
0E8
0DE
FAA
030
08A
043
07A
09C
F27
0BB
F76
FA1
0C6
F32
076
0BC
F13
FBC
0B6
06B
001
042
F84
062
0AF
F83
F4B
062
FD5
FDA
FE0
00E
025
093
FCB
092
059
FCF
01E
FDF
F71
075
FF3
F11
0EE
F9F
03C
098
FD1
01B
FFE
F5F
F43
FA3
F32
0A0
F00
0C5
024
EEB
F93
F70
FB2
08F
093
FDF
FD2
F24
034
03D
F02
EF8
043
F05
0A2
086
055
F01
0D8
F59
040
F1D
F27
084
FD5
FEA
02B
F13
0BE
FB6
059
FF8
F5D
0AC
F31
033
F5D
024
0BE
F50
0CB
FC9
04D
FE5
061
FFF
0F0
F49
0D8
0BB
049
F74
F0D
06B
0F0
0C0
05F
04E
F70
EFE
0E1
0E7
F60
F4E
FDA
045
0CA
015
F8C
0C1
F3B
FF5
FE3
FAB
0CA
040
08D
FC4
FF8
066
F74
FAB
086
095
0DD
F5D
03F
07C
096
0B2
FC9
F9D
F8F
FA7
F21
010
F15
07E
014
049
08F
F68
F4E
0EF
FA8
0A9
F85
FBD
F22
039
05D
063
F39
FF5
0AC
F0E
057
F3D
08F
0B0
F0E
FFD
F4B
EFB
018
F88
03E
095
F61
09F
06E
0FC
067
0F5
0B5
015
F2F
F51
F26
F65
05D
011
09A
F87
F1C
FAE
01F
08F
FDB
0D8
040
FCC
02E
FC3
F11
03F
095
F7A
F03
F8A
088
F40
F8A
F4F
0A3
0D4
0CF
F02
FF0
046
04A
079
F15
0CF
F58
097
085
08D
FBB
FB6
062
F62
FEA
0CF
0CD
027
F0C
0D0
0DA
019
061
FFA
FC3
FDF
FF1
F09
F7D
053
0BF
04A
EF2
F02
013
02A
02C
0B3
F7F
08F
F3A
EE2
F5E
02C
F6F
0DE
F82
F4B
0DD
F09
0F7
F12
01B
047
F38
FEF
F59
F14
0CC
F27
0EB
02A
FE4
F44
F09
F7A
F2E
FEF
015
08F
0E6
F03
F81
FE0
0BB
F36
0EF
0B1
FCF
FB2
F07
03A
F7D
008
F77
F0C
063
F9C
F47
FA3
F80
F3B
F88
FD1
034
EFA
0B4
0A0
07E
0AB
030
F6D
F88
F1B
0DB
FDA
098
072
F32
F15
098
FF9
FC5
F42
027
00C
F26
03A
025
F42
0FB
F1D
FA7
FEB
F92
F56
031
F38
053
026
0A5
FBF
FB5
FE3
FB7
FC7
030
057
FA4
FA5
F1D
F3E
08E
F64
FCB
0C2
039
097
F86
045
086
068
0B1
FBB
F13
09C
F5D
087
071
FBB
FBA
FBD
0F3
FF0
F5F
F6F
019
FE0
F84
017
F15
FEE
0F8
FF9
F54
00B
F4E
FA4
FA0
0F7
071
FC2
F60
F7B
0AE
FB1
0F6
FF3
01A
F85
03F
F2B
09A
03F
006
F01
04A
037
F46
0AB
051
FB2
032
0EE
005
022
0B0
0A8
01A
F38
F23
FDF
017
F34
FE7
F1D
FD6
FCF
FB1
06B
09E
F9F
F6D
F9B
048
087
FAF
07D
F5D
F43
007
0B7
01B
F09
082
F95
FC8
F3A
F30
0CD
FF3
0BD
074
F67
FEA
069
F5A
F31
FB6
008
100
0EA
064
078
F5E
01B
012
F2E
053
0B4
0E3
EED
0A8
F8C
F87
0E2
F38
04D
0DF
FE2
F6B
082
FE3
FE4
0A7
F89
007
0A6
0B8
FFF
F6E
004
FA8
FDA
0AE
FFD
F73
082
070
08C
04E
FB1
F8C
F8A
0E2
FDF
0D8
019
02A
0CF
F18
FF7
0BC
F52
0D7
F9C
0C5
073
F48
017
F9C
0EC
077
F46
F52
F1B
F46
0C5
0A2
055
FF9
07F
FE1
0E1
0B2
0E2
028
04B
F52
F7E
0A2
FB2
F65
0A4
F31
095
FB1
F33
0ED
0F2
F3E
07D
FFD
02F
F57
096
F58
F1F
06F
F42
0A5
FE1
F8F
0A0
0D5
0C7
FF0
FAA
0C8
066
0D3
FB8
0F3
FD9
FC2
F50
0D0
0B8
FE2
06C
F04
02D
F63
031
FC4
F07
0EA
04A
0D2
011
F23
03E
029
00A
07F
07E
017
07B
FD8
0A7
0C0
F08
00E
03E
F04
0D7
069
0D0
FFB
F96
05F
070
F87
07E
F79
FB9
F0C
FE4
0C7
0ED
072
FB8
FC2
FEC
01F
07A
050
003
F5A
02A
F03
FDA
07E
07A
08A
F43
F1C
00F
F53
083
0C6
02D
FEB
0B9
00D
03C
031
0B0
F7C
00D
007
0E3
0D9
00B
F8D
F50
04C
0A8
06D
F93
07A
0B2
F84
02A
0AC
F1E
0B9
F4E
059
F89
F01
F8F
085
0B4
04E
FCE
055
03B
FCA
FAA
F0F
034
041
F4C
007
095
03B
043
0DD
FA7
FD0
06C
F8E
FF4
F31
074
020
F34
F82
05D
085
073
047
F57
F67
0E8
F7C
F4E
083
046
F56
0B2
FCF
F45
09A
F2A
F2B
FBE
0FF
F23
FA4
0EA
F75
F61
F16
087
FD7
0E3
FC4
081
FEE
072
F2E
03B
0D0
FB7
00D
0DE
084
F70
FD2
061
F5D
042
0E9
023
026
0DA
0A1
FB2
09C
F1E
061
062
002
022
FAF
FA7
025
FF0
F51
FC3
069
003
F5E
F13
051
F12
F8A
F17
F74
FFB
04A
071
FCF
FAE
0F5
0ED
F8C
0B2
F2A
08A
0EB
0B9
F5F
013
F4B
F8C
041
FF4
046
F04
07B
F89
FB4
0EB
062
0A7
0E3
FE7
0BF
F3D
0F7
0EF
00A
0C3
FD7
0C2
0D0
03F
F62
F50
F07
FEF
03E
07B
FB8
081
080
0A5
F70
F63
0C3
003
0BA
0DC
044
04E
F75
01F
0C9
FF4
F3E
FA0
01A
F96
074
0CA
FA8
076
F1F
0B5
F26
F81
0C1
FCF
008
01A
041
00C
078
0BB
FE1
0DF
0ED
F4D
FD5
065
046
F94
F2F
F3F
F3E
0C3
035
F9B
059
F8E
FF0
F82
F4B
FD9
068
F46
F88
FDE
037
00E
F33
F89
F28
03F
FB6
FFF
086
06B
06B
033
0EA
F3B
F6B
F14
076
F5B
FF2
09A
FC9
F83
0C4
01F
086
017
0EA
FAC
FC5
041
09A
05B
F00
0FD
09D
007
FEC
F82
FC0
F44
07A
F5F
009
09C
F01
FC5
FA8
FE8
F2C
0F6
08C
F4A
F0F
0C5
0EE
F7E
03B
04D
F12
029
045
EF5
00C
FC0
05B
F50
004
FF3
078
F67
F21
F93
F68
034
09A
06B
F68
FBE
0A7
087
FE9
F14
0D1
F4D
FEF
0C8
FC2
0F4
0FC
F45
F32
F63
FD4
F64
F08
09D
04E
FD8
F26
F16
F9C
0BD
FAA
F93
FA3
0BA
005
005
027
FF4
F64
0EF
F18
0CD
04C
FBB
FE7
FBF
F20
082
097
F46
FC6
036
F6C
03D
091
0C1
F3B
FD1
FE7
0B4
07E
F8F
0BB
0B7
0B8
FD6
F03
F94
F3D
030
F06
004
F0B
FAC
FBB
F23
06A
063
F96
FF6
0BF
0E4
F6F
020
0B3
026
F80
0E1
016
021
F16
083
F38
03B
F2D
FF0
FE3
0D7
0A3
FCB
031
03E
F02
033
FCD
F95
0E2
0E7
F50
F84
F90
011
058
0AC
F05
055
0EC
0B7
FA2
FF6
0BD
0B3
013
F93
0B1
F69
FF6
0CA
032
0AC
FC1
050
F81
F29
FD9
036
F2A
F4E
0DE
F46
FAF
0C2
FE5
058
00F
FA1
FB9
0F5
09F
02A
FB7
085
080
F75
0A6
FFC
F7C
090
01B
EF1
FB5
F4E
FD7
F7D
039
0DA
0D9
F49
F98
055
F78
FA9
0B6
FBC
063
029
02B
07D
F51
F2C
026
0BA
08C
086
FBD
F1B
F3E
0E0
06F
F80
F52
F14
FDD
0C6
FD5
F53
FC4
09D
F67
03C
F95
06B
FCF
077
068
06D
0B7
F5E
FAB
F23
F67
FF1
F8B
004
07C
094
058
F54
F5C
F1B
F24
F26
F56
F29
EFF
FF4
004
F10
0CD
0C2
0BD
075
F21
FFD
0D1
006
F7C
076
F57
FDB
F7B
F83
0A1
F68
078
F47
F9C
FA7
0E7
F97
0EB
F22
0E2
097
0F7
F71
0F1
024
047
088
093
09C
FC8
F8C
F5E
07C
090
F77
F8B
F1C
032
FA9
F24
F6A
058
F3A
F26
F8C
F3D
FD4
F33
F39
09C
0FD
09D
0B6
FB3
0BF
02A
EED
F68
F35
08B
F44
0D1
FC5
0CB
FF3
02A
005
0BC
F3F
06A
0EF
081
02F
F40
094
05F
F12
031
F2B
F7A
054
035
0EF
F1A
F61
02D
040
FA9
0C3
F16
F79
08E
023
FCB
0E3
053
0A1
F26
F7A
044
104
FD4
F29
F8B
03D
FEF
0D3
F4A
024
0D2
FAC
F5F
0A6
0D0
0E7
F8A
F5E
F56
FFE
0DD
062
F3E
F8F
00C
FCD
0A1
F07
0E9
042
F4F
0AA
FC8
F15
046
FD5
02A
035
03C
06D
F50
0B4
080
01E
F7E
F08
0A4
0EF
07A
F9C
FF5
0F8
FD2
051
F7A
040
0F6
07D
0D7
FCD
078
0EC
FBB
F5B
FCD
F59
106
0A3
0EB
013
FC7
0CF
036
03B
0D8
FC2
080
00D
F50
08A
F9E
F8B
078
F32
EF3
FCA
01E
FF4
049
F4D
FD8
09D
0EF
010
0BE
0EA
02D
028
03A
0B8
010
005
F0C
F4D
07E
FB2
F89
FB7
F1E
FF2
046
08B
FA2
F32
03A
F5F
F6D
FAF
0D5
F11
FCC
029
FDE
0FB
F8B
086
02E
F3C
099
059
080
F3D
001
00C
F4A
F44
F70
02A
F5F
0AB
093
F26
046
F94
F64
050
002
FD4
08A
FA8
08D
04E
0E5
0D0
F09
097
034
06A
067
FCD
F95
06A
F80
07E
F80
F1C
09D
FE6
04B
07E
100
05D
05B
050
F80
004
F43
F30
F56
0A0
F7E
FE4
011
0D9
FB0
0D6
0A3
F36
F88
005
FB7
0EB
F4C
0AA
F20
05B
01B
F88
0B0
02E
F94
FEB
0C3
FF5
FBC
0F8
01E
09D
F32
06A
096
FCF
F29
03A
064
0D0
FF6
F40
FD4
F45
F1D
0C5
03A
F7C
F23
04E
00C
029
F53
FA7
0BD
FE4
0E4
F8F
0D0
FC6
FD5
063
00B
0E6
06E
FF6
FC0
0CD
060
F30
FA6
0EE
FC2
064
01A
078
0E8
FE9
FC4
F06
FE8
F86
F27
F63
F91
F2E
0E4
0DA
FAD
092
FD1
0A7
F31
F90
072
FAC
057
025
F4B
F61
03F
050
F9F
0F2
F07
00F
069
FB8
030
0E0
F1E
F11
F50
FAE
06D
F7E
FBD
FA6
01F
025
0D4
F0F
F60
008
094
096
007
F4D
0D4
F21
01B
04A
F94
F27
F13
06B
04F
F71
04C
FC8
0A5
015
F68
0BB
04D
FD4
0A0
074
FAF
083
087
03F
03C
0DA
FB1
FC9
F8D
F68
FAA
03B
0C1
F9F
FE6
07A
FDA
0C6
FC8
F33
FFF
FB2
F01
F60
093
020
FF5
F78
0E7
FBF
0A8
FAB
F3F
F34
0C5
FA4
F37
03B
FD5
F2F
0F2
026
F90
F5C
F19
F4F
0BA
F45
FAE
F1C
0BC
F1A
FE4
F74
04D
032
FCF
058
01A
F58
F0F
0C1
02D
0D7
0DC
F30
0EC
F4D
F91
04F
FC4
F2E
020
036
049
098
039
091
FE6
F92
F9A
0D3
09F
007
F8F
F00
0CC
F78
09D
01D
02C
F2F
0F6
0EF
F3B
04E
F47
109
FFB
074
F52
F30
FBF
F1C
0C3
0FD
F74
F95
FB5
F7A
036
F66
F71
009
F3B
F68
0D1
F9F
F44
F38
0A4
F81
F86
0BF
0E2
0C2
0CE
01A
011
09D
FF8
02F
0D7
F2E
FE0
048
F20
0C3
038
0E3
07E
0E9
049
01E
04B
FD6
F2D
FA7
F15
0A7
FBC
FB8
FB1
FF5
0B3
FF5
074
01C
108
F5F
F9C
016
003
F26
F33
0F0
05F
066
F35
F3E
008
FF6
037
075
104
FC0
F64
08A
F84
0EF
FF7
049
016
F5A
F0A
0CB
0D9
F77
07D
FB6
FF1
FEA
058
FCD
F2D
0B5
F9A
099
FD6
FBF
F25
F13
0C6
019
0C7
00B
