FB3
0AF
F5C
FEC
F5E
F1E
050
F36
FC1
FC7
038
F49
02D
0BD
F8D
F6E
F57
018
F86
FEE
05D
FB7
FEB
088
0B3
0FB
0D0
047
FF2
F9B
FE3
F01
FF0
093
09D
000
022
02B
054
F58
F3A
F9B
F84
0AA
0CF
0BE
F41
038
070
F6C
F06
0D9
0BE
09D
F88
FF7
01C
F8F
F0B
FAE
022
011
04C
024
0CF
0E8
070
F5C
F04
0A6
03C
084
F8C
0F3
010
06E
01B
0C8
FDB
F7D
FDA
07C
0B9
070
0DF
015
F01
F24
F6E
0F7
038
FA9
FCD
FCA
05C
099
F62
0B1
F9B
F90
0C1
050
03F
02E
017
FCD
F56
0C3
097
0F7
0A7
FFF
F6B
F29
0A4
0C8
05C
04C
043
084
048
FD4
EFA
07D
0AE
00A
0A1
F40
F78
FCC
FF4
008
0F1
F5C
F54
F8A
FBE
003
F4C
0F1
05E
FBC
F2E
0EA
073
FE5
F59
03D
007
07D
F8E
0D4
FA3
0D4
002
FB8
036
050
F71
FF7
0BB
05E
F0A
05E
05C
070
FAC
0A5
0D2
FC4
0C8
017
078
05F
F88
F8B
FA9
F4C
FAD
0B0
087
F62
FCE
FD8
0D0
FFC
F7B
F34
002
06F
F0A
097
0A7
000
0D4
F26
FB7
F5D
F15
03F
06D
094
050
025
082
FD5
F80
0F2
F08
075
0C0
F9E
028
F55
F55
F7D
0C6
09A
0FD
FA3
023
F8D
03B
03C
068
062
049
09B
FBA
FDE
08B
0B4
0ED
F34
FC7
065
F14
070
FBA
096
F1C
FA1
FE5
038
F44
F86
0BB
0DE
0AB
F67
F5E
F30
09C
0C9
FB7
FC3
034
02A
F01
F06
FD4
FB6
07D
010
004
05A
F40
076
000
0BE
FBC
F74
F0F
F0F
F01
0BB
F49
FFC
FB5
FA5
027
0A3
0A3
F5B
F17
010
F14
FD7
F8D
F42
FCF
FBC
FF9
FF5
EFF
F26
0C5
FB8
030
FCE
07D
0D5
00C
0E7
FFB
0DD
FE0
075
F1C
F8B
F62
004
F8D
0E8
F95
0DF
F59
F8F
F0B
02D
034
055
05C
0A1
070
F35
012
08F
F65
FFD
F75
F50
0D5
F62
FD9
0B3
F2A
024
FE1
08D
020
08B
0A1
082
057
09A
FC2
F3A
F3B
FF3
014
FF5
FA8
04F
0B6
F78
074
09D
058
017
F1D
F72
F06
07D
026
FF8
001
078
01C
058
F4E
F21
F4F
F47
F22
F63
FD6
F40
FE8
0CD
06F
F66
FD0
059
0F3
F16
FF0
FA2
FE6
0F8
F3C
0B5
FC5
051
0E8
03A
0B8
0C9
009
F2F
F43
F15
FB0
F3B
F8B
054
0D8
FB8
F24
0B1
063
FE5
FB9
08D
01D
F91
044
F66
07D
F67
F6E
034
052
EFB
077
F4E
FD9
04B
F9E
0E3
F68
F50
F8A
085
0CF
FE6
0DA
F57
FF1
067
F4B
F8C
020
F94
045
01A
F82
FCE
09F
F9C
0EE
F68
0C3
073
009
FC4
FB9
FF5
FE3
006
F26
03F
0ED
F87
FD2
02F
F4C
FAE
FE6
0D7
04C
031
FA4
F6C
080
00B
EF9
045
F7D
034
0D2
0CA
FD0
031
F11
0C8
F70
F21
F15
099
F8D
010
01B
F6F
FCC
F3E
FBC
F36
F8D
0EB
045
012
097
065
0DF
0C5
F05
0B4
0F9
02A
FB9
FAC
083
F5C
0A0
0D8
F14
095
021
FB4
F54
F53
F14
0C8
F1A
040
0AB
FCD
F07
F71
04F
0D4
0CD
0BB
F86
0EB
0A1
094
F30
F54
F37
062
FF6
F5D
F96
F55
0F0
07F
0DA
043
08A
08E
063
FDD
00D
F64
FD6
003
F79
0E0
F86
04D
F69
03E
F83
F85
03D
FE1
F31
000
089
F8E
0AD
FAD
0D4
FB7
FA0
041
059
0B7
062
097
FAD
F08
06A
0A9
04A
F0C
FE8
0AF
071
0CC
F1A
FD5
0F1
0C7
FDE
078
F45
022
068
0CB
033
FFD
F43
F56
FBF
FF4
026
F7D
087
F72
FC6
FF7
03D
FB6
FE2
FDE
F82
FA1
FB5
0C5
F19
094
F3E
F79
05A
022
F6C
0F7
067
099
038
FFD
103
F22
F74
082
045
09B
013
FD7
F4C
F27
FE6
F0E
F15
060
F36
084
F42
F88
F84
002
0C6
0CA
F2A
0F1
07E
F38
0C3
FCC
01D
031
0D8
058
FCE
06C
006
F3A
F4B
0AF
096
FE6
FB7
F71
067
F72
F88
005
F08
FA7
0C4
020
F84
052
0FC
0B5
F9C
0AC
FE0
FBF
05D
F55
05B
FFE
0F1
FD9
052
065
FAB
F24
031
F5A
F80
FF0
02F
F22
079
F37
FFF
0F7
0D4
F68
FDC
0DD
FF0
F29
FA1
02C
F9F
F67
F26
FFF
096
087
0E8
F03
079
F08
092
F81
05F
03D
027
0C1
0A2
031
F45
0BA
F37
F14
F47
0BE
F3E
0C5
094
054
0A0
F2A
022
034
FA6
0D7
F26
F70
FDE
F74
F7D
FF9
FBB
0A0
00B
F86
059
0D9
06E
F9E
FE2
0D7
040
F53
FD9
F1D
0A1
0B3
0EC
0CC
FA8
F8C
0F5
045
0F0
0B6
085
0B8
0C8
F3E
FAC
007
075
074
0D0
FBF
FA9
0BF
F96
FCB
FCF
082
02A
F79
0EF
F7C
F83
F08
0E3
F22
007
F29
096
06E
010
F5D
FBD
023
043
FC6
030
044
F98
F44
0DC
060
FFA
F56
06F
FA1
0B8
F11
041
FE4
F91
046
08D
FC3
FE9
099
066
F8E
F89
FA4
068
051
07A
069
03B
0DF
0C5
0AA
0A9
068
0C8
08D
F8D
04C
F2D
F6E
FC0
F20
037
081
026
F33
0BE
F47
FB9
FAF
F20
F80
0D1
F50
0B7
0B0
07A
0AF
F64
023
FAC
055
F25
F71
F71
035
04F
FD0
07B
100
052
087
0E7
0AD
0F9
0B7
F1E
0A2
0AD
0D6
F69
0BA
FC3
003
FE1
0D3
F5F
FEA
F94
05A
062
F32
FA7
0E8
013
0CE
0AD
F43
FDD
042
06C
F36
FD6
FFA
088
095
0C6
0B2
055
0A9
0B3
0DE
F2D
0ED
F66
0FA
082
FAB
07C
082
F2B
FE4
0E8
F78
0E7
0A7
F4F
039
F30
045
FC8
0EF
0E9
F99
FB7
F5F
F4B
0CA
FBD
08D
051
09D
EFD
FB6
F7C
0EF
F04
F11
FD8
F8C
F22
F8F
02C
F10
F46
0EB
0B2
F8E
F33
FB5
01E
F1B
0ED
00F
F9E
08E
0EA
F55
03F
F3D
F54
F70
065
F69
F0C
0AD
F23
0FA
F0A
039
F39
F5D
F66
F23
F80
FCF
096
FB2
F0C
F74
054
066
F0C
025
0EF
F6F
08C
0E8
FE3
FD1
F24
004
06B
F8F
F75
019
0D6
F6A
05D
0AA
F63
07E
064
F74
0AA
F50
067
FD8
FFC
FE1
FF1
0EC
01E
FD2
0B1
F3D
F89
F03
036
FA5
022
FA9
0EA
0EB
084
F03
FA5
F2E
0E0
F85
0AC
094
F60
06B
F0A
FFC
024
037
029
09D
0CF
070
0E7
0C3
005
0AD
FE9
04B
0F2
05C
F3C
0C0
F92
FC0
F4A
FDD
01C
0C0
FA9
F70
FCD
FD2
FB3
F0B
06F
FF8
FAC
F18
F06
FA0
F2F
F61
015
05E
FED
072
084
F1C
FA4
F3F
F89
0D7
09E
08A
FD4
031
020
067
F1B
054
FC5
F9A
027
06E
0E5
FCF
021
073
053
FA8
016
FD2
F7A
F0F
0CB
F9D
007
F6B
0C0
03E
F7B
FE3
08F
08A
F3B
F4F
F81
0EA
FEF
0CC
049
FC8
0C4
F71
FA8
F90
FF1
0CB
FCC
FE8
FC0
038
FAB
05D
F10
F14
FBB
F80
0F2
0A6
0BC
0F6
F4A
F61
00C
F8B
037
0BA
F98
02D
09A
F03
F27
EFE
06F
F3B
03E
0EA
017
F2C
F3A
FA4
F61
0F1
FBE
095
F61
078
0E8
01C
0C6
F0C
08B
096
0D1
F7C
0BE
FB5
F4E
FFB
F77
FC5
F9B
042
F1E
F19
045
079
01E
0E4
F10
063
F6C
F0F
F23
02F
F1C
F36
F81
02C
FF3
F5F
F20
FFA
05A
089
F28
F99
0C6
F7E
091
FC2
F6D
FD9
F09
0A8
0DD
04D
F53
0CB
04C
064
027
FD6
FE2
0C3
07D
04E
FC6
FF9
F1F
F86
088
045
FB7
F2A
F76
0D7
F33
0A2
0A2
04E
FAB
F0D
F6B
F12
FEA
06C
F46
F70
082
0C6
0BD
0B7
0D3
0CA
FB3
0E2
F8E
EFF
068
030
F88
F08
081
052
FCE
0EE
0AA
044
F19
0CA
082
F0A
F54
0C9
0D8
01F
F37
02C
06A
0A8
F1A
F1B
08E
096
F5F
FFE
F68
F38
F17
071
08D
FCE
F9F
FCF
F16
F6B
079
FBF
FB2
06C
075
FF3
F9C
055
003
F9C
FE8
FF6
094
FB8
075
089
012
FE6
F9D
FCA
049
F84
F75
F50
FF9
0E1
0C3
088
FB0
0C8
FE7
F72
0DF
FB3
FC0
01A
074
009
F01
F6D
FDB
0BE
FB6
076
05F
0BA
FB2
FF1
FD8
077
0EE
F3E
EFE
F04
015
F62
F8F
071
F3F
0F0
053
042
F72
02D
020
FFD
070
F57
F85
F67
0BB
08C
FE3
00D
F5F
F25
FDF
05A
0AC
039
0FA
F2F
024
F6A
F79
FBB
F84
09C
071
FC6
005
097
F3E
0CC
F1D
F85
0EA
08B
041
F07
08B
07D
F23
F44
FA0
F23
017
F9C
F74
F8E
0F7
FB8
0CD
F0C
069
FCE
FC4
F9C
05A
095
07F
0A7
0A1
051
093
F63
01E
058
FF0
FF2
057
0FB
FC9
0A2
F5A
073
FB9
F66
005
F93
FFE
FD4
F88
022
026
F3E
0DE
068
F52
07E
F95
057
0CA
02A
092
03B
FF4
FA8
080
076
040
FC6
0AA
035
07E
0B8
FFC
F60
FD3
0A0
007
FCA
031
FFB
FC2
FA2
FF9
F34
F78
06E
FD4
FF8
F2C
FB3
F69
F7B
0EC
FEE
F1D
0A1
041
0D7
FF8
FB2
F48
FCB
026
001
0AD
0E6
FCC
F5C
FCB
FA6
F20
FFF
0CE
FC4
0D8
F30
F86
0D2
F2B
005
F94
07E
033
024
0AE
0F7
FD2
FA4
F47
F0A
F54
F2E
083
0DC
F1D
F65
F06
03F
01A
0CD
F22
075
FF0
03E
FF5
00E
EFE
FE0
072
066
FA3
063
0F6
0AE
EFC
F01
08D
081
F78
07C
082
FB4
F6B
F60
090
0F3
FFF
FF4
F23
0C3
F6A
038
FEE
088
FBC
003
055
F99
006
FC6
F6D
F23
0B4
03B
048
F2C
F6B
0CD
FFA
076
0D2
F80
FFD
F28
0C0
F84
014
FEB
FAF
FE1
FAC
F1A
F86
F90
034
F44
F4E
05E
F8F
F0A
016
F91
050
F8A
0DF
FE5
08F
F51
FF8
021
FBF
F63
FF3
01F
F32
F50
FCC
05B
066
F29
FF8
00E
044
FA7
046
05A
F32
00E
F22
F88
F76
FAB
FE3
082
F86
F3A
005
080
FD2
F95
F6F
0F4
098
F3B
03A
F9C
F0D
FBE
F42
FBC
F37
F7D
FBA
0D2
081
0C7
017
080
FDC
020
FD6
F05
F5A
FA3
F21
0D5
00A
032
F69
0EF
F00
058
0AE
026
0A7
F84
0ED
F3C
F6D
06F
0CB
018
FCD
0D4
FE0
090
F0F
FE4
09C
F9F
F5F
FB3
098
FC5
0FF
F33
FF3
F82
FAD
F3B
014
011
FDF
F13
025
F9D
F9A
FEA
F3C
061
F8E
0A5
F6B
F1C
0C9
05C
EFE
082
0AA
F4D
F27
07C
FE1
F2B
FDE
FAC
01A
F1C
F53
0B9
076
F5B
0C4
FDC
F87
FB4
02C
F62
FF6
FA4
094
09F
0BD
065
0A8
090
0AB
FFA
09A
092
F3C
F1D
03B
0CA
FB2
062
F39
0FD
FF7
F38
FAD
F9C
03F
0A6
0D4
0B8
FB5
F41
FAB
0CB
FEB
07B
011
0F8
FFA
F99
F55
018
FE3
FD9
FC6
F65
F9F
F64
0E0
046
F5C
FD3
FB4
FFE
F4D
FEA
06F
019
EF2
0B7
FD0
F49
0AC
036
0E8
041
0BE
F88
040
089
0E5
FA7
F60
F6E
007
FC5
FD4
08A
F92
F59
049
F81
06A
0B2
F75
0C5
06D
0A1
0C6
027
F94
08F
FB5
093
FCB
0C0
F42
F49
F9C
F71
009
07C
F6D
019
FA0
FDE
FF6
FDF
09E
0C5
0F2
FCC
F35
F68
020
FFD
F3F
F75
F91
F05
FCE
0B4
F4C
F42
FD0
088
069
020
FBA
F22
FD5
FC3
F7C
F02
F28
0F2
0BE
F79
F85
069
FA4
FE8
062
020
01B
0FF
F43
F9F
013
084
004
076
F67
FA7
06E
0E9
F43
00D
0BA
08F
038
FCF
0F2
F4D
099
FEB
F3D
FD0
FEE
F2A
FB1
F4E
F06
FC9
FFA
0D2
F91
058
F0B
FC7
FE7
048
FEC
036
04E
FF6
015
F7C
F32
099
F1B
F35
085
FF8
FCC
F6A
F3E
EF8
037
035
F43
FAE
0E5
FDC
0ED
F70
FB6
04A
F76
103
FCB
F56
F9B
F94
04F
F64
FDE
F6D
047
EFE
0EA
FC5
FE6
F3E
05B
04E
08B
0BD
0BC
033
057
025
F4C
0E4
F72
FD7
076
FC4
FAB
039
FD3
04B
0D3
051
036
07D
0AC
F87
F48
003
FA2
F92
038
F76
0D5
064
FBD
FF3
F4E
EFE
05D
0DF
FE6
063
02D
F65
0A4
052
F92
FFC
051
0BD
F12
01F
018
090
051
095
F97
077
F4B
0AA
0BD
FD1
F61
031
0E0
099
0DC
0D6
F88
051
0A0
FC6
F28
F5E
0AB
F32
F5D
F3B
F11
FC2
0C8
F58
0D5
FB3
076
F86
F42
0AC
F4C
088
F1E
066
F12
F1F
0C8
F22
FA5
FE4
FB7
FB3
FC5
F07
0F8
07E
071
F5B
F6E
FA5
0C1
FAE
039
F6F
0F9
FD8
F15
09C
F99
106
F38
FE2
FA0
098
06F
F35
0E0
F8C
F62
FD3
F35
011
0B0
FED
F1F
048
F91
07D
F16
FF9
F3B
0BC
0E0
FFF
02E
0DD
03F
0C6
FF4
013
FFA
0DB
01F
083
03F
0EA
022
EFC
0A2
FF5
0B9
F5D
0E7
0C9
05F
0C9
0F1
F5A
F54
01C
0C4
F75
08E
FA9
0BE
109
FBB
F05
F9A
0EB
032
FDA
FE7
03E
F2B
0DC
019
F28
029
002
FA2
047
0F9
04C
FAF
02E
0F5
0BD
0CA
075
0C9
041
FFF
F9D
041
F91
0D6
098
0CE
FCD
102
0D6
02C
F81
0C7
0C5
F2B
F34
F8D
095
01E
0D8
009
0F1
01F
F8B
0E8
03B
F19
F1A
06C
FDF
FA6
026
F2C
055
F23
0A1
F0C
078
0F2
0B8
FF7
FCA
0BF
F71
0D5
FEB
F71
F75
F43
04F
0E7
F2D
F8A
030
F55
087
0F2
F77
F71
07F
F54
F36
06F
069
04B
03D
FFD
010
07F
FEC
F2A
048
F58
F0A
F8D
053
FF0
0F1
00E
074
F5F
071
FB8
021
FEB
F99
FA0
014
04F
0CB
04A
0DA
09D
FAA
0D3
073
00E
08D
F9A
FE3
05C
0C6
0D4
FA3
F11
098
FAA
0EB
F2C
FAE
056
F1D
015
0EF
0A6
FB1
F0B
034
049
0E6
0E8
089
0CA
0D7
0C3
000
081
F1C
038
FBC
0DA
0EC
F19
FC6
FDA
106
F98
077
01B
073
FE4
F64
FA2
0D6
05B
FE8
0C1
0BE
FA2
F52
003
082
FCF
FCC
0F3
01E
01B
075
05D
0F9
0E8
FBF
0C5
F75
095
F8E
F48
FCF
06E
FD8
019
08D
FC8
F3F
FDB
F62
037
FB1
091
09E
011
F86
F56
00C
006
090
F1D
069
056
060
FBE
0E0
F33
FC2
F66
F4C
043
0E2
FDF
014
001
107
04C
056
F70
056
FEF
F18
078
F2E
069
0D0
0C8
FA7
014
FC8
0DD
09B
F38
037
054
FAD
0F4
075
FE1
F16
0B7
0AD
067
034
05A
FD0
F61
F21
FA3
0C2
05C
FE9
FE6
FB6
FB3
F3C
004
0AF
0B5
FC0
06C
FFB
F0A
FE1
0A3
FD3
0B0
F7A
064
FB2
028
F66
01D
000
0CB
04F
F71
F1A
F98
0B7
0B8
FE4
0E8
0AA
0FB
F22
07A
FED
034
063
F51
0B4
095
0CB
0BB
F84
017
0E5
093
FFB
FA4
FC8
F16
F0F
01C
080
085
F68
09E
F36
FB6
0C2
098
F40
00F
F88
06D
013
100
064
089
024
0A0
F53
099
F86
0D7
035
054
F59
FC7
F5B
0E4
100
F05
F05
FAF
F2B
FA0
0E6
F23
049
F16
095
050
FEC
F60
FAC
F7F
F67
F89
051
F32
F60
F31
F44
044
F37
06C
028
F52
0D2
FA4
08D
F5B
02B
047
0DC
F72
FCC
F62
F0B
061
075
0C5
053
F14
F5F
FA2
FFC
FCB
FD4
F72
FE4
0A6
02B
F5F
FA1
04C
0ED
040
F18
047
0BF
031
007
092
00B
059
FDE
0C1
F52
F27
F61
024
F78
FD4
0CE
0A5
F37
F81
0F0
FB6
FCA
01A
FF7
0BE
0CE
040
F57
04F
FCA
091
013
050
F23
048
05C
07B
FB8
F23
F9D
F26
F1D
F5C
02B
049
105
00C
FBE
0B5
F66
077
F2F
09E
07A
F3E
0E1
F4C
03B
FC2
FC1
021
F40
F56
0D5
FD0
0CA
007
FC7
F19
060
F9D
F23
F6C
056
095
0C2
0F7
F8F
FBC
0A3
FD1
096
F7F
0D0
FB0
0D6
033
F2F
036
FC2
085
07D
F8F
FB4
072
003
035
07A
F6C
F30
F86
073
F74
02C
023
0B1
0D1
045
0B4
FBB
0E1
FB2
0AE
F69
03D
F1B
FAD
F2E
FBD
010
FD6
FEF
00D
0A5
0E9
F17
F6A
091
054
05B
F99
01E
FA7
F79
02A
0DE
FCB
009
018
085
0AE
03B
F55
0AF
F0B
0B8
0A6
02A
F58
0E3
036
F94
007
F0C
091
099
FCE
04D
F4E
0B8
073
0B1
026
071
F41
F34
FB4
06D
F44
F41
08E
F50
F45
01D
070
F4E
009
FFD
09C
F00
FF0
0C2
FC3
FA4
0E1
FD2
FCF
FB3
076
0AB
FA8
F00
F29
06F
FF0
022
000
F45
058
099
F62
F2D
FB4
06F
013
107
F9C
04A
027
F4D
F3E
F9C
0DF
FA2
0F9
F06
039
0FB
F24
057
01F
F38
FEF
0D0
09B
FE6
042
0A8
086
FFD
FEC
F67
06E
F8E
FEE
09A
F3B
F53
FAC
F29
033
F59
0E7
0F8
F20
FE0
F6E
FB0
080
F14
F06
046
FAB
085
FCD
044
F63
F4D
F18
F83
049
FCA
006
057
FCD
FE0
F74
03A
F3A
F38
068
0D6
FDF
001
FAD
F3A
F4B
08B
040
F90
F35
FC9
0B3
02A
F14
FA7
070
F13
01E
034
0CB
0D3
F36
084
F72
FB3
F58
F60
004
0F1
F8C
F4E
F84
F45
FE9
009
01D
04E
031
F40
FFB
07F
0E5
051
F17
F11
F0F
0AD
096
F07
0C7
FE1
F6C
0D5
F15
0A9
F7B
0CE
F63
03E
0FD
0C7
F37
06C
F1B
F14
FEB
FF0
F41
010
007
FD6
FF0
FC4
0F7
092
014
05C
098
011
FBA
0DE
03B
F4F
06B
F27
053
072
055
F4C
09F
09D
03B
F3D
07A
EFB
F82
F0C
FDF
FE4
08D
F07
04D
FDA
FDB
F2D
F10
07A
0E2
FDB
061
084
F9E
FFC
F59
F13
FAD
FFE
F93
F3D
FF5
F64
023
0CB
FCF
0C1
0D9
FEA
062
FDC
03F
F96
FAA
0B6
F18
03C
F71
F40
002
FD3
F95
F99
01A
016
F82
F48
044
0A2
F1E
F30
05E
F9D
FC0
0EE
F61
0FF
07A
0CF
05C
F6E
07D
0C6
F6B
0D9
FA4
F69
FA9
0F4
F9E
F29
F19
F87
02F
F96
F72
F3A
F35
045
F7C
0DF
0C7
0F5
F4D
0C2
0A2
0E4
01E
F4A
002
091
F82
092
0CE
09E
FF2
0D0
F8C
FC9
098
040
F38
FB1
0F6
F8F
014
0A7
EFF
F33
F35
0B2
FB7
F6C
00C
F74
0C7
FA1
FC0
FB8
F85
035
F77
039
F50
F06
0E7
F4C
002
F28
FF2
09E
018
05F
F82
F25
0A0
F71
F90
0E9
01C
F17
F1D
037
F7B
FBB
F3B
0C6
08B
030
F52
FE3
03F
0C9
028
0CB
0CF
005
F91
09C
F63
01E
F4F
025
FDF
013
FDF
F13
0D0
F4C
FBD
0D8
0F7
018
F09
0A5
0B2
F7A
F8D
0BD
F37
02B
01F
FBF
01B
03F
021
F27
0F8
047
0C0
FEE
FC6
F3B
F43
0D1
0B2
0DE
0BE
FE7
060
0C0
056
FBB
08E
FEE
FD3
FDD
FFC
F26
0D6
0ED
0AC
F75
FC3
FAF
F72
F10
05D
080
F95
102
F1C
F2D
0DF
030
053
055
0FF
04A
057
089
FA5
FD9
084
F2F
0B6
F37
F7E
F45
FD8
048
FE8
FE8
025
00E
F75
F1A
086
017
079
FEE
FC0
0C8
006
058
100
FBC
FE5
FC8
094
F2D
070
061
053
0C3
FF8
094
F7C
0F9
FE6
F58
084
0F3
FEB
031
F2D
F0E
00C
F57
F9D
02E
042
007
F62
044
FAE
F50
061
029
04D
047
F32
0A9
F66
F11
045
067
FCE
F17
0DB
F2D
F2B
069
026
03B
FAD
FF9
064
F41
FCC
03E
046
063
047
FB5
F5D
08B
101
0A3
F50
036
100
F1B
F81
0AA
04C
0D0
F22
F0A
FEF
008
0B9
F68
044
F79
02A
008
F15
F73
F31
FD5
F66
0D3
061
0E8
F4E
0DD
0F5
F89
0BE
FEC
FF4
03B
FF2
046
008
086
F48
F2E
069
FE2
F98
F11
FAB
FCF
FA6
072
FDE
0F3
F0C
FCA
0CF
0D7
FFE
FEB
FAD
F46
F18
0AD
07F
02A
F61
F74
F5E
FE1
F03
09B
F4A
0DE
05D
F99
FF2
FF9
F30
FA5
FC8
F41
F15
08E
0C1
0F8
F8F
072
08E
0F7
F55
FB3
FBD
F3E
F7A
FAE
FB2
F74
028
080
05E
F74
F02
FDA
068
FB1
0B4
F38
0C1
F4A
0A7
0F7
FA2
05C
045
0C1
F30
0E6
021
077
06A
07B
FB0
05E
F9F
FB8
F5E
F0F
F06
01C
0F2
051
FCD
071
05B
F2E
065
046
FCD
06B
FC4
00F
0F4
F13
F24
FC7
F4F
04C
07F
F3F
F96
F6B
F57
FC0
0F5
023
FBC
F21
F64
030
F88
058
0E2
F9A
048
0E3
014
F71
FBE
09A
006
F75
F41
0CE
07D
F40
03C
0C0
F9B
0CD
0B9
0CF
0F5
F3D
0B4
0CD
F9E
FD8
F42
FD2
0DB
FBF
F1E
073
F64
065
F82
F6D
F5C
07C
F3B
070
F23
0B5
0D3
0D4
F6D
0CE
F7E
FBC
F46
03A
08D
00F
F35
FFE
F7D
090
099
F2E
095
0A9
F8F
005
FAD
F1B
027
006
FB2
049
0E3
F4F
FAE
0B6
F00
056
FB2
04E
F22
FFB
0F1
FDC
F83
FBB
0A2
F57
0DA
F56
F2F
F43
F9B
0AB
FE4
0D2
103
F45
059
098
07F
0A8
0D0
04E
FF8
FB5
0C8
025
F5F
095
002
FFA
FE8
FD8
FA4
F63
F39
0DF
0CF
F33
039
FBE
0DA
F5E
0E9
F25
052
F66
036
049
03B
F13
0C9
F29
FB0
F75
0B1
F8A
076
0E8
F08
FBA
FE5
0FE
050
043
050
08F
FAB
FFE
F5E
F41
F49
0E6
FC8
094
069
073
FB0
0A6
0E8
035
F19
FE6
0C3
0C1
F44
078
EF5
F96
FD4
093
FE5
F1C
022
081
FA6
038
0E2
03D
F2C
F15
040
F48
F12
FAE
065
014
0A6
F40
F5F
011
080
0DE
F3C
FC4
020
FD9
00F
F7A
F46
F42
F03
0DD
04A
FBB
F04
FA7
0E3
024
08C
F1E
EF8
F43
053
07F
F49
F96
F6F
FFE
03F
FEB
051
F5F
0B9
FE6
F17
08C
F09
0AC
F2E
F9C
0C2
055
F1E
049
F65
F3D
FA8
F30
FE7
055
F97
0AF
03A
0BB
F0D
074
012
FAB
F98
F1E
04F
0A2
040
006
069
F1B
F94
F47
013
F58
0A8
F9E
09E
100
FD2
0BD
0DE
EFD
024
060
FCD
F59
097
F47
F2B
F82
0D3
FD5
F60
FF6
031
089
028
F41
FEA
08E
00C
FAD
F4E
EFA
0A4
F8A
F5C
052
032
0C2
F02
02B
FEB
02D
014
F72
0AF
F90
FA4
032
F48
075
026
075
F22
F93
F62
FE4
071
0F5
FFB
009
013
04A
01F
0A5
FCF
04A
F35
FBF
FED
F26
0F6
F31
F81
F1B
F38
F5A
058
F66
0C0
FE7
0B4
038
F19
FEF
F54
032
F99
FB0
073
0E0
FCF
05E
05D
0AB
F45
06A
020
05F
06E
F2F
FAF
0BA
034
F2E
FAC
FA3
F7E
F89
075
FD4
070
F3E
F63
0BC
F83
09F
012
0CE
FF6
038
F6E
F6E
F33
FF7
F97
0CB
0DB
0C4
0F6
F72
098
F8F
F93
FB0
019
057
F4C
038
F82
0E9
F34
045
F8F
EFF
FE4
FAE
0C3
03A
08B
FDA
FDC
F6F
F59
06F
0BF
08B
F58
FB0
041
00B
F67
0EF
FEB
01C
08D
0B7
09B
F89
FFC
FDC
02A
FF5
083
0AF
0B7
F4E
05C
036
093
F3E
FB7
F7C
01E
FCA
0D3
FCF
F63
0FD
06B
0E6
F94
094
F78
FAA
0FE
099
FD3
F2F
F3F
0A9
0B3
F3C
0EE
F46
0A7
FE8
0CC
F20
00C
FFE
F8B
0AD
0AF
0AE
009
F8C
F81
02F
F1C
F17
0EC
0A2
F86
057
F48
00B
0A3
00F
F3E
F33
08C
FF3
0E7
0D1
F10
048
073
FBF
097
FD3
0B0
FFB
0A9
FC6
0FA
F40
F1D
085
F76
FBE
06E
0D8
008
FED
020
03E
F34
011
F4D
05C
F06
022
FE6
F25
F02
FF4
F6A
074
FFE
037
074
012
0B0
F1E
FD3
063
FD8
030
F6D
05B
02F
FBF
F0B
FB1
065
0E4
0E4
F21
08B
F45
029
FB3
F41
025
010
F4E
06B
01A
097
092
0E1
069
F63
F7B
0C7
0D8
F03
FCD
FB5
003
FB5
033
0E6
F45
083
00E
05C
F60
F2E
F61
F97
006
F47
F5B
02A
074
FE6
F10
06A
FE0
01A
0D4
087
F2A
F01
01C
F0B
F67
F77
0B0
FC5
FE4
F3C
FCB
01D
F23
0F7
FF5
F4A
077
02F
F8E
071
0EC
EF8
042
0DD
F59
F30
072
0D2
034
07C
F57
0D7
0B1
FF3
0E3
0F1
F42
031
F6A
082
FFB
00B
0D5
037
014
0F1
01A
FDB
03D
0D5
F4A
018
F1E
F30
0BC
066
F11
FCA
F1A
0D1
04D
F43
006
FFF
020
064
0A7
F7B
031
FDB
00B
0B5
FB4
F85
046
097
FCF
0ED
02D
F19
FAC
03F
0F6
FCF
0CF
F07
FA1
0CD
04E
F9D
0BA
F91
074
0C6
08F
