FD0
FE9
065
0C3
0B6
07F
F0A
006
055
0CC
0B3
027
FA1
FFC
09B
064
F1A
048
08A
0C5
056
F22
F77
024
F22
F4D
F32
07F
09D
F66
0C0
F39
F76
F43
0D3
0E9
F68
FF6
F6C
036
FA1
F4B
F21
0C1
F29
FC0
039
F97
0D8
053
FD8
FEE
FF1
F22
02B
07F
F9B
FAD
FCC
F96
04B
F36
017
0E2
F2E
0CA
FBC
086
00B
F4F
0CB
033
F06
FED
02D
FC6
089
0DD
FAC
F97
07B
0C6
F78
074
F7F
03F
07A
009
FF5
015
F5E
069
097
024
02D
F47
F7A
0E6
FF9
040
0BB
091
01D
FD0
F9F
FF8
047
F3A
F7D
FF9
050
042
FE7
013
034
001
03F
0A9
FAE
F82
F41
F2D
07A
F99
FF1
EFF
059
FC0
FA3
01D
F16
F41
EFA
0C1
FC6
038
F5A
F0E
FC9
0A1
092
F4A
0AE
FC5
FF6
FEA
0F2
045
FD6
F1D
0D7
F82
EFF
0A7
097
04A
FE8
058
0B4
F4A
FE5
0B5
0AA
F8B
0E8
FBE
0B1
0B0
0FA
0D0
FA2
009
00A
F77
F48
F3D
08D
060
FC7
F93
096
0A2
0EF
052
F6B
FEC
0C4
F56
021
F6E
09A
0DB
F14
F1E
081
F9D
0DB
0F1
0B4
0F9
06A
F0B
FE7
F8E
FE1
F26
FA2
009
01E
F5F
F10
060
00C
0E0
FA2
F32
F59
0C3
FDE
0D6
0DB
FBF
00F
F90
F69
077
F89
0F0
FD0
02C
060
010
006
F34
096
05A
00F
0BE
FAB
F9A
0D0
FEF
F5B
0B1
F5F
FA3
01F
FEE
FB0
FAA
0C6
07D
FAF
F97
0A8
FCE
F13
FFA
EFC
F2E
F6D
FD2
FAB
0EF
FD8
02C
F2F
0C9
FAB
02F
F22
0E7
F67
050
F06
F73
FDE
006
0D0
F7C
049
070
053
F95
057
FFA
FEB
001
09F
FD6
FED
0AF
F4F
FE1
FAC
0C2
09C
F3E
006
FBE
F97
0B3
FB1
099
05D
0B0
F0E
F4A
FE1
05A
F3C
067
071
013
063
F5E
091
F40
F3E
F9F
F88
F34
02F
FD4
FB3
003
0EB
0E6
01C
018
040
00C
059
F2E
08F
F7A
F4A
0EF
FD6
F96
FAA
FC6
F31
088
082
08F
000
007
093
0DF
FE4
0FA
001
F00
0D2
0D7
0C9
F13
F8C
FDC
05D
047
FBC
FBE
09E
040
06D
F89
FDC
F47
0F5
F70
081
F9D
F80
F6F
FC0
0B4
003
0D7
050
09C
025
F2D
FEF
0B8
F65
049
062
F42
F23
055
02E
FDE
F4F
FED
F25
FEC
07C
06E
F85
089
01B
FE0
FAA
F69
02E
FA6
016
08B
F77
FD8
077
FC0
F22
0E2
F64
F5A
028
0E4
FD5
046
03A
075
FFD
FF8
061
0A5
FE0
051
00E
065
FF8
F98
FBC
F0C
FE1
0D0
0B5
F5F
0B1
069
F34
0EB
040
F47
027
F12
030
0C1
FBE
F47
F41
FF6
FF4
F91
042
F8A
0FA
03A
F0A
081
0AF
F61
F85
091
0BF
0B1
F46
F48
043
FE4
066
06E
F4E
F89
04D
02A
F91
F21
F6F
0B7
0D1
F6E
078
03E
07B
F42
063
F29
0E9
FED
F44
F4C
FFC
F42
F7D
02A
FF7
F51
F7A
0EF
F0E
F02
FA1
087
0E0
F18
054
FFC
F03
F6D
03A
FFD
039
014
FAE
026
F63
0D1
07D
FFF
FA9
0D2
F2B
F0C
096
F27
0E1
091
04E
F41
F89
08A
030
F55
0E9
F03
F73
0BD
FD3
035
F36
022
F77
F5E
F16
FE2
FE0
06F
01D
FEA
075
062
F09
0A2
FE8
F5E
06D
F10
020
F2C
086
07C
037
01F
06B
F42
00F
FEF
0BE
052
0C4
F85
096
015
FBA
080
F05
0D2
F4A
0C9
F9B
0DD
F63
F87
0C0
F44
096
093
0AD
FDF
F0A
F8F
03A
072
F45
045
FA2
0D0
037
F10
F39
F9A
0F3
F1D
02F
F3A
F11
011
011
036
F8F
F71
FEF
F5B
046
014
F3B
FD4
0E5
086
069
070
0D6
F19
00D
FB6
0B2
FB1
084
FCD
0A9
0E7
021
0C2
0D8
FB7
FF7
02E
F45
072
F55
F8A
F28
0A5
001
FAD
F99
FCC
011
08D
FFB
FE1
0E2
F81
046
065
079
026
03F
077
F02
F09
028
005
0C8
FE4
08F
08E
F91
023
FD3
F0E
F6C
FD6
F15
F8A
018
047
F1F
0C3
009
F0E
08B
F6B
057
F2C
0A3
072
F38
0A8
F4B
EFB
06C
F6E
FDE
FA7
F0B
03F
0CB
069
F9A
0CF
F7D
FD9
055
00B
FA4
013
F0E
0CD
058
F2C
0E3
0DC
02F
07D
072
F9A
FE0
FFB
068
03D
FB8
F69
0DB
0E2
0D1
F5E
0D7
FAB
FC7
F72
0B8
FB8
0D2
F2F
0F5
024
FB2
09E
FC3
0D8
F3D
047
FDC
FBD
FBF
FE9
0C9
0AA
F36
F0F
FAF
040
064
05F
F1E
FCD
FED
FC5
F34
05E
F9E
02D
055
FF0
062
FBE
FFC
FE1
061
F48
00D
F7C
FD9
F73
FB2
06A
F9F
FDE
0EE
F77
F50
FA7
F83
F34
FDB
FD8
099
FB8
F0B
FCF
0BD
071
0C6
F91
068
03E
F87
0CC
07E
F45
048
065
09D
F87
FB8
FE2
F73
FCD
F43
F36
0F3
FBF
FC5
050
0C1
F19
F3E
025
F0A
F57
0A3
FDD
F53
F94
FE6
033
09D
0AE
F70
089
F6B
0F6
06D
086
FF8
F3F
F8D
06F
07B
FBE
091
F8D
03B
FF5
062
FB2
FF5
029
F1C
0D9
F8D
FE7
037
089
FA2
F24
0EB
0CF
017
04B
F79
0F4
F38
064
05B
FF0
055
FF5
021
F14
06E
01C
0E5
F3B
F58
F7A
FB9
0EB
F48
F89
FB7
FF6
FAA
F20
093
F90
F90
FC9
033
055
F82
019
FAE
0D4
F3C
092
F53
F27
03C
FB4
0AF
0A7
0CD
F09
081
028
FFC
F20
F53
008
F38
F94
F85
F0C
0B5
031
F5C
08F
F4B
071
F6C
0B5
F29
03C
01C
F0D
F67
F4A
07D
03A
FA7
0A5
09B
F76
090
F94
F3F
0E5
FF8
04E
0A9
F32
06F
FA3
072
05F
062
F13
F91
0AD
00E
035
0CE
05F
09C
035
068
0F3
088
FB5
F03
0C1
008
FEB
F14
F59
019
FC2
071
F2E
EFB
0DD
025
F75
0A3
03D
0A1
0C4
F24
0DF
05A
FB0
030
F4B
FEA
F9B
F30
EFC
09E
0BB
F2F
FB5
F8A
F2A
0D1
023
F89
0C0
FEA
FEF
088
030
0FB
F77
0E1
06A
0DD
063
FDA
F1B
FBE
082
02B
FF4
04D
F09
0A8
F73
F9D
0A3
FAC
F0E
F23
F93
F24
FF9
036
07F
F60
026
FB5
FBC
005
FBB
054
FC9
F11
F26
0ED
FD7
01C
F98
077
F94
F1D
F5A
F63
03D
F01
F8C
F3B
0E2
01D
0AC
046
017
F86
0ED
FF5
0CD
FC2
FCD
F56
F95
F6A
FE0
F80
F4C
02B
EFF
FE3
EFD
0C3
0A8
FFD
002
097
09C
026
EFE
F28
FAE
F42
0ED
0A7
F4D
09F
F28
033
FED
FDD
F2B
FFC
FCC
025
00B
0D9
097
064
004
F0E
FFE
F4C
02C
F56
F43
FCC
F30
04D
EFC
FB9
F99
F0D
F04
F63
0AE
045
FCA
0C3
058
0F4
042
06D
FB5
0C5
01F
F71
064
F98
F96
FC6
F28
031
039
025
F24
F80
F97
FD8
F9B
0B1
FCD
F6A
F55
0B6
0D7
FED
FD9
00C
0CD
F4E
FFF
0D9
FCE
0F3
F24
013
064
0DA
013
0C3
F1F
067
F47
FC7
FEC
FDC
0D4
01D
051
F03
02B
055
01A
0C9
02F
0B5
0B1
FAE
03B
0B7
FB7
FB9
EFF
F46
0D5
09F
031
FDA
00F
F53
0C2
06C
076
F4A
090
F79
F16
F96
FD9
EFD
066
F42
059
FC5
EFC
FB9
F22
0BC
F41
F45
F27
F6B
FBA
0BC
FD9
06D
01F
030
F73
0B7
034
07E
04F
053
FA8
003
FBD
0ED
FD7
0CA
022
098
FD5
F30
000
F7B
0B4
F85
014
037
07A
F30
F22
FC1
EFA
0F1
0D2
FC2
01D
FA8
FFA
049
030
042
FD2
03A
FF0
FB4
F30
0B3
099
F20
F6F
002
04E
008
04D
F2C
F0C
F3C
02D
F43
FA5
016
F5F
0D7
077
00D
0F3
0DD
F1C
F31
F09
081
F89
F89
054
0C6
025
F30
F4F
F1A
076
FD1
F0C
FB6
02E
F6D
0D2
098
0BB
058
F5E
F38
FE8
EFE
045
F43
07F
0E9
F46
F42
05F
FC1
00D
063
051
03A
F84
FCD
0B3
055
08D
FF8
FD7
F97
FFA
F6B
08B
FCF
00B
F25
FB8
EFF
FBB
0DA
091
F0E
FC7
FDD
FE9
0B8
071
F70
021
FD0
F43
0A3
03A
06A
FB7
019
0CD
064
0E0
F0E
FC1
FEF
0D9
0FB
067
F7B
FC4
0BB
07B
009
0CA
01F
06B
02D
F90
0E5
F31
085
FA8
093
F0E
FCF
FE3
020
07A
FD7
F22
F09
093
FCD
F7B
07D
093
F8E
0E3
058
049
FAF
F51
001
05D
026
011
0D7
FF4
00C
F5C
00C
FDB
0F2
FAF
FA5
07F
F8A
03E
06F
0CF
011
017
FA2
012
025
FB5
EFC
0F3
FB3
F95
00D
F60
F9B
F27
F5D
FE3
038
F99
FEB
084
0BB
FB1
F11
FA7
EF7
06F
F49
F84
0F0
F14
03F
F17
090
08A
F47
0A4
002
F5C
0BC
F7B
057
068
0CF
F95
071
FB7
00B
095
F51
F91
F00
029
0BD
F29
FC0
F84
080
006
0E6
085
0A0
F87
06F
019
0F4
FE9
F78
F38
F45
FBB
FF9
0FB
F86
065
029
00F
0F8
FD8
0B3
F17
0F1
FD2
060
F22
00D
F8A
FE8
09E
0BA
EFF
F75
F57
F80
F98
0CE
F7B
0EE
0B5
F0F
FB5
03A
F0F
0AC
0F3
F83
069
F8A
F15
02F
F1F
0AF
F47
010
F22
F7C
085
00C
02E
007
F7E
FC7
0E0
071
08C
02A
FC4
067
F82
089
FEB
F8A
0C3
F2A
0B6
F6F
059
F22
F00
0FA
07D
00C
F0C
0B8
FF0
0C2
08C
0AC
004
03E
F0B
0D7
080
0AE
0BB
F29
091
FF5
F62
F40
03B
F2B
F24
01F
EFF
F54
0F7
F81
0BB
F83
05A
F11
087
0CF
068
0C6
039
088
015
027
028
F13
027
02F
0A2
00B
FE8
03D
0AC
F69
FD4
0BA
EFA
023
050
FCC
08E
0B9
01D
FF7
FA7
0CE
0E1
055
041
FB7
FBA
07F
FDF
0E4
0B6
F84
F81
F93
01F
FEA
04F
037
FC2
040
089
01E
F6D
FDD
0AD
F3B
FE2
045
F00
080
0E7
F96
007
F58
FB4
0A2
F4F
012
028
00B
F1C
0F3
0C3
099
0F7
F00
F82
09C
F12
F42
022
FA4
F25
FAE
F16
FD6
0A9
F6C
038
F3D
F78
081
021
0E2
095
F7E
047
F5D
F21
FE8
F47
0A8
FE7
F08
084
061
033
FB2
0C6
06C
049
058
FAC
F1B
FFF
F74
08B
0F5
0A7
028
02A
06F
0D7
0BC
0C5
008
F2F
F04
FBF
098
F78
045
F9B
EFF
029
F07
0A9
0EB
066
0A3
01B
FA2
F01
F7D
F53
FF1
F82
040
FE0
06B
0F1
024
055
FBA
053
0F7
02D
F83
04C
026
03B
FAB
08C
FB2
FBB
F43
FAE
086
F55
0D7
0B4
FDB
02F
F19
05C
094
06C
053
0E9
F36
F44
FFB
00E
F43
029
F72
0F0
0EC
FF2
0D2
0A5
03B
0BA
FFF
F05
F4F
F0B
037
0C8
0B0
F55
F69
0E3
FD9
075
020
F82
FA5
050
F41
F2C
FF8
05C
099
FEB
00C
FD4
FE5
FD5
F8A
02C
F1A
04D
F57
0CE
F63
092
FF1
F5D
0E8
F67
0C2
F82
0E6
0AF
0C0
FF0
F50
06F
F55
FFC
0A6
02A
F47
0B6
0EF
071
078
F2F
F1F
0D6
026
FC9
F38
075
0F9
F0C
0EB
0DD
F5E
08D
F76
05F
FBA
F1E
FC8
F1A
0C0
F15
F4A
FA2
F74
F20
034
F2E
F28
066
05C
068
FAD
033
F51
002
F25
0C2
F56
0FC
014
F15
F84
FE7
064
F5B
F74
02A
FE6
08B
0F6
F7F
000
0D9
0B3
0DB
F10
0E4
EFF
F10
F28
03E
F31
0B8
F87
032
0B5
FBC
FCF
FC5
054
07A
0F7
F57
F63
F65
F0E
F42
F76
056
076
0B4
0D1
F54
F4A
014
F9B
0E2
0E8
F73
0DA
FF2
FF8
062
F90
F41
F81
F60
FD2
021
F95
0F6
0A5
F92
FD8
F4F
F61
FC7
F11
091
F61
F3F
094
09F
07C
F2F
F67
021
FF8
F9B
067
075
FA7
F83
FFE
059
06C
F55
F17
099
F14
010
FCD
FE0
FB0
F72
00F
0A7
FDB
0C6
003
06A
070
03D
025
FDF
045
0B0
091
0AC
06A
F0C
0CC
FEA
0F4
00A
F5E
F40
077
F9C
F7D
016
064
046
0A9
F16
F1D
FD4
069
02E
FDE
F13
F5E
FA6
F38
01B
FE8
FD0
FE4
F59
FFD
0D3
0C4
03B
0DF
F1B
02F
016
031
FC0
F3C
035
08E
F3F
FB9
0B4
FD8
063
FF0
04A
022
F78
FCC
F22
020
FB2
0D2
FCF
0B5
FB0
08F
F73
F65
05B
072
F11
021
0A0
FB8
065
063
EFE
0C6
FB7
F5B
05C
095
F45
09E
0F3
F24
032
004
F7D
FBF
007
0D4
030
03F
012
040
FC4
F2E
F95
F22
F08
0E8
0DB
F85
F9D
0B0
0C0
0C3
0B0
F55
FA0
F68
0BA
FAE
FCD
0A6
F57
F87
FFF
009
0CE
0A7
059
FA8
075
072
0EA
F45
FB6
FC6
067
054
0DB
01A
FED
FD3
F6D
FE4
0F1
FE2
0CC
0B1
FD5
FB1
007
055
F74
0EB
F9D
F3F
F4A
FF7
076
F7D
FB6
0D9
F82
034
022
F22
0A5
0E4
F91
0B7
08D
0B5
F37
F1E
08C
0DD
08E
07D
F53
F3D
094
F1D
FA9
F8D
F86
0FA
0AB
01C
05C
005
0F2
F9E
072
F09
03D
F66
FDA
002
F85
F05
FF0
F30
076
FFC
0AE
0E2
065
0AB
098
021
F47
045
F0A
090
F8B
FCB
0A9
FDF
FCF
F88
029
0DD
F5E
FF5
040
FC5
005
FA9
0DA
EF9
08E
07F
F08
FA8
072
F4E
F0E
FAA
03E
FC2
0BC
FA4
F4B
FFF
0F2
F6F
01C
080
0EE
F46
F6B
032
001
F06
F08
0A3
F84
F8D
FFF
0E9
084
0CD
F96
F49
F3E
0CC
FD4
F0E
0E0
087
0CD
FB6
FF2
F5F
F78
FBA
05C
F9A
F42
0A9
0E2
FEB
099
FED
0EB
F00
0CA
0A0
FDC
FE1
035
049
FE0
028
089
F1C
F77
F7E
009
FC7
038
09F
F54
F9C
FE2
035
0DB
F97
0B6
0EA
007
070
019
FE6
F38
F25
08C
FC3
07E
017
058
F13
FEF
040
07D
F00
FA2
03B
09F
069
068
09A
F26
F3E
F35
0C9
0E6
0CA
089
065
FF5
05A
005
FA3
05B
066
F0D
F26
FDF
0BA
F02
04D
F57
094
FE1
0E1
F11
0C3
00A
FC0
00B
FCD
056
FEA
0C0
087
07A
0EB
0BA
FEF
041
F6F
080
04C
0EF
F85
FEB
02B
0EE
F8A
FB9
FC8
0D5
0AC
F4E
F5E
F0B
0FB
004
041
0F2
F86
085
0F0
0EB
01A
074
FB5
01A
FE7
0C5
FFA
F28
F1C
FF4
FA5
FD1
F82
FF8
F80
FD4
0C5
F68
F3B
095
08A
011
02A
FF1
F1A
0A3
F5E
FC7
00C
0F2
F55
F08
09B
01E
F47
094
FF4
F38
FF9
0B2
F76
007
F70
EFE
F10
005
076
FE1
FDD
063
FBF
080
F93
00B
F1B
012
F26
F68
F6D
F35
04A
F57
F4B
0E6
F13
0A6
FE8
065
F6E
0BF
F69
F0A
060
096
064
032
FF3
0EB
F06
078
F20
0BF
086
FDE
F14
F3F
F9D
F14
F7B
FBF
FA9
F2E
F36
0A2
0D6
0F2
01D
07E
F3D
04E
F64
FCF
092
FC7
033
087
F63
096
F14
0DC
FEA
FC6
006
025
092
F5B
F19
F38
071
F19
F6F
FD4
0DD
0A8
004
FDD
0AE
0B9
035
F79
0B5
0CD
09B
0C7
07A
F8A
043
F84
FB0
043
F12
F3D
F6C
069
08C
FA8
0F0
FAF
047
036
FDA
FA5
04C
FE7
01A
F85
F33
087
06E
095
F0A
F0F
073
0AB
09C
0EC
F14
016
F58
04C
F3A
05D
FE8
08F
005
066
0DE
0D4
005
0BE
059
F60
F9F
EFD
030
F43
FA5
FA4
F27
FD7
0A8
04F
FD5
093
FD8
07C
0B3
FBF
097
093
0AF
049
01E
FF2
078
FAB
FEB
FA5
074
0BE
FEA
F1A
F24
096
0BF
FFA
F9B
090
F80
F92
F4E
08D
F21
0C9
0E6
084
006
002
02A
0E0
FB2
F4D
F8B
F09
FF4
001
0B4
FB4
FB0
016
0F6
027
F93
F48
0D9
0B6
0DD
F86
F0F
000
F22
F8D
0E6
F97
0CF
046
0CA
06A
F4C
F5F
F88
F9A
0DD
F04
F99
FF9
022
FAC
F3F
F60
F50
F2F
015
02A
0D3
0D5
0CF
FA3
EFE
059
082
F9C
F6E
F14
0B7
055
F1B
F32
F19
F07
F1A
0C2
FA4
F83
F65
F3C
03E
050
033
08B
F27
FBC
00F
088
F6A
FAA
06C
0A8
02C
02E
044
0CD
F03
037
0A9
0EF
037
0FB
075
F41
F99
081
FF2
FAE
0C5
06F
F98
03F
02D
FBA
02F
09A
01F
06D
0B7
F85
086
01E
FA5
083
0CD
F28
F23
F68
08A
F1A
013
F48
062
073
0B6
F31
0A3
FD2
FE9
FCC
F3C
038
FA2
F9B
06B
F67
F66
05D
F6D
0DE
094
054
009
095
05C
00A
F85
022
F76
FD1
0DD
F95
FD2
06D
F14
0D4
F04
F50
092
032
045
035
FD2
F4E
0E8
FA9
FA3
F18
F23
043
FE2
FBA
02C
F6D
02A
0AF
0EB
F3C
F4F
F20
0B8
091
043
044
0A0
052
0DD
FA1
FD5
FA7
FF2
0AC
F78
F84
0BB
F79
07E
083
0D6
FCC
F2C
026
FA9
07B
F4A
06B
034
F50
FBC
0E9
F59
FF2
0AC
098
0D5
069
025
062
FC0
FAF
FFC
F42
0F6
FD9
FDB
04F
F3B
F0A
FF4
04E
0C4
018
0DF
FF4
01A
EF8
0E9
0D5
F17
01B
0F5
FAC
0C5
F13
065
FEA
009
FB6
F40
0F3
032
012
F24
0E3
F32
FFE
0AE
055
03B
07A
03F
FD2
0E3
016
0A3
08E
F06
F04
058
0C9
0BB
024
F1F
F33
F30
04C
0F2
F85
F3A
086
039
065
012
02A
FD8
040
F75
F30
F05
0E4
FA2
FE4
FBE
F0C
F45
0E7
086
F3E
FCD
FF7
F19
F85
FE3
015
FA9
0CE
F69
F29
F74
FA8
069
01D
047
090
0F5
F66
07F
0ED
F0C
FD2
0CA
0C2
09C
003
024
055
FE2
FDE
F1F
FB5
03F
F23
F79
FEA
F71
08D
080
F8B
099
085
0CD
F4A
0F3
0E7
035
037
002
F5B
058
085
F9D
08D
008
0E2
F3D
F62
F99
F25
06B
0E5
0E7
F6F
03E
F91
F29
F64
FB0
065
F22
013
0AC
F7B
F21
F2D
04E
FA9
FF0
0EA
03B
F46
F17
F9E
0D4
F97
FAB
FB6
006
F94
01B
020
0CB
03C
0D2
FEE
F67
032
015
048
0C6
F39
FE5
FAB
FFD
082
F7C
060
025
F94
FE1
F1B
08C
F12
F12
F6D
F95
F32
FB1
02C
06D
FCE
0D9
F56
039
F16
040
F50
098
0AF
06B
F3D
0BB
FFC
090
FB4
F3C
FBA
FAA
F94
F18
F22
F69
065
F8E
F8D
EFC
052
F2B
026
0A3
F2F
040
0B8
0F3
FFC
FB1
0F7
FE6
021
07E
01F
F86
0DA
0EE
FDD
07C
F51
01B
038
0C8
FCD
0A9
05B
03D
0E8
0F5
F1E
012
00F
F3D
F37
F80
FFE
074
0EA
00C
F4F
0C6
028
0BD
0FD
FF0
095
F92
FB4
042
065
0BD
0A5
FC0
FB2
03C
075
030
F6C
043
F9D
FB9
F8A
F03
04B
F88
015
021
0D1
012
F93
FC1
01B
02A
FC4
082
0DD
018
0EC
0BD
0C6
035
F7D
01B
048
036
F01
FE5
0CD
074
009
F85
073
F01
027
F72
F6B
024
004
F37
F90
081
08E
0A0
F77
02D
FE9
F49
FEE
074
03F
031
FDB
FCF
05B
0A1
06A
F86
0EB
FB1
0D2
F68
FDF
0C3
055
FFE
F7A
F99
0A3
F0D
FC4
0DF
0A1
F2C
F4E
FAC
F7D
0BE
0EB
FD6
00A
F28
0E4
02A
FB4
F53
0BA
F0D
F2B
FB3
048
044
F52
097
0B5
F2D
0D5
019
0BA
09E
F20
F41
052
007
FC8
FCE
037
F33
0BC
050
F88
F4A
01D
0B0
F01
054
F51
F7E
00A
01E
018
006
0D1
0F7
FB8
04F
F64
005
F86
04B
FF1
FA3
FE4
F8B
031
06D
023
0CF
F63
0C2
07C
F33
081
F20
F63
FD2
035
F96
0C3
FDE
F9F
F64
F9F
F9F
0BA
FBD
0C6
002
F09
056
F68
FDD
087
002
F14
F7F
07A
F14
FBF
F77
02F
FED
F8F
0C4
F79
F21
EFE
F9C
0C2
F4E
078
F44
023
0A3
F2C
097
F2E
FE9
0CE
04A
F15
0EB
F4B
FE8
0CA
03F
F61
052
0F6
FAC
051
076
008
FE6
F92
0E2
F6E
0BE
069
0A6
FB0
05F
012
09B
F82
F7B
F44
029
F26
066
F52
FD4
074
F5F
063
FAD
0F7
042
F69
06B
F94
FCC
000
F8E
F6C
01E
F0C
F0B
0AE
055
FA8
F92
01C
0AB
0D5
FCB
07A
F50
0B8
050
F1C
F73
F04
0DF
FE7
0C8
FFC
055
FA7
0C5
F62
0DA
F19
091
00B
034
06F
F45
FA1
F8D
0E0
F69
F36
089
FE5
077
F85
0B4
0C5
0BB
F2D
FF4
098
06E
05E
F3A
0C8
082
046
F79
0BF
FBB
F4A
00C
EFE
FE4
F34
F02
08F
FE9
F25
FDB
029
0A9
F66
068
0BA
007
086
F33
F75
FDD
057
061
0AC
06B
FD9
F4F
FC2
017
F8D
F05
FC3
FBA
07F
FDD
071
05F
FBA
F17
08D
FD8
024
0E4
F9A
0D7
03B
F15
08A
F17
F66
FC4
099
082
0C0
0B5
FA2
0C7
0A8
FD4
020
09E
F25
0E9
F1D
0E0
FAF
088
0D1
FCC
020
011
F4B
0A3
FA8
F9E
0AF
FCD
FED
049
0DB
F37
0AE
FB1
F10
F61
F55
09C
F67
FC8
FF8
02C
FEB
FE8
FAB
F5A
09E
FA4
F3E
0E4
098
F73
04C
F57
FE8
0E6
0AC
F1E
091
FEE
F9C
001
F4C
FF0
F57
016
F32
F54
03C
F91
FB8
077
0FA
FB4
00F
FE6
0D3
F61
F2A
0BF
FD0
09D
FFC
05B
00C
FA9
F58
03E
F00
F2E
062
00F
F1D
FB6
0EA
FB7
FB1
0EC
F05
F99
F74
FDB
F49
FAA
F4A
FF0
002
0B0
088
F7B
FC8
FA0
058
069
F0A
F55
0CB
02C
FFB
F6D
0CD
042
EFB
0F8
0C8
F80
F05
F87
FC7
01E
02A
FA6
022
F9D
FA7
0FB
051
F6E
F89
F75
F27
F8F
0D8
0F4
FD0
F3B
091
0F9
01F
069
F82
F55
099
082
FF4
05B
F3F
FCB
0AF
FEE
F94
FE4
0C6
FBC
F44
082
FCD
018
F28
031
016
F37
FD9
004
FC9
F47
012
F44
FFF
048
FAB
F76
F98
FA0
06E
EFC
068
048
00E
06A
08A
038
04E
F44
03C
F85
0F8
030
F8B
036
0F3
FF3
085
F70
FBF
042
FE3
078
00E
03A
F4E
0D7
0DA
FC4
FFF
F57
0EA
FCB
044
0E3
0BE
FF6
0B9
EFF
049
FEF
0C5
001
0C0
003
071
0F3
FF0
01B
052
061
018
F0A
097
FA1
F96
0B9
01E
0D8
F6D
0A9
F6B
F2C
08E
F2C
F94
094
00C
0D1
F05
FCC
EFD
F17
01A
0E2
F1C
FA5
F50
F8A
06A
FBD
F19
F73
F3A
0A6
FC4
FE1
013
00D
F05
068
FDF
F27
F0F
0FA
055
EFF
089
013
F12
0F3
F3C
05E
0F6
015
F2E
0BC
01F
F6E
011
0CA
0CD
F39
0D2
01E
078
F05
064
FF4
F26
012
097
F9F
086
F79
FCB
F1F
F9B
F56
F58
F6A
08C
0F5
F53
FC1
FFA
01D
05C
034
FDC
F02
0D8
F2F
06F
F40
F23
06C
FB6
0DE
FE1
003
F97
0C4
F0B
F48
064
FE1
0AB
089
F0F
F64
FE8
0CA
071
074
070
F1F
0CC
F69
F6C
FCF
0AC
FD4
FDA
0F4
018
0D3
FC7
F4E
0BD
F47
003
009
FDE
FA1
F66
FC1
0A0
FF8
03D
0A2
F12
025
FA2
0B4
03E
03B
08F
01F
049
0D0
0A8
F4E
0FB
F1B
080
F15
0A4
F2D
FD7
012
FB7
00E
027
0B1
0E5
F63
FF8
072
F8F
F8E
FA7
FFF
096
F1F
F74
FAE
0CB
F1B
0CE
FA5
005
FAB
0AC
04D
F31
F84
F54
01F
F1C
FBE
075
0CA
FB4
EFF
020
053
0EE
F31
062
F05
EFF
07E
F15
F64
0C5
FD2
F3B
F8C
042
F59
F48
F56
F37
FC8
F57
F17
068
07A
057
0C3
0AF
F41
0DD
096
F01
F3F
078
F1E
F79
F23
0E6
055
0DC
06F
051
F58
0F2
F50
F78
06F
029
F5D
FEA
FFB
05D
081
0C2
005
F07
0FB
0DF
0D8
F2B
FB7
04B
F22
F33
FF5
F0C
0EF
0E1
0C5
F74
09E
F24
F14
060
FD3
069
F0F
F09
EFF
048
0E7
F4A
00D
0A5
0C3
FD7
0FC
061
0D7
FE1
FDF
F0D
FB2
FC7
F47
F83
005
FF3
F2B
09E
F07
092
000
04D
FF6
0CD
085
092
FF5
F90
0ED
011
F11
FE7
F5E
FAE
028
075
0E9
FF7
F7F
EFE
0C9
015
FF6
0ED
F21
F2C
04F
0A5
033
0DD
FFC
0A0
FF7
FA9
040
F0C
FD2
05C
F6E
FC7
F03
FFE
F98
FB7
F28
F0C
044
FD7
F74
FAD
04A
0A1
0EE
FC6
FC3
01A
035
F54
F98
070
09A
0A5
F0A
00B
0DE
05A
FF2
07C
F79
0BC
0B0
0FB
0BC
003
F86
FB6
00C
FB5
F18
0F3
093
031
01C
FD5
F5B
0EF
F16
F7B
0C2
05C
F59
0DA
F97
F2E
050
020
01F
0BB
033
0D8
FE8
F14
0F9
016
049
0A5
087
0C0
092
FB1
F4A
0F0
05B
F70
04D
F6C
0A3
FC0
F8B
FE9
093
0C3
FE1
F8A
06D
064
