F97
F99
06F
F44
FF0
FAE
077
FD3
0A9
0A5
F17
F28
06A
091
EF7
FC7
FB7
FF1
FB8
FB6
FBF
F72
041
EF3
009
02E
F6D
05E
082
FC3
F79
FA3
FC5
FD7
03E
EF3
FE2
060
02E
F17
0CF
F84
F78
00A
F7E
047
098
EF7
042
006
0BE
0A2
0A1
FA8
FB9
F52
F94
FD2
011
F44
07E
FF0
0D4
059
F8A
057
027
F79
04A
F8C
FA1
FD7
083
0C9
08F
063
01F
F79
F7C
032
FC0
FD4
090
02C
F9F
FC5
FC4
081
F09
F43
00A
FC1
F4D
001
FCD
0E8
066
F7F
FDF
099
F4E
072
FF1
054
F4D
0DA
F96
FC6
053
0B0
FCD
F6B
F89
F4F
FC0
F3B
00D
059
F43
022
F9D
F17
F64
0D0
F9B
FDD
01C
F86
047
0E3
F42
F45
FB4
FC4
0B6
EDD
F8E
FF4
0B5
0CE
F79
EF4
FFB
EF4
022
EFF
F96
EED
068
F2E
0DD
F35
F5A
0C3
0A7
0AB
0DE
FA4
F25
006
FE7
FEB
FB7
0EC
F4B
FCC
F69
0B5
FEB
001
F01
FB0
FF0
F31
EEF
046
043
FF8
F73
0D2
F24
091
0DA
0D8
0C2
028
FBB
FAB
FD4
F9B
045
01A
FBD
022
056
F44
053
FDD
05D
07D
0CC
0D1
0CD
041
EED
FF7
F6C
FFB
F2B
05C
01F
F0B
F91
F7A
F43
F94
FEE
06A
0BF
F6D
0D2
031
F23
F5D
06F
0B8
020
065
F15
F76
FDD
007
08C
017
F16
F88
F9B
070
FC5
047
F0D
080
0BA
F95
FB4
064
FD0
FA1
06B
0A2
FB3
FD7
0C6
FAE
F1B
FE4
04C
0F3
FF4
F14
FD8
084
01A
FF4
0BE
0D7
FD7
FD6
01D
0CB
F82
F13
042
05E
FB7
0B1
FC5
0CC
FBF
0BD
001
0C4
00D
F6A
F21
F42
FBF
FBD
FBF
FB6
036
F0B
026
026
F42
0FB
FB2
FBF
FEF
F07
0C8
FFE
F7C
FD5
08C
0A5
077
0A5
021
FD9
07D
FE5
030
0DA
FAF
F10
F8C
02A
0C5
F06
0BE
F6D
0C0
044
F56
F2C
FB1
F78
F3F
F3B
F41
07F
F17
0D9
0AE
043
08C
088
F5D
F8E
F92
0E7
0A0
FAD
FA8
037
F49
FC4
F75
FDF
FA6
FE5
05B
F23
0D5
FD5
046
08C
FBB
F7B
090
F7B
F13
F33
099
0B8
0B0
FE9
F34
044
F1B
08B
090
F84
08E
0CE
F2A
FB6
F2B
FBD
F45
0B6
00C
F2B
0D8
F50
FA4
F84
0AE
FA2
0AB
FA1
F85
0AC
F9B
F61
065
FD5
FED
069
01A
091
0CD
FFF
0B4
F24
F92
0E4
FEC
026
101
048
FE2
0B2
FD6
F29
F90
070
00B
F4D
02C
FBB
00A
FE5
F5F
113
FD8
FD3
0E9
F7B
F24
FC3
0B6
05A
FEF
F07
008
EE5
033
05C
FE2
03A
0F2
F29
F91
F1B
0F2
F54
056
076
072
0B5
0C1
0DB
00C
08D
EFB
06C
00E
F3E
F49
071
EF6
F7E
F81
008
F26
F00
F48
085
FC1
017
0AD
083
0EB
FFB
099
FEC
10F
F3F
0C2
F58
01F
F5F
0FE
F8A
F26
F1C
090
F45
FEC
FC9
0E3
027
0D7
09D
075
FEA
FD2
0DB
F02
FFC
FD1
F3B
FDA
F45
008
F5D
0E2
0E0
F60
038
FC9
F76
013
032
065
FA2
F77
F7F
078
04A
EE7
FC8
063
01F
0DA
F2B
050
F02
008
025
0BB
0DC
06D
10D
FD5
F53
FF1
0CA
FC2
FBB
00B
FE9
0B0
05D
091
F6B
FF0
F77
096
F36
FB9
032
FC3
FE6
074
047
F04
0BD
FC6
06D
F09
F90
FBB
FCF
FF1
07E
045
0C3
F9C
EFF
F99
FAB
035
0A0
00A
09D
F39
072
024
016
F73
022
011
F61
F95
FC8
FA5
037
FA1
F43
FA9
02F
0C6
F96
085
0C3
033
FF6
0E6
039
08D
F10
FA3
FF4
F80
096
FB4
0D6
FDA
0AB
039
F85
023
F5E
02C
0CF
F99
030
038
F76
F01
F15
F74
0D8
05A
078
0B6
FFA
FC3
088
04A
F89
002
F16
089
073
06D
F81
05F
FED
00F
02A
EE0
054
EEA
05C
004
06D
FEF
05D
090
F51
083
FE6
035
0EC
F5E
FE3
0D4
0DD
091
032
F37
07C
0FA
07B
053
F5F
019
FA2
04A
0D3
0F0
0F6
FB6
102
0F0
F89
FC2
05A
F9C
F33
FC9
01A
F88
069
074
F80
F70
08E
073
F72
049
F66
084
042
F10
F32
083
0A3
F5B
FD2
00C
FA7
F17
022
F65
EF3
FB1
F8A
FFC
0E6
FE7
F90
F39
F39
F7C
044
08F
0D3
F64
058
F57
F29
0EE
023
0FA
00D
FC6
049
F0F
F51
093
F3E
FDE
0C6
F99
035
063
0D1
F7D
07C
F97
FF0
FB6
FA9
FD2
034
0E6
FDD
059
F14
005
FC7
015
FA5
0C5
06D
F3C
FBF
0B3
0C8
F07
FF0
F07
080
065
FC3
EFC
F9B
025
05E
0C3
EE6
F48
FA5
F97
FCB
045
0B5
F6A
043
F88
F49
F6C
FAF
026
062
0F4
0AB
FC6
FF5
F22
06F
F24
0FE
047
102
F0D
077
F67
0C6
FFA
083
081
FBC
040
035
FB4
107
F3F
F4C
FC0
061
F2C
00E
F97
FFD
031
F95
EF3
051
034
FAD
0E0
FCC
FAA
F60
001
F9F
0E6
F9F
FAA
FF4
0CD
F10
FCA
07D
EDC
056
F87
EFD
003
FFE
F84
FBE
098
0B4
0AE
037
F79
0B1
07C
F8F
06D
FA1
FF4
060
0B0
FDB
F5E
0D7
0D4
0BB
FC2
FE3
FFA
F82
05A
03A
F3B
09E
0DF
0A2
FD9
034
F4E
000
038
F4D
F0E
089
07A
F20
EF7
F4E
0D9
F34
052
06E
F32
0C7
0B9
04C
FDF
F9D
0BD
023
046
059
F9C
F59
FEC
F54
063
F7C
EF7
036
09A
FE1
085
F91
095
10E
10A
0AD
063
041
059
020
F25
F94
FA5
F9E
0ED
0BD
F15
FC1
F29
101
FEA
0ED
07A
FBB
FC8
FC8
F2E
F18
FFD
0B5
F5A
F57
FC7
059
F06
FF2
F4D
F6F
061
F30
F04
F08
003
EFD
F89
F90
F0E
FE4
FA0
F0D
0A6
050
0A9
F7A
010
034
F61
FF8
FFE
03E
F60
06A
0AB
059
FE8
026
0C9
FD5
0CE
057
08B
FC8
023
FE4
045
0BC
F7E
060
02C
F66
10D
F17
100
FA3
0AD
088
FE4
0D6
105
049
090
081
086
113
077
0B5
F5B
017
F99
F97
039
0B3
096
F7A
0EA
F4B
05D
F80
0EB
F04
0E2
F7C
FB8
0BF
FD2
EE0
F57
F62
F75
FAA
FBF
0C0
0B4
090
FE0
0C4
047
FAA
F74
02C
F88
F6B
0B0
01B
014
014
F0B
07E
0F3
00F
032
0AB
0E0
F42
FDB
F17
FCC
FE8
001
050
FE7
062
02C
064
0DB
F8F
FC5
04B
0EF
0F7
F57
F57
F3A
F4F
0CB
F73
0CB
F79
033
FA7
FC5
03D
007
FEB
0A8
FFE
F7F
0C0
EF7
022
F09
F71
02C
01E
0E0
FAB
0A0
FE6
026
069
082
091
FB2
FBD
F7F
110
FA3
FBA
F48
0BA
F57
0E1
FA2
F6B
FC3
086
10E
FC1
F88
0BF
F92
FB6
0C0
001
FBF
02A
F1D
0F3
F85
094
089
F6F
001
000
F6F
073
FEB
F96
009
FA6
037
FEA
06F
F19
FF8
F83
060
0BF
F26
02F
0AB
F19
F26
F36
FFD
07C
F79
F5D
F44
F73
F72
0DB
031
FE2
F01
0DC
F37
0E3
F7D
0C1
019
05D
FEF
FFB
FFE
0E1
0B5
00F
F4B
F89
03D
F5C
F82
F6D
F42
FD3
069
FA4
F3A
F40
F87
F30
F38
073
054
F3E
0E5
003
06E
F81
F86
F97
F39
F38
FEE
0D5
082
083
F09
F62
098
FC3
FE6
F1D
F2A
0BA
035
F77
FB7
026
FF1
069
F54
EFA
01C
FBD
093
058
F51
067
0E9
0A5
02A
F41
05A
07E
06B
013
005
085
FC4
F70
F89
F4A
F9E
062
10D
022
F7B
054
0D1
094
F2C
FBA
0E7
00D
F47
F98
03D
F85
F48
0C0
F53
FF9
096
048
048
F90
05B
FAF
09F
0C1
09E
F78
0F1
08C
F03
FE0
F4D
04B
00E
FFD
02A
F8B
F75
F34
002
EFC
FE3
F04
F56
024
FEE
076
F94
054
011
F49
0E3
0AA
0CA
017
027
FEA
FEC
F6E
0D8
0B7
006
032
F3A
F1E
0B8
048
FE7
F9A
FF8
00F
055
002
FC1
0E8
0B3
F25
062
084
F2A
F61
F4B
FB2
0AD
0B0
F45
F46
FEA
F1E
FC6
095
FAE
0D5
074
033
F01
F91
01D
098
F92
F79
FC5
0CC
0BF
EF6
030
FDF
00B
FF0
02F
F58
07C
00A
F72
0EC
00F
05F
047
FAB
02C
F89
06C
038
0E3
F3D
0B7
037
F63
0A8
FB3
082
054
F75
FC6
FC0
0D3
F98
FEB
0C1
F2D
FE7
F65
023
05A
0D7
039
01C
FF2
03C
03C
064
F25
F5F
F10
FFB
F55
F75
FD8
04C
074
FDB
FD6
FDA
FE2
F51
051
F9E
F48
097
07F
05E
033
05E
F4C
FCD
03C
04A
0A4
0EB
03C
044
046
F87
F1E
F8C
0A9
FCE
075
047
0C9
055
F72
F29
0D8
067
F7A
F36
028
019
F21
F85
F5F
FD9
FFB
F45
F5B
F83
031
F4A
F43
061
FCE
FE6
F71
FD1
0F2
0E4
F56
0AA
F4A
053
061
0A6
FB7
091
F9D
FE7
F1E
096
098
F53
FA8
F22
FFC
F32
F74
FB5
0FF
FF0
FBB
F2E
F20
FB0
FCD
FB5
FAB
00F
02D
081
FCA
04C
040
07A
FD0
FC8
0F9
FE1
02D
01C
090
FA7
0E5
0A5
FDA
068
EF8
FE3
07B
F30
0C1
053
F26
068
091
F60
041
085
F6D
F09
F85
FC9
03A
EF8
0D5
056
F49
031
083
0CE
FAB
FEE
0E4
F12
0E8
083
07A
F2C
FF2
F94
04F
F45
FA1
009
FD2
F25
0F4
097
F7F
F59
F53
04A
0A8
009
09C
FD0
FFC
0FE
01F
FF6
FAE
068
F30
022
04F
04A
FC2
035
F14
FFC
0B0
F6D
030
F14
0D1
049
FB3
F55
FC0
F33
0DA
0AD
05D
F28
FD5
F6A
037
F3E
FBA
F91
0D2
F2C
035
F9F
03D
F5D
FAD
EFF
FED
F41
FFA
F70
F80
0D4
F20
F14
0B3
FDB
0CB
F49
F69
F5F
F2D
0E5
087
0CD
03A
FC2
F44
F9A
020
0AF
04D
0EA
FE6
0A2
0EA
00B
03B
F84
058
06A
05B
0E0
F36
084
010
06F
005
F52
051
F76
015
F6F
023
FAA
FE1
0D2
084
02F
08B
F0C
02B
036
F13
FD3
F59
031
087
095
06D
F7F
025
FF6
0C0
036
FF3
0D4
02C
015
F4C
F99
FF3
FCD
033
F75
090
F6F
0AA
FA9
F5C
F87
01B
F9A
FBE
FDC
F69
0A1
06A
016
09C
0A4
017
F0F
0E3
08C
F2E
0E3
0E9
FCB
03E
F18
071
05C
02F
0B8
FC5
F0C
088
095
F87
F86
F00
F72
0A8
027
F65
F8F
FCE
074
03E
FDB
FCF
04A
F5A
F97
0D1
F77
FBB
F99
F82
08A
00C
048
0F3
01C
F24
FB7
094
024
F37
FE6
F03
F95
0D2
F67
0DE
0E4
F68
02B
FE4
FF0
0F0
FB7
FB7
000
F00
0CC
0C2
F26
061
F5B
FCD
F1D
F96
F03
098
03F
F33
0AE
007
0B1
FC2
0AE
FCD
F4C
F42
0CF
FE7
F64
08B
FE3
EE6
098
EF0
067
0DB
F78
045
012
0D8
F6A
09E
F7D
0AF
067
0CC
044
F1F
019
070
0B6
FF6
F8E
F3B
0AD
F81
0B2
0C8
0D3
084
F24
F8F
F1F
FB8
03E
FD8
FD6
053
F95
FAD
090
070
08E
0AE
F21
029
F76
0D5
055
0CE
0B4
0AB
F09
F5A
004
FE5
0D4
0DF
F49
03E
F18
F88
F54
FF0
0C4
041
F9A
F00
EFA
F20
01E
0A7
F5B
EF2
F3F
FC0
FB6
FB1
FC3
065
0EC
F6A
F4F
07E
088
F42
F41
04D
01D
F06
FF5
05A
F03
05F
06F
F6D
FB5
013
F98
F89
08E
079
FD6
0D3
03C
F5E
FF5
F8D
F07
029
F4D
FF1
0E9
FC7
0D6
0E2
0D4
0CB
FF8
090
F1A
F38
FAA
F42
0C7
F31
074
FA0
0CF
073
FDD
01D
F38
F57
033
0DF
091
01C
FC9
085
F70
0C1
0C8
F6D
F0B
028
F0E
095
0F2
06F
FE7
076
0CE
F49
0ED
F70
057
011
090
FC4
FAD
03D
F85
FAE
F96
01D
F40
F2F
F62
F08
0DB
09C
0F1
0B5
FD1
F03
067
033
0E2
FF5
F6A
F97
F2C
064
00F
019
0F0
F23
010
FAE
F1B
0D4
F5C
FD1
F8C
0B5
F04
091
0CB
080
F57
0B5
F41
FD7
F4F
FCA
FE5
038
06D
F9A
0BE
036
F68
090
FC3
002
05C
FB8
0CB
0F3
02B
F8A
F40
01F
FD3
036
0E6
03B
0CB
F07
050
0C1
00D
00C
048
F95
0A6
0E3
0CC
FC4
FEC
0A4
046
FC8
FBC
FD8
F16
09F
01D
08B
051
0B5
FCE
02A
FAD
F22
FFF
F8B
F87
FAD
F20
0EB
FF4
FC2
035
0CA
0B4
0C2
089
047
FF3
FCC
005
F68
FAC
04A
064
F3C
0FA
100
FED
0F5
F16
0B1
0BF
0C8
038
0F7
F8C
036
0EC
0AF
F1D
0A3
F8F
002
FC8
0BA
FFC
F1E
040
F87
FAB
FA4
FEF
0D9
025
057
0A9
FB4
037
FC0
FF2
052
F64
0C1
082
F96
0F1
08B
F14
F46
048
FF4
F59
F70
F77
F96
062
066
057
F41
0CF
065
FBB
089
FF4
F16
00B
F58
F32
0A3
00D
F20
F44
0A6
FCB
03F
F30
F08
0EF
09F
FAD
FA8
0F9
FE0
FE9
0BB
FFA
FE4
07A
02B
F8C
F48
F7D
FC1
09E
109
037
F41
0A0
F2F
FEE
F09
039
EF9
0D3
FE9
0BD
F13
F10
F42
05A
044
093
0BF
F05
FAB
068
F2B
F44
000
0AF
098
00A
F8A
FBD
F54
F26
F84
02F
F36
0D3
0D2
051
F36
0E9
0E4
F6F
0AE
070
002
00D
F75
FEF
02F
05E
F85
FDB
028
0D2
F44
0B7
00A
0BC
FF2
FDD
FBC
FF3
F22
F9A
0FC
087
F09
F28
00C
09E
F17
F5F
EF9
0B5
007
003
06B
0D5
F11
0A3
FBD
F40
016
027
F63
F87
FBF
0B3
FF8
0C9
F80
00D
039
096
007
F83
FDC
028
F9A
052
01D
0BD
F84
F45
093
0D1
056
0BB
FFB
F16
FB9
FC9
F9A
0DD
05A
F94
101
093
F27
F80
08B
022
FA0
026
052
FCB
F80
0B3
FA1
04E
01F
F1F
F07
F61
F2A
085
098
F84
00E
072
FA6
F87
08E
02B
021
082
F86
007
0C2
F92
FDA
069
F69
0C7
F72
010
FFA
F6D
0B6
F34
085
0B1
028
FC4
F49
F3F
057
03E
092
F7B
FD2
04E
01E
05E
0E1
F30
0A0
FDE
056
F62
F21
0CF
F92
04C
F7A
0AE
FF9
F9D
026
09C
036
F68
F52
F79
F49
F8A
FF6
0B1
076
06B
F1A
0B7
083
0BD
F64
00B
F51
0CB
F57
F33
F97
EFF
F0F
06C
092
099
018
F2F
FF2
F80
F5A
F18
F86
F1D
0D2
0DA
06F
08A
04B
F5D
0A8
F37
EEF
F6C
FA3
FB9
0EA
06C
F59
00F
06B
F47
F94
0DD
FD3
F4F
081
06C
FEB
FA1
FB9
0E3
0D9
FE0
FFB
06B
09E
FE7
F3F
F84
FDD
0B0
FC3
FD4
025
05F
FF8
0EA
F26
08C
03C
006
042
063
048
005
0C2
FCC
FBE
F5F
FB5
F90
03D
039
EFD
FD9
0B7
FA4
046
0EB
F11
FF7
04E
F00
05B
FF1
F33
069
0E5
010
03F
00B
0C0
0CE
F4F
FD2
EF7
FDE
026
07B
FD6
0A5
F91
F9F
02A
FF2
0AC
F40
0F1
05B
FF5
036
F97
F76
FE0
FF4
02B
0E4
0A4
F04
F16
00F
F36
F50
F7D
FAD
09B
0C8
084
F96
FCD
F08
F3A
09A
FBB
FF6
08C
F77
029
006
F1B
FE6
079
0D3
F96
0C3
0D7
F06
009
0C4
084
03F
0A8
020
0D1
F4A
F0B
F45
06D
F57
08C
F2F
0A7
FF3
094
F24
007
FDF
F29
0BD
F5B
056
032
FE8
F0E
F71
F73
01D
F87
F37
FA1
05D
02E
0A8
0C6
0BD
01C
F88
F46
F40
0D9
FC0
02C
FA8
FD9
FA2
F2E
07E
0DA
01E
074
FEB
0DA
0C6
FBA
FD2
F0C
090
F59
FE2
07C
FB0
094
F8F
FEF
F7D
F26
092
EF6
0E1
0A4
09C
03D
F8A
F3E
F8D
FD1
F5F
09D
F63
F84
026
0A9
089
042
09E
0E8
02B
0E5
07E
095
005
06B
F78
F54
03D
091
017
036
0CD
F1B
F7C
F9D
FC4
F3D
0A0
0C1
04F
081
FED
031
051
F32
F96
FE9
F3E
FA0
FF9
093
04A
04C
0A2
0D9
001
0EE
F1A
FEC
0B5
00D
F84
F7C
081
FF4
04B
0DE
091
097
F9F
085
F5E
F58
0AB
FFA
036
029
F68
074
F60
0ED
FD4
FD4
07C
021
001
05F
045
013
FF2
FEE
F40
0D7
F26
F28
0A1
F91
F3F
0A9
08A
0C6
042
001
091
045
0C9
FAC
F3A
0D4
F44
F42
0FB
054
FE2
0BD
F16
0F4
F06
0C4
F7D
0D1
056
FF3
023
098
012
F0C
063
F1F
FEF
019
FF1
02F
0A0
066
FFE
F0B
0B9
011
027
F21
05F
F04
044
067
08C
0DD
0CD
F31
FC4
F34
F53
054
FC6
0D4
F6C
F94
FEE
031
020
FB6
F37
F89
F30
FDF
017
094
033
F6E
0A4
FCC
0A8
059
028
FF3
00C
FBA
F62
F8B
060
066
08E
F4D
FFB
FBE
F26
F60
013
029
0F1
046
028
023
EFB
00F
083
FFE
F18
040
051
F4C
0BB
03D
0D5
056
096
FE0
08B
0C2
F4F
0A4
FD4
FFD
F99
FAE
0D8
07A
0A7
F26
080
038
FD2
05F
0D7
F6A
FF2
029
F6F
F71
037
0A9
FA0
092
09A
FA0
0E3
F1D
056
F21
F51
02A
0C9
F1B
EFB
0CF
0E7
0AB
02B
0E9
FCE
107
FD9
0A3
0C7
02F
F76
F0A
FA9
0EB
F74
026
0D6
F19
F36
040
06E
095
FF2
FD3
FC7
0A4
03B
F71
0A2
FE2
018
F0C
FD8
F63
FFB
077
049
0FD
024
FCD
FC9
FE8
F85
0C7
F29
02D
103
0C4
F2C
F45
09F
FA5
F38
04D
F31
016
048
F8B
F43
013
09A
079
FE0
082
006
0EE
060
F93
05A
071
F78
01F
F6D
07E
0D8
F1E
006
F03
0A8
FB3
FC5
0D2
0DC
039
F31
F8E
F52
F9E
0A1
F6F
FBF
06C
FE3
F81
FB8
F43
F68
FAB
F7F
F78
096
FF0
0B8
F19
F22
F1A
10E
F2E
F4D
08E
F50
04D
FAC
FDB
0BD
F15
F3C
0EF
097
042
F2B
031
FB3
058
00D
FF1
EFD
FE3
FC2
0ED
0ED
01C
F89
0A4
007
F53
FEA
08C
F82
01C
0D9
F61
F1F
057
06A
09A
FD4
0B2
F77
F19
085
F47
08B
091
015
F47
F1C
083
08C
0A2
F84
056
090
0E1
FE5
FCB
F82
0D6
FD4
01D
FCA
FDD
F7F
0B2
F95
053
0E6
FB6
FAF
0DB
019
04C
F4C
F90
F4E
042
F61
0EE
F4E
F07
F23
F06
FED
FEF
F94
071
FCE
F2F
0E4
F1B
F47
035
FF1
06A
07C
F7F
F81
F88
F32
0CC
FB9
FBB
09C
F4C
0A5
F3C
FBE
0CA
F56
F00
F46
0C7
08D
0BA
044
0A6
FC6
08C
FBF
F4A
035
F1C
043
F8F
0DD
FE2
FA6
0B4
FD3
F78
FF6
FBB
F2C
F01
062
FDE
0E5
EF9
F83
F25
F13
0DE
F33
0EB
FEE
F20
0EF
028
F33
080
FF3
FA7
0AE
074
F26
FE3
0D7
FE4
0C1
063
FAB
01E
F42
F0F
094
FCC
0B5
0BC
F1B
FB8
041
046
F86
FAB
061
FD9
04C
FD0
F28
F6B
067
FAA
0EA
0D1
043
F11
F5C
0E2
04B
F04
0E9
0F1
F7E
F38
F37
012
076
F87
08C
037
028
099
098
006
F33
F12
0C8
074
0F9
042
F67
FC1
06E
F88
F61
01D
0B7
0A5
F4F
0D7
087
0A6
F7F
092
027
FEA
0AC
000
0FC
0D7
002
F41
03E
102
F27
02F
FAA
F62
FC0
F8A
09C
07A
FCC
0DC
F4D
F62
077
FC9
F4F
0AE
FC0
09D
F0D
FC3
F57
002
FE9
0FB
07A
FAD
F81
050
07E
051
0C6
044
0DF
065
F3F
F70
FB1
FCB
F39
057
060
048
037
F4B
03A
F3B
03C
0E8
0EA
02D
F14
FAC
073
0AA
013
01F
0BB
F58
F79
0E0
04E
F58
F6A
F29
013
0BF
051
F2D
F00
FDC
F56
F72
01D
0AB
0EA
FB3
05F
0BE
067
F3B
0C1
FE2
FFD
FF1
0AD
057
FB9
FB5
0A6
FFC
053
040
0BD
0BF
F45
09F
F95
098
076
0A7
0FA
0CA
03A
05C
F89
FFC
044
F3B
F45
01D
0BD
F33
F5D
0A2
02A
F32
F9F
F90
F28
037
09B
F18
06A
F9F
FD2
FD7
0FF
F80
0BE
F36
07D
FC5
F76
F3C
F8D
042
F06
056
FD4
0B2
000
EF9
072
0D9
048
0B6
085
FCB
FA7
FE3
FCF
EF5
FDE
09A
F73
F31
05F
FBF
F73
F56
FD9
F42
08E
030
FF6
095
FEF
109
036
00E
FEC
0E7
FF1
005
F31
F24
F6C
F53
019
F20
FF3
04A
089
FD3
F97
072
062
040
FC7
0E9
F71
082
F15
FCD
F03
F99
F00
0DE
F34
05A
FF7
096
0DC
F39
F8E
F13
FB5
F2F
F6A
F5A
094
025
FCE
014
F8E
0BE
0DF
003
FC1
03B
08E
005
005
FC7
0F2
0E5
07E
066
F4C
FBA
F3A
F75
104
F41
FC6
FF1
F54
094
033
0FB
008
0F9
FEE
FAD
F35
FA7
FC8
F2B
0DD
F5B
08F
FCA
FAF
022
01A
FF0
033
054
0C2
0B1
F68
0B7
F63
F8A
03D
F33
F6F
030
075
F69
0E8
F71
01B
F43
FE8
0F5
FEE
018
F6B
FCF
FCE
0D6
FB7
F9D
FDA
06D
FF7
F7D
0B2
02B
056
FDD
F72
FEA
FF8
016
F72
0DB
0E5
F1F
F7C
05C
072
F38
F38
F48
F40
FD8
F0A
0C0
F10
039
01F
FF7
F28
072
06B
FD4
077
06A
F82
00D
F9D
F54
F64
F4B
02E
06A
F42
063
068
0E9
EFD
002
F70
040
020
F7C
F8A
05D
FAE
0BA
0CC
F28
0A2
0CE
FF6
064
EFA
F65
F18
03C
F11
F2B
001
FB9
0DF
0EE
0A3
F33
0AC
0B3
08B
05C
0E0
016
F38
108
057
FCB
F48
F2E
028
0F0
FA5
FCE
08B
F12
F9E
04A
F3B
0CB
0CF
06E
FB8
FAB
000
FCD
092
FB4
01A
0AD
04F
FA0
F13
0A8
09E
FEB
F87
0D4
FB9
079
0D6
0D4
08F
F45
F82
09F
F10
04B
FFC
FBA
0F3
09A
005
F94
FAD
0E9
F60
0AA
F70
032
FF5
050
02F
F40
04C
02E
F85
FED
102
FC9
0EA
FB8
FB9
0B6
0A7
02A
04E
F57
F97
03F
FD4
09F
09A
F32
075
094
0D0
F9E
01E
01F
FD7
0D3
0D4
F00
FB0
F7A
F75
F3A
FC3
0B0
F50
005
0F1
0F3
F3F
047
FCD
072
100
F59
037
0A8
019
F75
F68
080
F04
085
012
0D7
035
0C1
FD7
F12
F83
F1D
F72
02A
051
FA8
032
F60
055
0C0
058
051
FB6
05A
FDB
0B9
09D
FBD
F8B
07C
F1A
0A2
09C
FE6
0E3
FFF
FB6
04C
F4C
F02
059
05E
056
F73
F35
0E8
00E
007
FAB
006
F1F
038
0D9
F88
F77
09D
011
060
FC8
F5C
F75
07A
FB8
0C6
0EF
FD6
101
FC7
005
0D6
F65
FBC
F65
098
FE7
F46
053
079
F35
0C3
081
0A5
04D
041
F44
F2A
000
F12
FA0
004
F74
000
FCA
03B
0C2
0D7
F1A
03A
F4C
084
080
F94
FDD
F8B
061
05D
053
F8E
0C3
08A
0BF
F97
05F
060
056
0B9
F84
00F
01F
F70
082
043
098
FF5
FCB
042
0BD
0AD
FF3
FC9
F52
FD9
F04
084
0AB
F98
FE8
001
0EA
FC4
F2D
0C4
F6E
FA7
F5F
061
F9D
FC4
09F
0E4
F77
0E6
F52
08C
F64
0AA
FD4
F44
0CC
F2C
055
0C5
04F
F15
098
0C8
FAA
FE9
0CF
0A1
0EE
02C
0C1
FD5
FFF
F5B
F82
F9C
0D1
061
FB7
04F
FEB
F67
04F
022
F0C
0BB
0AF
031
0E3
0E0
06E
F6D
FC9
04D
FDB
003
FD1
FFF
032
F31
0CB
FFB
F1D
05C
F2C
0E8
07B
0AC
0D4
FCB
0D0
F53
F66
F9F
048
FC7
0AA
FEA
F56
F68
FAD
069
0C4
FEC
01E
FCC
F2A
F45
044
05C
091
F6F
F3B
F1E
FB4
0F4
03A
F56
005
07B
F19
095
067
F27
FCC
0EF
F6D
03D
0D5
FC7
F4F
EEF
FBF
FBC
F1A
060
044
0AD
FD6
042
094
03B
0B7
FBF
07D
F35
0E0
F92
FD9
FF8
F50
FD9
FFD
066
FEB
02F
EF9
0A0
F87
F2C
073
F65
057
04E
F86
FB1
FED
FAD
F8A
FDC
06A
097
0D7
0C2
0E4
0B2
FA1
045
F85
F11
048
F02
005
F5A
02F
F13
04E
052
FE3
0A9
FD0
F7A
08E
05E
034
FE1
03A
0AF
FF3
0BD
051
079
095
0EE
0F3
F63
04D
04C
0F0
0AC
0E1
00E
030
03E
0B2
F2B
F62
02C
0AB
FCA
F43
F89
F1A
023
0AF
F07
020
F3E
063
0C0
05D
F81
F7F
F4F
09E
F25
04A
030
FD4
F9E
00E
0F1
F78
05E
FC4
0B2
F67
F40
F2B
FBF
0A0
F91
0AD
FEF
F80
F6D
0BC
063
0D8
FAC
0B3
FF2
110
106
FF7
0F0
F8C
0BB
F25
FC4
F4A
043
F6F
080
00A
F61
F2B
073
FAB
EF7
097
F27
076
076
082
FAB
F38
008
09F
09C
051
F7A
0DD
FFE
F89
FD1
022
0E0
0E1
078
0E7
F9E
F77
F58
001
06E
FA5
080
0CD
F83
FB2
08A
086
04D
078
0E6
F79
F3D
0EB
F84
078
FE8
F0F
020
086
