01D0
033D
FCF9
0078
FDD8
01DB
FD7E
01D4
00D2
FCC1
0014
FE30
01FA
FEEB
FF36
01D6
FF7B
00DF
FE6B
027B
0115
FCED
02D5
025E
FEEA
FD97
0100
02B8
FF24
FF1B
FC75
03DA
FF75
00C7
FFCA
03D9
0107
FD9F
03D8
02D9
031D
FC1E
018B
FEDD
FEE4
FE7C
FE73
0304
0255
FFC8
02D2
FFCE
FEDA
FCCA
FCEC
FEFB
01BE
FCD9
005F
FE25
01A4
FEB7
FC45
FC2C
FED4
0443
FC7A
03EA
049C
04F1
FE6B
0089
0098
FC7E
020C
FC5C
0245
0130
022C
FBF4
02B0
01EC
00CB
FCC5
032C
FFE1
00E3
FE56
FF84
FD86
00B6
FDC9
01BF
FFCB
0166
048E
FFD9
003F
061A
0054
0111
022E
00B3
FCC4
FB45
FD95
FE01
FCA9
FF19
0405
FFC3
02C8
0122
03F9
01B7
03E7
021F
028B
FC8B
FE0A
0003
FFC5
FFA3
02A3
048F
04BF
0662
01C9
061F
0650
02B1
FD6B
0095
FECE
FF3E
FF5C
FC10
FEE4
00BF
031B
033B
FC69
0052
0237
FCC8
FBC2
00A7
00F3
00A3
028A
FE79
02CA
0452
041D
0222
0307
01AD
FE92
0119
02F3
00FE
02D8
FE59
FDE3
FB7F
FBB6
FC35
0189
FEEA
FC56
FF5A
FCA0
FFBD
FD84
FD18
0314
FD19
FF25
039F
FD7A
00CF
002B
FECA
05E5
098C
FF2C
054B
FF85
0026
02FE
FD65
F846
FC4F
FED6
FEDD
0302
FD0B
FCAC
FCDA
FD99
FEC5
FEAD
FD2C
FEE9
FE71
FEAE
FDCE
00F0
FE9C
FBDD
02C1
065C
050C
06F3
019A
001D
0140
01EE
010F
0042
FD1D
FEF3
028D
030E
FD6A
0068
0274
02B0
01BA
000A
0286
FD10
FD55
00A7
FA07
FEF9
F948
0054
FFDD
FCE8
03D1
0392
0552
0298
0305
0246
0439
04B1
0095
FDD7
003D
FCD1
0126
017E
FC09
00AB
FB8D
F920
FA61
FDA2
FA7C
F7A2
FC63
FDDB
018A
FB97
FAB0
F8B9
FC2F
FC0D
04E6
0224
02AE
007B
0466
017A
FE62
FD63
FF9C
0076
0110
FFE1
FE71
FC56
FA20
FAEB
FEC4
F821
FEC8
FBD7
FA38
FEB0
F79F
F7C2
F3B7
F6EB
FE2D
0091
01E5
0424
0085
00F8
0139
FF0C
FCF6
FD05
01FF
FFB5
FC37
022F
FD56
FFA6
FC1C
F8AE
F717
F95E
FD44
F992
F8DB
F7A6
F69C
FABA
FD67
0626
0091
039F
00FB
013C
050C
05A1
0095
01A1
03AB
03FC
FD9B
0271
FD94
FEC4
029D
FDCD
009D
FC67
FCC4
01A9
0156
FF58
01CE
00E0
0193
007C
03A3
FECC
FEC6
FF83
FE72
065F
0179
0528
009B
00A8
01DE
0501
01FB
0044
FD96
005C
01E5
01F9
FD55
FF0A
023D
FC2F
FDD5
0581
046A
028A
012F
025E
FAF1
005D
FF61
0011
01D2
035E
020C
FFE2
FE00
FCFA
008C
FF1F
02DF
FFB4
FF3B
036E
FDBE
010C
00CE
01A2
FFBB
0280
0147
0210
FD9C
0235
02BD
01CF
04CD
0357
FE26
01A1
00BD
02B4
FDF7
FA79
00B2
FDC8
FDEA
00DF
0362
FF1F
02EE
FDD0
026F
025B
008E
0049
01DC
016A
FFD4
FF7A
FEFD
02DD
FF0C
FE71
00A5
011E
00C9
001D
0094
FEFB
FD21
FBBF
FFD7
FCF5
FE6C
00AB
FF22
022A
024B
FEB0
FDB2
00D1
017D
07C1
0421
FEB6
0481
FE60
03C3
0073
010E
0464
FFAB
FED8
FF6A
0340
FED0
FCAA
FDB8
01A2
FDFA
FFC8
0369
003B
027C
FC4E
008F
FF84
02DF
FDA4
03D5
0302
0144
0039
FE4F
00EA
031B
FF71
FDFA
FF2F
02CC
0200
01B3
FDAB
FCAC
FAF0
FE4E
0254
FE23
FF28
03DD
017E
FECD
FE41
01BB
02AA
0328
02A1
0352
01F5
FEA3
FF14
FE6A
FFFE
FF6A
FFA1
00F2
0089
FF3D
0163
022C
0177
0144
014D
FCA7
FBE8
FDE3
FF78
FF76
03CB
01E2
0305
FF75
FF72
FF7D
FEB6
FEA0
FDFA
FEF6
FFC9
FEE0
009A
FF3A
FDD6
FE02
0398
FA2B
018D
01F5
00D2
0069
FE26
015C
FDB4
FD2A
0317
FF20
FD7B
FF6A
FE14
FD53
010A
0298
00C8
01DD
0396
039C
0082
FF62
FE06
FF7D
0033
FCEC
0055
FFDB
FF0E
FD23
019D
0214
FC27
FF28
005D
00EA
0068
042E
0421
01C6
FFA4
0308
01EA
FF98
03DC
055C
024D
FE8B
01F8
02D9
FB4B
00DB
0064
FD56
FDC0
FE9B
01DC
FCAB
FB76
017E
03CE
FB87
FE42
00FA
019D
FF2F
029F
02DE
FCE3
FC42
006D
0470
003D
03C5
FF5B
0103
FFD1
FE7F
FECD
0125
015A
0050
0249
FFFB
F9E3
FFE4
0301
FF17
FF9A
FF07
003C
01AD
FF53
FF1A
FD44
FFC3
FD31
003B
FCAE
00AA
FD77
0017
0093
0049
00BE
FDB2
FE3D
FF96
FE64
FE37
FE9F
FF37
0352
FBC1
FD14
FDD9
FC41
00D1
FEF8
FF1C
0229
003D
014F
0234
014E
0190
FD2C
FDD7
FD1B
0163
0062
00FB
0336
0328
FD1F
FD60
030F
030E
0271
FEAE
014C
02EF
FF17
FEEB
01CF
FE8B
FCB5
0335
022D
01DC
FF79
027F
022B
0295
0393
02BD
0141
FE6B
01D8
0253
01C8
00AB
0441
0262
01A8
FFB6
0099
0106
0031
FDFD
00C5
FDA6
017B
FD47
038E
02EF
02D8
FFEF
0194
FC68
01A8
FF91
01D2
FE84
FFD5
FE31
FE95
02CA
FE9F
0476
04C7
FFF9
00FA
FE73
FD94
006A
014D
00CA
0314
FCEE
FFDA
0356
0059
FD16
0259
FD15
FCE6
0321
FD13
FD94
FED0
00EF
0369
0337
FF7F
0280
01CF
FD66
027A
037F
0057
FDF8
FC84
023B
FC6C
0240
FD5F
FFAB
FD4E
001F
FEEE
00BE
0255
FD8F
01AB
0016
FFA0
