0002
0128
FFA5
01F3
0157
FC44
FE48
FFDD
FEF1
0015
00E8
0356
010A
FE3A
0194
02CB
00D8
FCDC
017F
FFA3
0175
00F8
025B
FE9B
027F
FC26
FEB5
FDCF
03B5
FC1D
FE3A
FC7A
00CB
FD59
0367
00FD
FD88
FC20
00B9
FCA9
0152
0203
032E
FC9E
FCB0
FE51
0259
0268
0366
0354
0329
FD14
02DC
FC15
0104
FD96
FC7D
02B6
FCD1
02C1
FE61
FD5C
0109
03B5
019F
FD57
025D
FF45
022B
FF12
FC66
FCDB
FC13
FFE3
FEF2
0040
FDF4
FC4F
0142
FE12
FC77
02E1
FFF1
FEAC
FDA5
FFC9
FDAD
FE95
0064
FC5A
FD67
FCB4
FDA1
FC29
FBE5
0146
FFE7
FBAA
FB1A
0179
FAF6
0125
020B
02DB
0214
FD56
024F
FDF2
FFA3
FD1E
FD9B
005A
012A
01D5
FC15
01A7
03E2
FC88
0312
FD23
FEFB
FC16
FEF0
FBE8
FB49
FF52
FEF1
FFAF
FD4A
030F
003C
006A
0070
FDA2
02A6
FE44
0217
FCE3
034B
FCD0
0022
023B
FC2F
0125
00B7
0343
03D4
01FF
FB2D
FBE8
00CE
FFD8
FF58
00D0
FD31
FCF0
FDB1
FFF1
FC2D
FD2B
FFE3
F962
FCA5
FB6F
FD3C
01CA
00E1
FD26
020E
FFD4
FE6B
0184
FD5D
FD29
FC4A
0098
002A
0140
FC9B
FE07
FC03
FF6C
FCD6
FF0B
FE53
0124
F982
FF97
009F
FD9B
00A9
0046
01CA
000C
00AB
FF4D
02CD
02C6
02D0
FCAF
01A9
FDF7
FFCA
FFCC
F9EC
FB4D
019C
0152
0310
FE72
FFA2
FF42
FF9E
FE95
FE40
FF02
FEC3
FF9C
019B
0333
050D
FD3C
01C0
FDBD
02AC
FE31
000B
0335
FD98
FB9C
FC02
03D4
FFB2
FFF8
0220
FFF8
02B9
0211
FF95
0003
01A0
0217
FF1C
0156
00E2
0570
0187
020F
0273
0272
0471
0178
0330
FC40
01EA
00C0
FB95
00B2
01AB
0132
FE08
0262
FC92
FA5E
FC07
041F
041C
FC64
0253
0231
FF2F
02F4
0232
0286
FE74
029B
07B9
0671
0408
FFB1
FFD7
FCBC
01A6
FF5B
02D6
FEEE
FBE5
0109
FD36
001C
00B7
FDE0
FEB0
FBE8
FCEE
FF56
FDD8
0162
0121
051A
04FF
0622
078E
0784
03AE
01BF
FEBB
FEFC
FE6F
FCAF
0274
0376
041E
00FB
035B
0012
008C
FF72
FFD4
FE4C
FC17
FEAA
018B
FE86
0080
0126
FEED
01E8
0184
0293
FEA5
076B
043E
035C
FFF5
021D
FEF5
FCE9
02E0
FDC3
00C3
FD52
FA2A
0282
FF4F
FEEE
FD78
02FA
01F5
05DB
03A6
00FA
FF08
02D6
F916
FDCE
0105
02BE
FB21
0165
0307
00B2
FFAC
FBF0
00FC
036B
02B9
0072
0123
FDA1
FDEF
FD82
018A
04D2
019B
0025
0304
01F1
01D8
00E9
FC9E
00F6
FB45
FD6D
032C
FEAE
FDA7
FF6E
FD11
0417
FC40
01C8
FFB3
01DD
FDC8
FC81
FE2C
FED0
FB4E
00AB
026B
04D5
FF34
01C3
00A0
001A
035D
00E2
FCFE
045D
FBDB
FB54
0123
FC38
FABC
FCF5
FBDA
FF49
00E3
03C4
021E
013C
FD99
0258
FEE9
FDDC
FF4E
FFA3
FA7C
00C2
02F2
FF86
05F7
034C
0685
0475
01A7
FE4A
FFE5
FBFD
0090
FBAA
FA8E
FF25
FD35
FC3F
FF3A
FC73
FC26
FF8B
02D7
01F0
FFAE
026E
FC35
F9AA
FCC3
FBD3
02C7
FF4B
021D
0596
FFE0
001B
0038
04F4
00A0
FBE4
FF5D
FAE3
FBD2
FAFB
00BB
FB71
FFB1
FC30
02F8
00F3
0176
0113
FFD1
FF05
FCCD
FF66
FD66
020E
FCFA
0153
FF5A
01B5
0383
0409
018F
0272
FF9A
FD0F
FA43
003C
FD6C
FEF1
FE82
FBCE
FBAB
FC6C
FD64
FF6C
FEF6
FC90
FCCD
FF45
FFA4
FE19
FE00
FFD6
FFA1
01B4
0209
042C
FEA3
FC2B
034C
FFE2
00D3
F91C
FC32
F9DD
012F
FAFB
FE3C
FE3D
FCA2
FDBB
00C4
FD27
01D3
F999
F9E5
004D
FCDE
FFF2
FEBE
FCD9
FF33
FB5D
004F
FDB1
05EF
FF4B
FC0E
004A
03F1
FACE
F9E1
F859
F92C
FB4C
0289
03B0
01B5
0344
FF57
FF29
02E3
0206
FD76
FCC3
FDCB
FEAD
0164
FBA6
0219
FC76
FE7B
0245
018C
01B7
01BF
0404
FDE8
0078
FC7D
FDFC
FCE6
FA17
FE66
FFD7
FE52
FC22
03E5
FCA7
0210
FDE6
FCCC
FC41
FE53
03DA
FE14
015D
FFEB
0336
FD5A
FDAB
FE26
02FB
FC1C
001D
FA05
FD66
FB45
F9D2
FBB4
001A
FEE4
0195
FBA1
007F
FDFD
03B7
FDF8
FE31
019C
016C
03CF
01EC
FE12
FE1C
00FD
02C7
030C
01C0
00D5
FF2C
FCFF
FEA0
FD65
00DC
FC36
F9FE
FCB2
FE8F
FFEA
FE13
FFFF
FDD3
0131
FD9B
FE42
FB8E
0112
00F8
FCC9
00DB
017C
01BF
00E4
FFA6
009C
FF8E
0118
FFC7
FD94
00C4
FE33
FC16
FB0D
FDC9
FDD0
FEDA
02D8
FD76
036F
0323
FD34
0124
01A8
FFA3
02D7
0411
023C
FF6D
009F
0194
02E3
FD9F
02D8
0009
01F6
0126
FF48
FE72
FC85
FDBC
FD15
FE0F
FECD
FEC9
FCAC
02F5
FE15
0056
0211
FC67
FCB5
00DA
FF96
FECE
FCD1
0162
FFEA
0001
FEEF
FFA5
0088
0301
FE67
FBD4
0169
FD9A
03B9
FEAA
FC10
FEE5
FE13
035B
FF11
FCB1
FEA2
FFB7
02BD
020D
FE30
FD0A
03E5
025A
FF2F
0263
FD3F
FF3A
FC85
FE94
00F8
FDBD
0072
FC0C
FF90
FE48
0190
FFC5
00AC
00AF
FD66
011E
0189
FE3A
FCEC
01EF
FDC7
0272
03EB
0133
018B
0252
0096
02F7
FF57
FC2C
FC58
FC2C
0245
038A
FFD5
FDB5
FD4E
0051
0402
0030
02D5
FC31
FC0D
FCFC
0207
03E6
FC8F
011C
