FF52
FD1D
03B9
03F4
0292
FD81
0296
FF33
029C
034E
FDA3
FF5A
FCA2
0058
FF9A
01F7
014B
03D6
0320
FF2A
0319
FEFD
FC02
FCB7
FCB8
02F2
FCB1
01EC
FC78
FDD9
FFB2
0035
FF81
FFC7
0255
FC9A
FC74
FEED
03A9
FC77
FE82
00EE
00E2
004C
FE3D
FCE8
FE47
014C
FC63
019C
02ED
FFC1
FC91
FC5C
034C
01AD
FFE6
01BA
FD20
0350
03C3
032F
FE80
00E2
FE0A
02EE
0327
FDD6
01E7
0262
FCC7
FFC2
00E0
01F0
0287
FB8F
FBFE
FDF4
00AA
035C
0196
FF39
FE81
FE02
FDFA
0112
036B
FEC7
02C7
00B7
00E9
FEC2
0197
FC97
FC50
01EA
FBF7
FAB3
FF7B
FB8D
00C9
FF39
FD2E
0190
0342
FEC1
FBCB
0137
FFA9
FC86
FEF5
019D
FF92
FD97
009F
FE85
FF5B
FD4E
003D
03B5
FDBF
FCE7
FC8A
FE29
005B
FFB6
FAF4
FBCD
0036
01CB
FEC0
FE3F
FC75
00D6
02B7
FC62
0383
FCFE
FE5D
FCEB
FDA3
FF36
022F
018F
FFF8
033B
02BF
01BF
FED4
01DF
FCF7
FE4C
FDE7
02C6
FC89
FFDD
FBBD
F9F9
FBEA
FB3F
FD6B
0172
FB51
FD52
FF60
02A1
034C
FC61
FC1D
FF9D
01B1
0374
FF1E
01E9
04BC
0398
FDE5
FE87
0059
012F
0357
006C
0370
FF68
037A
043A
FEA9
FC1C
FE8F
FF4B
FF0E
FC6B
FF02
FED7
FCC6
0309
0123
FE09
FD75
FE33
FD8E
0055
FF59
0344
FD90
0087
02C9
FECE
017C
01DC
0360
010F
0363
0526
004C
FF75
FEB6
0147
FCEB
FFA7
00D6
FB79
FC32
FD09
FDAD
008F
FD6D
0236
03B4
FC4D
01F8
00FD
02A4
030A
00B9
034B
0015
019E
02E2
0506
010B
002A
0249
01F5
0025
FFB4
FFB9
FD5A
FAC7
01DF
FBEA
FEB1
00C0
0094
FFC0
FF72
03D0
033F
FCD2
0086
FFE0
FE0E
00F1
0027
012F
00B4
FF88
025C
FE6C
01D5
030D
FEBF
0127
FE34
0298
FFEE
00E3
001B
FC3B
FD13
00CB
FD9B
FD31
FD37
FFFE
0085
024B
0070
FFF7
01DF
015A
FF3B
FD32
0249
0156
FD65
FDBE
01B9
017B
FF8F
0126
FF4A
FEF6
FC97
FE30
FE8A
029A
00B6
FD21
0397
FEBC
00B5
FD30
FED7
FC9B
FEDF
FF98
0195
FE94
02BD
02EB
FCEE
014C
0313
0356
04B2
041D
0213
0269
FE09
0243
FB3C
FFD2
FBA1
FFC8
016C
FC12
FD3B
FF4D
FE09
FE80
0097
01F3
002E
03E8
010E
028F
0123
FEA0
FAF3
FC17
02BE
0165
04A4
0356
047B
01D8
00E4
FCCD
FF7C
FD96
FF66
FC0A
01EA
FD99
033E
0357
0274
016D
FFB0
FF1F
0066
0196
FEE3
021D
FD8F
FCC4
FC90
0368
00E8
0444
00BB
0088
02DF
00AE
FD34
FF9C
00CF
FDC7
FDF8
FD51
02C3
01D7
0179
FD76
FD28
01F8
FCFC
0341
FE81
018F
FE67
FFFB
FFEA
FF13
0058
FD8D
0301
042A
01E1
0675
0149
0317
0060
01CB
FC37
FD09
01A7
FE29
FF9F
FC19
022B
002B
0235
FE11
FC02
003B
0049
FD6B
FD5B
02D1
01C5
FA61
FD1E
015D
0479
FF17
05EF
00AB
042F
004E
FE2C
0145
FE77
FC14
016B
0206
02FD
FCCC
FE4F
FE9B
0008
FDB6
01D1
01CF
0026
0102
002C
01CA
FF12
018D
FCD6
FDBA
00A5
0354
01D0
FE8E
00B1
FD38
FC6D
FCE3
FC4A
FE7E
01E1
FC9A
FEE3
0319
FE9F
FF7C
0039
FF7E
F9CA
FBE2
FD7A
000A
0007
03FB
FF89
FDD2
01E5
FF1A
0057
02EB
FDCD
00F8
FCE6
0126
FE64
FF85
FD7C
0183
FC44
FDAC
FEC5
03C7
FE7E
FCE2
FCD5
FB19
FD80
FCD5
FC7C
FE31
FDA3
FFC3
FFE7
FC32
FFEB
00D9
0044
FE5F
0272
FD60
009C
F905
FD4D
FDA0
FABA
FB96
FD4A
FD75
FD10
FC0C
FC67
0191
FCC5
FCB2
FFAE
FEC6
FEA2
FB64
FC71
FFC6
FED9
FDC9
FDC0
FE19
FE3F
FD8B
FFA4
F9D3
FE2D
F8B5
FE0E
FBC5
FC4E
FD99
FFB1
0348
01DA
0329
FDEF
00D2
FFF1
FBC8
FADF
FC33
FB2D
0078
FC74
FD5F
FED9
FAED
01CA
0053
FC60
FEC9
FCA1
FAA8
F935
FB23
FDF7
F9FA
FAA1
FED5
FD3A
FEFB
0107
FCB1
FEC1
0204
FFAF
0167
FBB7
F9E1
F951
01C8
0153
002A
0153
0115
FC57
FD6E
FB74
FF09
F9EC
FB9A
FF9D
FB6B
FCD7
005A
01D4
011C
0041
0311
FFC1
FF49
0201
FE1A
FBE6
FE1D
FDE8
FBCE
FE4E
FD9E
03C7
0115
FE5B
FFB3
FD8E
01D9
FE86
FB99
FB44
FB41
FB2B
F9B7
FE02
0032
FBED
0002
00A9
FC98
03B5
0279
FE6D
FCE6
FE6A
FEB2
021B
01B4
027F
FD63
FB75
FFE4
FF71
FF75
00AB
FB57
FF23
FBE8
FD87
FD01
FD65
FEC5
FDB1
FE3D
0173
03DD
031C
FFD6
FFDF
FC3E
FE1E
03B0
0099
FFC5
034B
036A
0024
FF70
FAC8
0016
004E
FA74
FFF7
FC55
00EC
000F
011A
FC95
FC42
011D
0036
019C
026C
0175
FF27
0239
FFE9
039C
0122
FFA4
0163
01C0
FE8D
0359
01A4
001E
03AF
FCFA
0032
015E
000D
0372
FF89
0269
01A2
018F
0291
FE4F
FEAF
FF85
FBE9
FC5A
0038
007F
FE75
FE04
0171
FFE3
FC10
FEF6
FD4F
03FC
FEB2
0195
0524
03BA
0217
01D6
070F
03C5
0006
FF7A
054C
0107
FF7F
02E7
03BC
FBE9
FC47
015C
FFDE
FFBE
009B
0134
FD47
FC6C
028C
FD9D
FF4C
FD1E
0121
016B
0343
FFC5
FF16
FDE7
FFFB
FFAD
FCE5
0265
FEE3
032B
01F0
FE74
03F0
013B
FE3A
0019
FDC1
00A7
01EF
