027E
03FA
FD65
036D
0397
0333
00D6
FD4E
FF67
FEFA
FD48
FE5C
FE2C
02C6
0344
FC03
FF9B
FED2
FD3E
029C
FE13
0199
004F
01DF
030B
FEBC
027F
00E4
FCC3
007E
01E0
FC9F
FCDE
FC7F
0252
FEFF
044D
FF43
0103
02DF
FEAC
00C0
FCB1
006C
0038
0172
0361
01C1
01BF
0206
01B3
022E
02A9
FCCD
FF1E
006F
02AC
00AC
FC4C
0276
FD42
01F1
036C
FD48
FD3B
000C
FF42
0487
0284
FCE3
00C2
009B
FFAE
FF2C
FC76
FDF7
0127
FC4B
FE15
0098
010B
0225
FE74
FEE8
FEA1
03DA
030C
FC91
0319
FD27
03DB
FFEE
FEF2
0552
05AD
05AE
00D2
FCFB
FAF2
FABF
FDF8
FFA7
FF54
FC4F
0127
FFD6
FCD2
FC75
FDD2
03DD
FE43
FDA3
FD38
024D
02F4
03CB
FCDE
FF9E
FED8
FDA8
02E9
0049
0025
00EC
0123
FF9C
FDFD
FA4A
03DF
02C6
FDFB
011B
FB47
FA30
FCB2
FA8E
021B
FEE3
FF52
FDD3
FC4E
FE7F
03D8
00C0
FFA1
FCC2
0020
FD95
F9E3
FD90
0130
FF22
0200
FF93
002B
0327
FDCE
FFC3
FF23
009E
FEB6
0124
FD2F
FC24
FC9C
00D3
FDCE
01AC
FC7E
FC0E
012A
FDB1
0211
01AB
FFCE
FDA8
02E4
FCFD
F7C8
0203
FB59
FEA9
0158
FD93
02B3
FFA7
FC09
01F8
FC3C
FD56
023E
011A
00C5
010B
FCEE
FF8E
0169
0087
FDB2
FEB4
FFFA
FCC6
FED0
FD90
03F3
FFAB
FB21
01D4
FB64
FFB6
FCF3
FAD0
FFD0
FDCD
FE1B
FB21
FCC6
FD19
026B
FDE6
0147
01B8
FE99
02FB
0147
02B7
FF20
02A7
FBB5
FC38
FB62
FDCE
0011
035D
FDD2
FC4E
FFD5
FDF0
FD09
0263
FEF9
FDC2
FAE9
0256
0397
FDA9
00BA
0239
0559
00F5
0042
FC47
FDD1
02CD
0282
000B
00D4
030A
FD41
0286
FCD7
FB25
0233
008B
FF0A
FA89
01DB
FFAB
0090
003F
029B
0059
0148
0160
FD10
FD5A
0495
03BF
0028
018D
FE4D
FE1D
0141
02A9
FB7A
00C0
0575
0277
012E
00E1
FC40
FBF7
0160
FF4E
FE46
0084
00ED
0707
0127
FFE6
0175
0360
0095
003F
FB3B
04EF
FF28
0127
FFBF
0186
FFEE
FF60
FF24
FF3B
FEBF
0059
038C
002D
FC9C
0230
F9A4
FDB4
FCA2
FB85
FD5F
02B3
FD74
0396
055B
01DA
0080
F91B
032C
058B
FD70
0356
FE78
FEA0
0263
FD53
0033
FEB6
0069
FB23
FE4A
FD9D
053D
03B9
0103
04F0
00E1
FD4E
FCF1
FBAA
F892
F9D8
012F
FF19
FCB8
F931
FD52
0129
03C2
009C
027A
0288
0231
FCF5
FAEB
FC36
010F
038B
0581
FCBF
00D9
06CF
05FA
087F
FA05
FE6A
FDB1
FE24
03E6
00A7
FBE4
F851
FE95
00BA
FDD5
03DE
03E4
00C0
022E
0092
FF1B
01D0
0158
03A7
FC04
0539
0543
00F5
FF2B
FE93
0270
0373
FD28
075A
01FE
002B
FCB7
FB54
FEAF
FACC
008E
03D7
0744
038B
FF90
021C
0188
FC24
FEEF
FE43
03EB
000E
04EA
FF13
0255
0534
016E
FD91
06F1
07B0
FDCA
0335
0447
02FB
0168
01A4
00F7
FAD4
FC5C
FFAD
0519
07A7
048E
029A
FFDC
0089
0271
FC4A
0356
FFE5
FCC6
FE6C
FEA5
0089
FC9E
FFD9
00E6
01F9
006D
0769
0313
0BAD
005A
038C
FF84
0200
039A
03CF
FEFE
0353
0278
005D
FDAD
FDC0
FD00
03B3
04F5
0045
034D
FD19
FE31
0389
FEC6
0203
FF3F
0294
FE8A
0613
061F
00D4
029B
FF80
FE59
FF44
FE38
0139
02EB
0073
01D0
0343
FE7F
025C
007B
FC80
0393
0691
019C
010B
073B
00D2
004D
FD74
FF70
01FE
037A
0037
02D9
052A
04A0
FE3F
F960
FEF1
FDE7
00F9
016D
FFDB
01EB
FE8E
0282
FE93
030B
FCED
01D1
0512
0099
01C6
FF1F
FF7A
FEDF
0031
FD45
FEC7
03A5
080F
02CD
FDA5
068F
FFA3
FE41
FEFA
0613
060D
0170
FD44
03DF
00C6
FC87
FDA6
0249
FEB6
0311
01A0
F932
0548
005A
FBC2
0337
03B4
FE54
FBF8
FCDC
FA59
FC3A
FF76
0171
FF03
007D
0522
0339
FFDE
F9B2
FE5C
0285
0082
0375
0046
0157
FF35
FE1D
05D4
00EF
005A
F9FE
026D
FB3F
0269
0121
FE1E
F8C6
FC92
F79E
F4B3
FC96
F686
0092
FD39
FD9B
FD7E
FAA8
051C
FF5A
FEE6
0147
015B
0217
FD2E
0010
FC8B
01D4
00EE
FD50
008F
0152
FB1E
00A5
FE0B
FBE4
F9CC
FC70
FD4A
F87D
F500
FBE3
0030
FC5A
F9D4
0064
FDAE
03A9
0008
FFF2
FF36
0044
024D
00E7
FBED
FF2D
FBBD
FFB5
FCBA
021D
FCEE
FCEF
F91F
FBD4
FC83
FCDD
FA3C
F5E8
F9EB
FD09
FA73
FE63
FF47
01F6
039B
FFBF
FE27
01B6
03CB
0315
01F9
FE0C
027C
F72F
F3EF
F8D9
F643
F95F
F772
FAB6
FCF6
FBF6
0138
008D
FDA3
FE91
FDF6
FFD5
0307
FCDD
0289
FD3D
FF44
FD00
0066
027C
0068
FFEE
FF09
0401
FD61
FADE
FD61
FCA7
F6CC
FB3B
FDCB
FD1C
FC30
FFA7
FD91
FCFE
FB2B
011D
FF16
FD52
0186
0075
FDB1
FF37
FE5A
0171
024E
0376
FD6A
0337
FC29
002B
FDE5
020D
FC2E
FDC4
FB78
FDC3
FFC6
FE2A
FD70
F9E4
FC4F
0045
0111
FDD7
FF73
05BC
0339
FCE4
FFAE
033C
FF27
FC06
02B2
0392
031F
030B
009D
027D
0321
FFF9
025C
FC6D
0152
FE58
0104
00C3
FF0B
FCD1
FC41
FC99
FC85
FB5F
015B
FC22
FEA8
FDC3
FCD8
0332
0122
FC71
0178
