02BF
FD10
00E9
FEDE
0387
FD71
028D
0026
0342
FF7F
FF19
FD81
FD80
021C
FEE8
FD0D
FDCA
011E
FE1D
0314
0198
FE64
032D
0325
0298
0294
FECB
FEB9
FD7A
02A3
00D3
01E8
FE8A
FFCF
FF8A
03BA
FF32
03F4
FC36
0358
030C
031C
00AB
FF9B
FECE
01C7
FF3A
FC00
FDCB
00AD
FC4F
0395
00CE
FC1B
FC82
FC39
0340
0341
0132
FED3
FC4C
00AA
00F5
FD35
FD30
FF2B
0388
0002
0119
FEBD
FE4C
01A6
01CB
FD89
FC58
FB37
FFAD
01D0
014E
0023
FD69
FD5F
039E
FC09
FEAB
FF50
009B
0398
FF8B
FDEC
FC6D
FD7F
FCDE
FC74
FB09
FFEF
FC5A
FA8E
FC25
FD7B
FABF
FD9B
017B
024D
00C0
0072
00A7
02AA
0116
FD76
FCFD
020C
FEA0
FED3
FCF5
03A9
0162
FD90
FD73
FFF0
FC84
FA8E
FF05
FCCD
FD24
F76C
F6C1
FAAB
FAF5
018B
FC0C
0101
FD13
FEFE
FE8E
FC1F
FD2E
FE10
0060
FEE3
FE08
0366
FCDC
FE00
FBD5
FD0B
0293
FDED
FC55
FAA8
F955
FC7C
F93C
F774
FC43
FC4E
FDA1
FC12
FB20
FE45
FD97
FB82
FD19
FF39
0407
032F
FE88
037A
FCB0
FD61
024A
FF12
00B9
01AA
FFEB
0299
FAEF
0672
0150
FCC9
FF3D
05D6
FF14
0394
FEE3
0471
0335
022E
0543
02D7
01A3
0416
014F
FD9A
0123
FC60
FF38
018A
00C2
05FA
04AA
FC72
0010
0046
0440
035F
051B
FF39
07E6
0328
033C
016F
00C5
0201
FFE6
FEA4
FF1D
FF3C
FCF6
FEC6
0134
0061
FE9C
FF00
00EF
001C
FC9C
052A
02CC
FDE9
FE82
FDB3
021F
014A
0498
04E4
02E0
0138
FDF0
00F0
04A8
030F
038D
FEBA
0405
0369
0252
0093
0014
FFE9
FF93
FE7E
FD2D
FCBB
021D
FBB5
FE63
FFBF
0046
FEA2
01A6
02B1
02B5
0343
0633
0444
01F0
014F
008F
01F6
03CC
FFA2
0021
FF70
0315
0577
FF98
03EE
FB6D
04DA
010E
01EF
FDEA
FEF6
FEBB
FFBE
01C5
02F3
FEC4
0647
FEF2
038A
0367
FF92
0600
FD9B
0026
FC41
0559
FFBD
06A0
00C4
FEB8
04B5
001B
0483
FE65
FD13
034C
FD1F
046C
044B
017F
0051
0665
FCFE
02B5
0034
FD97
04F1
FD67
FCD3
FC86
FF24
006C
FF2D
FA7B
F9BB
01D6
FBD4
04A0
0275
FD93
FD31
FD44
0198
001D
FDAA
0254
01A3
FE73
FE55
FDB1
FBBC
FCE6
FDFA
FAA2
FCC2
F50E
02C7
016E
02FE
FF4B
02F3
0221
02D0
FC28
FD67
019E
FF24
FF28
019F
0440
FFF6
FFC8
00CC
02D9
FE2D
F9AD
FFFA
FCEC
FD79
FD7B
FA1C
0110
FEC1
FC3F
02E0
01E9
03C4
0032
0096
FE91
FD70
0011
035E
FF24
FBE3
FABC
FA67
0105
FFD2
FDD9
FDC5
FC8D
002B
FEC7
F8A1
00B0
0046
0052
0107
0198
FE04
FFE0
0177
FEEC
02C5
0019
017A
FF76
FF67
062E
FBB3
FCC5
F95C
F6AD
FD8F
FDDF
FFA2
02D7
FF36
FF9F
FC7A
02AD
0422
018A
FD0D
01DF
FC28
FED5
0137
01D1
FCBD
0259
03A0
FF87
03AC
0664
02CB
FC10
0211
FCE6
0091
018C
FEBB
FEE8
FF7E
01D7
FF32
FFDA
000D
046F
FF64
02D8
014F
02C5
031C
FE64
02CA
FF4A
FEF3
FA99
FA3D
FBF1
0022
0390
01EC
036C
FDE5
FFC6
FBAB
FE8B
FCA1
01E9
027A
FC27
02F7
FE61
03E4
FD85
0144
FF08
0114
046F
FDB7
02E1
FF82
FE3D
00A3
FDED
0438
0182
FD7D
FEC6
FF1F
0374
FE00
FF4D
FD1D
FFB9
FDD0
020E
032B
FDB0
FC81
FD16
01F8
0160
FF6E
0430
00B3
0091
FEAB
01E2
FFA6
0207
FF65
FD9E
FD21
00F2
017E
014D
00A3
012A
0110
052B
F7A9
FFAC
0293
0335
FD65
FC54
0234
03E4
FC2A
0090
FCE8
FE01
026A
0268
0373
011B
01A4
020A
FCD3
FFCF
FEA0
FE33
FD38
0174
FFFF
00E0
0020
FC4D
F9A2
FFDE
FD8C
02BB
FEB9
0174
00F4
01A2
01C9
F9F2
FBFB
FE35
0002
FCEB
01B7
FD90
F8F3
F8BF
FC1E
FEA8
0034
FEC4
FD33
FD82
FDE3
FE0A
F9A3
F9E6
0432
049E
03EC
01B7
0030
01CE
0321
FD51
FC66
FEB2
FFD4
FCD3
FFD2
F7C8
F67F
FE07
FD55
0039
FC00
01A8
FF14
FFB3
FBDF
FEE1
FEFF
00A1
014D
FBB4
01F0
0376
FD66
FFA6
FC9C
00A1
FC1C
01ED
FF1F
01E4
FC7F
FCB4
F8AD
FA96
FDAC
0139
FBB1
03D4
FC9D
FE6B
FA3C
FF7A
FE15
019F
FC76
FD04
FE91
034E
0656
03F1
03F5
FFE6
FEA0
0209
025A
00BD
01AD
028B
0017
0174
FFAE
FF76
F707
FDD1
FDF2
FF43
FD63
FE9A
FFC2
FD9F
FAC2
F8E9
FCA5
0396
FF37
03FA
017B
049E
02C8
0231
FF4B
FC5A
0334
FE88
0364
05D4
FF25
0148
041E
01EB
001A
01CB
03B2
FF4B
FFA9
FC5F
0254
FDEB
02AE
FDA0
FFC9
FFCF
02D1
054C
01DE
FAFE
FF60
01AA
FFF4
0398
004E
FFEC
02A5
0433
05F0
01DA
08FE
097F
07DD
0732
035B
07D3
024C
02AD
017E
0480
0075
FFDA
060A
04DD
026E
00C0
FD19
02F6
019A
FD95
FF2D
FE7C
FD78
FE17
03AB
FF02
009B
0211
FF9E
05C8
0576
05E0
0299
090D
083C
0AE8
06CB
076B
05F0
04D3
017F
01E8
0489
0153
0198
FE6B
FFCF
FFA2
0122
FC47
FEA1
01E4
FF1A
02A5
FCCB
FE29
02DD
0341
02A9
036B
FF24
0375
FCAA
0351
0478
0120
0052
004B
FD88
01C6
01D0
0273
FE18
001B
0338
FE1D
0254
