00D6
0277
FF0D
02B0
FFEE
FE73
FE93
FD53
FE9A
FF89
FC0C
0286
0097
FFC8
00E6
FEEE
003C
FD4C
0304
00B9
039B
FDEF
0001
02A8
FCEC
FD54
032C
01DD
FD1E
00CB
02DD
00D8
00CB
02DA
02CC
01E7
FC6A
FF49
FC05
FC77
02DF
002E
001C
FDA6
03E9
025C
FD8E
0379
FCB7
FCC1
FD7B
0007
0278
FD6D
FE4C
01C7
FD10
FF23
0370
03B1
0221
FC5A
FD66
0178
FF49
0251
FC3C
00C7
FE89
021A
FE3B
FD9C
FE63
0283
00F5
FE55
020B
020B
01E6
007B
FD81
010C
03CE
0281
FDDC
036B
FE3B
018B
03DF
FC5E
FCD5
0086
FE94
FF91
0178
0191
FFC3
FA89
FE1E
00BD
FDC7
FCD3
FF60
024A
0261
FF22
03E4
03D4
00A7
FDA9
0017
030A
FD79
01B8
00EF
0069
02F9
FE69
00F4
FD1B
0071
01AB
0381
FF3E
0371
FECC
0098
FE1E
0435
0494
0243
021C
FD82
FDDD
FCBF
FF4E
FE93
FC04
0035
FC18
00E8
0081
FFCB
004E
FD23
0336
0039
00E8
05FC
05E6
FC06
00EE
0313
01AD
0108
FDE7
FE58
00AC
FE0E
000A
FF89
FEDF
FF64
FACB
0023
0339
FEA3
FE01
FE27
0190
FE67
01CA
FCE0
0250
FBBB
0008
0289
011C
FECE
FF1C
0255
FEFE
FF77
FFA6
FAA4
0083
FC5F
04D0
022A
FE66
00A1
FF1A
F760
FAF1
00AA
0095
009E
FE57
0339
00F3
FF45
021D
009B
FEC1
FEDF
FEF2
02AB
0348
03B0
019F
F89E
00D0
FEBF
00F0
01B4
FD5D
03EE
00F6
FFCA
0198
02D7
00BE
0061
FF11
0372
018A
FC03
FED6
03F1
01EF
FF41
00A4
050F
010B
0385
FEC4
071D
0079
FF1B
0086
FE50
FF24
0310
FF3D
FF41
FF4B
02FF
0690
FE77
FCBB
0308
FE89
FCB1
FFD6
01B5
0341
0265
FDCD
0121
FD90
0437
058F
FB42
FFB7
015A
04E0
FE9F
FD33
FD06
FF08
023C
FFC2
03FD
0113
03ED
02D9
FFB1
FC62
0260
01FA
FFAD
FCC8
0175
0016
FFAA
0177
0406
FC85
FCD2
FD3B
063C
06E8
0094
FF8B
FA3F
0362
FF32
017D
0255
FFD1
023E
0150
0272
FF81
FE0F
FEA0
FD91
02CF
0254
02EB
FCF3
023D
F989
FE2E
0080
0141
02DF
FEC8
FD3E
008F
FFC7
016E
00F6
0305
009E
FF3C
FEDF
0388
FFFC
018D
FE21
FCBB
0418
FE29
0168
03EC
011D
FDF6
FC10
FFA5
FAF3
001B
FFCE
03CB
FCD0
FD9B
FC6B
FEBF
004C
051A
017E
FF8A
00C2
062F
F6E9
FF44
FF8A
FFAE
FA91
FE56
0704
FF1C
FD67
0287
02E8
00E2
0400
0133
FA5C
FC96
FA2B
FA4E
FEA0
FF0B
F8BA
FB7E
FD61
054E
03C8
0434
0419
011F
FF91
004C
0056
FF43
FEA2
07E8
0495
FE54
FFFD
FEF5
0303
FEFA
FF70
FC16
00BE
FBAE
FDA5
F894
F644
F9DD
FCC1
013E
010E
0540
0402
FF0C
FF40
FE33
FCDF
0250
FEDF
FF04
033D
0248
035E
0130
0538
01E7
00E4
004A
FF82
FDCF
00EB
FD8E
FB0B
F95D
F9BA
01A3
036E
050D
0045
0495
0815
0455
FF6B
FD61
0492
010A
FE41
FDB8
02F5
FDF7
00F5
FE9A
FF55
03F9
FE06
FDC5
0174
FEC1
FB7D
FB54
FEC1
FC9C
0058
0210
0293
00FA
FECE
0678
0523
0524
03F6
0003
0037
FD2A
003F
01BA
006F
02DF
FE1D
0473
0284
FCC9
FD39
0308
00A6
01BC
02B0
FC21
0221
FED6
048A
FE45
01F7
FF48
04C4
031B
FC06
00BF
FE23
003C
FE82
F9C3
FF7E
035E
0079
03DE
03C8
0061
FDDF
FD0F
0287
0368
FFB1
05B5
FDC6
FF17
FF97
FFA0
038A
014B
01DA
02D4
0509
FEEE
009E
F987
FC34
FB42
FDDF
FFAD
FF60
FA45
0130
FF61
FE6E
044E
FD10
FDC1
006A
01FE
FFC1
FCF6
0003
FD03
FF75
05B9
FE8E
059E
0572
012E
FC10
FCE6
FBFC
0200
000E
FEE0
F947
FB63
FB7B
FBA1
FA06
03DF
FE34
FFC9
00A1
03D7
0230
0393
0051
FD74
025C
FE61
FE65
06AC
024C
FDBB
010F
FFAF
0768
FE51
FB98
FC73
FE7C
FC63
FC51
FFEE
FF26
FA55
030C
02DE
0287
FAFB
FFF3
FF60
FD04
0305
FC99
004F
FE7F
FE71
0019
FFF5
FE4B
0034
0206
FBAA
FF88
02A4
FD65
FC4A
FAB4
FDC8
00A9
0082
FB78
00D2
FFF3
01C7
FDB7
FFB6
FE39
024E
0101
FF51
0093
00D3
FD62
0072
0952
045A
FFFB
01CB
004C
018E
0051
FFC9
FEAA
FD6B
FF3B
F786
F732
029B
FFDB
0228
FFBC
FA0F
FCC2
FA08
02BA
FD24
FDFF
FD9D
FCC6
FED3
FB69
FFA6
FC39
048E
FEF2
00C0
FE34
0351
0432
02EB
FFF6
FD01
01AF
FB54
0104
0102
0423
0308
FDAA
FDE5
006D
0093
FD6C
03EC
0026
FDB7
FEA7
0213
FC37
FC58
FCB1
F95F
FFA7
F7F8
FC58
FEF5
007F
0338
0474
064E
000A
FB65
FD71
00D1
FD59
FE49
FBDD
FB03
FCDB
03F9
FEAF
FC91
009A
FE1D
FFF7
02CA
FD94
FD51
0067
FE61
FE40
FF4B
0026
FB79
FED5
FD54
02DA
FF75
FD44
01F9
FF52
FD74
FE28
F7BC
FEF8
FB79
FD01
01FE
FE3C
03DC
FD39
FF98
01D5
018A
FE1E
FBE9
FB2B
02B4
029C
FFEC
0096
FDF7
0059
FFB8
FF6F
FC04
FC32
FCAA
01C8
FCD6
0046
FF55
01E3
0282
FCAA
FD89
0107
0308
0056
03A5
FC0A
01DC
FFB5
02DF
0036
FF32
01DD
02DE
FE7E
FE7A
FEFA
FD1A
02D8
FDA6
FE6B
FF08
FD0D
FFE9
0068
FC53
0324
0148
FE5B
FE3C
02B0
010A
