FC09
024D
FF92
002D
0289
0239
0079
FC60
010B
FCDA
0159
FC7A
02D7
FFF1
0283
033D
FEDF
FE77
FE57
FC1D
0079
FD50
FD8C
FFEE
0248
02D5
03DB
FE67
0372
FC0B
00DA
FDD4
02F7
021F
021A
FD2B
FF50
036B
FC69
02AB
FF40
0308
FD97
0141
FDDB
0204
0161
02E1
FFEE
FD7C
FE95
FCC7
018B
0294
FE29
0257
FE36
023F
FF8D
FDBF
FC25
0062
FD18
017C
FDD1
FFFB
FD07
FB9D
0050
FEE9
0060
0079
FC41
FDBD
FEA3
FF0A
0163
FD28
FD30
FFF0
FCF3
019B
00EA
FCE0
FE91
FF84
0262
FD24
01E4
FDD4
FEC9
0055
F929
FB09
FF44
000C
F668
F844
F777
F63B
FC30
FF21
FB3C
029D
FC81
007B
FD34
00C6
FFA8
0347
038B
0232
FC6E
0104
009B
02E6
FFA0
FCD3
FD72
0006
FD19
FB86
FA87
FE1B
FA7E
FA97
F700
F9A6
0239
F86A
00AD
FFAE
FD54
0480
02A1
0330
0124
FFE5
FF68
0367
03B2
013B
0038
FEC2
FD62
0335
0004
FBA3
029C
0152
FE34
0023
000D
FD18
FA96
FEB0
FFED
FA1F
0125
F9AA
FFD0
FB6E
00B1
0201
0041
FB45
0327
0125
FD74
028E
FF83
0298
02BB
0115
028C
0249
0337
FD1C
FFB5
0327
0019
FFBB
FDFE
0118
FDC8
FF74
FE96
FC27
FFFB
0367
FE22
FDB6
FCA0
FEA8
FE01
03EC
02E6
02B7
0068
037C
FEB9
FFF9
02A5
FE45
0017
01D1
FF5D
FE33
FD52
0149
FF25
FC26
019D
05B4
FCC6
0111
030D
02B8
FF49
01E5
FC28
000B
0380
FFA5
02E4
0255
0139
0251
02B4
00BB
0061
FE78
039E
030B
0014
0245
0076
FCDA
FEA8
0143
FE11
FE32
FF83
FEE8
FED2
FF56
FBCA
01B8
0082
00E1
FE09
0168
0375
FE55
015A
00C6
0080
FDEF
02CD
FFE1
0203
FF08
00DA
FDD1
03E5
FFB8
FF64
FF43
0186
01F3
0115
0043
0407
0059
03EA
FCFF
FD65
FC64
FDC4
FE75
01BE
0245
0004
02A1
FF6F
0219
FF9A
FDA9
FD70
02BD
0018
FF2D
0354
FD23
FBB3
01E7
FF4E
0088
0035
FE88
FFA5
FD3C
0279
FA7C
FF4C
FB62
FD36
0168
FD15
FE25
044F
FDD1
01BB
0411
FF61
FFBA
035B
0010
0433
FF9D
012C
FD8A
0065
025D
0128
0522
0352
027F
03B2
FFA4
FD31
FC18
F778
FE9F
0231
FDD5
0260
FF61
03A2
0392
FC94
FC26
0337
0040
0455
0178
01EF
03CB
026F
FDDC
FE1F
05DB
04F3
0140
03E3
0141
FE74
01CE
0045
FACD
F716
FC7D
000D
0016
FC2C
FD88
0128
FD83
0252
F9CA
00CE
02F4
FF79
FEDB
0439
001A
00A9
FC07
021E
0440
031D
0293
04CB
FE93
0710
FFF6
FF53
FCE0
FA5F
0224
00DF
00E5
03FE
026F
FFA0
FF01
0322
0088
00CE
07BA
0415
0002
007D
FBA7
0402
FD06
033E
0351
0307
0250
024E
0491
06B5
FF21
0265
0081
FB0E
FCEF
FC39
FC89
003E
FCF1
FD65
FEB4
05D1
0115
FEFB
FDA4
FCEE
FF08
017B
0321
FE29
00A9
FF21
02AE
0526
082A
0336
01E8
02B7
0313
0377
03DF
FE77
FE7F
022D
FE49
0081
0096
FD96
01EA
0550
FCAF
068D
035B
01F4
0124
0072
FF7A
0154
0255
03A1
03EF
03EA
0359
014F
019C
0314
086F
FE21
0334
FDB0
FD04
FDAE
03E6
FE96
FD5B
029D
FC00
FF6D
FD54
FC94
FEF0
FE17
FEF3
0324
FF9A
FBC2
FF11
0372
063E
01AC
FDCB
022D
FD05
FDE5
02AD
FF5F
FC68
FABF
FF57
0230
0189
FF2D
FF66
03DF
FE03
FEAC
FDA1
00F9
FF37
FE83
FB1A
FBD2
FC62
FF72
FE05
FE5A
FD1D
01CB
036D
FEA9
FFEB
FCBB
FDD8
F9A9
FCAC
FABC
016B
FFAC
022B
01D0
FED5
FC9F
017B
0192
F756
FA05
FEB8
FCFD
FB9D
FA88
FDA2
FA59
FAA3
FF6C
FBFB
F8F8
FA8F
F642
F966
FADA
F8C6
F7B7
F7EA
FA07
0148
02A6
FE78
FFD6
FCB1
FD27
FE65
FE29
FCB4
FB33
F8A4
FE1D
FE41
F9EA
FDA7
FF0A
FF12
FC73
003E
006D
FBD1
FCF9
F7F3
FCD9
FFAE
FDBA
F79A
FECC
FCEF
FE77
FC68
02C9
FD13
00B9
0059
FD0F
FE51
FCFC
FA59
FF76
FE10
01DA
FDA8
FD63
FCCF
FC32
FBE0
FE72
FB24
FE10
FE29
F9F2
FB96
F7B0
FD00
FCE8
FDBD
0202
01AB
0201
FDC9
FF8A
FD02
FF32
0077
FEA9
FF5A
0300
FD7A
01D3
FEC2
FD35
009F
00CF
FED6
FB67
02AA
F983
FB75
FA4A
FF00
FA6E
FCC0
01C6
0192
FF40
FE7A
0088
00D4
0261
FF67
FFE4
FC65
FF98
04DD
FE35
FA60
03D1
0166
0060
FF6E
FFDB
FFBB
00F6
FD90
FFDF
FAD5
02BB
FE77
FECD
0037
FF2C
FE3C
028F
0055
FC60
FD9A
0008
01C2
0307
05C3
03EA
019B
035D
FCAD
FB91
FD26
FE63
FBB5
F905
FF59
FD59
FC38
00F1
FCF7
FD06
FFA7
0158
0065
FE6B
02E1
FDF6
FF3B
03A6
FFC2
FD31
01FC
0387
02C7
0031
FF08
032E
03DA
FD26
0395
FD87
0205
030E
FCBD
0005
FCF0
01E4
FB1A
01CA
FC47
FD46
FE14
01A3
0282
FC10
FFF5
014C
FC48
0076
01B8
FF83
02F5
FF3F
0286
0054
055D
021F
FECC
00A0
023F
0606
0085
FDD8
0008
044D
FDC5
FDDF
0490
0137
00CF
030C
005E
020A
0391
0108
007E
FF0B
FE54
FE8D
025E
02F6
0120
FEA2
0378
FFB0
03F6
0120
FD39
00CE
FDC2
FE18
0245
FD4D
FD12
FF5D
0379
04A0
FF12
FFA0
0296
FFA5
021A
