028D
FE71
029E
FED4
03D0
0031
FEBA
00B8
FF41
035F
0056
008A
02E8
FEE6
FC0B
FED0
0350
010D
029F
FC73
0326
02C5
0157
02BA
00D5
0257
FF41
FC2E
00B1
FD69
0094
FEDE
FCD9
FEFF
0110
03FF
00A1
020F
011A
FD37
04D3
03A8
FF99
FDD4
00B4
004B
FE41
FFDA
FCAF
FD18
FC7C
FEB2
0215
FE8C
FEF0
FD42
00EB
FF00
FD3A
FDF5
031A
FF5E
015F
FF9D
FE52
FFB5
01A0
0289
05AA
02C2
00EA
0448
FDB4
031C
FFDD
FE72
01AB
FDEC
FDD8
0499
FE5B
FD2B
02FA
FF6A
FECE
FD3C
FDC0
FF63
FE83
029A
FFB6
0386
0097
020E
0526
0239
0447
03BC
056B
0097
02C5
FEF3
FF14
FFD4
FCDD
01FF
0429
FE78
01EC
FEBF
02D3
024D
FF5D
FE75
0322
02D6
035F
0248
01FE
03D2
0563
0477
0418
FE3B
021E
FC8B
0184
0012
02B2
02C6
FCBE
FE9D
008A
FAEB
FC13
FB43
FAFB
0183
FEFB
FF51
FC4A
FC92
FD2E
0375
01DE
00DF
FE09
FF14
FDD2
FCCC
FD6E
FC05
FCF9
03B3
FC38
FF27
FEC6
011B
0088
01C9
0157
FE99
FDA6
004B
FF18
01E1
01D7
FFA3
0330
FD8E
FE06
012E
00F5
01E0
FAA9
023F
FBC1
F91B
FB52
043B
FC78
0093
FF57
FB28
FE95
0145
042A
FBA2
007A
FE42
FAE7
FA8E
F9F9
FF1B
0176
006C
03E6
0024
FFD3
026C
FFF9
FBE1
FFC2
FAF5
F918
FE21
FEFE
00B5
FEA4
FC58
011E
0239
006A
FDE6
FBA0
0017
FF69
009B
01BD
F95A
FDC8
003F
FF97
0314
FF42
030F
FE71
FE67
FCFD
FB35
FD82
F8D7
FFA3
FD57
FD8C
FC46
FFBF
0336
0021
0124
003D
FF0E
FD86
FF2A
FEE5
FFF3
FD5A
FC98
000D
FD1D
FC57
FC24
0052
0262
02F6
FDFB
FCE2
FB87
FEEB
FE10
FE54
FDA8
FFDF
FEEB
FD02
0221
FFA6
FE2F
0231
FD7F
FE2E
FC83
0198
03AB
FF3E
FF16
FC3E
FC25
FD30
010A
FC29
0281
0358
0094
FE31
0011
FEB1
00A3
FE99
01A0
FCB8
FFD6
03F4
FF9E
FE34
FB6A
FD49
FCD3
FE9A
03B0
03C4
FB40
FD43
010C
FC44
FCC3
FC66
FFB9
010B
FFC6
FC2B
FFBA
FD27
00C9
01D2
00D5
001F
037C
0248
023D
FFEC
FFCD
002C
FA37
FCE4
FE3D
01CA
FE8F
01A3
04A5
FFCE
FD34
FBE8
FD61
00C6
0262
00EC
FD72
019B
FBDC
FF83
FF63
0215
04F2
FF9F
03BD
FB18
0219
FA05
FE6A
FF07
FED7
0188
017D
FFA5
05D3
0460
03DA
0532
04E7
033D
FC8D
0045
03C7
00E4
0153
FC9B
0165
0224
02EB
0061
FD6B
FFE3
FC72
0059
FC95
FCCC
005C
0287
03E8
044D
FFE5
0177
031F
FF76
03C3
028A
0695
008B
FD72
FCD1
FD2A
0284
FF31
FF60
FC62
FE9F
FC31
FEA4
FD7C
FDD1
FFC5
FDAA
0125
FEF2
0256
013B
0341
FE85
FF59
0077
FF73
02F8
006B
FF4B
021A
FE15
FEF1
0122
01FC
FFAF
FD60
FC2A
FB75
FF56
00E2
FD50
0232
0038
FD88
0305
011B
018E
03F0
03A5
0433
FE9E
00F8
0283
FFEE
FE56
FE81
0406
0079
04B3
FFD9
FF99
FC29
0108
0232
00EF
0094
FD47
01AE
FE8C
FDEF
FFA7
0005
0471
0A91
058C
00D8
FF1E
00BD
018E
FCC3
FF0B
FCB9
FF42
FE54
00C7
03CF
0221
0093
03A2
00CF
00C1
0299
0311
00AE
FCDB
FCD6
FF1F
0236
00D2
0317
070E
047B
FFDB
FFED
0055
0577
0437
0008
F9E7
FE23
FE25
007F
FE8A
FD11
FF2B
FF7C
033C
FCDF
0374
0084
FD0D
0047
FCEC
FCDE
FE69
FBF6
FE77
0220
0436
00CC
0279
021B
02DE
FEB7
F987
0107
008E
FEE7
FF56
FE78
FDCF
052A
FB71
045E
0001
FCD0
02DC
FD85
0376
FE4C
FB1C
FD33
FBA2
009E
FF53
FF9F
078A
0291
FE85
01E4
FCF2
FCD1
0285
FEB1
FF3E
00FE
002A
048D
052F
02B9
00DF
01D9
0243
0199
0131
FF73
0050
01E7
FB03
00AE
FCE9
FBB6
FF01
FD8E
0395
FE0F
008A
0154
019E
FFE9
047B
028F
0224
FEE6
FE5C
FE3A
025A
FD9F
012C
0072
0367
020A
FE95
FD83
02EA
004F
0215
0152
0127
0333
FAE7
FC7C
FE62
FED7
02D3
016B
0414
FE80
FCB4
FF89
0552
FFF6
FBE2
01C4
FDE1
0043
01E7
016C
FF8A
FF46
017D
FC93
016B
01CF
012A
FB55
012E
FE6C
027A
0052
007F
FD63
0027
FF0F
003E
FF8C
0268
FE44
FE85
FFF1
FEF4
00BA
00E2
FF25
FBC7
FBA8
0150
FE61
038D
FF07
FD59
0166
004B
0102
008B
FD0F
FD7A
02A0
0035
00A4
00CC
FF1A
02BF
0191
FEFF
00AB
05BD
FE3F
FFF2
03EF
014A
FC2B
FF00
02A5
014B
FF85
FCB5
FF08
007B
FDBF
FEA9
FC77
FC3A
0094
0041
034B
FD1A
FEFE
FF82
FFD2
FF85
FB3D
0540
FDB8
0301
FC78
FF40
FF80
0126
00C6
FEC0
0197
0286
0373
FDC8
00E2
029E
0098
013B
018F
02DD
01B1
046F
FFC8
FDAC
004E
0009
FF6D
0506
FFF9
FFDD
FF47
0393
055C
0082
FF30
FE1E
FEC7
03E8
FF24
FC2A
FC9C
02D6
FFE0
02D1
FCBD
FFC1
FF1D
033C
FE68
008C
FB4D
FEE9
0330
0110
019C
0679
FCC7
0483
05AB
0741
FFE7
FEE8
FCF1
03AA
FFD9
01FD
01B9
FF6E
026D
FE6A
FF37
FECA
FD1E
FD1B
009E
03E8
FFB9
0019
0031
0378
00FB
FD44
FC3A
038E
FFA3
FFA5
FED7
03A0
FCE7
FD25
FE7E
FD86
FFB7
0383
02EF
FD2C
0266
