02B4
01DF
02B4
FEF8
FF3B
01FD
0090
FF30
FF1E
0351
FFCB
FC4C
03D8
02F3
03F0
0069
FCE9
02F3
FEDE
FEAE
FF8A
0114
01EB
03DA
FD1A
FF78
03A0
FE04
FFF3
009E
FDFA
FEE6
FC97
0013
FF6E
02C4
0207
02A3
026B
0361
0029
03A7
FF9B
FFCE
FEC7
021D
024C
0491
00A0
000B
02CA
0297
011E
03D7
FDA6
FF27
FD45
FEEA
01F4
FDE1
013B
00A0
FEE4
FD3B
0325
FFF6
01EC
00F2
FCE2
FA16
FF42
01C8
0555
0574
07C5
05A8
FFDE
0549
FF9B
FDC7
FF1A
0265
0231
FC7C
014C
0258
FFE3
0178
FD4C
00C0
FD15
0322
FD5D
FC9D
00CA
FB44
FEC6
FD66
0054
FB02
FEA6
0082
0601
FE2A
FEF2
07AD
FD9B
051F
FE43
FCB4
FD0B
FE26
0034
0214
FDB4
01DC
0155
FC9B
FE5A
F911
FFA3
FBAB
FF4C
FFCB
FDCF
0086
FD59
FC74
022D
FEFD
0246
0399
FF63
040F
FD7B
0633
FDFC
FD39
0215
FCC9
FE9A
FFC4
01FE
039D
FFE7
FAD2
F98D
F76F
FDF7
FD40
FE8F
004D
FC78
FB4C
029A
046F
FD95
0155
FCA3
FFA4
01E0
012A
01F4
FD9A
02E0
0309
0334
00E6
00E9
0237
FEF1
FF04
FFA2
FAA0
FCDE
039A
FEC5
FA1B
FD3F
0162
FEC9
00C2
FCCA
0360
FE68
02D8
FAD2
FF57
000D
FBF2
0122
029D
0022
00D1
01BF
003B
017D
FDE4
0268
FE7B
0020
0090
FB71
FD25
FEC8
01BA
03D9
FF00
FB39
FFDB
FD51
0310
FC95
FF06
0098
FF28
FD68
FD83
02D0
0367
0377
FFB5
0369
FE75
FFAA
FDD6
00C2
0220
FB27
FB67
010E
F944
FEBC
06FB
FF49
FFCF
051E
013C
FFEC
FF98
01C3
0185
FF10
013C
FC43
038E
03A0
051B
0432
FFD4
FDCE
FD58
FCFB
FEDD
0054
00EE
00E0
FB22
FC01
FEE2
FD74
FF6B
033C
02AB
FE23
009A
FD5D
FAF5
FA6D
FEA6
FA5A
FC0A
FC99
FDB3
F944
0060
0A04
06C4
FDF8
FE16
FEC4
FCB9
0103
FEEB
0271
FC39
020B
0183
010A
03EF
03A1
FFE4
0379
04D6
038F
FE22
FDFA
FB3D
0268
F9E9
003C
0311
FD7B
044D
029B
FE9E
FF86
FF34
FD47
FD19
0099
FC5D
FCCB
F94F
0353
05ED
FCF0
FE07
FC3A
023C
041D
004F
FE62
FF7E
FB8E
FBD0
FB30
FFAD
F915
FC05
FEEB
04B6
FFE2
0431
059E
FF77
FF94
FC88
FE8E
FE15
FB4F
F864
01D6
035C
01B9
00AE
FC3B
FE19
04D3
06F3
0224
0009
FFDD
FE59
FE5B
FCE3
FD9F
0287
0184
04E5
FFBC
FBD6
02DD
004D
00F1
0359
FE5E
FC3E
FB88
FE42
00F0
FCBF
0051
01A0
00A5
FEEA
03A4
03BC
FB85
FD0D
FAFF
FCDE
002B
FD22
FBAE
00E1
012C
02F2
FEDB
00F3
007C
FEEF
0206
FC6C
025B
FDE6
F8FC
01AC
02C5
FEA9
FEB6
00C9
02CA
036A
0541
0276
FACF
FC4C
FFE0
FBFA
FF6D
0019
FE91
0203
031B
FD96
0427
FDA5
FF41
FE36
FD5B
FD97
0369
0208
FDB2
FC18
FEF6
040C
FF8D
FEFB
03CD
014A
042E
0276
FD8F
FA2B
FFC9
0121
03B7
FF89
FF9E
0030
F9D3
FF0E
0146
0088
FB6F
02C7
0043
FEC6
FC03
01B6
FD0C
FF67
FAE7
02FC
04B2
0515
0187
03E8
0353
FE6E
FCB5
00C2
FB7E
FC77
FF5F
02A8
FD5A
000A
FC2F
01B8
FE58
009F
FAE8
00F2
018A
0304
FD0F
01C3
00A8
014D
003D
FF08
003C
FEAE
09C7
054D
0538
FD1B
FE84
00A5
FFDF
FC01
FE11
FF8B
FF3C
0412
00C8
00D2
01A3
FA5F
FFE9
FDD1
0259
00D5
00B6
FF22
FE60
FFB6
0220
FE8A
01A4
027C
FEC4
FD45
02C6
FA4D
FA9F
0068
01E9
FED4
FB54
FEC8
FE90
FFAE
FEAF
FCB3
FD13
FEEF
FCAA
FEDE
020A
FDEC
FD88
FC48
072F
002D
02E9
02C1
045D
032D
02E2
0481
0034
FFF0
FBCA
FE5C
FE62
FDA2
FEBC
FCF1
00B6
FC61
FE18
FE3A
FE71
00AC
FF79
FD32
FE62
0072
FF79
02EE
0450
FDAC
FFBB
0296
00C9
0435
05B7
03A7
0530
FEFA
FF65
0614
F7B6
002C
FFFD
FC44
FF3A
FE9F
0155
FEE0
FF97
011D
FC1B
FE2A
FE6D
0245
FCFF
0098
FFC4
00F5
FF26
0399
00A5
01DE
FF44
01E5
01F1
0193
011E
03DC
F978
0155
0144
00D4
0116
FEB3
065E
FE3F
FE6C
FCD9
0305
FCE0
FDD5
0314
FF9C
0239
00F7
0308
FDAA
00A1
0135
042C
0338
03F0
02CC
017C
FDB0
09A5
02FC
0303
01E0
006B
02A6
FB53
FE63
0119
0379
0135
FFFC
FF98
018F
03B4
FC70
FEA3
FF7E
01C5
04AA
0041
0142
002E
0099
03CA
03E8
FDC7
02CF
FFF1
FED5
FDFD
FF5E
021E
00C4
01AA
002A
FD9E
0102
FE8C
FCE1
02BE
01E4
0296
03DE
022E
00D7
FED9
FF3C
04AB
0616
0781
FC4C
FEEB
082B
0230
014C
FF91
01A6
FA49
039E
0165
0277
0184
FE70
FB67
01FF
0288
FD40
0108
FE82
004B
007A
FDE8
FF5F
FB39
0162
FC42
FE07
0227
02F7
0252
043B
0309
0312
0411
06A6
04B5
FE1F
03AB
0445
03E3
01EE
00DE
0408
00E7
0138
029A
0349
029C
FF52
0022
FF6B
FF19
00B8
FF5C
FD6E
FF43
FD78
FF4D
008C
FC08
FD95
FB55
0352
FEDD
01AE
01F5
FB9F
0165
FC04
FD45
FD6D
FFE1
FC57
FE5C
FC8C
FFF1
FE95
FEC2
FD3F
0333
FC07
0181
FEFD
FC9A
FC39
FFCE
FF7E
0047
017C
FC1E
0120
0339
FEDD
008D
005E
FCB2
02BB
FC60
0240
FDDB
FD45
FFE1
