FFFF
02BB
FC4D
004B
FDFD
FFE3
FFC4
0287
FCA7
FD1B
FCF6
0104
FFA4
014C
FFE7
FC16
FDE5
FEE6
03A6
FE24
0325
02B0
FC86
FE4A
FDCE
FE35
FC34
FE48
FC2B
FE71
0397
FD84
FC9F
FE0D
01EF
0383
FFE7
FCD9
0347
008E
0082
009A
0338
010A
0372
01A5
FEE6
FC84
FD36
FF47
0329
00AC
FE49
FC32
FCE0
FDD1
FD00
00CC
0352
FE24
01FD
02B9
FF45
0305
FF3F
0296
FD6A
00F1
FD0A
FE5E
0391
01B9
00AC
FC47
FEAB
00BB
FCE9
FCFD
02B8
01E6
FDDE
0282
001C
FE28
0048
00FC
01A7
FE32
FE1C
0136
FE9F
FDAD
FEE8
0175
FF6D
FFF8
FC20
00B1
FEFF
FFEE
FF8F
FCBC
FC62
02BE
03B3
0262
FE3F
000B
FC73
00CD
FCB8
FF64
FE4E
FF0C
025A
0027
03E9
0111
FDDB
017F
0317
0203
012D
FE5A
FC93
FBD9
FDFE
02A3
FFA7
0196
02D4
00E1
0479
0304
0147
00D1
FF12
039E
FD5C
02D2
FF85
0125
00F5
FDF6
FE78
FC95
0097
0326
0337
FE58
01A0
FB31
FB66
FCFA
FF45
FD53
018A
FDCF
FBB3
0334
014D
01F9
0402
FFDE
02F4
FFE0
FE92
FE85
037F
FE6B
03CD
0280
FC77
0130
FEDB
038E
FB48
FF5F
04FA
FC68
01B0
FA5B
FDD7
0138
FF51
03C8
FF8A
FD8B
FEDD
056B
FFF8
0210
FE2D
FF49
0361
0200
007C
FD1E
00C5
0163
FF6A
FDAA
FEFB
005A
FFF0
02B7
FF9D
FC6B
0265
FB22
FE08
02D3
02F3
FE87
00FF
FDE4
FD51
00C6
01C5
0356
008C
0123
FF8C
FE56
FD89
0018
FDB2
FEFD
02CF
00B0
FE25
01D8
01A7
0055
FDED
025C
FCEE
001F
002E
FD70
0324
FD03
0078
FF68
0165
046A
FBB6
FEC6
FF99
0061
FEBB
FF7F
0208
FEC8
FFEA
02FB
FC4B
028D
FC6F
0060
00FB
0223
FE76
FEDF
FDC4
FEAC
FF23
037F
042F
FFFD
FFE7
0403
00C2
02A5
02EE
FDF1
FB04
FC40
FE8F
00E2
0194
FC29
FCE8
FDA5
0312
FDFD
0005
FF96
027B
00FE
0027
FBF6
FB0C
FE00
FBFA
FD1C
FE11
0317
FE26
00D4
00FB
FFCB
FAF9
FA07
FDC7
FF79
015C
FDCF
FF62
FE27
FF73
FC9B
014D
FF71
031E
0171
0057
FF63
FE86
FF0F
FE1A
FA17
0049
03B5
0048
0312
FF75
036D
FDB4
FE24
02B4
FDFA
0207
006B
00D3
FE5A
020B
FFF8
0171
FDD9
FDF7
0386
0001
0212
FBDC
FE07
FD26
FC33
03EC
FDE0
0387
009C
FF4F
02FE
0007
FEBF
FAE5
FFFD
01DD
FF2B
FCAC
03A4
FF18
FD54
03AA
FFE3
0137
014A
FD6F
0459
02EB
FD30
FCD4
FF94
013E
0128
FD44
0070
0166
FCA4
FE14
007E
0191
0211
014E
FBD4
00F2
FBA3
FE60
0340
0177
0114
00F0
024F
FC87
FF3B
FF13
020B
00C5
00B8
FEB1
FEE1
020B
FC3E
FCA7
0119
00E2
FC61
FBAB
FF11
FD5D
0279
FDF4
FF4E
0121
FE9F
FE19
FE52
0055
FCA4
020B
FF2F
03EE
0395
046C
0438
02A7
011C
01C2
FEAD
FCE8
FF6D
01E9
006F
0057
FE20
FD08
FE38
0273
049C
045A
034F
024E
FB24
FE06
FF08
03B8
01A8
FF02
038E
022B
FE61
FFD8
01DB
FDFC
03AF
0067
0237
02DA
FE82
0076
01E5
FE21
FCAE
FD2A
FD65
FFB8
0165
0292
00FC
FCCF
FCF3
0580
0045
0235
0078
FE68
014C
FD90
029F
00FC
FE32
FD59
FCEA
FFC6
FF83
FE83
037E
032B
FE1D
FF1B
FFBC
00DB
0349
039D
06DC
02C1
FA80
FE38
FFAD
0258
0202
FE5B
FF04
0271
0244
FE14
0056
FFBD
FD3B
FFD1
FFA5
FD9D
02A4
04AE
FFCB
FF38
0302
FB9F
FC5D
FE18
0126
0085
FDA2
FB61
0107
FFF4
FD39
FEB4
FFB8
016F
0291
00FF
FE89
FD72
03C9
FF4E
023B
FC50
00CA
FFE6
0523
FFBF
007C
FF1D
0214
FA72
01C7
FF56
F926
00EC
022D
0138
012C
002B
016D
0432
FE06
0297
FF4D
00FA
0078
0229
FB62
FFBB
FE00
00FA
0487
FEE1
0435
003D
FEB1
FF25
FE7A
018D
FF5C
FD40
FA53
FC55
008B
01AC
00C6
03BE
024A
026F
01A7
FCED
FE23
FD9A
00BA
0019
FDCB
012E
FF22
0177
FCE6
FC41
02BF
FC6D
FC52
007B
0009
014F
00C3
FC08
FF51
014D
FFDE
FE6A
FFD4
040E
04BC
FE86
0085
FC5E
FECA
018A
FCE0
FD73
0311
038C
031C
034E
FC79
0328
0077
0025
FD3B
FFB0
FD3A
FD99
0142
FD54
FD42
0043
0146
0538
0111
0444
0390
FEEB
FC8C
001F
0264
FD2D
FF19
000A
027C
FF11
0082
FD5F
FD05
FF02
03BD
008B
005D
FA31
0217
016A
FC01
FFB2
FB7B
FDA2
001E
FF7B
04F2
0375
02F3
FE45
FFAB
036D
0164
FC8E
FEE6
0285
03CE
0156
02FB
FCD1
FDC9
01E2
001C
FC21
0178
0186
FDC0
FFC4
FE59
00E9
00CC
FCF5
FC6B
FF5E
043C
FDBB
032F
FCA1
FE82
01E7
0123
030D
020B
FEA4
FE05
FE95
FFCD
FEC4
FD8B
FE2D
FFE5
03C5
0014
0160
FFF8
FD17
FBF4
FC23
0062
FD90
FCB5
FF4B
FFCA
FDB7
FC1B
FE11
01F1
00A9
FD9D
FD16
032A
FDAD
0368
013D
FC3D
016E
0274
0311
00F3
FCC5
FB97
FC7C
0110
008E
000E
01C1
FFB7
FDA3
025B
012F
FC7E
0332
03E5
FCF3
FF18
FEEF
008D
005C
FE4A
FC06
0288
FD56
03A0
FE97
03D0
007C
FF57
0362
FE30
FDFF
0024
FFE0
0383
0003
0270
027C
FD9A
01EF
02EC
FE6C
0306
0036
003E
FD31
FEA0
