01E1
FEB5
FEB7
0276
FC60
FE09
0246
0111
FF72
0313
035E
02FB
02DA
003A
0251
FE99
FCFB
FF3E
03FD
FFB3
0284
FD51
FD46
0310
00B9
FEEE
0143
FCED
012B
02EE
038D
02BD
0060
FC3C
03C3
FF2D
0021
FFCB
FF26
03AD
02F9
FFC0
02E9
FF1B
FFBB
FE5F
02D0
00B7
FD93
00C5
02D2
016E
FC83
023C
012E
FE33
FE2E
03DA
03B0
FFAE
014D
FE69
FEA8
0165
FFEB
FFBB
051F
03A1
FD84
0451
FE5C
00D6
00B0
0210
0149
0092
FDD0
FF56
0377
FF6C
FF68
FEA0
02DF
FF31
0117
0341
00DB
FE9A
019F
FFAE
FDDF
0058
FEB7
016A
0028
032C
0365
00DA
FF6F
00BA
FF56
FC58
FD8C
0039
FBFC
FDB9
FD5C
026A
0135
FFAC
FDDE
FCC6
0252
FC00
FC67
0148
014E
02B4
03A9
0373
FDB5
01CE
00C5
008B
0076
01EF
FF41
FF81
0352
FFC2
0231
036E
01C2
FE42
FF0D
FAEF
00F4
FC5E
03DF
03B9
FC98
FDE7
01E3
0152
FC22
0328
FF11
00ED
0313
FD1D
0423
0582
FF9F
0264
00B8
00C6
FE8B
0043
0350
F9CE
00A2
FF48
FF55
FC98
FC5F
FC8D
00E9
FF72
0095
0228
FFBF
017E
FBD0
FCE2
FDF2
0244
FF34
0154
03D8
017D
0619
FF96
049C
FF3B
FFFE
0009
FE5F
00C2
FB7D
026F
FF01
FE77
0026
0293
FF64
0032
005B
00A5
FD3C
FF6E
FF8D
FFEA
FCB6
020A
041D
FFD7
02FD
0634
024B
01B2
02B1
008D
00DC
03C4
025E
FEEB
00FD
052E
FF1B
FC50
0159
020E
FC5E
01CD
FE3B
FDCE
FC59
01CE
FDF8
013D
FD34
FFE3
026C
FF99
049E
01C9
02F4
0465
06AD
012D
0574
0272
00F3
01D8
0348
FE9E
FEEB
FFE8
FD2B
FD5B
009C
FC09
FF28
00FB
FE35
021F
FC69
0327
FDBF
0038
015A
FF78
02EF
FE33
FDCA
0055
03D9
00D5
03DC
FEA1
02F3
FD94
FE7B
FCCC
FE8F
004B
FF3C
02B3
FD51
FDCE
026D
FC13
00BD
FE86
FF02
FF46
FD50
01D5
FF12
FB79
FBA8
FA31
F9F8
F8DC
F938
FD08
FE86
FEB1
FD22
000D
FEE6
0204
00C4
FEC3
FFCF
FD91
FD8F
0279
FE2C
FC4A
FD0C
FD89
FE5C
FBF7
FE31
FB1A
FCA8
FBE8
FA48
FD5A
F909
FB0E
FD05
FCE8
FDA4
FCF3
FF8E
FC9E
FE8D
FD85
0208
FF76
FD07
0207
FC71
FFD7
02B8
FC18
FD65
FE6E
0058
FE58
FB10
FC34
FEED
FB69
F8E6
FD51
FD9E
FC6B
F6D2
FE34
FD6F
FF4F
FED0
FBA4
FCEB
FACB
FEDC
FB6E
002D
01DB
FB07
FC0C
FF63
0379
FFC8
FD75
014C
FB3F
F6C8
FB8B
F9B6
F6B0
FACB
FCC6
FF1C
001E
FDEF
FAAA
FDE7
FDFB
FDF2
FBD3
FE5C
0059
F98C
003A
FFF6
00A1
00B9
032F
0393
0248
025E
02FA
FC09
F972
FC53
FF8B
FB03
00CF
035D
00FC
FD3C
017A
0085
FCEA
FAFC
FF6F
FDF1
0006
FD7C
01E0
FC7D
FF9A
FC56
00F7
FF9D
031C
0262
FED3
0001
00FF
FB62
FF8C
041D
FE06
0205
0579
FF3D
FF31
FD62
026F
FDF0
FE5E
FFAA
FF31
F980
FA7B
FDF1
FFCD
FBD5
FB3A
0017
0470
FF13
FD94
FE33
032B
FE6A
FAF8
FEAA
FF88
002D
029E
FD78
020B
FDF6
00D7
FF02
021F
0088
FEC8
FD1C
0030
FBB1
FFF1
FA9E
0164
FC0E
FD23
0114
024C
040A
0305
FD43
025D
007E
FC06
0155
0046
FD81
FA8E
FCAF
00B3
0144
FD14
05F7
03AB
000C
FF9E
02C1
FF3B
FD60
FDE7
FFD8
FF8A
0363
FC89
00CC
0339
01BB
FC48
01F2
FE58
FFA3
015C
FF18
0105
FE6B
03E6
0115
FB17
FFFF
FDD2
01DE
030C
0072
FAC9
0090
02A4
0537
FDEB
FD86
FCE1
0371
0160
0400
0653
006C
FED5
FF87
FC9D
FFE4
017E
031D
FB1C
0156
040B
FF41
0366
00C3
FEF4
FF5D
02DF
020E
009F
FF19
FCDB
FE0B
FFF5
0198
0454
02F2
0069
026D
03C0
FFA7
03C3
FC34
FFA1
FD40
FE3E
FCE5
0303
0528
0313
011D
03B2
01F0
0290
0495
01A9
04B3
0197
FE4A
01EB
FE31
00DD
01C9
0479
03BC
0453
028D
FED4
00C3
011B
FE67
01E4
0221
013E
03EE
FE14
FCD6
FA9D
FF87
005D
0388
03E4
004C
03A0
060A
03DD
FF01
FF25
00C3
012C
FCDC
007F
0256
03A6
02A8
FF49
FEEA
0053
01D1
FE54
0122
04A7
0301
0049
010E
0343
03EF
0279
026F
01F7
FF7D
01A0
01F1
01E6
FF5F
FFF8
0085
FF78
0243
016C
0587
03C5
FF33
036A
FE4D
FFBD
FF8D
0199
00A4
FC14
0145
030C
036A
0212
FFE5
042A
FC91
02B6
01B5
0115
FF41
03BE
FCEE
FEE1
012A
0085
0348
05A7
017E
FFF2
048B
018D
02E5
FEAE
0367
02D1
FFC3
0060
FD47
FF88
FE8F
FE8F
FEB8
FFEE
FECB
FEFF
0493
FD72
02DB
FE7F
FF18
FD9B
FFB3
FE2D
FF07
FD33
FFE7
FF23
FF00
0280
037A
0015
02AD
FDCA
0307
011A
03B2
0178
FFAD
045C
FEDA
05B6
046F
00C2
0247
0259
041C
0123
03DB
FFAF
FFB3
FC12
FE3B
FBB5
FF0D
FBB3
0322
FE68
0161
0089
FFA0
00D2
FC53
FF00
0161
00D4
FCE1
FF16
040C
002B
FF56
0397
FE20
027E
01FF
FF8D
03B4
0075
00EB
02C0
023E
005A
FE3F
02FF
FDBE
FFF5
0006
FF99
00CC
03FD
FCA5
025E
02E8
FF3B
FD63
030C
FF73
0045
02C2
FE1E
FCEE
FC89
FEF7
FD1C
0235
02C4
0144
00AD
FD77
FD9D
011A
FE74
FC97
02AA
FF24
FF0D
