0094
039D
03FD
01E7
002D
FD27
0125
FF22
02A3
0236
FED0
0168
FE62
FD2D
FEE0
FF56
FF3E
002C
FD6F
0239
0286
FEAD
FF48
FF0C
FDDE
FD7D
FF4E
020A
FC3A
FDCC
02C3
0224
FFD3
0133
0337
FE01
FE40
FD87
FE1B
FE86
0010
0025
0221
02A3
FDCB
027E
0270
FEE0
FC86
0464
00D6
0246
FC6E
01E3
FD57
02E2
001F
FD6E
0178
FDE1
0394
FDC7
026B
0404
01A8
03E2
FEF5
00D0
037F
03BB
FE9F
08B9
03D4
0160
065C
0437
FEB5
FDE3
0552
FFDF
0280
FE71
0034
0029
FE0C
012B
025C
FD4E
FE16
FCA4
FDD3
FB03
01BB
0502
FF51
017F
0037
03E0
0055
FED6
FE95
0174
0437
0252
FDCE
043D
0378
04B5
0429
0237
FDC4
011C
FF77
FE5D
FFD0
0380
0133
FDA5
FB1F
FE0F
FEC3
FEEA
FE91
00A1
FDC2
01A1
FF50
0640
FE04
FFC1
FF32
052D
00CE
02C5
FCFE
014A
FF98
FE0A
0277
FF95
014E
FE13
FC08
FEB3
0084
FD47
FCD8
FA03
FCF0
FF3D
0398
FFC1
FFC5
FFD0
00A5
01A0
F9A4
FFA8
08EE
FCF4
020B
FD7B
0061
FDB8
FC75
028A
FC52
0021
FE18
0062
0172
FC48
FB99
FA69
F972
0473
FD16
FB7E
FA47
02C4
025A
0215
00A4
00D4
FFD0
05D8
006E
FF84
0136
013D
FF8B
0120
0436
049E
FDBC
FDFE
FFDF
0162
00B2
FFC3
F9DB
FBF5
FB1A
01E2
FCD5
FFA4
022E
FED8
00EB
0093
0627
00DB
056C
FC3D
0331
02BC
FFA8
FE13
0029
FCC0
05B9
FE4B
0280
FE10
FCCD
FE5E
FCA0
FE8C
FE7B
FABA
FDCB
0034
FAFD
0172
FFC3
0015
03A4
FF65
FAB5
0112
004E
001B
FBFE
FE5F
0164
FC49
FEAE
FA75
01A0
FD49
007D
FC3D
FE9B
FDFA
03D7
00F7
FC18
F9FE
FA3A
03B4
FC00
0037
01DF
010A
0051
FEBF
0059
F9EA
F840
F77B
FCA0
F752
F611
F979
F82D
F8C3
FC37
FAD7
00CD
029E
00DB
FC8C
00E8
0241
FB19
FF60
005E
FCF9
FF19
FF66
FA97
0158
FF58
FB07
F80B
FA05
FBE7
F6E8
F8C5
F5A9
F999
F785
F5F3
F79F
FEF1
FFA8
FCDB
015A
FF87
FCCD
FDD5
FD8A
FB3B
040E
0270
FCBB
FAA5
FF92
FDCA
FCE5
F8F7
FE8B
FC95
FB49
FDBA
FCFF
0109
0550
0152
FEEC
FC00
017D
FD15
FD27
FB33
03E7
FDA4
FDC9
FCB4
0082
FC04
FD4B
0388
FE80
02DD
071C
FE98
062F
003D
FB8D
0176
FD5E
FCA8
015B
FFD2
FEF3
FC23
FEA9
FB4C
0093
02FE
FF2B
0142
FF45
FE6F
01AF
03EC
042C
FE0B
013D
0406
008A
01D3
FC05
FF2D
0338
FDD5
FBA7
01E4
FF5D
FCC6
FFBA
029B
007B
0384
FF6C
F87A
FCEC
02F1
FF7B
FF40
039A
0080
FE9C
0222
FDB0
FC9E
FB01
FDAC
0398
FFEF
FC88
0045
FD77
FD02
0221
FE2B
007C
0252
FB15
FDE6
FFB7
027C
FB34
02BB
FF60
020E
FE31
FE00
FEB4
FF4E
FC97
FDD8
000E
00FA
0220
FC65
FDFD
0435
0230
FF8B
0490
FBD8
0147
031E
FFED
FF3C
F8DB
02AC
0178
FCDE
0029
FEDC
0499
0225
0174
FE78
FC83
02D8
00E7
FBE6
028E
FF30
FFE6
FB27
FFEF
FAB2
FDDA
FFC7
0434
0012
00BA
07BF
0117
003C
03CD
0115
FB9F
005F
0088
FE76
FC0B
FEFA
08DB
0332
007D
01B6
FCED
FE55
FF1D
FC2B
FCF9
FF6A
FA67
018A
FA63
01FE
002B
FBFF
FB78
05F6
0247
FEE4
FD8C
FD07
FD7A
0139
00D9
02F6
FB61
059B
04E7
FEED
FECC
0239
FD41
FBED
006F
02C6
011C
005F
02D7
0089
020D
045D
FBEF
026E
0174
055F
FEF9
FF8E
FB89
FF60
FD02
0346
FF2B
FD35
038F
001A
05AC
00D2
FFCE
02F0
029E
FFB3
FE5F
FBA6
FCE3
0091
037D
FBC0
0278
FF5E
027E
FE2C
FE60
02A5
021F
03DD
FEE4
01B5
FFE6
FE2B
FB4D
05D2
FDB8
FE33
026C
0220
FEBD
FCE5
FD29
FEC0
FFA8
FF6E
012B
FD92
0030
024A
0118
FD35
0753
030A
FFC5
0060
052F
064C
01F0
078F
04A7
0050
0677
0438
0365
0398
0521
042B
00DC
01EF
FC84
FC2C
01B5
0409
08C1
01C7
0134
000B
03B4
01F8
0187
0286
0434
0379
0108
024F
024B
0284
FFCC
0410
0616
057C
0602
024F
03EF
006D
0181
FDCE
03FF
FC83
0062
05F2
08F8
041F
014B
0676
0019
04A6
FFE1
FF3E
018B
FF49
0214
0211
01D1
04A4
00AD
FF3E
027A
00BE
00F2
0374
FFC9
03AC
0035
FDEB
FC28
029E
FD0A
003A
0154
FF4C
FAEC
FE1E
0255
05EB
FCDC
00AA
FE64
0173
001F
FFE3
FE38
FFD3
0121
0242
0113
0392
0405
02FF
0248
036A
01BD
FEB7
FF67
FFA9
FDEC
FF3E
FB74
FE3E
FFFC
FF45
0115
0150
FF4F
00E0
004A
FD5B
FDB0
01CA
011C
0362
0300
01C4
FDE2
0384
FF90
0016
03F4
FE88
FDA5
FCC6
FDFE
FE97
009A
FF07
FD27
FCFD
FB56
FC38
FADC
FF32
FA03
FDB6
FF6F
FD35
00F1
FBAC
0212
FFAD
FF03
02CA
004F
FFA0
FD01
FEE0
FC08
0014
02DA
FCA4
FC7C
02EF
FE29
FF8A
FE00
FFBA
FEB7
FCD7
FC27
029D
FFAF
02D1
FD92
FF69
FDFB
0248
FD8F
FD4A
FFBB
FE51
FD7B
03E8
0225
0303
005C
00B8
FD45
02E4
FFF5
03BE
FE44
0348
023A
FFD1
FE06
FF5D
FE57
001A
FD49
01AE
FD4B
FFA2
026C
0294
0032
0196
025B
0398
FEA2
018F
FF75
000F
FF96
FDF0
0081
