FD42
01D4
FF2A
0348
03C5
FD37
0123
01A4
FE4B
FEB3
0318
02F5
01D6
00E2
02CB
FEA7
FD0A
00A5
03AF
025E
0292
FFF4
FFAB
FE19
037F
FE7A
FD19
FC28
029A
FD86
02AF
0145
FC18
FED9
FD01
03A3
02F5
FCDF
FC78
FF19
0108
FD9B
FEB3
FC62
FC52
039B
FC03
FCF5
0102
FE2B
FD72
00FC
0002
01E1
0130
009F
0331
02BD
FC07
016C
FF62
FC7A
FE09
00FB
0293
00C2
FD14
008C
FC5C
0097
FC56
0282
01EA
FC95
FC06
007E
FD64
00EF
0084
FDA9
03F1
010A
00BD
FDA4
013F
FD69
03F8
FD89
0298
022E
01E8
03A4
002E
0112
FEE2
01EA
0374
00A5
F814
0164
FB59
03CC
FFE2
FF5A
FFEE
FCD6
FEC6
FEB5
FC70
03BC
FCDE
FE62
0359
FEB7
0401
03BA
0267
034E
02F9
0272
FEF2
FF14
FBE9
03F9
FF36
0079
FF67
FDCF
FB2E
FB37
0183
009D
07AC
FC89
FFDA
FE10
FEF2
FD2C
FC6C
0398
FD51
FFD6
FD0F
FCBB
013E
005F
FE4E
015A
02F0
0171
FAEF
00D2
FFDB
FF9F
0209
FE81
0270
FE1B
00DA
FE3F
FDFE
FD6A
FD1F
FDFE
FFCB
FFD2
FBC2
0043
FE43
01FD
FC68
03A4
029E
FF8A
00AF
05B7
FF5C
035D
0739
FFE2
033F
0121
00BB
032B
FF18
FC94
F8FE
FFBB
0120
FE41
0364
FD76
F762
FB82
004C
FF48
FD43
FD4E
0161
03EB
02F2
056D
02F9
0216
FC1D
03D1
05DA
019A
FE24
FE7B
037A
0073
FE18
0560
0013
FCE5
FF27
FE21
0169
FA0A
FF88
01EA
FBCE
FEC3
020D
FECD
0179
0455
02EA
020E
FAE9
0470
FBE4
FF36
0084
049A
FE0C
0564
0710
FF6D
FB4D
FFC1
FE34
0252
046C
FEC9
0259
0048
F87A
FE2D
FDB7
FD6B
FFF4
FF29
00A3
00D6
009E
FF08
FF3F
0176
0747
0003
023D
0097
0351
FCCA
FF78
0053
0034
0134
0073
FCC1
014A
FC68
0306
0346
FCE3
FFB4
00B0
0590
01B1
FE0D
0087
FCC9
FD8D
0169
FFEA
03FF
0645
0194
0512
FBA3
F975
FAAB
F791
FEC2
FDC7
00AE
0240
00C5
FE22
FE87
FF82
FF39
FE53
FEE5
056B
031C
0209
0186
F98A
FDC2
FFFC
FB0B
FF68
FD64
035E
FB78
F93E
0184
F8FD
F49F
FD5E
FFC7
FE4B
013C
FFBB
002A
0226
0032
022C
00F8
02FD
FF05
FBEE
FF39
03C8
FE4A
FE4D
FB16
FE46
FD99
F5AF
F20A
ED97
E925
F0C3
ECA5
FA3F
FADE
00EA
FD0E
012F
FE55
FD28
FA10
FE82
FCA9
002C
FE94
00BB
02C4
0199
FD20
0356
017A
011B
FB7E
F825
F169
EF2E
F2CA
F566
FA2C
FCE6
FCBA
016A
047F
01BC
FC4F
00C8
FD10
FDE1
FF37
FFDF
0387
FCF2
00BF
011C
0195
047F
02AB
FCB1
FDA6
0104
FCA0
FC3B
F881
FBF6
FD93
FE4F
0279
01B6
FF09
022A
05D1
00AE
02C3
FE8E
FF84
013C
FE5E
F9AD
0160
FACF
FC7A
FDE1
FFDC
05E0
FE22
FD52
0086
0332
FF36
FB1D
FA49
0340
029B
0297
FF06
021D
01E8
FE39
0799
00FE
FD6E
01C1
FFD4
FD72
0006
FBCE
0764
0342
FFCD
019F
033C
01F4
0185
001D
FED7
FD81
FFFD
0007
00AF
0345
0147
FD6C
FF76
011A
0144
0165
03A2
02F6
FCD6
0463
0136
0162
FFBD
FD64
028D
FDC9
0008
033E
FEC3
FE52
01EC
0104
FC4F
0511
FD2A
04DC
0285
0021
FD62
019E
01CC
02E3
FBDE
05A9
0150
0668
017A
FE44
FE39
FFC2
FFC6
FBDE
FAFC
FC9A
FD5E
041E
0569
0029
FF67
016E
FF84
00DE
FF96
0188
FE92
00C1
0140
FE99
FFDD
0017
0274
0096
0232
FCB8
FF81
0153
0206
03D1
01EB
FCD5
FE8D
0094
FDC2
0194
0959
01B8
02B3
0129
FCBD
FCF8
027D
04EB
02EA
0672
02DA
0310
0299
02D0
0101
FC2A
04B1
06A3
0071
018F
0328
FC09
FF6C
FF2F
043F
022B
FC05
010C
0244
03D9
FFC6
027D
0222
FE55
06E8
0790
FDDB
057E
0396
060E
04AB
FF8D
02CF
FF8D
FBCA
003D
00BA
016C
FED9
006F
FFE1
FFC7
FFA1
020B
FDFD
0369
FF6F
FD8E
FF59
03BB
0332
0161
048E
0342
03E0
FD6C
027A
F663
FAE7
0367
FDFC
0598
01B7
01C1
023C
0327
FE67
0525
0363
FE91
FF1A
01BA
0707
0167
FE1D
FE76
0004
FD62
0373
005E
FF4F
0438
0906
FCF3
000E
0217
01B8
02EB
015A
FE0D
0166
FF36
FD7B
FFA7
FB19
0094
0081
0534
0242
FFF5
FF81
033B
026F
FFE1
021E
FC37
FD7A
FEB7
FD89
FF5E
0189
01CA
02E6
0185
03CB
FC5C
0186
FF91
0393
0004
02B4
043B
FC79
FF34
0054
F9F6
0197
028B
FF2D
00B0
008C
016B
00A7
0101
FF7B
FD4E
FFA9
00F4
FF6E
FD39
FF96
FF24
01B7
FD9B
FDA7
0578
FE0A
0068
FADC
FC0B
0447
FE32
FFB8
FFA7
FE66
FFC1
027A
FFD3
0215
FE3B
01E6
022C
FC99
FFB0
023C
FE9E
FF82
FE7E
0161
0723
03B8
0506
FFE6
001E
FDD2
FFD9
0491
FFC3
0185
FA3D
FB45
F91F
FFB1
01E6
FC93
FC27
00EB
00BD
FD73
0371
02EF
02C2
033B
FD80
FCD7
F85F
FEEC
FCFD
0215
FEBB
FE2B
01C2
FFAA
048C
00F4
0348
FFF8
FD8F
005E
02AA
00FE
0082
FFFD
FD51
FF8D
FDCE
FDA4
03F1
FDF0
FC4F
0320
00BE
0388
0110
014D
FD8D
00CF
00AC
FF53
FF51
FF48
024C
FCD1
FC3F
FFC8
0065
FD5C
FE34
FF2E
FE95
FEAF
01C7
FE82
FD81
00FD
