FFE9
028B
0213
FE89
FCD1
0285
FF7C
015E
0391
0090
01E4
FCB6
00E6
039B
0006
FDD6
0315
0149
FC77
FFF1
0335
0219
00DA
FF5A
FF7A
0337
FF68
FCCD
0353
FCFD
037D
02DC
FDEF
0316
FC9C
0080
0165
03DB
FCA2
FE1E
FD52
FF1F
FC7A
0121
FFCF
FC7D
FE31
02C2
0281
0058
FE43
FE59
FDE8
0247
FDCF
006D
FE60
0374
FC36
006E
FDE1
00C8
00B8
FF50
0054
0280
FD92
0021
FEA0
FC8C
0359
02E3
FEE9
014E
FE8D
0049
028C
FF7F
03D9
0263
FC87
FC5C
0329
FE1B
0063
FE8D
FD1E
00B7
FD84
02FD
FBDB
FE5D
0189
FC2F
004B
FC9E
02A2
016D
007C
000B
FEED
FEDA
0401
FE35
0443
00BD
015F
0019
FE12
0191
0330
FF6F
0388
0373
01FB
03BE
0295
FCDC
00EE
0012
FD05
FE0E
FE23
FED5
FB89
043B
FD85
0141
FD70
01CE
04D8
03F1
0422
03BD
02F4
FD77
00EB
FD99
02EE
03BA
FD58
FEAB
FD15
0274
0294
0065
FD83
F9B9
FD14
FCEC
FE5F
FFE0
FC99
FFBA
020B
FC2E
01DC
FE6C
0089
FEF4
028A
FF86
059B
01B0
0096
FE3C
027E
FFEB
FC2E
0337
0005
011A
031A
03B3
FF57
FC7C
02F8
FF33
FFA5
FD5C
01CC
FF81
010F
0008
0057
008C
FBD6
FBFE
014A
00F9
FF14
00D0
FCF3
0046
FFD8
FEEA
FF68
FEF0
FE18
FDFF
0244
FFDF
0355
03D6
FF5A
0060
0262
0564
FF10
FE88
00C2
0160
FFCC
FE60
00C4
FEF7
FB0E
FF9D
FD8B
FE3F
FE8F
FCE5
00EC
0276
FEEE
FD29
0029
0000
02CF
0541
FF62
00F1
0457
061E
04B5
0119
04AF
008B
011D
0611
008F
018A
03DF
FECD
0016
FE1F
009A
0111
0333
004A
FD51
FD66
FF0D
0251
01E1
0298
03AD
04D4
0172
FDD5
FFE2
026A
0193
0319
033F
FE0B
FFB6
00B0
FF3B
013F
FF59
00CE
FEC3
01BF
03CA
FF91
FED1
FF30
003B
FCA5
020E
02F3
02B6
FC19
FF3E
036D
FDF3
00C4
008A
0245
046E
0635
03FF
FCBF
FD24
0096
FF25
0334
0306
029D
00F2
02DC
0477
01A8
03FF
FECC
FF13
FD93
FD85
FF78
015C
FF8F
039E
FC93
01D3
FE96
FD28
0147
0052
02C5
048F
FA0F
F8E7
FC60
FE61
FFBF
FFBB
FD38
FD98
0159
01CD
026D
0680
FEF0
0190
FC0D
FCEA
0130
03D9
014D
01E8
01E7
028D
01C5
019A
0034
0242
0280
03FE
F986
F3BF
FC3F
0058
00AD
FCF3
FDE0
011F
FBE8
FCA5
FE9A
03A7
FC72
0099
022A
01EA
FDC9
0015
0084
FC1C
FD5D
024C
047C
FF5E
0707
0396
01E3
020F
F936
F5ED
FC56
FDF0
FC83
FDCB
FC10
FC3B
00C0
FEB4
FC71
0361
FDD3
FDC3
0107
0162
01D8
FCE7
0383
007F
062C
0097
01DC
00D6
0186
0441
FE87
010B
F9FD
F767
FA3F
FEED
0113
FF97
FD0B
FC30
FD72
0017
03D5
0336
FFFC
FFD5
0244
01B1
0188
FD4A
FFEA
F9C4
0247
00C6
0278
FCD1
016D
002C
FC9A
006A
F7D8
FE25
FCE6
FEE5
0085
FD3C
FEA9
FFC1
FF90
034E
FD71
FDD3
0224
FD02
FF4C
FDE5
01DF
017C
01E7
FF3D
0334
0207
014F
065E
FD7F
00A6
FE15
F7C4
F561
FB34
FF95
FAD2
0377
FB71
0029
FFF5
FEF9
0157
0057
01CC
FEB8
FFE3
0083
FC73
0008
03D3
FEEA
0475
04DC
FF0A
0019
00E3
010B
FF8B
FFBA
FA70
F7F6
0011
029A
FF5E
FF4E
0302
0018
014A
FEE9
FE92
FC45
005C
00FF
01B0
01C4
FD5D
017A
034E
01CB
FE79
FE91
0242
01A1
FF2C
FD4E
01AE
FFAC
FA9B
F8A4
FC4B
FFA2
025C
FDC2
0221
FD8F
0481
0427
FFCC
FE5F
FFC5
FC40
FE21
FE39
FFE4
0030
FC9C
0040
02B2
FCA1
00F2
0168
FA97
01BE
FD1B
FE2D
F956
FB24
FBAF
0041
FC29
0352
0044
03A4
0108
FE14
FEEA
0056
FD3C
FC08
FE08
01FD
FE62
FE6E
FDF1
FC6E
FB1D
00FF
00BC
FD65
FB8A
02E6
0105
FD3B
0134
FC24
FF50
FD33
FED0
034D
FFC4
001F
FFA0
013C
FC2B
FD42
010F
009B
FE6E
0039
FCFC
0215
FC11
0369
01CA
FF63
FB98
00D8
FCDE
0058
0481
03D3
0401
01E3
FB19
0253
FE3C
FC3D
FEC1
FD44
026B
FDD6
02E8
00A7
FD91
03B9
FFF0
FDB1
0090
FD1F
000B
FE86
FBB6
FF86
003B
FDDF
FE5D
FD10
FE2D
0088
00FF
017D
0292
04AC
0017
FE0F
0231
FC20
00A1
FDE4
FCE4
0167
FF73
023B
FD0A
FC10
03B9
0316
02BB
FFE9
FC73
0046
03A8
FECD
FF5A
FD61
04D2
FF68
0251
015E
035B
01D0
FD99
0104
FF04
0368
FFC7
FCDF
FAE9
FB39
FF95
FF9B
0285
0297
000D
0259
FCB6
01A4
01E0
014D
FE93
FF81
FB99
FA90
02DF
FCFE
0185
0113
FDCD
FFC1
018B
007D
FFD6
FCCF
FDBC
00E0
0035
0045
FBFF
FBE0
005A
03BE
030B
008A
FEC6
FC3A
FC3C
02D4
0191
035B
FE40
0489
FF9A
011D
01C4
0225
FAD9
0227
014D
00AA
FF80
FF75
0152
00E6
FDA8
02F7
FECF
FC81
FCCE
02A6
FFD0
0244
FC86
0263
FC60
FF1C
FF15
FEDC
0005
FD54
FE8C
0260
FFC6
F9CD
01D2
FDEE
0234
01DC
03C3
0427
0447
001B
FD72
FDE9
FC8D
02FA
FFE8
0108
03A2
0369
0254
019C
00A1
035D
024B
0232
FCE6
FC2A
02E4
FD5E
FD13
03BD
026A
014D
FD28
02F5
FF78
FC71
FFCF
FDB7
0431
031A
FFED
0037
0146
FE99
