0114
0248
010D
027D
00BC
00D5
FCD5
014A
FE5D
FF51
03A3
FD75
0323
FCBC
0288
FE8C
0134
015A
FCFD
0329
0071
FD62
FD2E
FD12
004F
FFCE
FC99
FE82
FCCA
0149
0128
FFA1
0049
03EC
FEC4
FF98
FED5
FCB6
FE7E
FC63
FE3C
FD2B
FE40
FC53
0113
031E
0112
0239
FFE8
FDDA
FC21
FD93
FF7A
FC2A
FE8A
FD29
FDC9
FC8E
FD6F
00D8
03AA
02D7
FD74
FC40
0303
00FE
0068
011B
FACB
FDB7
FFB9
FB64
FC91
0133
FE46
FF4E
FC39
FE91
FE45
FFBD
013D
00AE
FFD7
FCCB
0055
0368
FCB6
0234
001B
FE7F
FF9B
02D7
016F
F850
FF08
FC04
FDFD
F97E
F83F
F8C1
FBF9
FC7F
FE0B
00C8
04E7
0450
03C4
FB44
FB27
FEB6
0144
FCBC
FD15
FF00
FEBA
FCD1
FD09
00DA
FC06
030A
FA38
F911
FD44
FE76
FDA6
FA64
03B2
FF98
FC9A
FC7D
002A
FDC0
0270
0449
0361
03C2
044A
0328
FF32
0015
018B
0005
0334
0250
00E4
FE65
FA31
FECF
FFF0
02A4
FD8D
0683
0237
FE79
FC99
FD0D
0220
034C
FCD7
0235
FF26
FE55
0113
FCF1
0410
00B1
FDFA
FD58
FE34
0102
FF19
FC22
FBE7
FB5E
FD97
FCE3
04C6
0273
FA8A
0084
0305
0058
01C3
FE22
006F
0294
FD3B
01D5
012D
FE61
01D6
043C
0031
00A6
006A
FDCF
FEC3
FCA1
FCC0
FED7
025F
FE04
F91A
FE44
02A2
0177
0279
00B4
FEAB
0198
FD6A
FF1B
FD37
00AA
FD7C
FE7B
FEA0
01CD
FFEE
02C3
FE40
FE35
0258
013A
FBDA
FE26
FCA8
00DF
FA7D
0215
0604
FE1E
0478
FD9A
F998
F892
FF06
FFF7
0163
FF60
01AB
FBF6
00CD
0141
FCB5
FF59
FE8E
FD33
040F
0422
FF70
FF51
001B
FFF2
FBCC
FE9B
0067
018B
04AF
022D
044C
0728
0127
FB3B
FC20
002D
FFC8
005D
00B1
03EE
F9C6
004B
FDC0
04F0
011D
024B
047C
00D7
FE18
FE78
0078
FF26
02BD
FCDA
FFBE
FF0F
0140
02F5
0064
0743
0531
FC11
F5B1
F47D
FC2F
FBC8
023B
F930
019B
04BE
FA95
FEAD
0294
02C2
0332
FBC3
0062
FD64
03E9
FC69
0079
FD1F
FC79
0340
054D
0222
0828
0746
0B33
0BB9
017D
F83B
FF92
00BB
FCD6
FA72
FFC3
FFBC
FD43
00EF
0063
FEE9
00F4
013A
022C
0329
FC0E
FC7C
FD40
FD75
0438
0563
027C
05A5
0308
01BD
0322
04EB
01F1
FEFD
FE6E
FE44
0037
FE35
FDC9
01D4
FE68
05DA
03C7
064D
032D
0229
0260
0276
FEAD
FEF3
FE5B
0231
0355
024E
FAF0
04E9
01D8
030F
017A
0B6D
08DF
0396
FC66
00D6
0342
FBE1
0166
001D
07E3
01D7
0030
FF03
FE29
0293
FFE0
0180
0357
01CB
0011
02E8
07A9
0418
00CB
02A7
FD04
0011
0150
0617
022E
FD60
02D2
FDE4
02E1
025B
00FF
0020
00B2
004A
FF66
FB46
FE9C
FE89
01D4
033E
012F
00F1
0007
0510
033E
025F
0407
FEFB
02FB
011B
022D
0681
018D
0240
0210
FCCF
0199
0254
FC00
0153
FC6C
FFFD
FF45
FB77
FCCC
02B9
031B
029A
FF36
012C
014A
FE6B
FD33
FECD
027E
FCF4
01C8
FF0A
0087
0317
08C4
04B3
02E2
0348
01C1
0365
01ED
FDEA
0022
FA52
FFD9
FEC3
FA1E
FC08
0157
FF2C
0333
FFF2
FCFD
FF7C
FA9C
FB42
014C
FC56
00EA
00CC
01DF
0271
FDFF
071C
031F
FE96
0340
FDEE
020F
FAC3
0162
0039
01FF
FD9F
FD09
FF0C
FFF3
FEC9
FCD8
018C
FCDA
00E0
FDB5
FF43
03E4
FBDC
FCF2
FBB6
FD5A
FB0B
00FB
008A
FE73
FCC1
FA6D
FD72
FA87
F9F0
018B
FECF
0004
00B7
FF06
F904
022B
FEAC
FE80
FEA8
FE90
FEA5
FAC8
0123
FA57
FA06
FE4C
FB12
FF4B
F9FE
FADE
FBE5
FCFB
FBC1
FE94
FF17
0042
FFB8
FB0E
0071
FC0C
FEF4
FFEC
021C
035D
FC1E
FD05
02F5
0194
FF81
FAF2
00BA
FBD0
FB1D
FED0
FBC0
F904
00BB
FCAB
FFF9
029F
05F2
FE2E
01AE
FF2E
FD61
FEB2
027B
01A2
001C
FEA2
01C4
03B0
FF66
FC1D
FDAC
FD1D
FD06
FBDF
02A8
FDD8
057D
03C6
02E2
018D
07D2
000D
01BC
FC18
FF6A
F9E7
03C8
005F
FBC0
F9F9
04E4
029B
0319
00EE
FFCA
FC24
00EB
FF0A
FFCA
00CA
FC3E
039C
FFDC
FBB7
FE48
016F
002C
FED8
0082
FE35
F8D8
02C0
FEC9
0003
FCD3
FFB6
050F
0208
FC43
0090
0025
043F
0022
03BC
FDA4
02F4
FFE3
0044
FE43
0301
0247
0129
FC61
FFD8
FEB2
0258
FF95
FECE
017D
FEE8
0080
006B
FDBF
FC30
0094
FBD7
0101
0362
0397
044B
FFFE
0250
0218
FD55
0023
02C7
0164
FD83
FE95
0337
FF27
0514
004E
FD5E
067B
00C4
FF5C
FFB5
FF56
0223
FC10
FAEE
0232
0543
FE75
0222
033B
FEDB
0189
FE97
02AE
FDB6
0324
FF37
0225
FBD2
FFF6
FC3D
0046
FF10
012D
FF92
0030
FDAA
0069
0283
FF14
FDC2
07EC
0437
0372
0633
FF49
0097
002D
FFE4
0267
FC25
0317
FC34
FD83
03EA
FC4F
005D
00A1
0096
FDB6
0112
0190
00EA
010E
0409
01BC
0444
00FD
FEC3
0248
032A
FE52
FDF0
03A9
FCD4
FFFA
FDBD
0063
035B
0035
0057
FC85
FED5
02AC
0096
FC09
FD33
02AA
FDFD
01A3
01BF
00B1
01A7
FB16
0029
0372
FCAE
FC94
0058
036D
0363
FC48
FEBB
0018
02AD
FDDC
00C4
0389
