FDB4
0242
FC4A
01E9
01A1
FEDD
FDF3
FFAE
036F
03DD
FFE0
FC8C
00F7
FF23
00F4
0231
FDF1
FD57
008E
0128
FFF2
02B9
FFA8
01BF
FE14
01A3
0381
0030
01C6
0027
0170
FCBF
0281
FF23
02AA
FC25
FFFE
03F0
FFFF
FCD5
FDB5
0127
02F2
0323
01E3
0392
FF08
FC74
00AF
0326
00E2
00EC
FFEF
0037
FC6A
FF25
017C
FFA6
03D1
FF63
FD3C
0166
01B7
FECB
FE87
FF61
FEF3
FD7C
FD6E
02DA
FE7D
FCB4
FC99
FD41
02F4
0024
000E
FC13
FE19
01E6
FF77
FC07
FDA9
0294
0165
FDF8
FEDF
FF7D
FD34
FDE6
FFD3
FD67
0422
FDE2
041B
05CB
0004
0001
00D0
0416
0199
FFC2
01F9
FCC7
0358
FF80
0210
0383
025A
FEA2
FF0E
0127
0103
FEA5
0170
03B2
0265
046F
0151
0698
0461
05EE
042F
0381
045C
FFE3
FFCA
01E9
0180
FD75
FDEB
0041
FBDC
FBCA
FCD5
0001
00B6
0542
01BF
00A8
FF67
00B5
0346
00C0
0340
01A2
FFB6
05D7
FC07
FE64
FD6C
025A
015B
019D
FD08
FEF8
0481
FFCE
0044
FECC
FF69
FFBA
0053
00DE
FF6C
041A
00C8
FC93
0129
FDC0
FDAB
0202
FD73
0155
0367
000A
0059
002D
0170
0190
FE4E
0053
0030
0077
FEF1
0077
FFCC
00FB
FE07
0301
FE12
00CB
0365
0083
FD74
0372
00F7
019F
FDD4
0162
FF0D
FDA5
014C
F959
00B6
012E
FDD2
024E
0164
FF6D
037D
00F9
05B7
0007
0013
FB14
FEE6
0227
FEBF
02B1
FDA6
FED5
FCB4
03F0
003C
FD33
FEE6
01EC
FF01
FE00
03D3
FE27
025E
FF48
0580
FEC7
039D
FF44
0212
0094
FD1F
FFAC
FEC5
01A9
02E9
0076
FFB9
FD73
02E0
0369
00AE
00B7
01EB
01BF
FCF0
FED6
0196
FD6A
002B
FE8A
0183
FF08
FFAA
FF2D
01EB
FC8B
FF95
00CD
0086
FF8C
FF7A
FB36
FE0E
FDF9
0278
00FE
06DF
00A6
FD72
0108
FF6D
0215
FD2D
008B
02BD
FD70
FE47
0265
009C
FACD
FDCC
FC59
FF7D
FF41
001F
016F
018A
FEF6
FEA7
FE8A
FF70
FF6D
FE19
FE6B
0196
051C
FE44
FDD0
FFD1
FEA3
FC3E
FC50
04A6
FE17
005C
FB21
FF73
FF8A
00E5
01B8
03D5
053A
0602
0273
FDD5
030E
002E
FFDF
01F0
F929
F938
FCE0
0199
00AE
FF9D
FDC1
FDB2
02B5
01FB
FD09
FFA6
0107
FEAF
05BE
FE1A
0146
0360
0308
044D
0056
00B2
FD6A
FC96
0003
FF28
FD86
0088
FDB6
FE44
F691
FDDF
FDB5
042F
FE46
01BB
0143
0018
FCB9
FDA1
00DC
FDA8
04FC
012F
03EC
0232
FF37
030C
0096
03D1
FCE9
02EF
FECA
FF16
027E
FF96
0089
F9F3
FE8A
FDD0
FBD8
03AA
0305
02AB
FCD2
0155
FCCE
FC51
FAE0
FC3C
0243
FE64
FF26
FCAF
019F
0416
FCD2
012B
FEBD
FDAC
FC3F
FD73
FBE4
FD46
FDC6
FB08
FE6A
FC6A
FF33
FDB0
FD1D
03CA
FF0C
FCCB
0113
0133
F714
FB90
F398
F38A
FDAE
FFE3
FFE7
03A1
03A0
01B3
FD5E
0057
FE78
FDF5
0149
FDDC
0344
0177
FFE3
04C1
03E2
04B3
FF7E
FC61
0331
0132
0276
FD7A
FAFE
F4E1
F44B
EBA6
ECF7
F5D3
F5B1
FCDA
FEF4
003A
FE2E
FEAF
FFE0
01BB
045E
00C0
FE77
062E
0358
02B0
0040
FF64
0114
01B2
FC8B
FFF4
0445
01F1
FA6F
FC26
FBF4
FEC4
F4B5
F0AF
EEB9
F51B
F4C4
FC8E
FC07
FF3A
00AC
FEF2
00F7
013C
0262
008C
000C
0132
005D
031D
0241
0358
FCE5
FFE0
03D2
FF22
00CC
0574
035A
0470
0206
FEB6
FC3B
F667
F9BA
009B
01BD
01AB
00A5
FE3F
FFCD
0064
FF63
FD42
FE0E
FE9E
00CA
0090
037A
021E
FEFA
FC77
00E8
05C1
0669
0477
068A
045C
024E
0825
032B
FE55
FDD1
FED3
FF27
FD6C
FD7D
FFC5
0067
00EA
022A
0188
0047
014E
FF8C
0163
0075
01C5
0248
032F
02CE
047E
078E
01B9
0028
050B
0298
01FD
063F
0391
030A
FC03
FD7E
FF7E
017D
FFA5
FE23
FD83
FE63
0076
050F
0149
FFAE
FC1C
FFCB
0370
013D
00A0
FEB8
FFEE
0015
0480
069D
024B
0506
0342
05E4
00E8
0285
03EB
FEC7
FE9A
FF82
FE6E
024A
FBF7
017F
0006
02CC
FE17
FB75
FC12
FEE4
FD4E
FD96
039D
038D
04E0
FF9A
FF4E
0098
0038
0309
0219
0052
FEF7
003A
0543
0201
FED1
021E
FE03
041A
007B
FE17
0155
FDF4
00FD
FB35
FD0E
01BA
FC45
0372
015E
FEC1
020A
00DA
0024
03BD
0055
0112
019A
01CF
0269
01F5
FFA1
0551
01DA
0345
007C
FF65
0469
0040
FDAB
0315
026A
0077
03A7
0388
FF10
0186
FEAB
FD7D
00FD
0105
046E
0171
04D8
FEDA
0008
01DB
FC99
02E0
FEA6
FE2C
FFB3
FFE7
0390
012C
FD2B
02C3
FE7C
FCEB
FC71
02D6
00D4
FDEE
FC04
FCF7
00BC
037C
FDBF
02EA
00C3
01CF
01CA
0170
00BA
FBFF
035F
FCDD
FF70
000E
FF1F
0138
FC87
FF6F
018E
FFE0
0306
FFBE
01A5
FE1A
FE82
0305
00DF
FDFE
FCC4
FC31
0093
FFE2
FD6C
FB47
FC99
0009
01F9
0292
0161
FF35
011C
0087
0275
02C5
024C
FCD3
FF6C
01B4
FDD7
FFF4
00B7
00FA
FCAE
FDAB
0306
03E1
02A3
0192
FD18
0329
000E
01AF
FDCD
0219
027F
0125
021C
FEAD
FCD0
016D
FDCA
02DE
0122
FD9A
03B5
FFDF
01C3
0281
039E
021B
FC48
FED3
