FC8D
FFD0
0208
00AB
FC40
0079
02B4
019E
FFAF
030C
036D
008D
01A8
FE9E
FEA7
037E
FFD0
FC78
025C
FD68
FC3F
0304
FCDB
0166
FD14
0060
008C
FE03
FCA6
026B
FF43
FD86
0172
02BC
004A
0135
FEA5
00C2
02AF
FDA0
FFEE
FF9E
03E6
FE76
01A0
FF39
FEF3
036C
FCB4
FCB0
FD51
FF00
0320
026B
0240
03D4
0282
FEF4
FF80
FDEE
00B1
FC5F
0082
FCF5
0115
02A3
0032
026E
0144
0192
FE6F
01B5
FE92
FE68
FD04
FF05
FCF4
FCF3
0015
FF8D
FC43
0148
0197
FFCC
FCE1
03F5
FD0F
FDA9
01EC
014E
FC29
FEA4
FF9E
FCCE
FC8B
0376
FE06
FD36
FB6C
022A
FC86
FA5E
FADE
030A
FE61
04FF
0461
FC7E
0098
0110
FC97
02D6
024B
FC34
FEF8
0379
FE46
00AB
FF52
FF8A
FEEC
FC87
019F
02F2
0125
0553
00EE
FCFD
FC58
00AD
FCFF
FD38
0397
00DE
007B
FFE6
018B
0067
FDB6
FE0C
FF19
00E1
0068
FD2B
FBF9
0021
FD6A
0143
0111
FFF3
00CA
0385
FBD5
FE79
FEAF
FF23
FDD6
00DB
FE89
012A
FE54
027F
FC41
01A9
FF16
FFFC
FF3D
01B8
03C0
00C6
009F
0337
00E3
FDE4
0016
FB78
FC9B
00FC
FC40
F97A
FEFB
FD49
0029
015B
FC90
F95F
0491
FCA3
FE24
FC98
FE1E
0492
00CD
0431
FD2B
FE46
FC72
01A4
FDAC
FC0B
FD8E
0038
FCEA
FC20
FE13
FF4A
FE14
00C4
FE1B
FE00
028A
FE30
FD64
00EF
FB49
FC46
FF6C
0088
0128
FC64
FFFF
006F
03C0
02E0
FC01
00D5
033A
FD49
FB41
FEF8
FB42
FEEA
FAAB
FC75
FD40
FE05
00A9
FC2C
FE49
FE75
FB8B
0092
031C
FC8F
0344
0182
FD9D
0269
FEA0
0595
FDC0
FCE5
0260
0328
FDD9
FF26
FDB1
FE32
FD70
FFCC
FE23
030B
FC87
FC58
FDCD
FDBC
FAC5
0092
010C
04C5
0070
032D
0114
005D
0073
FE91
FE67
0326
0099
01C9
010C
0340
02A2
FE77
00AE
FF18
FBE2
FEEC
FE70
FF10
FE67
0238
FDB5
FEC1
F931
FBC8
FCD9
014B
0107
04E7
FE2B
00C2
01BF
FB86
FFED
00F3
FCF3
FC09
FD27
FF01
FCA4
01B4
FD5D
04DE
017B
FF76
FD7A
053C
00FA
FC46
FB6D
FBBB
F65F
F8BF
FFF0
FBA4
024B
FE00
FBB1
0177
FAF4
FF32
01DF
0111
0423
FCD2
00FD
014A
FF5B
FC55
FB1F
0139
0169
0370
0141
FDE6
FFD3
0053
FCE7
F9FC
FC70
F8A6
FC52
FE27
F966
0188
FEA0
FFD7
FF5B
FD59
FE22
027C
FD99
020A
03EE
FCB0
FD2B
FD35
0006
FDCD
02DC
0149
01FF
02BF
0235
06BD
0171
FC45
FA72
0295
0339
FDD7
0053
002D
00F3
FE3C
0298
00D1
FEB7
FE82
FDD5
00C3
02C8
0215
FDBF
03DF
FC7E
0171
FF91
0369
0430
0433
0195
0740
0352
FE93
025E
00EA
0180
0355
FFD4
FDE3
FD0D
FEC9
FE72
FDC9
00D5
00B1
FB86
FC12
0222
FE95
FE5F
01F1
03E7
01CA
047D
03C0
0768
0692
054F
0602
0153
FEDC
FBF5
FF2B
0256
01DF
FEF1
FF7F
FB53
FA44
0127
FE98
FDD8
FEE4
FCA1
02B1
02DA
FD48
01A5
03A7
FC67
000C
0263
00A3
01FE
0063
0205
02AD
0394
024F
FC4C
03E9
03A4
05C7
FE74
0250
01AA
02C9
02AB
FCCE
FDCD
FF99
0099
FD23
FC6C
FE4D
0323
0283
0376
002B
03EB
02EC
010C
0445
01B7
01E2
FEA8
01D0
01B4
020D
047E
FFCB
03C0
FC1D
00F3
01B4
FE97
032E
FFC1
01B3
FEC8
FD8E
FE43
02FA
FDC6
024F
03F6
0421
0374
036C
003A
0362
002C
FFD0
015D
0068
05EC
FECF
00F4
020F
003A
0053
050C
0044
FFBA
0363
01AD
FD20
FCA9
FC95
01D8
000D
FD3E
0201
FFA7
FFCF
04AA
00B7
FF7C
FF22
FF8B
02C9
F966
FF38
02B0
0334
0421
035A
0209
FEFB
00FD
0192
FEF6
FF5A
0216
0242
00D5
03C8
0389
FE14
038F
0358
FF0B
FE9B
FFC4
010F
FDE3
FDB3
007C
FE29
FC6E
FD79
FC73
FFB5
02CB
016E
0795
004E
FE25
00B9
0214
037A
019F
FEBC
FC26
FDB5
FC92
0252
FFAB
01C2
FEDA
01AC
FD2F
FE19
0022
FE4D
0062
FD6E
FFA2
0310
FFE9
FF61
FF44
0022
0189
FE7C
FEDA
019F
0258
FE88
0280
FFAE
026E
FD8F
0319
FCE8
01B8
0090
0206
FB4D
FB86
FE9A
FD6A
FF9C
FD17
039A
FFD1
FDCC
FDD1
FE91
FEFE
0132
FE0C
03AF
01D4
00E8
024E
03BC
0234
FDFD
014D
011A
00C9
FC03
FE0C
FF37
FCF2
FD8D
FD2C
FA6A
FEF1
007B
FE56
0410
FFD7
FC86
00E3
0055
FF0A
FCD6
024C
03CA
043C
0125
FDC4
FFB5
018F
030E
FCE4
FE11
FF25
FD3A
FFA3
0103
FF01
FE6B
01B1
00F1
FEDA
0199
FE42
018C
0068
01F6
FFC2
002E
02AC
0006
FFA7
01B8
0406
FF5D
0557
0188
FDB9
FF3D
FE7A
03A7
009F
02E9
FFCA
002C
01C6
FF61
FF47
FDB4
0018
FC58
FE3E
FB83
FAF8
0238
FEEF
0049
FFAE
FB34
0237
FDBF
018C
0323
FFC4
00CA
FF5E
0205
FE19
02C9
0166
0073
FDC5
FDCE
0005
FD35
FCCA
FC53
0146
FC90
FCF8
FF97
038D
FEF4
FECA
FE1B
FC24
FA1D
FD22
FF45
00F1
01AB
00D6
036E
FDEF
FF55
0076
FDFD
FE54
03FF
0173
FD26
FF87
FDCE
0171
FDC5
015B
FDD7
FFD8
017E
03AE
000A
022E
FF17
FE9E
FC31
FC83
0124
FEFB
FF0E
FDB4
02B1
007D
FE76
FFBC
00AE
