FDA1
FE58
FDCA
0124
03B2
FC77
FC44
FD0F
FF34
FEFB
FD09
00C9
FDD3
03CA
FF59
0311
016C
FEAB
0204
0153
FEB0
02C5
FF16
0132
FD77
FD68
FDCB
0319
FC2E
00E6
FF62
FCB2
FDF3
FCBE
014C
FE43
00D4
024D
0347
0330
FF3C
0309
0100
FFB1
03CB
0172
FCC6
FF67
FEDE
0327
028C
01D8
0191
FF25
019D
0030
FE39
FD3F
0328
FF80
FCE3
0370
FF3C
FF1C
0403
FD8B
FD84
FF57
02B7
00CC
02CE
03B2
FD28
FF56
02D2
FD63
023E
FDF2
FDC1
FD5B
FF99
FF8D
FFEB
FDC3
FE7C
FCC6
FE42
FF64
FDB9
03C6
01FC
FE10
033B
FB64
FC69
FC89
FCB4
0295
FF8D
FEB5
FF63
00AF
026B
FFA1
03F7
FFD9
029E
FD9A
0293
FFE4
FEFC
FCD9
FD9E
FCBB
00A8
FC55
004D
023C
FE6A
FE6C
FF1D
0109
0225
FF0A
FEF5
006E
009D
02CA
0087
00F5
0473
021B
010C
049C
00A1
FFC1
FEE8
01BA
FC73
0257
FC66
0331
FE4D
00E2
0094
FFA3
FC8C
02B9
FF83
FD26
0359
0120
0059
FFF5
FFBD
FF87
FF9C
00B2
FFD1
FE6D
0320
00BC
0439
0547
0307
002A
03B4
FE1F
FDC7
FDB6
0416
038D
04B0
00BA
FEC7
FC20
FF40
FF84
0522
04B7
00CF
03BA
0152
0082
0121
026C
0369
FFEB
0413
FF4D
FF63
0081
028A
FFEC
0384
FF8C
FD64
00E8
FD7E
FDBE
03A1
0267
FF9E
020A
017D
FD14
FD50
FDDD
01D6
013A
03FC
01E4
01A1
0103
FF78
0051
039F
0324
0054
FE07
FF5E
FDA1
025F
FEB0
FFC2
FD05
FC74
0166
0417
0001
FE02
02CB
FF53
0229
0004
FF03
010D
01E9
0119
058D
0496
01CF
010E
FF85
FD07
FE55
FDA0
FB57
0030
04CD
03FF
FE02
027F
00EF
FE39
010F
FFFF
FE81
0014
FD78
033A
02BF
FD78
0015
FD75
0267
FFFE
FF26
FB18
FB86
FF34
FE91
02D3
FA24
01A8
FF70
FF5F
FCDB
FEC5
FD1B
FFE9
0272
FF71
0227
FE7D
FE96
0097
FEBA
012F
FE10
046E
FE38
FE5E
F9CA
F62D
F972
F8E8
F9D5
F728
F7A9
FEF3
FC74
FD4D
FA88
0067
FF8F
006D
FEFA
FC45
FC58
FD74
FD68
FBE2
FF61
FCC6
FC80
F983
FE4B
FB90
FDC1
FE9D
0187
FAFC
F9A4
FA82
FDC1
FEA3
F88B
FB85
FA00
FD6B
FB46
F8D7
FCD1
FF3E
FDD7
FEA0
0279
0047
FFC1
0221
FEAD
FEE1
FD6A
FF23
0280
0064
013D
01CC
FD76
065F
0036
0101
0001
FEDD
FFCC
0193
F8F5
FDAC
FE0C
00AA
00B6
0174
FDD7
FF77
FEFD
FC2B
00F2
020D
0122
012F
FD84
FD62
FD79
FF36
FFA2
050E
029C
0215
00EF
02E6
FFCE
0076
FADC
FF06
F915
FCC0
FEC6
0255
02F5
FE2B
FD78
FFD5
0358
01BE
FE12
FEFB
FD2E
FE28
013A
0411
FF96
02B7
FFB3
00EC
0185
02F3
FEEF
FE26
010C
03C6
FCB9
FFEA
FB6F
02D1
0269
043F
FDA7
01D8
FDF8
00AF
FFB2
FDC3
0069
03E5
FF2D
02CD
FE1B
02AC
041E
04B6
01F6
0108
FC8B
00D7
FDCD
0349
FC6E
FDA8
FF45
00FD
FE85
008B
FE42
0364
0016
0155
0039
FCA8
0290
FCC3
039A
FA81
FB5C
FA86
FB4F
FD91
0546
05B2
0304
0520
0464
FDD1
0099
FD84
FCFC
FDB7
FDE3
01D3
0491
03CF
05C7
00A7
FFDC
00E5
FDF3
0141
03D3
0382
0267
0122
FD06
FCC0
FCA6
FA71
FA4E
0319
0250
021E
01C4
0064
FF02
FA05
FFF0
FF03
00DF
FDE2
0257
FF9D
FDE8
01C7
0087
FED0
FD1B
037A
0089
FE1D
FDA3
0001
FE4A
FBCD
F792
F69E
F982
FA53
FCC4
F9E0
F930
FB9A
FA10
FE61
02E4
FECD
0313
0298
0212
0258
0306
047B
FC6D
02D6
FC56
FFFC
FE4E
0403
0221
FE77
FC85
F8C8
FB9B
F52B
EFF9
F994
F68C
F7BA
F313
FADA
005A
016A
02EF
0330
FD2D
0183
0419
0035
0006
FD83
00C8
FC1E
039E
FCB8
FD70
045E
03C5
02F9
FDCC
FCE9
FC11
FBAE
FD77
FB63
FB35
F9D6
02F0
FDAC
03EE
054C
011F
03DF
01EC
05D9
0094
02A4
FF42
FB4D
0170
03B5
017F
014C
018B
FD60
0523
07FA
FEF4
FC49
010E
01DC
FBBF
008E
0169
00E6
038A
FF82
007C
FFD6
0197
FF28
0096
05E1
FF93
0087
FF5D
00FD
0104
FBFF
008E
FE0E
0006
0192
00D7
040A
061B
047F
FFE9
00EC
FF82
0059
0163
040B
01F2
002B
00D5
003F
0320
FD6E
FEB5
0354
FD39
005A
0239
02CF
FFB2
03CB
00A5
FFBD
03A8
0043
0282
0122
01E0
08EB
0704
0086
02D8
036E
0585
FFBE
0333
0204
01AF
FD66
FE8C
FF7B
FCC1
FE84
FBC8
00C0
017C
FDE0
FE90
00FD
03AF
FC0E
0111
0057
FFF3
FFAD
03DB
077E
06CB
0181
02DD
0458
0372
03C7
0224
04DB
058B
FD78
04E5
FD23
FB5D
01F6
0304
FCF9
FCA6
0305
FD67
007E
FE2B
FF6C
FDF7
FC83
0399
0142
04C1
01C4
0777
08AF
0717
041B
07A4
05D0
055A
00E2
02D1
02F4
049B
FE8B
00DC
FEE9
03AB
02A6
02AC
028F
01F6
03F3
FECF
0052
FEE6
03F1
FD64
035E
FD9E
FF30
01C5
FFA2
025E
FC4F
FE04
0257
01CD
00F9
FC20
FD9F
FEF8
024C
FD26
FF0B
03EA
01A7
008F
FDD4
FF47
FC09
0250
FF00
FDCF
00A9
016E
FC6A
FEB6
03F3
FCEC
02BD
01FE
FC33
FD7D
002A
0049
FC87
FECD
FC75
0320
0208
FD18
FEF9
02CF
FDA4
FC52
00D7
02E8
0259
0235
