01AB
0115
FD0E
0235
014A
013F
0310
FDB3
0062
0306
0352
03C0
FF98
0356
0251
FCE2
FF57
01C8
01D3
02E4
0024
FCA5
00D0
FD67
032F
FDC7
FD4B
038B
03BE
0347
02F4
FD17
FCF9
FEBA
0331
0387
FD4E
FCE9
FD68
FED2
0096
FEED
FC7F
0226
02D0
03BF
FD0A
0364
FEDF
FD9A
FD38
0259
011B
FF9F
02C4
01A8
FCB8
FE53
0299
011D
0068
01C4
FFAA
FF1D
FC28
FE82
0329
02EF
03B8
0143
010A
01B9
0088
01EE
009A
00BD
FEFF
030E
0322
01C5
0197
FEC7
0146
00CE
0350
0323
020B
01F1
01F3
FFE0
0045
FEDC
FDDC
0105
FCF9
FC57
FFCC
FF79
FF58
01BD
FE9C
FFB4
00C2
032B
FF3F
FE46
0325
FDD5
0323
FE3E
0122
03FA
FC69
03CE
FC9B
031B
01D8
FCBA
0364
FDC1
00DA
FF70
FC6A
02D4
00EF
FE27
03FE
FF7D
0052
FEBC
032E
0027
01AF
FD85
006F
FD3E
0307
0224
FDE1
FDA8
00D8
00E1
FDE4
02F8
03EF
011B
0313
FBC2
FCF3
FE0F
0326
FD57
FCFC
02FF
FF5A
FEE8
FF66
0207
00C4
0227
0267
FD25
0289
FE44
FC50
0053
013D
FF23
00B2
03AA
0290
FF74
02CD
FD78
FD10
FFA7
0235
FD54
002E
02AB
0258
FFC3
01E5
0137
FF3B
FE55
029D
FCFE
FE6E
018D
FDAC
0078
FFE4
0185
FE45
02DB
02BF
03A6
0357
FE52
0016
FF19
01B2
0319
FF4A
FE3E
FF98
FE9B
013B
FE7A
FD0A
0161
FDDD
05A4
01F5
FF5E
03C3
01F5
FD6F
0105
011F
FC61
FD61
033A
FD27
FC34
002F
FF25
FD57
0040
0185
01C4
007B
0274
028E
FF65
FF55
FF22
FF8F
FD76
FDA8
FD9B
018D
04E1
FD2D
0422
00DA
02A1
007E
FEFF
FBF1
00FD
01D1
FF3A
FC5F
FF57
02E0
FE33
0266
01A1
FEB4
0073
0188
FD23
FD3A
01ED
FF7A
FF96
0241
FCB2
FCAF
FF51
0307
02F5
022F
FCF9
FD52
0066
02B8
02C7
03CF
FEA7
FE14
FF1A
FC17
0231
FCFF
033E
FFC8
01AB
FDB7
02BA
FD30
FBAA
FE32
FEC0
023E
0098
FD5C
FE47
FDF3
FF39
0265
FF98
FF4B
02A5
03E5
FFF6
02DD
FD8F
039F
00A7
01DD
015D
00B5
FF48
FF47
FF0A
006C
FE26
FDEF
00E6
FB3E
FC44
FFC9
FD71
FB4B
0136
0205
03B4
024C
0371
FE34
FE4B
FD33
00DA
00D4
0100
FC79
01B4
FD4E
FD25
FF3B
FD5E
0553
01C6
FDFA
0030
00E4
FDC8
FBA0
FD6D
02F0
FF7F
FD96
FE79
FC85
00FD
FE64
FF2D
00ED
0422
0137
FEAB
01C9
FE74
0329
FD4B
016A
0315
FD2C
FEF7
00C3
02EF
FAC8
FCFF
FCD0
FC3B
FD68
00C0
0088
012A
FB2A
FCD3
FE85
FDC9
FD9E
FF77
FDA0
0426
015E
00D1
FCE2
0020
0159
FC9F
FE5F
FEB8
FE44
006A
0098
FD15
004D
FCD4
FD17
03B9
014C
FFC8
FED9
FC31
FE9F
FC19
FF88
01A6
0029
FCC4
FE08
FFED
03F4
012D
FDE6
FE00
0350
FF12
FD1B
0049
FF9E
0185
0469
FC6E
FC1F
FE52
01CC
FD74
00A2
FE7D
FE6C
FD7B
FE95
FCB2
0172
00E8
FFE9
0231
FE7D
FF81
0109
037C
0203
FE55
020D
FC83
FF7C
FF4B
FE6B
0080
0067
FE75
FE5A
00D1
FCEB
FF80
043E
0051
FBE0
FD3E
01FB
FF22
FD93
0008
0382
00E2
FF8B
03EB
FC65
FC08
0065
03D5
03D6
0110
00CB
FF82
01E1
FE84
0027
035C
FC51
FB92
0307
FD42
FEF9
FD3A
FB34
FFB7
FBCA
0186
009B
03DD
FEDC
000D
FF56
FF55
0260
FDB5
0037
033A
FF4F
0271
FFEF
FDEB
0214
0226
0407
FF79
FDEA
020C
FD16
FEE3
02C3
FA9E
FD3E
FEA6
033F
FE12
015C
0054
FDB9
FD39
033E
0136
FEC6
FC7F
FC91
039E
0370
0064
FFB2
FDB3
00F7
FE6F
005C
04CE
01BC
FB9B
003F
FDBD
FEAB
FDA1
FC8E
036A
00F3
FE64
00E6
FE6D
FCB9
0388
FD43
FCF5
FEBF
0054
0337
01E6
004E
FF4E
02E5
010F
FC00
FFC5
FE01
03F2
0027
0306
FE7B
0053
00C1
0393
0337
0085
FEF2
0492
022B
FBA1
023C
0254
0188
011B
03A7
0204
FEF5
FFB1
FC3B
033A
FDB7
FF08
0251
018A
FEFD
01CE
006E
0447
0135
01DB
FECB
0296
031D
FD84
0010
FFB8
FE89
0255
FF4C
0335
02AF
0236
FCB3
FDA4
0283
010D
FD1B
0289
FEFA
FD9F
0005
01C0
FD67
0123
FFA1
00B9
FFBC
047C
01CC
0060
0360
0076
FC8E
FD21
00A2
02B9
FCFD
FD63
044E
FC12
FEF9
FFE3
FDB9
FD2F
FF85
FD6E
FF0E
0275
01EA
01FC
038C
0279
0119
FDE9
02A2
03FE
0196
015E
0440
0176
FE95
00DC
014B
FDD2
FE29
024B
01A8
FFB1
0196
FD0C
FEBA
03EB
00E6
FC64
FDFB
024D
0045
026F
027D
026F
00C2
FCF8
FFCD
FE82
038B
FF7F
021C
02A4
FF30
0297
FC2C
FDEF
FFA6
FE9D
031D
FF15
03B6
0265
FD34
0062
FE79
FFE6
FF60
FF84
FE31
FE16
FF68
02B4
0341
FFA3
017B
FC31
FEE6
FF95
0067
FE30
030C
FEC9
02A5
FDD9
FEBB
FFDB
01B9
FDBF
0044
FD15
0064
00D3
033C
FDD4
FE14
0092
0374
012D
0118
FC29
FD5D
FCA2
FD51
FFF5
02E5
FD90
FE4E
01A7
030E
FDC3
0008
0267
015A
FE56
01C3
0012
FD0A
FC6F
0383
035E
009A
03AC
FEBF
01B1
FD20
00C8
FC4E
03F1
FE02
FE18
FDE8
FEDF
FE62
036E
0158
FD7A
0139
FE75
FD6C
0236
FFC3
FF6D
00CA
FF5F
FC77
036C
