FF98
021F
FE90
0297
FDDE
0167
0017
FF09
FEAE
02C9
FC2B
FCB5
02F8
FBFE
037A
0049
025D
FCBD
009D
FC47
FEBB
FF86
FD31
0309
00B4
03F9
0341
0196
FD02
0360
0068
0152
FECE
0173
015E
02D2
0405
028E
FD4A
FF43
FCA4
018C
FFA8
00C7
FE4A
0233
039E
FD73
01AE
FE6F
00C8
02C8
FD2F
FFDA
FEAE
0351
FC51
FE68
03FD
FF19
FC16
029B
FD13
0221
FF71
FC61
026B
FEA6
FCEB
FD1B
01FD
0024
004B
01A1
FEE8
FEAE
0347
FE60
0315
FDEA
0392
0218
FFC5
FF71
FD29
FFE7
FF18
0270
FD14
02DF
FC88
039B
FEBA
0140
FCB8
02CA
FEAC
FC3A
FC99
FE5B
FDF9
FFD9
FFB8
01EB
030F
0387
FDD0
FC8A
FD62
FFDC
FEDC
FE91
01B9
FFDD
0307
0391
FE80
FD1E
FC84
0347
0348
FC65
FD93
FF4D
FEED
F86E
F5AF
FA22
F933
FE72
FB4A
FB39
006D
FE67
0382
FD30
FCD2
03A6
FCBE
00B4
FF30
FF07
FDDC
FD4A
FD40
FDFB
FDFA
019C
FDDB
FB42
FC99
FFCF
00FE
FC99
FB45
FC8C
FDBC
FF7F
FA57
FE5D
FD88
FF1E
FEDC
FC21
FE66
041F
0056
0240
029D
FE03
028C
019D
FD7C
03FA
0243
FEEF
FC1E
054B
0308
00FB
01C3
0314
05E1
094D
045D
03C4
0226
FEA7
FBB6
FF92
0129
FD01
FB73
FC03
0066
02C0
FC6F
FE35
FE7B
0363
FF6E
00D4
FF56
0414
00CF
01EC
0124
0123
0843
0536
0903
0310
025B
FEC3
FCF3
FF23
00EE
FD47
FA24
F901
FF86
009F
FD35
FF52
FE0F
FC1B
FC95
0024
FF9D
FD6D
FC7B
0118
0456
FE6E
0481
0477
0509
02EE
05C1
04F9
FE5A
0183
033F
01AA
0092
031C
015C
FA65
F8E1
FE7F
FDE7
FFCF
FF38
0405
03D6
FE7D
0583
000D
00C2
01CD
07AE
066D
02BE
0659
0476
017A
025A
FFD6
FFC3
02B7
FD74
0216
FE9E
0273
02C3
0102
FF1C
018A
0385
FE03
FD6F
012C
00B7
FF7B
00F7
FCCF
018A
0190
FF12
00AE
0079
FDC6
FA47
FB64
FAB6
FC8D
01D8
FE68
024B
0080
FE39
0109
01CE
FE91
FD49
01E4
FF50
FDFE
0111
FC32
0338
048A
051C
024D
0664
FFEA
0411
0078
FD6A
FDC0
F4A0
F905
FD5F
FE47
00D1
04D2
0323
031A
0695
00D4
027F
FC48
0291
FCFE
FE35
00C0
03A6
02FD
FDB7
0222
FFD0
FC56
FCEC
FE00
FA7F
F836
F6A3
F4E1
F9B7
03FA
032C
01E2
04F5
0036
FFD5
FDB4
01CC
FF92
018A
FC05
FA93
FFBD
FFBB
FEDD
025E
FE05
FD58
FF48
FEC2
F9CA
FAE1
FA7C
FD9D
F8CB
FE2D
FEA3
FE04
0016
FFB2
FCBF
02F2
0197
0065
01C9
03F8
029F
FDB0
FD8A
FB9C
FC0D
0114
FF7B
FCF1
FC37
FE3C
FE75
FDCB
FD2E
016B
0255
0292
FFF5
0421
01DA
FF05
042F
FFB1
FDA5
0109
FFE4
03B4
FDF1
FDF8
FD65
02C8
FDEB
FE23
FD4D
FE9E
037A
01B9
FC20
FEAB
0192
FD95
FD82
FE4A
FF40
0285
00A9
FDA2
FFB6
029D
FFB5
000E
0489
FE6A
03D2
FCA4
0097
FEDE
FEA6
FC18
FC17
0114
FECD
FDF7
FE5F
FDD5
00D6
01E8
FF95
00C1
007A
FF47
FF60
FEFB
FD14
FE6F
FFFD
FFD4
FC75
FE3A
0207
00A6
0233
07A0
02D1
02C6
025F
0220
FA05
FE51
02AE
01E0
037F
014E
FEBC
00AC
FF55
0242
FF8E
00FB
016D
FCF7
FFEC
FB71
FF5C
0334
0289
FEEA
00C8
FC00
00AA
FF16
FE82
FEC5
FDB4
FFDF
F96A
FB09
0090
00F2
02BF
02F5
FC55
0150
0149
03B0
01B6
0465
0133
FFA0
007A
0275
FEC4
0487
0007
01DA
FF16
0163
02A8
0288
FF8B
0088
FECC
FC0A
F9B1
FF9B
FF8C
FE8B
FED9
FD57
FCC1
0095
FE7F
FE5B
038B
0381
FFC9
0073
0002
FBBF
FCF2
FEF5
FAF9
FE1D
030D
0330
02B8
0005
FFFF
00AE
FEA5
FAA8
FE2F
FD8C
025D
FC84
FE29
01E1
FF6B
FD28
FDC6
01F8
FEFD
FE0F
FCD5
0289
FC98
0071
FC80
FCED
F9B0
02B9
FC1A
FC78
FDB9
FDAB
01BA
F9B0
FC0D
F931
FF60
FCCD
FB59
FBFB
FC68
FCFD
FED7
FDA9
FCE7
FB79
017E
FCA9
001C
FA15
FDF9
FBAF
FC45
01AB
FCA1
FECC
FFC9
022E
F9B1
FEC3
FCF2
FF1C
FD19
FF51
0069
FCE5
FC86
0026
FF32
FEF2
FDC9
FD7E
0033
002C
010E
020A
FBAC
FDF4
FF99
0106
FF40
0397
FD11
FF62
FAC1
009E
FE49
FE1F
FD14
FEC8
FD1A
00DA
FF2F
FF64
02EB
02AE
0146
FEC5
0363
FC29
028F
FC4F
0303
FF18
0290
FA4B
FDD2
FC19
FEBF
FC0B
FE08
FCE2
FCDF
FCBE
FC89
FF2B
FDE7
FCD8
0071
0212
02D6
054D
FDCD
FDB7
FF5C
0232
FF60
0343
04DB
047A
0090
FE83
0130
01E7
FE78
0039
FF86
FB8F
FF0A
FE46
FEDB
0176
005C
FD8D
FF44
023D
0291
FED8
FD67
FFF2
FEFE
01DD
FDCB
FC4E
FCA4
FC3C
0282
0215
008B
FE18
FE4C
0624
0231
0288
FF06
00AA
00D8
008E
026D
FE77
FAD6
FDBC
0210
FF1A
02DF
FE72
0005
028B
021C
FFBC
002F
FCB8
01FE
0388
01D4
002D
FCB3
009D
049F
FEAF
FEBB
0013
051B
FD99
002D
03D1
028B
0213
02ED
FFEB
060C
035A
0237
00CE
034C
0281
FC87
0388
FC25
009C
01A6
FC1E
FF68
0002
03B3
02E1
028C
00E8
FCD7
FCDE
FF5E
0046
00FB
FE44
FEDE
020A
FE1E
00CD
FD49
FEAC
FE76
019F
00AC
01FC
FDC1
FD0C
010C
