FE50
FCE4
FC83
FC06
FD7F
0022
FD66
FEA9
FFCB
FD58
0217
FC9D
0335
FCF0
FF4A
01F5
023C
FD52
0302
FEE9
FD1C
01AE
FE07
00AA
0267
02EF
0268
FF3E
02F3
0269
FF7C
FF91
0137
00FA
FDFC
FD1D
FDEF
FDBF
FF60
FE8D
FBFC
03A2
FDEB
FD5A
FC61
FE70
036C
012D
001D
FC02
FE8A
02F4
0055
032C
01E6
02D8
FF41
0348
03BB
0214
0017
FDE4
03D6
039A
FC65
FEF6
01E9
FE85
02A0
0360
FFF0
0224
0016
FC23
0452
0364
FEB9
FC4E
009E
FFF4
FD0F
036E
0034
01BF
FF65
0169
FC79
0030
FCAF
0091
FF76
FEAF
00EA
036C
0509
01C4
020A
043E
031C
092A
0212
0766
0109
FF09
0415
F9E4
FAFC
FF57
01D3
037F
FDB5
02E7
FCF0
03B0
03B0
FE82
0086
00DE
03CD
03F3
091C
04BE
07E9
0171
03A5
014E
026A
050C
02C3
FEF2
02B6
04BF
0352
FF9F
FDC4
FD13
FEE6
FECD
FCD8
01D2
0229
0309
01F1
02E3
03F0
01E7
0388
01AD
FDA0
FEF6
012A
05D5
0314
03C4
FAF5
0327
FF9B
FF87
0193
FEBA
01C0
FF14
0175
02BE
FF71
FE6D
FE88
FE27
FE1F
0090
02F9
0233
000A
022C
0413
FF12
FFA4
0387
02B4
0222
FB94
005E
FFAB
0401
000A
043C
0551
00F9
00B0
FF16
04EA
056E
0395
FECC
0265
FEAD
FFD4
0317
002E
00B7
029A
01A6
0008
0015
FE1F
0007
FE9A
0400
04EE
FFA2
04F7
001D
0452
045D
FF64
034A
0161
01E7
FCBD
041A
077D
075F
01A9
FDEB
FC5B
FE1B
FD20
039F
FC49
012F
FFAC
FDF2
FC67
FF60
0358
FEBD
019C
FE1D
00A6
0087
FCD0
FD65
0212
FD1E
0218
FC14
0095
FCEA
05A1
0227
02AE
02B3
FE4A
034C
023E
FC64
FF38
01FC
00EB
014F
0388
FDAD
0034
0294
008D
0057
008A
FFA8
0209
FCAB
F837
F9CD
0036
FE37
01A0
065E
0043
01C4
FFB6
03C8
FFEE
FD5B
FF21
001F
FEEB
00E6
00F8
0556
0796
FD81
0013
FE44
03F8
FE55
0200
0013
02DD
FF01
FABF
FF15
FCD1
FA6F
FAB1
FB01
FF4F
0231
00D8
FC8E
FD8C
FC19
FD99
FF73
0133
0023
FB1B
FECF
FD31
FACA
FF0E
FB91
036F
05FD
0265
FFB7
FF19
03FD
0AA8
FAB7
FE6F
FB01
FA6D
F332
F7C7
FE41
034E
0293
FFBB
0175
0043
FA86
026E
FE99
FBEF
FDE0
00B8
FE43
0491
06B3
08BA
02DF
039D
01B3
FD5A
FFDC
FF4C
FDB2
0181
FD29
FA5F
F911
F7DA
0146
0083
00B4
0150
FEF8
00AF
FFBA
FDF3
018F
FCD8
0474
026F
025A
FFAD
FDFA
FF94
0601
0617
00FC
0100
0239
FCB5
015E
03E0
0061
004B
F9A8
FF23
FCC3
FE7A
0188
01F1
034C
FEB6
0416
FFA4
FBB2
F922
04D3
FEB6
FE33
FEC9
FFB4
FF8C
F990
029C
02C1
FF67
FA3F
0135
FDF9
F975
01D4
FAA6
010B
0326
03CC
027F
026B
021E
0265
0291
027C
F9BF
F424
F50B
F234
F126
FA23
FEDC
FF7F
053E
070D
034D
FE59
00A1
FD2B
0025
027E
023B
FF90
0347
04CB
03CE
0318
04F3
007B
00A4
000E
023E
FEF0
015B
F846
F1E1
EF7C
E888
EC6E
F28F
EEF9
F67C
FE78
00D3
0063
022A
FEE1
0462
04E9
048E
0289
04F4
007B
0530
FE00
01D7
02BD
0377
FEB5
FED4
033D
01BE
F972
FFE2
009C
FEFF
F6A8
F1F5
F598
EB96
EEB3
F5F9
FD03
FCD6
017E
FFA9
FD46
FE1F
FC86
FDC7
FFE2
0286
024B
FFED
0028
02E9
FECC
FF9B
039A
FD83
0232
060A
074F
0718
0640
01F8
0049
F89A
F5A8
FF9E
FC22
FD47
FAFE
FAC5
FD18
010A
0383
FEAC
FF65
0184
FB37
01C8
FF79
FDDF
FF45
FD1C
08EB
05E5
0330
0362
0054
00AF
0327
FC20
FD83
0686
FE4B
FE49
013A
0113
FF0A
009A
FB6B
FE65
003D
FEFF
00DA
FE0A
00B7
02B1
FCF9
0112
FE46
0086
008B
056B
FF44
0335
FB30
02A0
027B
05AD
0056
027E
010E
FF06
FCB2
02CD
02FC
028E
FD19
00C7
FA51
0484
FF22
030A
02DA
FDE2
0339
FC9B
0303
0057
FC7B
02CC
02DE
00A1
07AC
03AA
02AD
0219
071C
03C2
FF3F
033C
FB5C
FD10
FD61
FF1C
058F
FEDC
00ED
0042
FFAD
FCCB
FF8F
FD94
032A
03D2
01FD
019E
017D
FF7A
FFA1
FD69
FCE2
FEF4
FEC6
0353
FD11
FE18
02AE
0106
03FA
01F4
011C
F9FE
0176
FE0E
FEE8
FB20
FF83
FA8E
FB5D
FF44
03F6
01D1
03A5
0034
0602
0585
0424
FD37
009D
FA52
012F
0892
02FA
00D5
0106
FED4
FF4C
001F
FE53
FECE
00A8
024E
0220
FEDC
FC3D
00E5
FCAB
038F
008C
FD99
03EB
FDDD
000C
00E5
04AC
04BC
0536
0460
FF44
FE2D
012E
015D
00F3
FF4D
FB42
0502
050B
00F9
FDA9
FBBF
0198
02C2
FE4E
FD35
FD25
FCA1
FFC8
03DD
01FE
FDD3
02F2
FF2D
FF0B
0432
0391
06C6
01A6
02EF
0021
FCA5
0069
FECA
0235
000B
FDEA
FD45
FD7A
FD56
FD02
FCFB
007C
00F6
FF62
FCAD
FE7F
FF8F
FD79
018B
0324
0345
00FA
0181
0264
FEB6
04E9
00C4
0317
040B
05A8
02F8
060B
0507
00EB
0694
FC4B
0411
0333
FDC9
0079
FDA6
FC24
03F9
FF3C
0160
0083
FEDA
00E5
FC10
FE8B
FFA7
028F
02F5
FDDF
FE46
0040
FD2A
FEE9
FF1B
FE47
00D0
01BD
023A
026C
FCC2
00FA
0000
FDE9
FCD6
FC22
030C
025C
