005D
FDB4
0021
03AA
FF17
FEA5
027C
FD21
FF43
FFB7
FEB1
021F
011E
FF4A
FD95
FEEA
FC49
FC6E
FF8A
018D
FDEC
FC61
029D
FE36
FDA4
FD43
FC27
FDEB
FC43
0317
FC2F
0297
FF5C
FC5E
FDB2
0085
02B8
FD82
FFA4
00D1
FE59
FD8A
0230
FFFA
FF64
039C
FF1A
0070
0016
009B
FC59
018E
FF18
02A6
0335
FC02
FDDC
FC3A
010F
032E
FDBF
FE8D
FC21
03DE
FD1A
FCB8
FD0E
01DE
0254
00F8
0196
0340
FE0B
FD7C
0044
03C4
00A9
00E1
FF80
FE6B
FDA9
015F
02D9
013B
0125
03CD
FE4E
0151
FF3C
00ED
0203
FCC5
FF7B
0101
005B
FE21
005C
FD08
0106
FD7E
0402
FC86
0259
FC87
FDE8
02AB
FD1D
FCEB
FCD6
0278
0161
0006
FD85
FE6A
002B
00A3
03D5
007B
FF61
FF26
00EB
012A
FB9B
00BB
FD17
01B3
FE7B
002B
01E0
0256
FEFA
0427
FFAE
0030
0142
FDA6
FFD1
FF6E
018C
0209
FFEE
FDF4
FDD8
01C4
02A7
015C
FCEE
FBD7
0263
010A
0011
FDFB
FFBB
01A5
0006
0175
016D
0181
020B
006F
0279
0369
00BD
0208
01D3
FF62
FC34
03D1
FEEC
FE6F
0282
03A0
FC1A
FD92
FEA7
011A
FCD1
FBE6
0072
03E4
030E
004D
FFF6
0128
FB65
FE51
FDE3
FFE3
FBD4
02AC
018F
FBB9
022E
000A
FFDE
0288
0323
FDBB
FD63
0142
005B
0103
FF62
03D8
FD6C
02A7
FEF1
0485
FFDE
0444
00EE
FD37
FFED
01A1
03D3
FEED
FD4C
FEE1
00BC
038D
00AC
0050
01F6
013C
0111
03C8
001B
029E
FFE6
00D5
FB86
FD18
0207
000D
FFCB
037A
0435
0531
0185
FD95
01EE
0150
028C
FFF4
FF5A
000F
FFDA
03FB
FE41
0228
FED2
FFC0
FDB2
0234
029C
FE48
0045
FFEC
FD11
01B0
03FA
FD4A
FF6B
0347
023B
019A
0367
FCF0
FE98
FEEB
029C
0228
FECF
FEFB
FEDB
00A3
0018
FEBE
007B
FFE6
FE66
03C2
025B
038F
007B
01E8
02DA
FF56
FEF5
FFE3
00C9
FFE9
0435
0346
01F5
FDC3
FC2A
04AE
0287
FFCE
FCD4
0205
00DC
003E
04AE
FD51
0009
FFD7
FD4D
00CC
FC5F
0159
FF65
FEDF
FDC5
FF97
0279
0011
0098
019D
0022
FDB0
FCF2
FA8A
FBA7
FFAB
027C
0491
0305
0015
FCA6
FF21
FFD2
FEC7
0066
032A
FD3D
0328
01C1
FF82
FF25
00F5
02D0
0401
FF85
021D
0111
FC75
037F
FE65
FE03
F741
FFBD
009A
02CA
000E
FD72
0124
FDFC
FF46
00BA
FBE2
FFFE
015F
FCAA
03AD
0166
0116
FA96
FD78
00F3
FC4A
FF53
0245
0190
00CB
FF05
FB42
FE07
F96B
F932
FBB3
FCA9
FC9C
FF21
FDE1
FE73
0037
02C4
039B
039E
03EB
0372
00C7
FEB3
0006
FDCD
FFAA
FFED
022D
011B
FE48
FE3B
020E
01B0
F99A
FDFD
F9B1
FE04
FDCA
FF0C
FB71
FCF0
FB30
00CD
00E7
019A
FDA3
00F9
FD27
FC28
02F6
035A
02B8
01F9
00ED
FF37
00F7
FCFF
00CA
022F
0061
049D
FFAD
F90A
FDC9
FD35
FCA7
0195
FB1E
FD7C
FCEB
001B
FE1E
04DF
FC0F
0164
03DB
FF2A
029F
FC55
FCF4
0073
02EB
FDCD
00A6
0168
FE03
040B
06D7
FF22
FEFC
FB07
FBE9
FEE4
FD52
FA87
F9B4
FF08
02E3
01FE
0215
0000
FF4B
01D1
FDCD
0158
FE5F
FFDD
00E6
02C1
FFDD
FF57
FEBF
FF90
00F3
0209
03A2
0429
FDCF
FD61
0065
FF1B
FCBB
FEEB
FFCF
0172
FEFF
FFFF
FD0A
0268
FCA5
00AC
FE81
FD7C
0364
03B3
FE9C
FF16
FFE3
0042
FF98
FE93
05B5
0321
00A6
0254
FB77
FDA1
00CF
FF3B
FDEA
0197
FBC1
FF81
FFBE
FFD6
03CB
FC5D
0261
010A
FE61
FC94
021E
00B1
00BE
FD9D
007B
FFDD
025B
FE96
0254
0473
FFA7
023D
FFA8
FD88
FD62
FE88
FF30
FF5F
FD6F
031B
FF2B
0383
FE4A
FEE7
031F
FE2A
01AB
0323
FC20
0367
0287
01E0
007A
FF3A
FD55
01F3
0022
049E
027B
00A0
014F
FD40
0420
FEF1
04F5
FDAC
0150
029A
0314
0392
01E5
02FB
FEAD
FF74
FCCC
0118
FD8E
027C
FE9E
0319
FF49
02C7
00AB
01A0
04EA
014C
0519
0254
FEFA
0501
0052
006C
01E3
FE79
FE2B
FE9F
FC94
025E
0377
FEDD
037A
FE66
FD32
FEF7
01F2
02EB
FDC8
01C0
FE09
0094
FE55
FEDD
0249
005B
0373
045E
054D
FDC6
02B0
01A8
FF8E
FF43
0136
FD89
FC4F
010A
0220
FEA5
FDF1
FF76
FDDC
03FC
0159
FF7E
03BB
FCD5
FFCC
016A
0168
0353
0260
018D
0425
034F
00B9
01A8
0165
FCF0
0292
028C
FEEE
00D7
02AE
FF32
00D2
FF93
FFD4
0113
0303
0032
0170
FC05
0159
FE0E
FE0D
FD3A
FEA8
0051
FF18
0200
00F6
00EA
05A0
FF9F
FE87
0249
02AF
018D
02FA
FEA0
015D
00D4
02B6
0391
FF57
FEAB
FF4E
00C2
FF41
0008
FC29
00C2
00BB
FB5E
0128
FF88
02F2
FED1
FEA8
FDD3
023B
FEB8
FEFF
FE8F
FE43
FFA8
01A0
FF1D
022B
FE6A
006F
FD04
00CC
FD43
02BF
01E1
FCF2
FFAD
0159
0095
00D4
0253
FB12
FCCD
00E2
FEA8
FD58
FD2B
FD85
FEEC
01A7
FC39
0192
FBBC
FE60
FD79
00A8
FF77
FC18
FEA7
FFA4
03F9
FE0B
00FA
0199
FFD8
0251
00B8
0294
FFFD
FD66
0081
FE36
015E
00CA
FDAF
FC89
FE61
02A3
FF4F
0223
FDA2
FFF4
FCF6
FFCC
FD8C
FD8D
FE43
0034
FE06
FE07
