FF5C
FD1B
FEC4
FC15
FCE7
03F7
FFB1
0090
FE56
0292
FCA8
FF36
FE14
FD73
FC18
FEB6
FEF3
037C
0150
0131
FC3F
FE8F
FCA3
FD17
FE6E
02EE
FDA0
010A
FFEC
0017
03D4
0394
FD0E
03FF
0006
FFE1
0311
FE53
FE21
01CD
0167
FFC0
0394
02B8
024A
FC46
FE71
FE19
FD33
019B
03C2
006C
033A
FE23
0128
FD52
02C8
FF59
035E
0227
FFC5
02D2
0302
FC13
FBF2
02E7
0020
0210
FCF1
0273
0298
FF8D
024B
0219
FF46
0142
FDF9
FE06
0001
FD7E
011D
FC73
FCC9
FD3A
031C
021F
FC78
FF95
000B
FE10
FECC
FD19
00A5
044A
00A3
FEE1
048F
07A0
012F
02C6
FC4A
FEA5
00C1
016B
012C
FC0A
FE99
FFF7
039B
003F
FD4E
01D1
FC63
0162
FCF9
FE64
FC05
0327
00A5
007F
02EC
FE94
023C
0400
FDE6
FEC3
FE01
FFF1
04ED
FFC1
0218
FF76
022D
045E
051E
FE12
0252
008B
032F
FDA1
02D7
FD7F
FF32
0179
FCD0
00F4
003F
FC1E
0453
056C
0448
00D5
000E
015B
0084
FA94
FEC2
014D
030C
00CC
00B2
02D0
06EE
016D
00BC
0188
01A0
FE03
03FF
0151
023A
FFA4
00B2
FCE7
01BD
FFD8
006B
FF12
01DA
0156
016E
FCC3
000D
FEFA
FC84
FF0E
000E
FFC2
FFED
01CD
037D
0391
0203
FF55
03AC
FE6D
01CB
039F
03B8
FEE2
FB02
04EA
FD3D
021B
0324
0074
0594
04DD
05C8
00E3
FDD8
FE9C
00E9
032D
023C
020E
0472
03AF
FD42
035E
0844
0459
0043
FD5F
0396
0075
FDF4
FF4F
0040
03B9
FDB6
0087
FECD
01C5
FFD1
0334
0448
FE9B
02B5
018E
0307
FDC8
010F
012C
00AA
0128
FFB9
02A2
032A
076D
02E3
00AF
FD86
00C6
0139
017B
FD9C
F9E9
02C6
00E6
0019
00BE
FE8F
0514
00B8
0129
00FA
029B
FC55
FC76
FCE3
FB46
FCF4
FCEB
00DC
0191
0233
026A
FDBB
FCA4
FC5F
FD92
0108
FB2B
01E2
FCC0
027E
0124
0696
0537
0326
049C
0710
FDB0
F5D1
F8CE
FABB
F91C
FFCD
F932
FFFD
FD8B
FB6D
FB1D
03A0
0078
FDD5
0195
01D3
0317
00DD
FD99
FF87
FEF1
FF40
FD11
FD8A
FC33
035C
FF7D
00D0
FB7A
FBC5
FE00
FD74
FBD6
FFA9
F9C2
FEC6
FAC9
F99A
FCE9
FE12
FCE8
FF2A
0103
0011
03B4
01DE
FA52
01C7
FDD9
018D
02CB
05FD
0202
02F9
05B9
FF4F
FA4E
FD92
FD0A
FB02
FAC6
004F
FD31
FF78
FC18
0148
0529
016F
FAAB
FCF5
01B6
0326
FE64
FEBF
0008
048F
0497
016A
0275
0096
018F
0268
FF9E
FED4
FAEC
FF4F
F9DB
F9DE
0012
FD8A
FC73
041B
02D8
FC3B
0565
FD9A
FFE9
02DD
021F
FC41
FE88
018A
FB66
0372
04AF
0590
010C
02AA
FD5E
FEC8
FCEF
FE16
FBC1
02E5
FCC6
FBCD
FD51
FED3
FFD0
0244
FE51
02AD
0496
03B4
FF17
FCE8
024C
03ED
037A
02EE
FFAD
01D2
0242
FD07
FE29
FF99
01A3
0146
FDDD
FE57
FB5B
FA89
FCA2
FAD4
FB57
024A
FEB9
FE79
FCEE
0048
02EF
FF45
FF09
02C9
FFC1
FC0E
FDC2
032C
FDBC
011E
FAB9
FCE6
FCB3
FDD6
020D
FDA9
FE45
FDB7
FEE9
FDFD
00FA
FE28
FDA2
F8CB
FDD0
00A4
0484
0011
04F1
03EA
FAC0
0053
002D
FC80
03D2
01BF
FD31
FDB5
FFB2
FE5C
FC50
FD53
FAD0
0346
FEE2
003C
FDE6
FAEC
F5B0
FB3A
004E
03BB
011D
FEF5
013E
03F6
FE3C
FB10
FE90
FE20
01CA
FD41
FCC2
031D
01E5
0074
FC77
FF46
FC28
FA10
F900
FB92
FAE9
F5A0
F5E0
F9AA
FA0A
0149
FED9
FEC3
0077
01AD
0585
0355
001D
FBAE
FF9E
0153
029F
0343
00FD
FD67
023E
0116
FC7B
FB1E
FC26
FE55
F8F7
FF03
FBD4
FF01
FA53
FA41
0226
FF00
040B
0072
FCE0
0650
FC89
0118
FEB0
036A
FDAE
010A
FE38
00AC
FF3B
FFD2
03C5
03B3
00F1
FF2F
FBD7
014D
0517
FF09
FDC3
0438
022A
FFF9
00A5
0614
04F0
FEE3
00D7
0196
FA42
01E6
041F
0693
FF9F
FDB9
0274
FE98
FED3
025C
FB65
00CF
0279
FC6B
0027
0633
FFAA
012B
0018
02C9
FF4E
0632
030F
03CD
02C5
043E
00D4
028B
0453
0543
016C
023B
042F
030B
03BA
FD62
FF02
FEE7
0049
000A
FDF8
FB8C
FC56
FF2B
FBF6
FB41
03FA
FF8E
FB4A
027C
FE6B
0068
FBF3
02CF
0043
0298
FF2A
009A
FF48
FDD1
FCD3
0273
01E1
FFEF
FE73
FFEE
045D
FF1A
04B8
03B0
02D7
FEAB
0463
0892
0245
0435
017B
0650
01A6
FC22
01DA
0029
FDFF
01AE
FBC9
FF39
0120
FD22
FF61
00D7
0067
01F1
0136
FECB
FD3B
02C3
0030
FEEA
0207
00D3
01C3
00B5
FB74
FF8D
0293
04E7
0516
0055
04E6
FFC2
FFA2
FCEE
0107
FE28
022D
FD40
FE32
FC99
FE2C
0198
037A
FCB8
FE45
FDC7
FD87
FEBC
03D2
0273
FFEE
FCC0
015E
00D4
01B6
FA96
FD59
018C
FE92
0240
0078
FF69
0179
FFEF
FE12
034A
FFAA
FC58
02AC
FC5A
FE5B
019C
0392
016D
FF8D
01E6
FFBD
01D2
029B
0133
FF41
00FB
0570
001B
FF60
0104
FE9B
FD16
00AF
FDE9
FD3C
01EB
FCC6
FF7C
FE4E
0248
FF63
0121
035C
00F9
037D
FC70
FFB1
FF9F
0198
03B0
FF47
FD54
FFA0
FD38
0034
FCAA
01F5
01B3
0370
008C
025D
018F
00D1
03EA
02BF
FF8A
FF89
011F
0160
