028E
FD7B
FF43
FE22
0238
034F
FED4
0330
007D
03BA
FF3D
0340
017F
0028
0270
FDFA
FE85
FEC3
FD48
01E2
FEAC
025E
FD75
0205
01BF
0315
FC25
FF99
01A4
FED0
FC9A
FF2B
0125
0128
FC57
FEE3
FCD9
FD9A
FEAB
02CC
FFB7
FD45
0403
FDA9
0272
0232
03E7
FDCC
0407
FDE6
01EA
FFA6
FD51
0159
FF27
01AD
FC99
0308
030C
FFF5
FCBC
0019
00E0
031D
0026
0061
FD98
040F
FD99
FDBE
FF97
007A
FD63
03A8
025E
FE61
FDA2
FF77
03B7
0055
02BB
FCEB
FC95
FE30
00E1
000D
0202
FD5A
03D0
FF42
02B6
02E4
FF1E
FF31
01BE
01C8
0176
0354
FBB7
FEDB
FED2
FCF7
011B
FD69
FDB7
044D
FEA7
029D
FE98
03F2
FF7C
016B
FDFF
FDFE
01A3
0268
023C
FFF3
FCD3
018E
005F
FFEB
0655
023C
04C6
FDAC
02BC
FECD
0042
FEC9
FD4F
0624
0094
0209
01D9
02D0
0247
0472
00EF
FF80
FF15
0151
0015
FCA3
FDD5
FC46
FF9C
0364
0121
002E
002E
02A0
0174
FC2F
00F8
FB59
FF6B
0325
FAFE
FBC2
013C
FE53
036A
FBEA
05DC
0062
037F
FC43
0017
FD8B
0019
FD43
FBC0
FD5A
FF21
FD47
02BF
FFBB
FAC3
051E
04F9
FBC9
0050
FE20
FE93
0265
FA85
00E7
FCEF
FAE6
0434
01A4
0601
0021
FD47
FE7E
001B
FD97
009B
FD01
008C
0246
00F6
FB6F
0662
00CF
0552
FC68
FE6D
FF9D
FB7C
0172
FDE1
FD1D
03BD
0307
FC63
052D
061A
0663
0091
01A3
02E6
02F2
FD1C
FFF3
FCCE
FEA9
FFE6
04E8
FFE3
0425
05F8
0562
03BE
FDA0
026D
FF51
0067
0260
00B8
0147
FECE
00C9
0195
0271
F959
075C
07C3
0409
035F
0141
016D
0325
FBBF
FF74
FAB5
FCDF
0434
0325
FD26
0476
FC73
0451
F76F
F63C
02F0
FBB3
00C1
0315
FDDB
FCD0
FC01
030C
FF08
FF3A
035B
0657
0198
FE59
FDA0
FECB
FB3E
FFD0
FE39
0163
FF79
038F
02F5
0610
0486
FF01
003D
F6E5
F91B
FF98
FDE4
FD19
00F4
01D2
0421
00DF
03CC
009D
01D7
00A7
038F
FDBB
0397
FC23
FFC5
0106
04B5
022D
01B4
07F6
0487
098E
03B0
062E
05CF
FD0F
019D
FC21
00C6
01E7
F8BB
03FA
FF30
0264
0214
0269
0349
02E6
01C1
FE36
FE85
012A
FED0
FC0A
FEF4
0268
FF93
00FC
0235
05A6
FFCE
05F0
041F
0586
FE53
FBF6
0095
FD7F
FC05
042A
FF70
005D
FE49
FD1C
FFE8
0016
0134
FEBC
FDA6
0217
FDB6
FC8C
FA72
FD46
FDDB
00CD
02F9
01C5
044F
0578
04F2
0442
FC15
01E2
FB93
FD11
01E0
0117
040D
FE5A
03B4
FD8B
FE56
0035
FE62
FF5E
0374
02FE
FDF6
FB77
FEE5
0040
FDB6
00DB
02D1
00C9
00DC
0287
FC9F
0158
05A0
016D
032F
0330
FD88
FFCF
FD90
FFB0
0099
002F
FCF3
FF79
FEE6
FEE6
FCA0
00DC
011E
FCE7
0060
FBAB
FE94
01EE
FF92
FF10
FEE0
0137
000F
0266
013B
FE37
FE5B
026F
FE12
FFC1
FCE4
F96E
01AB
FFED
014A
0156
FBEA
026A
FE0E
FD7A
01E9
FF49
FBD6
FADB
FD69
0109
FF82
FD1A
0491
FC78
069A
05E3
057E
00CC
009C
024F
FEDD
FDE8
F91E
FE1C
FE79
043F
F9F6
007B
F9C2
0052
FC67
00B5
02D0
FE60
FFFA
FCF8
FF11
F960
FFC4
FB55
FF55
060C
0282
0373
FF28
FB72
031E
FE0A
FC68
F7EA
0039
0150
019F
00B2
FF58
F92B
013E
FC8B
FE48
FE73
FD22
000D
FACB
0174
059A
FB9E
FF4D
FE87
FFDB
FC4A
02F0
02C2
FDE5
00B1
F8B4
F9E5
FCB0
FC0D
0058
F826
FC71
FF99
0212
FC14
FF70
FCFB
FF2D
0030
FC99
004F
FEF5
FD3E
009E
F92B
005D
01B4
0509
FDFF
FE89
FE80
FFB6
FDA6
FAB0
0513
0015
FB2C
008D
FB67
F835
022A
FDBC
FCA2
FC8E
00E6
03DF
FC18
FC9F
FE3D
F886
FB38
FDC6
017F
04AB
FD7F
0027
056E
0419
0245
FD96
0279
F9B9
FD3D
FCD0
FDC7
FD1F
FBD7
01BC
FD13
FF67
0033
FEA7
FC1A
FF10
01A8
0360
FBF9
FA42
F96F
FABC
0619
FD90
04B1
FFEC
0498
002B
01AB
013C
0102
F99D
01C4
FF9F
FD17
FDBB
FF35
FD77
04EA
02CE
00BD
FF36
FCDB
FC9B
FE1A
021E
01ED
0347
FE45
FC40
0400
FF0C
FE95
0107
03D4
011A
FF1F
01C2
025C
FE65
FE48
FCCC
015A
FD2D
049F
FD65
011C
FC41
FEDA
FCAA
0318
0179
FDBE
011F
02F4
008A
FEA8
FAD4
F8A6
066F
0043
02EE
02B2
0002
0370
0462
0005
0015
01B1
0053
FF33
FE47
026C
0224
01A9
0269
FF86
0222
01F5
FCF8
03A1
FC25
FE82
FD3E
FEB0
FCC9
FB78
00AB
03E4
0287
04D0
01A8
03BF
FFA5
FFA8
031E
FAE8
FD93
00C5
FD19
009F
0154
0187
002D
00AB
03CC
032B
03EA
0129
FCD1
FE91
FDEB
FD22
029C
FE40
FC52
018C
036D
0045
FD6B
FE8B
0159
0286
028C
031F
022D
006F
012C
03AD
FF98
FC92
FC41
0215
FFD4
028B
039C
FE5F
0129
FF1B
027C
FECE
FA92
FF75
FAA2
FD2D
FBAC
FC79
FCC7
FE5D
FC28
FC45
FF81
FBB1
FAD9
FF7E
FF89
FF80
0261
0067
FE0C
0108
FE81
0317
02BA
FDE4
00CE
0351
FC14
FD98
014F
FF6B
015D
03D5
FE8C
01C6
FD78
FDFB
FBBB
FD12
FDB3
02F9
0296
FF11
0084
FBBA
FEF5
0155
FC93
02C2
FCE0
FD1E
