032E
005B
FCAB
01B2
0317
FF67
0100
0055
02CA
004F
01C4
00C7
02FA
FD33
01B8
FE46
FFD7
0066
FD7D
00FB
03AD
FFFC
FD95
FE9C
FCB0
0329
03E6
FE44
015D
FEF2
FC17
0279
FF7D
FFA6
FEA0
0360
0060
FDF3
0058
FDF7
006D
FE49
FC7D
03BD
0253
FE68
00D5
FED7
FFC1
03A3
FEE4
02CC
00F9
FC6B
FDA5
0045
FEFF
0144
009D
012B
0028
FD6B
FD49
03EE
0473
FF33
FE7F
004E
FFB6
0004
01BB
01CD
FEEF
003E
0412
00BF
033C
0214
044D
03E8
0137
FED4
FEB5
00C8
0014
FF6C
03E1
FFD6
02AD
035F
00EF
020F
01DC
FD20
0203
FFF7
0417
048C
025C
008A
02B6
FF4C
FF79
018C
FE00
FEC1
FDA1
01AD
FC5D
0399
FE99
FD1F
0092
0343
0128
0259
0317
FE40
01B3
032C
02AC
02E5
0298
01DD
0376
0255
FD9C
003C
FF51
00DF
FDEE
FFDA
FED1
0201
001A
01D0
00D8
FD59
00FE
FD52
00CB
FC26
0359
0341
023C
0213
0100
025D
FF79
0263
0026
FCB5
00F8
034A
FF8C
035D
04AD
FD21
0186
FFD4
FFF0
001D
FF83
FBE2
027A
FE49
00E6
00E1
FD23
03D9
012B
FF23
017D
FC3B
FC3E
015F
FA41
FDE8
FF35
02B1
FBB6
FC50
FFC8
FE6E
FF06
00B7
0090
FEAC
FF2B
FC6C
FE2F
FFA8
003E
0284
01C9
FE92
0338
FCF9
0344
FCD3
FF0F
FE24
01EC
FF5E
00FC
FF52
FE3B
015A
0130
FDB0
FE59
FE66
FA8B
014E
FA6A
FBC8
FF18
FA4B
FEEC
FAE3
02D5
FDEC
0381
02B7
01B8
FD5C
00AE
0264
0208
FE53
FCF2
FDA2
0165
FBBA
FEAD
FD41
FD04
FE88
FEC8
FE36
FB87
FABE
FFD1
FF96
FE21
0018
FFE7
FF92
FB6D
FDCF
0355
02F9
03C0
00B5
FC76
01F7
FDD7
FDA2
FD4A
FE91
00DB
FFA0
FFF3
FD32
FFB0
FD20
0310
FCF7
00F3
FD08
FB2A
FAFB
FC44
FFE7
FD6B
FEE8
0069
01FA
FFA8
FD0D
FEE7
008D
0311
FE2C
004D
FC7A
FBD6
FF37
0075
FBEC
028F
FF22
02FC
0478
009F
02F1
0267
0050
FFCC
FC0B
00F3
018E
FC8C
FFAA
FCB2
0010
FDC7
01E5
0389
03E5
01F4
FE7C
FC91
FF4A
0008
0123
FCDE
0010
FCB2
01FF
FEFA
FEA9
041C
FE9D
FFCE
00E1
FF04
009E
01A4
FEF0
FD4A
FF79
0020
006C
0097
FDCF
03A7
00BC
020E
FD89
0309
0165
0063
02FF
FFA5
01E5
00FF
FDFA
FC5E
FEEE
01AC
029B
03C0
FF07
0449
0143
0289
0156
0389
FFB5
FE3C
FEED
01E8
FC22
02D2
0282
FE72
014C
FBBC
FC49
FCDA
FCEE
0195
FF36
FA0E
FBBD
FF33
FDF6
FFB8
FEBD
FD06
01F8
FE33
FEC0
02F2
02CF
023D
01E9
0451
0348
00CD
00B5
0370
0321
FCD4
0243
01D9
FDFD
006C
FECF
FE3E
FCC7
FC22
FF49
FF45
026E
044E
028B
0241
FA78
0055
00E7
FE6A
0402
003C
01C8
029D
044A
FD5A
014C
003A
01C2
003C
FF2E
FF36
FD6A
FD86
FFB6
FC50
FFC0
0135
FD1F
FDB4
0053
041B
FE26
008B
FD78
FCF9
FD76
FBEB
FE0A
FDAD
023F
FF58
017A
01E3
03B2
00BC
0238
FC20
FDDC
015A
FD61
01F7
0080
FF60
02F6
0290
03D3
0195
01F6
0522
FD5C
0069
FBA6
FC42
FFF3
FECF
FC98
02F4
FE10
0368
FFC6
0367
FEF3
0048
02D0
FCEA
017E
FCC7
0447
FC85
002C
0145
FE21
0064
005D
016C
FF73
04B6
FEEA
FF27
FCEA
FC0A
FCC1
01D3
FC85
FFEB
FEEA
0288
031D
0277
0051
FC99
FF07
FEB2
0397
003C
019E
01E6
FF79
0374
0380
FE68
027B
01A8
FE43
0481
0298
013C
0345
00A8
FADE
FF2F
FE0F
016D
021F
0086
0117
FF86
FFF2
FD34
0326
0037
FEEA
02F1
0293
FF3E
042B
02F0
0082
01BE
FF34
034C
033E
0033
05E0
025A
02F3
011D
0323
02AB
FECE
FEA4
FE0D
FE70
0353
FEAB
FFB3
FFCE
FD5F
FD1F
03E4
005F
FFD8
019C
FFDB
0112
000D
FEA7
0236
01F7
FE12
06A1
024C
05B1
03FA
018C
FEEF
014B
007C
00A6
0240
02FA
FCA5
FFEF
FD11
033C
02B2
03EC
FDE2
0083
04C5
025C
0292
01B5
0332
01F9
FE28
FF5B
0451
052A
FF44
033C
0063
023C
06D0
FEE2
FFD6
0437
0570
0373
FE09
FF4C
FECF
028A
FE4C
FE8D
0446
02D4
0007
02AE
0211
FCF6
0417
FF6A
0217
001C
FCAD
FC8C
008C
FF63
0277
0224
05D8
03E8
0171
0169
0101
012B
FEAC
0357
01D1
02F9
FC9A
0222
031E
FEF1
006C
0115
FF30
FFF4
0168
0249
0025
0077
FF86
FFA6
FAD7
FD70
FB6C
FEDF
00CC
FF53
FDCC
016E
02D2
FD57
FDA8
00A0
0350
FC4F
017F
01A2
FD95
011E
FD32
02C1
FB42
FFF8
01A7
FD5B
FBE2
FB7A
FAEF
FDE7
FB7F
FE70
FAF4
0126
FD63
0193
FDAF
FDF5
0161
00E4
020F
FDA2
FF46
02EC
0325
0298
001C
010F
000B
FCEC
FDB3
FDD7
FCED
00B5
FC3A
0160
FDF9
0026
FDAC
FE64
021A
0243
FFD4
019E
0046
FFCC
0109
FEAF
0317
FEE8
FDFE
0212
FE7A
FC84
FFE5
016E
0334
0108
FDC5
00E3
FE8F
FDC8
FDF2
0180
0113
FC98
0293
038F
032F
FDF6
FEB8
0374
FC24
035F
03C5
FD5A
03DD
FDD5
0244
028C
03C0
03F3
FE36
03D4
023E
FE3C
0340
02FA
FD84
00F2
FEB5
FF5C
035A
0025
FDB4
FC40
FF39
FBF2
FE0D
00C0
FE14
FE8E
0192
FC09
FCE2
009F
FEBC
