0337
023C
02B1
FD32
0026
FF28
0319
FC24
FD39
02A3
001A
0387
03BF
0287
FEB2
00BB
0159
FEFC
FEBB
014C
00AA
FD7F
FDB0
0311
01DA
FEF0
00A2
FE29
FC81
02BD
008F
FC1F
031D
0096
0086
000E
FD8F
0386
001D
010D
FD9A
FD23
0257
FDCC
FE67
FEE3
FD73
FEE4
020C
001B
FEA5
0262
FC4B
03D3
FFE8
01B2
FC0A
00D2
FC06
FE4E
FDC6
014D
0278
FE61
0181
0219
FC85
FEEE
FFFA
0383
006E
FD2A
FC7C
0188
0237
FC2F
0133
FF4E
0055
032B
009E
00FC
FC4F
0335
FF23
FF1B
00BF
FC57
033B
0107
0233
FFD4
01F7
FE3E
FA6F
0054
FDEE
FFA9
0109
FC4C
FD54
FE46
FDFD
0173
0134
FF13
01A5
03CF
FC1A
FC88
0064
0299
FCDB
0246
0051
034E
0126
0136
FEC9
FDB4
FD9A
FFE8
0032
FBD1
016E
FE9F
FE07
FF69
FE11
FF5E
0117
FE20
014E
FF5F
FFA7
0311
013F
004B
0264
013B
00E3
FF06
FE6E
01A1
0120
FB48
001F
FB9C
00A0
FC09
FA3A
0197
0133
04A7
0456
FD81
00DF
FF8A
00CF
FACE
FFE9
FDED
010D
00CA
001C
038C
FE9A
0389
027C
FF25
0107
0393
FD08
FD33
FC15
F9D3
FB08
FC17
FC3E
FDD5
00DA
FB8A
FEDB
FC10
FC3A
0184
0270
003C
FFE1
FF93
FD4C
FD40
00F2
02FA
FC10
03D7
0198
FE3E
01F3
FDC9
FDBF
FBB9
FF23
FF9A
FE6E
0111
FCB1
FB68
FB9B
FAF8
FEF8
FB61
001B
FC8D
FF3A
FF31
FCB5
00FB
026F
FF66
FF29
00D1
FE3F
01ED
FF5C
FDB1
02E8
FCE5
0131
FFD4
02CC
03C8
0054
FFBD
01C1
0049
FFEA
F8C2
FF34
FD89
FFFA
FF65
02ED
FFC0
0250
FFDF
018C
006C
0471
0185
0357
FE57
0284
FE22
03CC
03CF
0380
01E8
01DF
0573
FCC1
FE16
FE88
0305
0094
00FD
0173
FFAA
FFA4
04C1
0076
FCE8
0313
04D5
002D
04C0
02A2
0383
FD13
0283
FF3F
01B8
01C9
FF33
0131
0322
0634
030C
03DC
FFAF
0475
FFAE
0267
0529
00DF
021C
FEA2
FEC8
0489
0042
0306
03AF
007E
029B
0425
039C
01A7
FC5B
FF60
00BD
0426
00C2
0475
0468
FCA1
0217
0214
0534
0647
0669
09C2
05BF
FF6A
0240
F9EE
FCA2
053E
0555
0258
FE8F
FEDE
FF0E
FE06
FE2E
FCE4
02D7
FEA9
FD3E
0353
0540
032F
02E0
01F3
0552
0ABE
02A9
01E0
FF5D
03F2
FD0F
FC32
FCD4
FE50
FEC2
018D
0095
020B
FDDA
FE54
FB27
FFB7
0398
FECC
FC6E
FF2F
035A
0094
0384
0368
04B9
03CB
00D3
0041
0190
01E9
0482
FEFB
F792
FACD
FD05
0003
005C
FF09
FC39
FE28
FCC7
0035
FE28
01C3
0297
01CD
00F0
FF93
FF24
007A
FD24
0211
FF1E
FB62
FA8C
FBF2
FF91
FD31
FED1
FCB3
F53A
FBD6
FD56
F9E4
FA80
0026
FFAC
FF6A
0154
021C
FFA4
FE22
0221
FDF0
029B
00C4
FED1
023C
0210
FBD3
FDCB
01A0
FEB9
0278
FF36
007C
FDC0
FB80
FD1F
0239
0109
FA7C
01D7
FCDB
0151
00CA
FEC1
0349
FEA9
FE0C
FC9A
01E3
FECC
005D
0338
01A8
0221
FD69
FB85
FD8F
FDF1
FAFB
FC25
FF76
FC0A
FEFE
037F
FF97
0003
0256
FF53
01E7
FD8F
FB6D
0030
0461
0022
FBC2
FF2C
03F0
00C0
FD64
FF01
008D
FB07
0076
F9B2
FDC2
FC17
FE08
FA8A
0034
0294
FAE1
050C
021C
0086
FF98
0171
00AB
FE27
FEF7
0257
FCEF
0126
01C0
FFC2
FE5D
0096
FCE1
03BB
FEFC
01D2
FB02
FCC8
FC12
FD86
FD9E
FB97
FF8F
FDBC
FE61
000B
02F2
FF9D
FDCA
003F
FE23
0098
FDF2
FDAB
FCE4
FC60
0058
00D9
FEB4
035B
0270
FF98
FE9B
FD22
002B
FF1F
FB45
FD5F
0173
FE80
FA76
FE98
FFC0
039D
FFCF
009F
FD73
FB49
FCD8
FD51
FED6
FC78
FA98
FFAF
FCA8
FE40
FEB0
FCE5
00FB
FE40
002E
0072
00F1
FC1D
FB9A
0254
001D
FF76
FD33
01E9
FCC0
0182
FD0E
0100
FC66
FA60
FCD8
FFC4
FC74
FD0F
0196
FDA6
0148
FD54
FE84
00E9
FCDE
03C3
FDCA
010E
FE25
FD33
02A2
FDEC
FD2B
02AC
FCB0
00F0
FD9C
FDF1
044E
FC0A
002B
FD9C
FD2B
003D
FD24
FD73
FECE
017E
FCAB
FD48
01F8
FEF9
FD7E
FCE8
FFC1
FCE9
FF96
002C
00AF
FF61
0146
03D8
FF66
02D5
007C
020C
FF0E
FF56
FFD0
0617
02F0
FFDC
02AB
019B
01C1
0094
03E1
0186
FD54
02F8
FE49
FDDE
0188
036D
FF8C
04FE
0518
0181
011E
034F
0177
0033
02BB
FF3A
027A
0092
FF90
050F
0410
FE60
020B
00D3
FEFE
FC7C
FE5C
0064
003E
0111
036F
FD52
0248
0216
02E1
0299
033E
0175
0167
01B0
FF54
0294
FFA1
0025
0014
00BD
0348
0046
FF9C
054F
FDBB
025F
0209
01C5
024F
010A
03FF
03AD
01E3
023A
FE20
0326
0349
FF47
01DA
00BA
031B
FECB
FF51
FEE1
0427
FFCF
0632
0340
0273
0334
009F
0051
0194
0369
FFA9
FE64
FEA4
032C
0279
00C8
FC97
FEAF
0184
0195
FCC9
FAE1
FAEF
0029
00FF
FDA5
0061
FBF3
FEAA
FC3F
FFF5
030E
FF72
00E0
FD0A
FEE0
0136
FCE5
FE2B
004C
005A
00AE
FCD2
01ED
03C9
02EC
FDF4
005C
FC41
02DC
FF32
0283
007A
FEC7
00B4
FF7C
FE51
FE5F
FEA7
000A
FE6C
FF77
026F
FEE6
01FD
01D0
FEB9
FD51
FEB2
FD32
02FF
0200
