008C
00EF
FC9B
FEC3
FF93
FFD9
FF03
036A
FD1A
0297
0192
0012
FF7A
FE73
FF62
0095
03DB
FEFF
0383
FD4E
FD2D
0091
FC7E
FF2C
FF1E
FC29
027F
0096
FD14
01CE
FC38
01FE
FE13
FC73
FCD0
FC5E
027B
01E6
FEBE
00D0
0019
FF10
FE2F
FEF1
FDE8
030B
FCCE
02E4
FF7F
FDC3
02A6
015C
0036
00D2
0071
02B2
0135
FF48
FEE6
02AD
FDD6
01BF
01FC
FFE2
FCCA
FDDA
03EB
FE42
01A0
FCB2
FE59
FBED
00A4
FC7A
036C
FD0A
00B8
FF3A
0368
FFBA
0153
018B
FFB9
FC6B
024E
FDAD
FE6F
FF91
FC26
02B8
FCA9
033D
FDB0
038D
0181
FC1A
FC45
0365
FC49
01E8
012E
FEF5
FDE5
0209
02ED
023C
01EE
0338
0027
FE4B
FD20
02CC
008B
FF57
FC9D
FCAD
FE1F
02EB
0025
0048
FF6B
FC28
FDA4
FE26
FF0D
FD93
FD8D
01C1
FCBE
FD51
FE2B
011C
FD47
0148
01A7
FDE8
FC46
0074
0170
0201
02C5
FE7B
02E6
00A5
00E7
0345
001B
00B0
FE5B
0038
FD45
03AD
02DB
00EC
FD8B
0095
FB20
FD2C
FECE
00AB
FBF3
020A
01C0
0244
FF5C
FD35
01E2
0385
FF5F
03CE
FF6B
0018
FC67
FFBF
001F
FE5E
FB26
FE51
01F0
FDFD
FD90
FCF2
00D3
FD90
016A
FD0D
FE33
0031
FE05
FED9
0200
FFA6
FDD4
FD93
FCA4
03E9
00CC
FFF1
FC92
FEF0
00D1
FE40
FB50
FDF6
0215
0025
02BA
031F
FE27
0035
02F2
FCBD
0003
00EF
0076
FFBA
011E
FF37
FE9F
051C
012F
FF1B
02B1
FD24
FD44
0257
0036
FE6B
FC6B
FB52
027D
01B1
FEDC
00E4
FD67
FD59
0044
FE41
00A7
FF9A
FF30
007E
0054
0017
0238
029D
0108
FF70
0274
0498
FD57
FE95
FD2D
FF34
FC81
FC2D
FEE3
0147
00E1
FFAA
FF9D
01BB
FDD9
FDEB
FF5D
01C4
FDE6
FEBF
FF15
FDB6
FBDD
02CB
FEDD
FE9D
FE1F
FEA9
0061
0424
0299
0011
FCD9
022E
FC74
007C
FB9E
FD4D
0224
0489
01F6
016E
01DA
0241
FD12
FF22
FAB3
FAF7
FF5B
004D
FBA6
FD90
FA8F
FE18
01D8
0133
0426
0375
FEC8
FEE3
FECA
02C3
0273
FDD3
FFA2
FCE1
FDC2
02E2
0341
0181
0576
FE57
FF23
FC5E
FC40
FBF0
FB51
FE3A
FE32
FF54
FF1E
025A
0188
030A
037A
FE7F
FD39
FD3C
FC09
0330
FFA6
00C6
0208
00AD
FCB7
0346
04B5
0110
0451
05E9
FF3E
002A
FE7B
FD6B
FD9F
FFAD
FFF6
0239
032E
0084
0032
00B0
027E
FDCC
FF49
0199
FF10
02DF
0207
0155
012D
FD87
FEA9
FF93
0433
05A7
027E
0724
0265
0476
FF8A
04B9
FDDF
0200
FF92
FD70
02D1
0220
0184
FEE0
FC4E
FD67
FCE7
FC71
004F
FCF5
002F
FFC3
FD73
007E
FCA9
FE27
00B6
0072
01E1
0374
06C8
00D1
02D6
FE12
FE27
FE31
FF23
FB9E
007A
FCD9
029F
0067
FD03
01FA
0054
0046
FC5B
019D
FC58
FD88
FE68
FCC9
0272
FC3D
004F
01D6
01BE
0629
02E2
02FD
0043
0154
FE84
01CC
FE2E
0132
FA5A
FD0F
FD2F
00BE
FF5E
FFF1
025B
0385
001E
0097
0200
FFBB
FCF1
FC27
FB25
FDC3
FF01
FE65
03E0
01F4
0380
0043
0103
02E9
FE86
006A
0063
F966
0045
FBF6
FCE0
03F6
FE50
01B4
FED5
FDC6
FC80
004F
FC93
FC67
00A8
FE44
004A
0137
FCEE
0196
00AB
037A
028E
0236
FF00
0312
0432
FE0A
FFAE
F9AE
FBE6
FFCE
02E6
01A5
FF79
FE87
FD4C
02EB
FD8E
0083
FC9E
FCFA
0042
0078
003C
FB9F
FB9B
FCE4
FEE5
FFD9
0312
065A
0128
0277
FC02
0210
FB5A
FCC1
00BA
FE37
FC19
FC35
01B1
01FA
0180
FE46
0396
FF9D
FD0B
FECE
FC3D
FFE7
FF00
0188
0376
FC08
00D2
FF08
FD97
FD44
022C
FFE4
018A
FEA9
FE84
FCB1
00D2
FBFF
FBD7
0118
FF58
012B
02F9
007E
FFCE
FC1F
FDCD
FD17
F9F5
FE2B
0197
02D0
02B2
0189
0129
FE4C
01EC
0078
FE75
FFE8
FE57
01BC
0077
01B1
FF7E
FF3F
FE05
FFBF
004C
026D
FD88
FF20
030C
010B
FFFF
0210
FDB4
FAC8
0154
02EE
0253
02CB
FD22
FD5D
0118
FD29
FD1A
01E9
FF79
0020
FB5D
01EE
0179
FE6C
0222
018C
FEDD
FFCD
02B8
01F4
FEB5
0322
0146
0335
FF5A
FC15
FDEE
FDED
FDAD
FFDF
0194
FFA4
0183
0248
FF03
FDE6
FD39
FFAA
004E
009B
01F5
FD79
0273
FF76
035E
0145
0112
FE04
FCD9
FC57
FE95
0063
FC80
0294
016B
03CC
004E
0150
015F
FEAA
0069
03CC
02AB
FD4D
038A
00D8
0398
FD8E
01CE
FD56
FD44
01CC
0130
FF54
0192
FF98
03DC
FCDB
FDC5
0267
FCE1
FFF8
FD73
0452
0124
0148
0322
FFFE
0194
FFC9
036F
0130
0282
0383
01E8
FD0A
004E
FDBD
FC1D
01A3
037A
FF32
FE4A
FE4C
FE44
0260
FF78
FD9E
FFC2
008A
0348
FD3E
FD97
007F
FEDD
FE52
FD14
FD11
017E
FEE8
0154
0571
019B
0486
FEAA
FF6F
01B8
FC81
FC47
FCBB
FDAC
02A5
FD63
FE69
0325
FE6D
FEAF
FE31
FD8C
FEDB
FC7B
FD51
00D8
01A3
0347
FFA9
01CB
0322
02BE
00D7
FD41
FE5C
FE19
FD81
FD87
FDF0
0298
FD2F
0297
02E6
FCC8
FE1D
FE31
017E
0381
016C
01A7
01D6
0009
FCC2
00DD
0378
00A3
0355
00B0
FC67
023E
FDEA
0337
FE2B
035F
01CF
FCA8
0013
FD50
FE75
FEF0
002C
