FF28
01F6
0078
01F2
FCC2
FF91
FDB8
0060
007C
FED5
FDDC
FE9C
FFC1
0356
0399
FCD6
01C4
0186
0003
01A4
FE09
03D6
0385
022C
02D3
FF35
FCCD
02FC
FD97
FEA1
FDB1
018E
0337
012C
FC75
FCC9
00FA
FF07
0236
FDA1
0096
FDA9
037B
0312
0267
01D5
035B
FF0B
0164
FFDA
FB60
FE05
038B
FE78
FDE6
FCF0
FD02
02A8
0028
00B5
FCB6
03C3
FE10
FDF9
0252
FDBF
009C
0101
FF6E
00C6
FCFE
0034
FAC1
0117
FC71
FC59
0045
027E
FCE8
0259
01C8
028A
0071
001A
FC45
FD8A
FC40
000F
FD20
FCC7
010C
FDAE
01A8
FFA7
00EA
01B2
0099
00AE
FE4C
FB9C
FB14
002B
FE7E
F8E8
FB1C
FD32
00F1
FD8B
024A
00F9
FFE2
FF58
FF06
03D4
FEA2
FC92
FD73
0291
0155
FDCC
FAFD
FF5F
FAF0
FEAC
FA68
FD94
FD9B
FBDD
F94F
F4AB
F434
F717
F5ED
FB7B
FB79
FB89
FE4A
0409
0432
021E
0336
FC22
FEC4
FC32
FFBB
FC57
0024
FAB3
FE60
FD75
F9F0
FBD6
FAF4
F3E7
EFEA
F850
F77E
F620
F82A
F77F
F979
FCB5
F988
FD9E
003C
00F4
FCBC
002F
0292
032E
FF37
0275
03AF
005F
FDC8
FFD9
02B5
0329
FE63
01E9
FCC7
FD0F
FCFE
FD47
0265
0151
0485
FE90
FFFE
00CA
FBDD
FD18
01A3
02A2
00D7
FD42
006A
0381
0456
04EA
FE63
FDDC
FF46
0011
0205
FDB0
FF60
0011
FE7F
08D5
010E
0096
049A
00BF
001F
012B
FDF7
0216
0208
0093
FE69
FE44
FD09
FD86
FC0B
FF80
FDD1
0012
01C6
013E
031F
06C4
0333
0105
FDB1
FCC8
00E4
0032
022A
0440
0045
009E
FD8A
FEB8
FE88
FF24
FD68
04EB
FF5E
0239
FFBE
011B
02FB
FF87
FEC5
01DC
FDD2
0420
029F
FE71
0195
FF22
02C9
03B6
0158
FFED
047A
01F7
FE0F
04E5
0071
FEA9
FE52
FE3C
0272
FAAE
FDBE
0215
044C
0164
0006
01FE
00E7
FF2A
FF3C
01A4
00F6
FC72
FF01
0218
026B
FF79
0238
0513
0064
02DB
FFAA
FA79
03AF
0044
01D7
02F9
FC0B
02B5
0252
02F0
0108
FFDD
FD46
FD93
04C3
0080
FF60
040C
FF23
0173
080D
02C3
FC98
0AA2
011B
0524
05B7
02F1
0434
0013
FAE6
0385
0114
FF18
0346
FF89
008A
FE7F
0044
FD75
02F2
FE23
0009
03B4
0115
03E7
FC21
00D3
06FA
01C7
FEA3
0430
00E6
0127
002A
015F
012E
FEE7
033F
FFD9
FE59
FE5F
0054
FF2A
F69A
035D
0265
034C
FEB3
0279
0018
FD1A
0827
FF30
FE6B
020B
FFEE
FF2C
03AC
FF30
FF01
0202
03D4
00AF
043D
FF24
005D
FD32
04C1
03D1
023A
FBD0
F7D1
FF36
FEFC
FE0C
FCC0
FC9D
03EE
FF71
03FD
021A
0122
013C
0024
0288
FD7C
0026
FD08
FD2F
FD35
0053
FEE1
FF67
FDF9
FE34
0558
FA22
0250
FC1C
00B7
FD37
FCAB
FF86
027B
0123
FDFD
02EA
003B
0315
0351
FCB1
0003
01C5
FE67
009D
00FA
FE5F
0024
0302
FF53
0658
07FB
FEE6
FE55
FF9A
FF21
02B5
FB98
FBC8
0286
0276
FFAC
FC66
014C
FC76
00F5
FE7A
0162
0065
04DA
F94B
0116
01A7
FF41
FFA0
FDCD
003C
03EE
008E
01D2
FC3B
01A8
FE63
FBC2
0566
FD13
FF54
FC9C
025C
FD32
006C
FF3F
FDCB
FCFD
FFED
011C
FD66
01C9
030E
038B
FE5F
FF63
FE46
FDA4
052E
01B1
FE9C
0110
FDA0
FCB6
FD09
023B
FF6A
FAC6
0255
02FB
FF14
FC6C
0337
FF95
FF84
FCD6
FF05
0051
06C0
0367
0254
FEEF
01A6
FB31
0178
0270
FAA5
FE77
FDB5
FFF7
0082
03C2
F7F6
FBD8
FFFB
FBA2
FE54
02A0
0261
009C
024E
FF3D
FEBA
FEB9
FAB2
00E3
0059
FDCA
F800
0085
F891
FA93
FDAF
FFFB
FF12
FCF0
0075
FC61
00E4
00A1
F91C
FA8A
007D
FE8A
013F
FEB6
01BF
0394
FD21
005D
FB77
FF66
F8C7
F80F
F75C
00EA
FDA8
F984
FF21
008A
047C
FF53
FDE3
FE84
0023
FB33
FD7B
FBD5
F92F
FD55
0197
0338
FF63
FCE9
FCCC
037A
02D8
FF92
0027
FB45
FC9B
FA73
F7F4
FB7D
FFB5
026F
FF3D
FFBB
FBA6
FBFD
FE2B
F8F5
FB2C
F977
FD10
FF50
0211
F970
01C0
00B5
0103
FF6A
00A9
FFBD
0070
FFF6
0063
FFDC
FAAB
FF8F
FC01
0297
02BF
002C
003E
0547
FEA4
024C
FC1C
FBE8
FF18
FB9E
F9CA
0213
0068
FDA2
FEDC
FF38
0083
FF23
02F7
0146
00B5
000D
FCE9
FC6F
FFD7
0098
FBF0
0003
FF47
FEF6
0017
045D
FE14
FEAA
FD3A
0320
FE7C
F95E
FEE9
FF79
FB34
00AD
02D9
025F
03B6
FD18
FE41
029D
FC15
00EA
032B
FF14
FF43
FC6A
01F3
0622
FC10
FD00
FE09
FBDF
FEE9
FD80
FD5E
FEE3
F923
FE84
FBA9
FA5F
FFFE
FE16
027B
FC52
0317
0063
00CB
03AB
FCDD
FD2D
FFDD
004F
0419
FF1D
FFCD
FEBE
FDB1
FBD3
FE3E
FA51
FCD6
01C6
0067
02C1
FE35
FF9A
011D
FE9F
0092
FCB5
FF24
FCD3
FDC0
FEDE
0157
FD84
FC70
020C
FED0
03DB
0307
02AC
FFE8
0360
056A
0476
0401
0422
0680
0C0B
02EB
0205
05CF
012C
0673
058F
0148
03C6
FD46
03A0
035E
FF9A
012C
0006
0227
FEDC
020C
03D4
FCA6
03E1
FD5B
0284
028F
0424
00DA
01D3
0110
FF6F
0330
FD36
FF1C
FEE4
02E9
FE2C
0107
FF51
FED1
FD22
03C4
01C4
02C7
