FE17
FD6F
0143
02B8
01E9
022B
FE2C
0096
0056
0289
0010
FCC3
0298
02E0
0306
0228
FD07
FECD
FFFA
FDB5
FE3C
FE90
FC6F
FFD2
FF29
0234
01FA
02A8
FC7F
FCF4
FC0B
FC3E
FEDD
0340
FFBB
016D
FF75
0261
FE24
FD6B
FFC3
FFC5
FF97
FC82
007C
FEFD
031E
02F1
FF8C
FD74
02E5
00F2
03DE
018D
FEB1
014E
FCE9
030B
038C
013E
FF10
03E4
00EA
FFB5
003C
FF38
FF22
0111
0155
FFC4
01C1
FFD0
02DC
025C
FDEC
011E
FD29
FD2D
0016
0143
FC28
FDCC
FEAE
0203
00CF
FF19
0014
028B
FF53
FDE6
03CD
0083
021A
FE65
0301
027F
FCBD
FA97
FA8F
FF84
FD0A
FCE4
FF48
FFBC
FE17
0302
04B8
0310
00F5
031F
02D8
FD81
01B5
FFDE
FE0B
FEEC
0389
FCD8
FE18
FD8D
0384
FD5A
FDA0
00D7
01D6
FB75
FD0C
02D5
042A
FF50
FE3F
0306
0121
FEE5
04D9
00D6
0233
FE04
00C6
FFE1
FEB6
FD82
03CF
FCB6
0008
00B9
0482
FDB0
0083
FEF6
FD0C
FE81
FF2D
F75D
FCF4
FD3E
0539
FA80
F9D6
0206
F91D
04BA
0533
0197
FC93
FC9E
FFA7
FB9A
FF4D
FEF5
0271
FF07
0228
00DD
FE0A
FF82
0276
FFFF
00E5
04D7
0232
FC42
FECB
FEFF
009D
FFA3
0154
03F6
034E
F93D
00BC
0053
01DC
0091
FCB4
01B7
0193
FED0
FF86
0049
FE16
FE2F
FE77
FEAB
007C
01B4
0542
FD7D
FF32
FDA0
0107
FE76
0129
03DA
FD86
03CD
025D
00C0
007C
0143
FC9F
FE53
026F
016E
0226
0042
FCD8
FF57
0253
0111
0251
001C
FFC2
FAAE
0233
0234
FF15
FD82
FDF7
FEC9
0352
0104
FD96
FFF1
00B2
FC35
01F6
FF3E
FD3C
FC93
020B
FCB5
FEF3
FD73
FCC2
015C
FDD0
FBFD
0314
00A8
0323
FF43
0508
FFF5
FF2B
FC9D
F5E0
003C
05F2
0020
FE3C
FF56
FB32
FB6F
FBF5
FAB6
FAB2
FDCE
FD78
04EA
FE7B
01DA
FE5A
FE4C
FC4A
FE0F
0273
0271
035F
01BD
01EA
FCCF
FE33
F8DC
FBD2
0307
048D
FEB4
01B7
FDD4
0297
0481
FCAD
FCE8
023E
FFB8
00A9
FEE5
026D
FC1D
01AF
FDFD
FD32
FC7E
FAA4
FBEF
016D
000F
0167
FF50
FE42
0098
0226
0946
0626
0520
0206
0084
0530
0486
FFF1
033C
0087
FD0F
FCD1
FE7E
FCE6
0187
032E
FC7D
FE48
FF99
FCC9
FC34
FF87
FD84
0121
FC53
0258
FB8D
FFAA
0637
01CC
00F6
FEB4
FF97
0030
046E
0262
FD48
FD49
0165
FFB8
FC42
023E
00E6
FDEE
FD2D
00F4
0016
0309
FF8C
005D
00EB
FD27
FE10
FD1A
03C4
0677
027D
FFD9
0229
029E
FD0E
049A
04CE
FF47
0052
FEB1
FE44
031B
004A
0018
02F6
03B6
01B6
FE9D
FFA9
FCAD
00EF
0019
007E
FDE6
011C
FEC7
028D
017B
03D7
0627
FEEB
FEA0
FC52
0271
0162
FEF2
0489
0166
FD92
FFD2
038D
FE17
0138
0341
FD1D
FFFB
FB42
FDF0
0168
0525
00D4
FFCA
FF9C
FD67
001B
FA64
0241
028C
008E
FCCE
FBAF
FC67
00D0
FB46
FAF0
00B0
009C
FD2B
00BD
FC1F
FF05
03A0
FF2D
FD4F
FF5F
FD60
FD6A
0000
0225
FD6A
0322
0294
01B8
04F0
0082
037F
FAEF
F79D
FD04
FDF7
FF12
FFE9
011A
FDD7
0092
FDDA
FD2A
FC23
FFBB
001E
FD7B
FCB6
FD4A
FE10
FB35
FF36
0341
02E4
01D9
04E3
021C
FF00
FBD5
044B
F8BD
F6EC
FC85
FDFA
FFE8
FF72
03AA
02C3
072D
020B
FDA5
FD41
0349
0392
FE33
FD78
F9CD
F8BE
F9AC
FDB8
FF4B
FCDC
0310
FF58
0132
FDF0
FCB5
FAEC
F684
FC00
FDE3
FC97
F997
FA23
FD97
03C9
0548
0476
FC7D
01BB
FF64
0130
FCBF
FF0E
F9CA
FB70
FFF7
00EB
05EA
0242
00AB
0000
FCDE
F56B
FA13
F530
F3C0
F729
F6E1
FE75
FCFA
FC61
FD8D
FDAA
05FC
02AF
FC70
01FE
0283
FDD7
01A0
01EC
007A
00DC
02E4
01C8
FCA4
FF27
00AD
01EA
F437
FA88
F7DB
F8D9
FE35
F9C2
FA7F
F9A7
F69C
FD6F
FDD6
0046
019E
FDD4
FD8B
039B
FC96
026E
0365
FB56
0650
019F
FC6E
FE90
FE79
0151
FFB0
0032
FD5F
FD90
FCD3
00B1
0072
FF2C
005C
FE40
FDAD
002B
0342
063B
03F7
03A2
0372
FC95
00F6
0386
FC66
FE6B
00F5
00E5
FE12
00B2
02D7
FF4E
FD3C
000C
0035
0110
FCB2
FEF3
FC41
00C3
02E5
FE63
0042
02A2
01F5
0191
FE64
FCC0
FCF6
01C0
FEED
FE0D
FD10
FE82
FD02
FDD8
043E
0182
008B
0135
012E
0543
0214
0079
FCE8
FF4C
00FE
0302
0492
FF5F
0386
FD9E
FF50
02D8
FEC9
0496
034B
0021
FFEC
FCD2
FDBE
FDB3
01BF
F9AF
FDCB
00C9
FDEC
FC8A
FC5E
FEC4
FF7D
FD16
FB38
F753
FA92
0068
FDD0
007F
02DD
0284
02D4
FEC7
FF6C
00F9
0275
00AB
FC3D
0139
FD3F
FDBA
00F2
0343
FD52
0272
017E
FBEB
04B9
0121
FCDB
FD17
FEBB
FF3C
0022
FCE7
FC3A
00F7
FFD2
0404
053A
FD0C
FCD6
0128
013B
03B0
00C6
FC4E
0024
FD5D
FE5F
01FA
0186
007B
FDA4
FFDC
0050
FF0C
FB71
FBFE
FE76
01E0
FF2A
FFDF
00AA
FF90
020E
0216
FEF6
0133
033B
FDE6
FF6C
FDE0
FC42
011C
FD8F
FDC0
022C
0154
FF49
FCC1
FF79
FEDA
FE62
0070
00C0
FCD8
031C
FFB7
FD6A
00C2
FFD6
02D4
FF0E
FD0B
03C3
FF22
FC2A
0167
FE27
