FF97
FEDD
FFF4
0140
FE7D
FD86
FE36
01DD
FD87
0250
FF62
FE58
0312
027D
FDA4
FC6C
034E
FECD
0004
FE99
01FC
00E0
02DF
FF6C
FC82
01C2
FDE4
FDC0
FE4B
FF85
FDBF
FF6C
03E2
00C6
01A8
0186
FDD3
011E
FF43
FC44
0281
024D
FEDE
029E
0157
0166
02C6
FF87
FFAE
FE3D
010B
01DC
FFAB
037D
0203
0134
FF40
0183
FCF1
022D
FFD7
00C2
FE22
FF68
024E
FFF9
FFE3
00F5
FF02
034E
00E0
FD10
03D9
0092
0135
0226
019E
FE6A
0211
03DC
FDF7
0135
FCEF
02B3
FC09
018D
0259
FFA4
0341
0385
FD04
FD72
FF5A
0019
0064
FEF8
FF8D
FEBD
FEFB
FCDE
FD1B
024B
025E
FF8E
FDE3
00F3
02FB
FC7C
FF74
FF74
01D0
0009
FE7A
FEBD
FE79
031B
FD59
0162
013A
FDF6
FD60
025E
FEF5
02A9
03E2
01DB
005C
00B6
0337
FFB9
FE5B
FDDE
00C0
FE59
FDE5
FD60
FF8C
FCFA
FFCD
0175
01D2
FD83
036B
0287
FD77
FEC6
FF10
FD64
FD2D
0204
009F
FF13
03BD
FF8B
FFD7
FFD3
00D9
01D7
FF5A
FF27
032F
FF5D
FF08
FE8F
038D
0437
0140
0135
0341
FD22
FD98
0219
FCBC
0205
011C
00B6
FE24
0006
FBB2
0287
FD78
00E8
007B
FE62
016A
FF9F
00A5
FECF
FFB4
0195
018F
FF96
025D
FEA5
FEFC
01F3
FCE9
0249
FDBF
FBC7
004B
008A
FBD5
FE93
00E4
01D8
FF18
0099
FE0A
00B0
FCDB
0120
FAE9
FF74
0194
FF76
020E
FE41
02AC
02F3
FF8A
0254
FF44
FD1E
03BC
FDD7
FC00
FEEF
FEF4
0038
0291
01D7
FF5A
015E
0248
FE5E
0270
01EC
FD9D
FF38
FF7D
FCF8
FE24
FF42
FDA2
FD8A
0088
FE11
04FE
FDF1
FDFB
FFEC
FD41
02EB
FC1E
FF77
FEAF
FE35
0179
FFA1
005A
01AB
0254
0521
FE63
FDA6
FEDF
FCA8
FD4C
FE96
00AC
0007
0147
00E8
0370
03CD
007C
03CA
0076
035E
03C0
FEF1
00DF
FEBC
0082
FF72
0094
0279
0308
00CD
0308
0190
FEEC
FE29
01C6
FDB6
FD2F
0097
0271
03EB
01AE
FF4B
FECE
0442
FD55
FFFF
FF48
FFDC
FC18
0037
FEEE
FDF1
FD84
03B8
FF42
03BD
0238
0354
FD4B
013D
0102
0009
037C
0064
FF9D
0199
00A0
FEDC
FFFB
FE1E
00DD
01D9
00CC
034C
0095
01A4
FFB3
00B0
FC99
0146
FE26
FF6D
0399
FD0E
FD5A
016A
FDEF
FC51
008F
0132
0533
0106
01FC
0163
01D4
03B1
0175
00C5
02A5
04AD
04B9
0161
00F7
0389
01DE
FE9A
01AD
00B8
FBCD
0061
FE8F
01A9
FEAC
FB7C
FCCD
FFFE
0200
039D
03E5
0522
FEE0
00F8
0263
00ED
01D7
FC94
0242
FE94
0285
FF20
FC9D
FE6C
FCA1
02D1
03B3
FFAB
0124
FDE4
0104
00AF
FFA4
002F
019D
FF9A
0304
05CF
0480
025B
048A
005A
01D8
FF40
FEBB
FEE5
FF46
0151
FE13
FC32
FFED
FF45
FECF
0321
FF83
0151
FE92
FF7B
FDAD
FAFD
FF5B
005B
0370
0233
012D
066F
0931
037D
02BA
FF25
FEF8
FDCD
FB87
FDA6
FDCB
FCD2
0348
FE4B
FDB5
FDC1
011B
FFCA
01D9
0385
0005
FCE2
00BA
FEEA
00B5
028B
011B
FF91
05AC
0543
01C8
0246
FD76
00C1
FDDA
FDFB
FAA1
FF0B
FC9C
0069
01CD
0157
01D0
FEA9
02C1
02BE
0098
012C
0230
FFD0
FC2F
FF76
017D
FE17
02BA
FF7D
FE23
034C
015E
FC80
0039
FFB0
FA36
FC44
002A
0014
FE4C
0145
0189
FB32
00A3
FD06
FC8C
FF8F
FD8A
0146
FB2D
0042
00B9
FF0F
FF5E
0366
0383
036B
FF6C
FF94
FF20
FF27
FD6B
FDBF
FEE6
0104
00F9
FDE1
0299
0243
01A0
0204
FCBD
037A
FDBA
0255
FE67
FD5E
FF1D
FE08
01A1
FF34
FE34
FEB9
033F
FD00
FC62
FC02
FA9D
FDF7
0124
012B
FF24
014D
FE8C
00A5
0227
FCB6
FDF1
00F0
0311
FD27
0101
005C
FFF2
FE88
0171
FF7C
FE3A
0294
0357
FE4D
01E3
FE18
FFCF
FE90
0201
FD53
FFE1
FC81
0046
FDB7
FE7B
006C
031A
FF8A
FC1F
FC6D
FBF9
FD80
0318
FFCC
FCEA
0355
0228
029F
0424
FC0B
FDD6
0031
020A
0072
FEC9
FE12
01A3
FE0D
FE13
FEB6
0019
FFBA
0306
0290
FDB1
FDA6
FC5A
01F8
FFF6
FFE1
01F5
0272
FD1F
0349
FD63
FEE3
0041
02D7
FE10
FEE3
FF7D
0259
007F
FFDD
012A
0255
0051
FE8B
0321
FE52
FFBE
FE6C
01B5
0102
FD6D
FCD0
011E
006A
0399
004C
FDDB
02F7
FD89
FCD3
FFEA
FEE9
0143
FFFB
FE08
FF6A
FF60
03A4
FEA0
0098
05F0
005F
01F3
031B
0331
018B
FFCC
FE65
02AB
00F1
03B9
FE1F
FCB5
FC64
FD29
FF08
FE1F
FD1B
FD70
FFFF
FE59
0139
FE61
04C8
FFA2
026E
011C
0480
FFD8
0140
FFBE
FE14
FE74
FD0D
FE88
01C9
0060
FDBF
FFC3
038C
FF9A
0053
FEB6
0252
FF23
FBB0
FFB7
0077
FEBF
0323
FEA7
01B1
FE5A
00F9
0004
FFAA
0403
FED4
FFAF
00FF
FFE8
FF67
0253
030B
FCD0
FEF1
FF19
FF5F
0264
FCBE
024F
FF31
0291
FD37
FC6B
0268
FC30
000C
028D
FBEF
0224
00EE
FDF6
FF71
FE24
FF93
FF5E
FD4E
FF23
FDBF
FD82
FD83
0369
FE4F
FF4D
0296
FFE2
FE28
01B2
FD14
FDDA
FC39
0100
FDFB
002D
02A1
014A
017F
0145
029B
FDE7
01A3
00EC
00F2
00F3
FCDB
FF0A
FD90
0398
036B
FCE8
01D3
0287
01C5
