FC89
038B
FF39
0252
0315
03E5
FC76
FEAB
FD57
006B
FDFD
0399
0200
FD32
FCE1
FC4E
FECB
0123
033B
0159
03D0
0264
0381
FF06
FD72
FC25
FE0F
0106
FEAE
FDBD
01EC
FC38
FC15
FFDA
FCB9
FCA6
0016
FF47
03E7
FEA9
FFA7
FFB9
038A
038F
02D8
02E3
036E
02D4
FE80
FD5B
0157
FE08
02EE
01EA
FC2F
FC94
026D
038E
FC81
FD08
FE3E
00CC
01DC
011B
002D
00DF
FDB7
02ED
FE70
016F
0234
0144
0133
02B7
0346
03A0
012F
00B5
FD19
FE0A
0324
027B
025C
FC05
016E
0149
01DF
01CF
01FA
FCCF
FF78
FC2A
FBFB
FC5A
FE8E
FF39
FBF2
0282
FF2E
005A
0171
FFFD
FE92
FF06
FF59
014F
FCF8
FF2B
FF75
FC44
FC1E
FEF9
004B
01D9
0204
0095
FF1A
02E6
00A4
FD3C
FC8E
0367
FEAF
FDDC
FE89
0348
0062
03D2
FF1C
0188
FFCC
FF47
FD4C
0143
00B5
0069
00A3
FF4B
FC2E
FC96
FCB8
FFAD
FC63
FDC5
FC22
FFD3
021D
0093
FD50
FB7D
02F5
FB8C
FE1F
0139
FEF9
01C7
0491
0356
FF76
024F
FDA8
0141
FB6C
FDAC
FFDB
FD52
FFC2
FC93
FEBE
0047
030B
011E
00BF
FEB8
FE1C
0154
FEA6
FB27
FC1A
FDB1
FFC3
FDDC
016C
FEFC
0211
0565
0446
03A3
032B
FDD4
029A
FDD4
FB3B
FC95
FCE4
0208
0079
FDF0
035E
006C
03B5
02A9
FBF2
0085
FF65
008E
FB09
FBF7
FE49
FCA4
FC33
0267
FC6E
0134
01B7
0355
FDB0
02F3
FE6A
0148
0327
FD72
FBBF
FCBC
0177
FE9C
0169
FE4C
0019
039E
004A
FE25
FE50
018B
FEEE
FD5B
FD67
FCF0
FFC0
0132
FED2
FDEA
01A9
051B
0167
0116
FF94
0150
FDCE
FCD1
FF93
02CE
0209
FE9E
01B5
0016
02BD
FDD5
FBDD
FD19
FC98
FEDD
FDF2
FF39
012A
0009
0423
FFF3
0192
FE13
FE4D
04B9
05D3
021B
0143
0411
0241
FC4A
03B5
FEE6
0324
00E9
02E0
FC86
02CC
0264
011B
FDC0
FF49
FC21
FF37
FC00
0189
042A
01EC
0660
0144
FA56
015C
00E8
0398
030D
02FC
0511
01D3
FBBB
FE4C
0307
FD8E
FDDD
FC56
01D7
FCFD
010E
FBE2
FFA0
02C9
FB7B
FEE5
0208
FEEF
0203
0326
0113
FEA6
FC5C
FB06
0134
0353
0011
0312
FF6F
00BD
FE40
FEA2
FD76
FEEB
00AD
029E
FD7F
FD85
FFE5
043F
FEEE
0150
037E
FE48
FFE4
FD01
0212
FECA
FCB2
FA33
0022
0037
FEBD
00F2
032D
0634
0549
012E
FE09
FC61
03AB
FF07
0069
FF79
FC6B
FC0A
FC60
000A
FF2D
0216
0090
FEA6
003D
00DD
FFA4
FC25
FDE3
FE22
FFE6
FF8E
FFD2
03FF
0007
00EE
01B9
041E
0394
035F
FC53
FD12
FE8A
01A1
02CF
FDE4
023D
048E
0135
0013
FF4E
0255
FD60
008D
0040
0040
0228
FC24
FD9C
0224
03A1
FF05
0297
02BD
04E2
00CC
FF29
FDF5
00DC
FED4
FCD1
FE95
FFF5
FBF0
02C1
0016
0134
04B1
020A
0276
FD63
FDE6
0111
FC03
FCB3
FE74
FD21
FD6D
FEE3
01A3
01DB
000E
0079
01BC
0131
FCC7
FD52
FEBB
FDE0
016F
FD52
0112
00AC
FE34
023A
FF7E
02F1
FFEE
FFCD
FEEA
FD12
01CB
FF1A
FDCC
0027
FCBE
024A
023D
021E
FE72
FD00
FFA4
FE35
FE6C
035A
026F
0293
0209
FBC3
FDBE
0157
FE24
05E7
0228
04CA
01E1
FBD3
FB90
FDCC
02B4
FDD9
0046
013C
FDD9
FFFA
FCFF
FBE7
02DD
0141
FBEB
FE47
0013
FE41
FF17
FCB3
FC1A
00B2
FCF1
025C
00FE
03D3
0503
0014
0088
FA78
FE39
FDCF
FF85
FE61
FED8
01BD
FEB6
FEF6
FF91
FF01
0143
FFA9
FE71
0178
FE4E
FD09
027E
FFDB
FD80
FE14
015A
011A
014A
0375
0659
0552
FA5F
FDA4
FA9D
0397
FDD5
003E
FEC5
FF6F
FDF4
FDDE
00D3
0102
FF3C
014F
FC15
00A7
FFB3
030A
0159
01E0
021A
0104
006D
002A
FE24
0078
0112
02F5
FCD7
FE7E
0087
01DE
FF10
FCB1
0195
00A0
FD01
FFFC
FEFC
FE13
00F4
0166
006B
FC25
011A
FF92
0006
FFE8
FCB7
FE3A
FF77
0111
0245
019C
0291
0101
FEA6
FE57
FB43
00F3
FD48
007D
FE0F
FF15
FF59
FC63
FA39
00DC
FFD0
0065
FF0C
FCF2
00A0
FEEA
01D3
FF16
FCCF
FF42
011D
01E2
0538
FF40
0428
03DA
03E6
FBC3
FF56
FF07
FB3A
02A4
FB14
FF03
FFAD
FD0D
FCFC
FF7B
FC66
0288
FE66
0030
FC46
FE85
034A
03BF
FCCC
FE4E
FE23
026F
FD71
0189
0363
00CC
00B4
03C6
00E7
FC35
FC2A
0003
FBE0
FE1D
FE2E
FC60
0150
FC01
FF25
FF85
0125
FDF8
FC5A
FCB2
FE65
0070
FD80
FE9B
014A
FF00
FC55
FFD6
0282
01CB
03BE
01A3
FE80
014F
FF79
0161
01C3
02FD
0162
FFFE
00E0
FFAC
00EE
0046
0142
FE98
FC94
FD4C
0030
02E9
FD59
FEC6
FEF5
030C
FDBB
01BD
0058
0032
FD3E
FD5F
01E4
FE00
0151
FF2C
FCAC
02AE
02FD
FD43
019D
FC71
FECE
03BD
FF8D
FF02
02AA
FD7B
FC76
FD3E
FFAE
02E9
0054
FED7
FC96
FF28
0058
02DA
0143
0263
FD6B
FD6A
FF99
02CB
FC7E
FD3E
0049
FD5F
FD73
FDD7
FF60
FCEF
FF78
0089
FCEB
FE14
00DB
FC0C
0093
FFF6
FC67
03F9
FC76
033A
0366
FD66
FE3C
02A1
FEEC
FFA1
03BA
00E4
FC19
FE31
FD44
FC71
FF58
0257
00E2
FEAA
FC54
02B4
0013
FEA5
