03A7
0153
008B
FDD9
FE3D
FFA5
FFB3
0116
FEF4
FDA0
00A4
FC92
FC58
024E
02F5
FF73
032D
FEA9
0283
FFCB
FC7D
FF2F
FD96
FE0B
0394
FC6A
FE7A
FD61
00F3
0286
028C
03FC
02A0
FE75
FDEF
009B
0026
FCB2
01E4
0257
0057
00AD
FD9F
FC6C
FBE5
02E5
FD6A
0153
01F5
0128
FF0E
0133
02C5
02AC
FD57
023E
0300
03C4
FFDD
022B
0127
FFCD
00F7
0234
FE1A
FC61
FF1F
FC70
00E6
FC4F
01BD
FCDA
FED4
FEB1
FEC6
0131
037D
FFC6
FFFE
FDB6
0409
0020
FD6B
FC29
00CC
FC40
0026
FEB6
02A2
FC2D
FCBD
0399
035D
0189
03FD
0300
014A
FE5D
0094
FFD7
FBC7
02C1
0013
011E
FD59
FC0A
02DC
FF49
FD39
FD95
0037
0393
0073
FF5F
0032
018C
00ED
FEFB
0061
0131
0111
FCF8
001C
FCAF
FBFF
FEDE
FD87
FC69
FDEE
FEE7
0232
002A
FD7B
FBB9
0110
012C
FD15
007E
025E
FD82
03E6
FD5E
028E
03E2
0385
0009
FBC6
FF1C
FE6E
01BA
FE7A
FCD2
0126
F7BC
FD5A
FD94
FEE5
FBE2
FC2E
FAE0
027F
FBC0
0126
FBFF
03BB
01C8
0322
0380
FF30
FEAD
FD63
FDFF
FD9A
FC44
01D8
0136
FD88
0189
02BE
FE9F
0148
FA66
F976
FC54
F91F
FAEA
FE8D
FFED
FAC6
FC24
FCBD
FD63
02D9
FFEB
FDFF
038F
FFC8
0024
006B
FEA0
FD48
FE2E
0304
FD04
03E8
01AF
FF7B
FF9B
0481
05E0
02F4
FC18
FCEC
FE61
FB4A
FE13
FFB0
FB19
FBCF
FA65
FF98
FDEB
031C
FFE2
FC9A
FD89
FF44
FFC5
0347
0042
FD58
0183
FE0B
FE05
02F9
FEED
04C7
00AD
04E5
03AB
009B
FEBD
FCA4
FF65
000C
FCE4
FC21
00F1
FCB8
FECE
0258
FEF6
007E
0139
FD41
FC4A
FC84
0244
0342
FE36
0226
0289
0559
030E
049D
058F
0552
FFB0
02F7
FE26
004F
FE4F
FBE5
FF22
FF15
FF8D
0036
FC29
FC13
FC81
FE90
FEF5
FC85
FFD8
00BC
FD30
0116
0218
00BB
01C8
033E
01C2
02F5
00EA
05B7
02AE
04EA
01E6
009F
FCFE
FD8F
012E
FEE7
FE90
0197
000B
03B4
FF3D
FF08
FC2C
034C
FCC0
FDC0
0256
0348
FED4
0215
FFE6
0134
0154
FDBC
03E8
FE62
00C9
02AC
0440
00CF
0141
034D
FCAC
014A
FF67
FD6C
034E
FDA1
FF15
FC9A
014E
FE4B
FBE1
036E
02D1
FC87
FDD6
FEE9
FD22
FBF4
F8A6
FB37
FC88
015F
FFA7
01CF
FF6A
02CC
FE38
FE25
00CB
0057
FF1C
02F3
FD55
0340
00F3
0233
0385
03AA
005D
0162
FB29
0202
FFD9
FE6A
FD2D
FC39
0217
0135
025C
028A
FFC9
FE0C
00A2
02F5
FDA0
FF49
0343
FFC2
FDD5
02FE
01CB
0386
FE90
02E0
00BF
03BE
FC11
0357
FB65
FEB4
FD9A
FBCB
02FB
004C
00A4
FE2C
015D
FE54
009B
FE7B
FEC7
FFC2
FF43
0077
FE68
FD0F
055D
01A2
019D
FE5C
FD45
02CD
0142
FE26
FF45
FDCD
00FB
FBB6
001A
01A9
FD34
00D8
0191
0355
002D
FE57
02DE
FFB2
006B
FE80
FF8A
0204
FE4E
FF45
00D6
011C
01BC
0474
FE9A
02BA
FF5C
0255
FC74
FEA4
0038
FE9E
FDA1
FF83
0208
007F
039E
FF46
0314
FF8F
0000
0264
0065
0173
015F
FDC3
00E3
0357
03FC
FDAF
039D
02EC
006E
FE70
0157
0380
FFEF
FE3A
04F8
03AA
0221
FD4A
FE44
FD9A
FEFE
0095
0035
FE49
FE5F
FEFB
FE44
04F3
FE59
02A7
03D9
0245
00A8
056B
0266
01F3
FFC8
009B
FEB5
00C9
0132
006F
FEAD
FFC1
02EC
02C5
FF9F
03CF
00A7
02C1
009E
01ED
FF63
FC3F
FD11
FF87
0497
FE61
FD22
0432
019B
0263
0118
00E7
0296
FF66
FD57
FF48
FC45
FD9B
FD3C
04B2
FDBB
0089
0316
01D2
023F
FC4B
FEC1
FBE0
FCC1
01EA
FFAA
0163
0025
02A7
0297
FF0D
047B
FF8C
0412
FEB2
FC91
FCFE
02CE
02BF
0080
0339
FE8B
0391
033C
00E8
FD67
FF5B
FDD9
007D
FC6D
0098
FEA1
FEEA
FD49
FF19
FAE1
0158
FCE1
FDD9
006E
041A
001B
00C4
FCCE
FFCD
015E
022D
0135
03B0
FDD4
FED5
FDB9
FD98
013F
FB41
0144
FE80
FDFB
0083
FDC3
FF59
FD46
FD0F
FE04
FF4B
FBD6
FCD9
FE6C
012F
0428
FF15
0057
034B
0190
FD83
FD81
FF7B
FD65
0183
FC51
FFB2
0164
FBB0
0087
FCAF
FE32
FA24
FEB5
FF93
FFDE
FEDD
FFF9
FCBD
0037
FEB1
0071
0486
FFE9
0118
0039
00A0
FC59
FFAE
022D
007A
FCCB
001D
FCF6
FEF0
FAB3
FDDD
FD70
FAD3
0184
FE31
FB17
FC5D
FC0B
0218
01DA
FBB6
0017
01DF
00F0
FE7B
FEFF
FD06
03F6
FD0F
016D
0136
0040
02EA
FCD4
FE60
00F7
00AE
FBF0
FEAB
0105
FF8D
FE6B
01CC
0117
0290
008A
FDF3
00FD
01B2
0136
0155
FC95
01D4
FE68
02C8
FD16
013D
FC54
FDC6
FD1C
FF92
0051
FDBB
00AF
032F
FD34
FD1E
FE1A
FCD5
FE59
FFDF
FF2C
03BC
0562
FE57
FEE2
015B
022B
FDEB
FE0B
FE7B
FD35
02D1
FC4F
01CC
FF18
008F
03A5
00B5
FF18
FD2C
00C0
025F
004D
005D
FDD5
FD88
026D
FF0F
0124
0189
0032
01C4
FDF4
013D
FDE2
03C4
01BA
FE69
0202
FCC6
017A
0088
FC24
FF6A
FDF7
FE6E
024A
FC1B
FC21
FE3C
03FE
FC55
FCC5
028B
FFD2
02F4
FF1B
FFF8
FC59
FD80
FE64
00B0
FD67
008B
FC7F
0363
0168
FEBD
02F8
