FE32
FF97
FEC3
FDAD
FDE3
FD5F
0077
FEDE
00CF
00A4
FF69
0286
0370
003E
013F
034A
FDD6
00BB
02BB
FFDE
FD6D
FED8
001B
00DE
FD73
03EA
FC0A
0055
00A8
FC2C
033B
FD09
FF7B
00D5
FE52
FFDF
040E
FD3F
FECA
0180
FEDE
FEC2
00B3
FF55
FF2C
0344
03AD
FFAF
00D5
01F4
FEA7
00E5
01E9
FD7E
01BD
FCFF
FF6D
FE15
FD35
FCB3
FE13
FD38
03CF
03EE
02D8
007F
0144
03EC
05BA
0296
FFF7
FDA2
0154
FF5B
051D
004F
0513
0385
FDEB
041F
FD4F
00F6
01D7
039A
00CA
0325
03B2
FF67
038E
01DE
04CF
0027
0587
0321
04F2
0584
0187
04D4
0300
FCD3
026A
017D
001E
04C3
01B8
035A
02FD
00C3
0347
FE90
FEE4
01B1
03F6
FC9A
FFDF
FC0A
FD21
FF0A
FE89
02EA
FEE7
0445
01B3
FFB9
0033
013D
FFC1
009D
FD7D
FD06
FE62
0060
FE8B
0226
FC8C
0152
FCEE
00AA
034E
038E
038B
FC6C
FF73
01B6
FE55
018C
01BD
0575
017E
FF55
00B0
0080
0067
FBE3
00A5
FD08
00AB
0182
FF15
01AE
FEE2
FDC2
FF42
FC94
FE27
0105
01DA
01CB
FF42
FC9D
FE4B
03BF
0179
0120
017B
032E
FF75
0115
FA0A
FD78
FE2D
FADB
F9B3
FEA6
FFD3
FBA4
F6A7
FE0B
FB86
FEF0
0208
0321
0169
01E9
FEE3
FF36
0115
FD8B
0082
03DC
052F
02FB
FD5D
00A6
014C
02A5
FD10
FD26
FD95
FE56
FA3F
0148
FA60
FEB3
FB7A
FC66
FA27
FE7F
FE3B
FD62
FFA9
0005
00B8
045A
02FB
FE3D
FDEF
FD57
04A8
0256
FD81
FF84
FE75
0164
021F
FED6
FD48
FD6D
FBE9
FF27
FB7E
FC7D
FCF1
FD52
023F
FFAB
0042
FE02
00F0
FD63
FD44
01C3
033D
FD50
01DE
04B5
FD9D
FCDC
F899
FE7F
FFC4
FD2E
FF3A
0207
FE04
FFC3
FDCE
FB4B
0059
012B
FB4C
FF17
042E
FF28
FC09
FEBF
FE2B
00DA
FD37
0216
FFC1
FF13
FEA9
0334
01CC
FEB7
F6DA
003C
FFCF
FA83
FB08
FC75
FA68
FCE6
FD08
FFEC
FE30
015C
00E9
FC33
0064
FD34
FDC2
FC8F
FDF8
FD10
FC76
FEB0
00F4
0079
0116
00EC
FF84
FE6A
F9C8
FB93
FF16
FB0C
FAC2
F7D7
FABD
F9D7
FDA2
FDEF
00CD
FE17
FEA4
04C5
0021
01EF
0115
FD2D
FC2E
01CF
01BC
FC3C
0082
FE41
00E4
0089
F71A
FABE
FDDA
FED7
FFD2
0032
0420
0521
00B9
0510
0263
FC81
FF39
FE89
FC86
FE1C
00A4
FC65
0178
FBF0
017E
FCC4
FE01
02B7
FD43
003F
FC6F
0104
F749
FEA8
01D3
FEBF
046E
0145
0378
0825
04B9
03A8
FCF1
002B
FC30
FE4B
FD6D
FD52
FF3F
FD79
FD57
FFBE
0545
0099
02E0
0041
FF8A
FFCD
022D
0481
FD1A
01DB
0368
0258
02C1
06A1
0138
0448
070B
037F
FD62
02FD
0120
002D
0447
FFD9
FFB2
023C
0279
04AF
0476
01C0
002C
FFFF
0115
02A6
FCD9
0482
019F
03A1
04CF
0607
012F
00A1
0174
00D3
04D3
0249
028B
00CB
01FB
00F5
0369
016A
0208
01D4
FE69
0412
05A0
0345
03E7
FEA6
FFBC
FFF9
FEF7
048B
03BB
FFC5
0040
029B
0400
03F9
02C1
043F
0262
0165
04F9
02A3
00E9
05A8
0280
0551
0409
058A
0603
0372
03E9
07CE
FD6F
023F
0272
02D5
01AA
0622
FFAB
FF78
024C
0070
0065
011E
011B
02C1
FD83
006D
0088
042F
028A
016C
0159
FF04
019D
0763
045B
0262
FF5A
FFB4
03CB
0148
01A7
019B
024A
0135
03D1
0583
FE32
02B4
02AB
021A
FED9
FC46
0510
027E
0039
FEC8
0317
018D
0313
000D
FC31
02DC
FC51
FF06
024B
0118
FE55
0398
0097
023C
0305
048F
026D
FEA8
FCE3
02FD
0174
011A
023D
0310
FEBA
FFD1
04E9
017C
03C6
FFB5
0364
FC33
FF66
FF2E
FBEC
FDF0
0024
FFB8
010F
FD86
03A3
FC66
FC67
FEAD
0450
00CA
FC21
01E2
FFDE
00AE
0444
014B
0281
015D
02BF
02AF
FC61
FEF7
01B6
F76D
0454
0053
FE71
FFA4
FCE9
FBC8
040D
FD8F
0008
013C
FEAC
01AE
020F
FAD7
FDF9
FDD6
FD5A
01D7
035C
0174
01D5
FEDC
013E
FF92
FF55
012D
FF31
FF35
FF6A
001F
FDC0
FEED
F6DF
0266
FE4E
FFD8
FD56
FE9A
FF92
037E
FDA1
0151
FB9E
FF77
FED6
FE79
0182
0059
0462
010A
FC6C
FFA0
006C
FCB4
FBBF
FF48
FAD5
FBDA
FB3B
FB5D
FD18
00EE
0001
FCEB
FDA2
FEAA
FDBD
FEC3
FDC4
FE64
FBF3
01CE
FD3A
FD60
FEA6
FD05
0131
FB91
FED8
FCBB
FDA1
F794
FBC0
FBA4
F874
0159
006F
FB0C
F8D9
FF9B
034F
FD31
FFF6
FCBA
FE5C
0204
FEE6
FDC7
00F1
F91B
FDC1
FCED
FE88
F8AB
FF3C
F9F3
FFC0
FCFE
FF71
FBA5
008E
016A
FECD
FE5D
FEC8
010B
01DD
0043
FFB1
022A
FE0F
FF7E
00DE
FF1E
0285
00DA
FD9E
FE0E
FB30
FCE6
FEC6
0286
FEC3
FCE0
FEEA
FE52
FF18
FEB1
FEB7
FD5F
FDD9
FC2D
0100
012D
FC60
0209
FC0A
FFB0
FEB9
01DD
FD5B
FE90
024A
FD66
FEAC
FEC0
0033
FC7B
FC64
FBD6
FBC9
FCD5
FAC1
FD52
FBCC
FE1D
FC76
FBC9
FD46
FBDC
FE88
0136
02AF
0306
03F7
FFC9
038B
FC7B
01AC
FE8A
FEAE
010D
FEDB
FDE9
FC45
FEB2
FD79
FF13
01EC
0256
FD88
FC9C
03BA
00FD
00C0
FD07
FFC5
02F6
000E
FF68
003F
FF1B
0039
FD6F
