FF00
FC16
03CB
0100
FE12
00D8
FCCE
FD3C
FEAB
0279
011E
0051
0248
0059
FCC3
FC85
FD03
0186
FCB5
FCC6
025F
FD79
0198
FD65
FCBA
02CF
FCC8
FCE2
FE0F
FEBF
FDAB
FD59
FF55
01B3
0058
FEDA
FF52
FC30
0131
0308
FFDE
013F
FDF4
0158
0051
011C
0377
FF8F
0068
02FC
FDD9
02B5
0122
025A
02AE
0248
FC04
FFD6
0314
0267
03E3
03F0
00A6
FF16
FE2B
02CB
FC61
01DC
0062
FE82
FE75
0069
FD0B
0350
FE91
0019
00AB
0277
0153
FFA8
029C
00B9
0269
FEB5
035C
FE08
FD13
0070
FFF2
01A4
0027
0001
027B
02F4
0034
035C
0677
016F
0347
00EA
FF61
032C
FC35
FCDE
FFB5
FEF2
FE2C
FFA7
FEA5
0377
0170
FD64
FC2E
01E1
FE43
FD3B
007B
007B
02ED
01FB
FFA3
03A5
02DC
03DA
0318
067A
0181
037B
02FA
00FA
0178
00D7
FC63
002E
FDF5
FE78
FC16
03EA
FDD6
007F
00E2
01C3
0189
FC9D
FFC0
FE16
017C
04BC
FEDE
04E3
012E
0460
00EF
FFCE
03B1
004B
0234
00BE
FE23
FF9F
0117
FF7D
FE9E
FCAB
FC26
FF60
00EC
FC29
0342
FFD7
FE10
FD9E
FE8A
FF29
FF23
018F
FE58
FE2D
FFC3
00F3
0403
0291
0181
03F4
022B
0279
01B2
FFEF
FF21
FEF5
FE66
FDA3
FC90
FEE3
0171
01B8
0210
0228
FD60
0191
FFCF
FE21
FE0C
00FF
01A1
00DD
0219
00CE
0007
046B
055E
048A
0265
00E4
0212
010C
FFF5
0015
02D3
FE76
0199
FBC4
012E
FD1A
02CB
03F8
02CA
FE06
01DC
FED5
FDB8
FFA7
FE9E
00FA
00F5
02CD
FEEB
0054
0299
039F
035C
003E
FFA5
01CC
0166
FC4A
0008
FF83
FD4B
FD8B
015A
FD80
016B
FC51
01AB
030F
FF6D
038F
FCDF
02BB
FD99
0205
0171
FDB3
FEA7
F8AB
FD66
0199
FE58
FF02
00F7
013C
FF7E
FED9
02F8
0020
FBD0
0325
0241
FCC9
01D2
FEF8
02BD
FF93
01CA
025C
FF42
000E
00C9
FC8E
FC85
FADB
F9C4
F62C
F737
F796
00C1
03C9
014B
0179
0008
FF7B
012A
FF27
FF60
FEF2
FC3A
03AC
027D
01BB
0244
020A
0006
FA27
F9AA
F881
FCED
FA8B
F575
F781
F50E
F458
FB2E
FEDC
FE7D
FD8D
FF4D
FF83
FFDE
FDF2
0058
FCCC
FEE4
FE44
020B
0321
FF07
01DB
01D4
FBDC
FC1E
F81A
FCD4
F819
F5BF
F6E9
FCAB
F7FC
FB03
FCC4
FF1A
FE19
FCC1
FF08
008C
012D
FF60
FE73
FC38
FC28
0228
FEB4
01CC
FC27
FE61
FDA0
FD29
FB9B
FCDC
FB05
F8C2
F965
FD53
FBA9
01F1
00F0
0296
01DF
FFD1
FE1E
0099
0050
FE04
FF5C
FEA7
01C6
FC99
FBF4
02B4
0074
00FB
FEF3
FCAD
FF47
FD09
FFBD
FBAB
FF7E
FFA9
019E
0263
033B
01E9
00C9
01C6
0313
FEE0
001D
FD8C
FCCB
0197
FEC8
01F6
FF0E
026A
0143
FFAF
027A
FEA4
0154
0378
00C4
FCBA
FFBF
00AA
00A2
0201
0196
00D8
0088
0295
016C
FD12
038B
02ED
FCF1
0432
FE1B
FD7A
FFA5
FAA9
FEA6
0071
FD40
011B
FF71
034F
0045
FDCB
FD04
0106
022B
0197
03A5
03C5
025D
FF51
017F
FE43
0036
02D7
FF07
FFFC
00DE
FFC2
0179
0064
FEA2
00FA
FCCE
01BF
02B6
0143
02A9
FEEA
FC2F
0278
0088
FF99
FEED
00F2
FFFE
0168
FDCA
00DC
00E7
FEE2
FFA6
02FC
02DE
006D
FF30
01F0
FD85
FF32
FCCE
FEB1
FBE5
FCD0
FF8E
0238
00DE
FDB8
FF98
FCEA
FF7F
FEA2
03EF
04B7
01F2
0186
00CE
022E
FE12
0213
FD9F
FE54
051D
01B3
0081
0123
00B1
0087
0444
FEEB
0251
0113
FE7E
042E
02C8
0245
FE6A
FC96
FFB1
0045
03D5
0313
044F
0142
0318
00FB
0048
FD17
032B
FC56
035B
000E
0070
00F4
0365
FFBD
FE16
0176
00C2
0144
069E
0026
FF1C
0348
0315
FFED
FEC2
FD1F
00AE
0657
02EA
0262
033F
FF9F
02B5
012D
00B9
032B
0182
01FA
000C
003A
FD80
0015
048E
FFFB
0213
01FC
0008
043C
FECB
01FF
01BB
FE04
00C7
FEB8
01FC
000E
033E
FF5C
FF64
01A1
FFD4
016E
00C4
FEDC
01B2
FEEF
FE3F
008F
00B4
FE42
FFBF
0288
0420
038A
0257
01A3
FD5B
FDF6
0328
FFCF
0348
01A8
FFCD
0010
00B8
025C
005B
FF04
0278
00D3
0039
FEE2
FE32
FF23
0033
FE2A
028E
0305
0384
0036
035B
0344
021F
0006
FE3B
00BF
FF6E
FE96
03A0
02E7
FF32
FF15
FFE5
02E1
01C7
0231
FEEA
FE0A
0229
FFEE
01B2
FCB1
01DA
FFF7
FE85
02C7
01E9
FEA1
02BB
FD4E
FFD0
00C4
0020
FC40
FDE7
FE0D
0339
FC95
FC3D
00D6
0340
FC5A
FFDD
0188
FF36
FFDE
FE23
FF4A
02F6
0302
0118
00A7
04A9
0322
FCEC
00AF
FC95
0086
0367
FCE1
020E
0076
02C7
FC26
FCB4
FD43
FC7C
FDD2
02D0
022B
FBB8
0194
FF83
03C8
04A0
FFA6
0278
00D8
0450
013C
FE74
002E
FC83
FDF2
FD90
FD3F
FDDD
FCE8
FC25
0275
0222
0395
FEDA
038F
FCC2
FE7B
FF1D
01AC
02BB
0012
FD2F
03EE
0099
FC6F
FCFB
0124
0164
0066
FF36
0054
00BD
0330
FCF3
FE62
013A
011F
0250
0266
001B
FFA1
0304
02A8
FECF
018A
FDE3
0220
FF04
FFBC
FFF1
0119
0143
FE5B
FCF2
FFE0
FDA8
02A0
FF7B
FE3D
02CD
FDC4
03B6
01E5
FF31
FF3E
FF28
FF1B
0029
