032E
027B
0112
02A8
038C
0342
0311
00DF
01AD
01B8
0374
008F
012F
FFDB
0002
0074
007E
02B1
FF17
FEB5
FCB6
FC0B
03B3
00C7
FEE3
FF60
02E7
013C
FD3C
FC96
01E5
017F
FE63
FEB6
0093
0107
007B
FE49
FD0D
FD97
018E
FDD8
FCE9
FEE4
FE10
019B
FDF3
FD3F
FCF2
031F
FC36
02DC
FF7A
03FE
FF3F
01C4
FE24
FF3A
02BE
025C
013C
FF1B
FFBC
FF3B
023A
FE11
0078
FFB8
0231
00CE
0136
FBD7
01BE
FBBF
FE47
FD3C
02C8
00E6
0019
035C
0013
FE2B
02AC
02CE
0195
02B9
FD7E
FD2B
FFF9
FD4E
FE82
01A9
02D6
FE0A
FF00
0394
003C
013D
0346
FF4A
008D
FA98
FFEB
FB10
FC10
FBFC
0090
FBBF
01B9
FCA2
FFC4
0112
FEC1
FC6E
FF0C
000F
0042
0369
021D
FF33
0180
0432
0478
0368
0394
0308
FFD6
FE0C
0140
FE7E
FFF0
011A
FCAB
FE5C
FBE1
FA3C
FC80
00F1
FCC0
FFE0
0140
0354
FE23
FDB6
00EC
06AA
0185
FF6C
0484
FF4A
006C
0257
040A
04AA
0373
02A3
0006
017F
FF4E
001A
FF59
FBF7
FC28
FE58
FD38
0155
02EC
FC8B
00C1
FCF4
023A
0144
02AA
FE1B
FF1F
FF97
02B4
0180
0453
0190
01F3
01FB
00BA
FFA8
00B6
00D6
FFF4
FC08
0116
030A
FEAE
00A2
00F2
00E1
028B
FBF3
00DA
FC57
FD4C
FE49
07DD
0076
FD8B
FE41
014E
009D
FD5A
00A2
0041
03BA
FF04
0352
00ED
FFA3
FF97
FCFD
FEA4
FBF2
FB6A
FC2B
01B5
025D
FEA5
0248
FCC8
FEF5
00B3
03B8
05FA
FFA9
0319
FCF3
0225
0154
0515
FE91
FF1C
043F
FF3F
022D
0600
FDD7
057F
037E
FEB9
FF8E
FCFE
FBDD
FB3E
FC20
FEA5
FC38
FDE3
FC54
FF6F
05D3
0143
028C
055F
FECD
011E
FF97
FDE6
FB84
FF58
FB5D
01F5
06B5
060E
05DA
FFED
FCC2
0342
02EA
FCF3
FA4C
FB27
FEB6
00B5
FE16
FD8D
01FB
00FF
0318
019A
028B
0186
0175
FC6D
FC85
FD76
FBD7
FCA6
FBCA
04AE
0029
0204
00DE
0504
01DA
0605
FE6F
0497
FBDF
FABC
02D5
00FD
FCAC
FC9D
FC1D
0046
0417
01E4
FCC1
FC81
FFAC
FFAF
000B
0263
FFB7
026D
01BB
0161
0097
025B
01D3
0091
02D6
03FD
FE0D
00B4
FA30
FB39
FFC6
0044
FCF1
FFBA
FE13
0195
01B5
FD6F
04F9
000D
FE25
001D
0150
FF50
02DB
0184
FC78
0473
004C
0111
0471
0119
0226
FF00
FAF5
FE84
FA38
FE6A
FFDE
01F0
FF4A
FEB4
0186
FD72
0053
02E5
FC3D
FF3E
FFE3
FEC8
0079
FE29
04B0
00C5
045D
021F
0297
0489
FFFA
0177
FBCB
007F
FD7C
F889
FA2D
FDA3
0244
01D5
0399
01A9
FD0A
022E
01ED
FBDF
FF65
013D
00FC
0084
FFE5
FC06
0118
051D
0300
FF83
FF9A
0108
03E8
0017
FE32
F8FC
FBE5
FB3D
FCB1
FE5A
024C
FFEE
02DD
0196
033C
FED6
00C1
0262
FCC4
005C
FD50
FFA0
FDD0
018B
FFE8
FF42
00F7
01EA
03C2
0301
FE8B
FD50
FC25
039D
0021
0191
00B5
0223
FFCB
032A
FD68
FDBE
FC0F
01AC
FFF4
0190
FDC6
FDCD
0021
0092
05AA
0591
FF99
0013
042E
05C3
FE83
FF90
FDEC
009C
FFD2
FE5A
FE9B
0371
FFF9
FF18
FFFC
0122
0284
03A0
FE37
03D3
FEF9
043D
FBAD
FF64
0007
05DE
FCF8
FC17
FACD
0445
0504
FDF2
FB01
02FA
041E
FBCB
00E9
02D0
0254
FE24
0281
FFBF
FB56
00DB
0026
FC74
004B
03FE
01ED
0184
01C4
02FD
0002
FE59
0068
FDAC
0169
FE76
FEB9
F959
FCA3
FFCB
FD31
00AB
01BC
01C6
FFC6
00FF
FFFA
FA4D
FF2E
FC41
00EB
0079
FC52
FD6E
FDCF
FCC4
03EC
FE35
0218
FB41
FAC6
FEF1
FAA2
FCA3
FF58
FE37
FB66
FD02
01A9
FED8
0021
FDBE
0341
02A2
0181
FDA1
FE10
0046
031F
03B2
036D
FD57
026A
022A
FB68
023B
FEDC
01ED
FF04
01A0
FF7B
FC0F
FDA6
FFF8
FF0F
FC3E
FE19
FE0B
00A4
02AC
02AB
FD17
005B
FF84
FC30
0123
0194
03DD
FE42
026F
0037
02DE
FF48
001D
011E
FE5D
FFB5
FEE5
00E1
FD72
018A
FDAE
FDF3
FF98
00B6
FC91
FF33
0063
FD94
FCA7
FFF9
F931
FE7A
018A
FE87
007D
FFF9
FD7F
0266
FFEB
0197
FFEC
FCDC
0081
FBEB
004B
0072
FCC0
FEF5
00AB
00EF
FE65
FE2D
FD7D
FF87
FEDC
FC92
0109
FFD2
FD2D
FE3F
FC4C
0203
FF72
FF7A
00CE
03BE
011F
05B0
01BD
02FE
02B8
0209
FC4B
023C
016B
010C
FDA2
FF63
FED8
FF34
00D4
012C
0173
FD69
FF56
FC9B
FF39
01DC
FCAF
FCE4
037A
004C
FF45
FE38
02CE
FFBC
04E7
0138
FD42
FF59
01A3
04B6
FFB1
00B3
01C7
FF05
0105
00A9
FD55
00E1
FF26
0003
FB9C
FB05
02F7
FC2D
FFC0
FF62
02FC
FDE5
FC72
0387
FFC8
036A
FE99
007D
FEDA
037F
03D3
03DA
02A0
FD07
00E5
FBE3
0096
01C5
FE05
03F1
FDA9
FD72
FFFE
0133
02FF
FCD2
02EF
FD1A
FD48
0308
FD68
029B
FE53
FDEA
00AA
03A5
019B
0073
00BD
04CA
FF20
FE1E
0459
007E
FFCE
FF1B
01F1
011F
01C8
02F3
025B
FE93
FDE7
018E
FD75
FFF0
FC70
FDC8
FD5F
03E4
020A
0266
034C
FEE7
0305
FFBF
02B6
013A
FF08
FE7A
0297
FFD5
02BF
FEB7
FC24
FE33
02DC
FC65
FF71
032F
037C
0022
0318
FE17
