03D0
FFB9
FCAB
FEB3
03B1
0331
FFC6
00C8
0327
00C2
FD7B
02A4
FE85
FD57
FEC8
0015
FE60
00A3
0113
FCD1
FD6E
0107
FD1D
FF0A
0216
FEBD
FC18
FF50
FF3A
03CB
01FB
FD58
0214
00AA
FE99
FDE0
016B
0070
0096
02B8
00AF
FE50
FFA6
FFCE
0221
FCD3
032F
00C8
FE9A
030A
FF84
FFD5
FE39
01BD
FFA6
00DC
FEE6
0394
FD01
019C
FF01
FD69
FD72
014A
FE28
FE00
0255
0350
FD4E
047C
FFD9
0284
01BE
01FB
FD58
007E
0135
0205
0098
03E3
FE76
0176
0075
006F
0180
03C4
01C3
0303
FC60
FD24
FF76
FE85
FE45
FEA6
010B
00D5
0296
01CA
00C2
036B
0388
019C
FDFE
019A
FCAF
FFF0
FE73
FE98
000B
000C
01ED
FE17
0394
FD82
03B7
00D1
01FE
0296
009D
FEFB
04A2
0210
04FD
0047
001B
02D8
FB63
01A6
FDE8
007C
FDAB
FF0D
FD7F
016D
FDB9
FD98
0014
FB2E
FDED
FF1E
0087
00C2
0090
FD22
FF4B
FF25
0151
FF29
FEF3
FDC5
FDC3
FFAF
FDEA
0418
FD62
07DE
FD29
FA15
FB09
FBB2
F9B2
FAFD
0181
0198
FEEA
00F3
FEDA
0395
FF9D
020B
FED6
00C7
FE8E
0460
0198
FDEB
00A5
FFCB
FE17
01A5
006C
FF74
FDC7
FECA
0088
FF08
FB60
F5D2
F85F
FB0C
FF2E
000F
030B
0071
FE40
FF3D
FEDD
FDF6
023F
FD9B
FDD6
FE84
FF85
0179
FE90
FE01
FF16
00A3
0106
FD4C
FE06
03F2
0039
FFE7
FE53
F1A5
FBF1
FD4D
0043
FF20
FE5A
0302
01AF
FEB1
01C6
FCF2
FCF4
0153
04AC
FE3C
0432
0354
FD4A
FDFD
02B8
FD2D
FCDB
0502
02C2
06EF
FFD5
FECA
FCE9
F482
FDFE
FC6D
FCEC
040F
FE07
FBDF
0191
FCD2
03EF
FD4D
FF12
0253
FF6C
00C8
FF2D
045B
0277
00F2
FE35
0424
FF1E
037E
05B8
0802
FBB5
FD42
F936
FA16
F938
FE2E
015E
0167
FB80
FFE5
0392
FE8E
00F8
FC28
FFDC
FC35
FDFB
FFE7
FE5F
FE35
FD5B
FB84
041D
FFAF
0232
025E
03C8
01D9
00F2
FAB2
FA31
F949
FC0E
03E0
FCD9
FF05
FC63
0012
02BA
FCF9
0129
02BE
01AC
FC8D
FDA7
FD95
FE43
FAF1
FFD6
FB36
FEB2
01E8
0385
0269
06AD
005C
FE93
FCC7
F65D
FB29
FFBE
0355
FE3E
0264
F874
FDDA
FD52
FF7D
FF4B
FD16
01A9
040E
FED1
FBF8
0168
0150
0097
01FA
0076
00AA
0431
02D7
0194
03A4
0127
FBB2
FF10
FCC8
02B9
00B9
FF3B
FEF6
FCD8
008C
FCC7
0172
0097
FE09
020B
00FB
00DC
FF50
0088
FD73
0178
052D
039A
FDF2
05C5
01EE
037B
FC46
028B
0025
FE18
01D0
0243
0291
FDF3
01AF
FDFD
FF8E
FC76
0031
0259
FFD5
018A
0114
FCDB
FC25
FFBE
FB14
0165
FDB3
01AA
FE90
0218
016D
04FD
0173
0296
FDDD
FF61
FBE4
FD43
01F5
017D
0033
01BC
017B
FDDE
016E
03AE
0381
02B4
FE22
023B
FD77
FBE3
FBC3
FFCD
02D1
FE42
01B3
FD02
020B
02D4
006D
0056
FF1E
FD62
FC6D
FEAD
FF68
FE07
FE34
FC02
005C
008D
FDD8
FE88
FD26
02A8
0198
FDD2
FFBF
FC77
012E
004B
00D8
016F
FFDC
013E
FCA3
076D
00C9
03E9
FE60
FC42
FF85
0611
04E6
031E
01DB
0360
0289
031E
0349
FC9E
FEB3
0027
FE9C
FE58
00E6
FF81
0087
FFE0
0288
0149
0038
0185
02C5
06C6
0061
FCD2
FA05
FE89
FFCD
FBCF
FE30
FF7F
00E7
01B3
0221
FF1E
010B
0296
FFD1
011F
FF03
FD3F
FDC0
FF6E
FF12
FCB3
0433
FAA3
F9E7
FB50
01DC
0186
FFF8
FDDD
00AE
01E7
0035
FDEB
01B4
02FE
0103
FF30
038A
0259
0104
FC47
01A2
FDE9
FBBA
01AE
00DD
000D
01F1
FE20
00C5
FC1D
0093
FCD0
FF47
FD8A
0147
FEA7
FEC4
0003
FD7B
01B6
FF33
FF40
FF8E
FFCF
0548
FF8C
FF0A
FFC0
FD85
01E2
015A
FF29
FD5D
007A
FFB3
FA15
018F
FD92
FFEF
FDC7
FC2C
019C
FFD5
0134
013B
0088
00B8
FE81
FB72
FCFE
FCF4
FF8C
03CF
01B8
FF02
FDB2
00AB
FFA3
0021
FF1A
0194
FAC0
FE83
0158
FEDC
0098
FD4E
038C
FDDF
FD9F
0040
FFFC
FEAE
016E
01E4
03AC
FF44
F944
FCFE
FBA7
FCD3
013C
FFE5
03F2
0252
FD5A
0289
FD2E
01B4
FE4A
FF99
0101
FFED
FF5B
FE67
FFF2
FE4D
FF7E
0163
FE9B
FC39
0369
FFFF
0268
001D
F9B1
FB68
0146
FD0E
FD44
01B5
FFD8
032A
FD69
FCCE
0003
00EC
0153
FDC2
FFC9
0130
FDCB
FF84
FF8E
00B5
02CD
029B
FF59
FFD2
00C3
FC2E
FC49
FBF5
008F
01C8
FBAF
01D5
FC8F
024F
0233
FD52
0098
0307
03EC
FEFC
01A5
FFED
01E3
FEEC
01B3
FDBC
FB64
0099
FFA9
FDAD
FC3B
0086
03C2
FC39
03C0
FFB4
01A9
FC4E
FCBD
FC52
FF5D
FD35
FD14
0167
FCF3
029D
FC44
02F1
FDF0
FE56
FD76
021A
FAB3
FCD4
F8FF
FC26
003D
02DC
FBB8
FD89
0033
00C2
00C8
00B7
FDFB
02BD
0083
02E2
FFBB
00CA
FE61
03C1
0091
00AB
FCD2
FDDD
039E
FF45
02EA
FC57
FE06
FF91
0121
FF92
0321
FDED
FD0B
FE3E
FEBC
0100
030A
00CA
026C
FD49
0143
03DA
0044
03EA
011A
0326
FC56
025E
0160
0183
01BE
03A7
00DB
FECD
FC20
01B1
FCC7
FE95
0268
FC16
FEA9
FD2F
FE57
014B
02BC
FEF6
0058
FF3E
FCF1
FD10
FE33
FC66
