01A5
FE28
FFCD
FCC4
03AE
FE99
FFCF
FEEA
00E5
FD88
FF3B
00BF
FCD7
026A
0053
FC6E
FD5D
03E2
00BA
0061
FD6E
0113
014E
FD02
02F6
FE36
FF9A
0243
FDA1
0344
FDEB
02C5
0321
FEC9
03B9
003E
0250
FCEB
0235
FEBB
0352
02FB
0082
FDB8
FC99
FBE5
FD07
FD8B
02C3
FF4B
002A
02C1
FC9D
03B9
FF7D
FD0F
018D
039A
FE58
0362
FE13
FC84
000F
00D3
FDFC
FEB6
FCEB
000B
0224
016C
FD14
03B7
00A5
016E
FDBC
0124
FBA8
FCE6
002D
FD84
FE45
FFBE
FE48
012D
00E2
FDF5
FCBB
0298
FF03
00ED
0008
00FB
02C7
FF13
FF86
FD13
03D8
FDBA
FAEB
FDA2
FE43
FF10
FE0F
002A
013A
FF67
FF4B
0399
00A4
0017
007C
00DE
FE74
03B9
03A2
0056
FC3C
0087
018A
0094
FEC9
0107
0422
FE9E
00B1
0349
0016
FEE5
FD88
FF90
01B9
00CC
00BF
FDD0
000D
FF56
0087
FDA3
FC93
0150
FD71
FF4D
0219
0099
02F5
0017
0254
FE95
FDBF
0268
FDE6
FD85
FFB5
FD60
FFD4
007E
0221
0062
FC96
FD3F
FFDE
FBCA
01E7
0433
FD0B
0091
FDC1
019D
FE12
00BA
01AE
FD62
0005
FC2A
0206
FDFA
0055
FBFF
FC93
FF91
F9CF
FE14
FE84
FE01
FD27
0190
00A1
FE20
FDCE
FBC6
0084
FEFD
FDFF
FB1F
FD6A
0195
0052
025A
02F5
FE14
FF6F
FE3F
FA03
FF8C
FBD4
00AA
FBA6
FBB5
FFD2
FE5B
FE8F
03C4
00EE
0145
FEEA
0114
009E
FB86
FE35
0199
FD6C
FE4F
0206
03AB
0298
03EF
FE19
FFCB
01D9
013C
FDCB
FAD9
FC36
FFAC
0046
FDB6
FC6E
FDAE
FC57
FF53
FFA8
0324
FF93
0156
FC2A
FFA6
FFE3
FC91
FD94
FCEF
0092
FFF1
0297
03B2
FFF8
0355
0036
FEEE
FF4F
FBB5
FEA5
0101
002E
FCBD
FB2B
FB99
FC51
02AA
0463
02AA
0151
FD42
014F
FE71
FD18
004B
FA33
FFAC
04F6
FD86
000D
00B5
02C2
FC3C
FB60
0085
00C4
FD5E
00DC
FFEE
00E9
FF7D
FE63
FA37
FE7C
081E
04AD
0586
0192
00F4
FF86
FD7B
F9C2
FF76
00C2
FF37
0265
0302
00C9
FCD3
0350
02EC
0055
FADD
FC88
FB51
FD7A
FEAC
FBF7
FC4E
FC0A
FD05
0096
03F6
02FB
0488
FE5E
0143
FDB6
0073
FE30
0011
0081
0298
FF17
03E0
0343
FFB0
FFF5
0018
FC28
020B
FD0E
0105
FE17
FD9E
FCEB
FF78
01CA
FFCE
06FD
024A
046F
02E4
FDB9
0247
FB86
FBF5
FAA8
FA65
0334
FDDB
FE40
014D
00C3
0056
0198
0382
02D6
FE54
001B
FFBF
0198
006E
FF76
FF95
0110
06A7
008D
00BD
064C
0312
0021
FB4F
FDE5
FADE
FDB5
FD0C
00A5
FF11
02B3
0083
005C
0050
FFF2
029A
0323
01C9
FE56
FFBD
FEB1
FE34
FE7F
0364
0022
008C
00ED
001C
047B
010F
FF83
FBB2
FE9C
FE90
01C2
0153
044C
FF76
FD80
0394
0277
033A
02B5
0352
FED1
FE0A
006D
FD3E
0117
011A
05EB
02E3
015A
01F2
FE00
0002
05CD
02D9
FB08
00C0
FB92
02C8
FF22
FE4C
00AD
FDDA
02A7
FC83
0071
FFBD
018B
0009
020E
FCC1
034E
0011
0522
007C
FF46
FF37
0281
02FC
029B
005A
0254
FD24
FCF7
FE81
FEC2
0479
0379
03A1
FFD8
0499
00C1
FC61
0224
0277
FF40
FE22
FC08
0398
FE84
FD3C
FEA8
FE91
0379
02F9
0495
055C
063E
FEFC
026A
FE46
FBEA
FF97
0505
02C8
0745
0013
FF87
0554
0139
01B4
FD8B
03F3
014B
FF52
01FA
FED8
0228
01EB
FE70
055D
0253
03FA
035D
0345
FC78
FC6A
FAD2
01D6
0292
FE87
FE22
FE40
02BD
0485
0218
FFD9
035A
FF26
FC0E
FEB4
FC30
0378
FE5E
FBEA
0222
0063
FF2E
FEC4
01DF
0342
FF2C
00EA
F9E1
F8F0
FFFA
FBDB
FD99
00B6
010D
009D
0305
0627
0690
01D0
FEDA
FFAB
0092
00FD
0063
02EB
0027
00A6
01D9
FD74
FF57
0001
FD7D
0142
0116
FEAA
FDA7
F9C0
FAB9
0069
FCDD
FAAC
FF76
FC24
FCCD
FF80
FEFF
FD16
FE5A
038B
0010
013C
01D7
03B0
024B
01B7
FFAD
FEFD
FBE0
FAB7
00F7
FCB2
FF70
FC85
FEED
FB98
FF2B
FA73
FD11
FE0E
FC71
023A
FE67
0011
FE31
00C7
0081
0138
FC5D
018E
FD29
FD04
FE77
030B
00B0
0002
FF44
F9F4
FC4F
FAAC
FADA
FD47
00DC
FB2B
FB6F
FF64
FCA7
FF02
0373
FEA2
FED3
FFA0
FEDE
03DE
040F
0346
032F
00DA
0381
0123
FDDB
020E
FFD7
FDB2
031B
FCDC
FF54
FF87
0378
FEE7
FC2E
FE14
0023
FC35
FB08
FE4E
000D
FFD3
FDA8
FC35
FD33
00E2
0023
FDE6
FC6A
FEFA
FDE1
019E
01AA
013F
FDAE
FBBC
FB7D
FFA2
FDE8
022C
FCCD
FC9C
FF53
FDD0
FD51
FDDA
FD62
FC85
FC32
FBAD
FEFF
FB92
0089
FE36
FEB4
0352
FFBE
00E3
0060
FC70
FDA0
0142
FF63
00EB
00C0
0461
FF51
FEDF
03A5
FFFB
FE7D
FD3C
FA64
FD8D
FFE9
FC40
FBFC
FD83
FE22
FE86
01F2
02A5
0177
000A
FD33
00CB
FFBA
FD59
FE7B
FD70
012F
FC58
0179
FD52
02A7
0137
FEC0
FE15
FFFC
0053
FF70
FF5B
011F
FECF
FDC9
FE76
FD4C
FD23
FE89
01B7
02E6
031E
0055
FD1F
025A
0213
00FC
FE09
02C1
0142
029B
FED5
FFCE
FED1
FF2F
FE5D
0252
FFE0
03DE
FE96
FDD7
FE2B
FD65
0169
FDE2
01DF
02CF
0154
FFDC
0140
