FCF5
FDCB
FFB0
00AA
FC07
FCCE
0376
017D
014D
01F0
038C
FFDC
01E6
0387
FFD0
FCCA
FDD4
0076
FCD6
00BD
01E6
FF26
0314
FCE5
FFD2
00EF
FD40
FF7D
02B9
00E6
FC7E
03E9
03CD
0341
032D
03A3
01F4
FC0A
FF81
FDEB
0052
037E
03B8
FE8F
FFB4
FCE8
FD7C
FF4F
FD6F
015E
FCDF
02CA
FC7D
FE2E
02D6
02A6
0343
00F8
FC2C
FF36
01AD
01EA
FE60
02F4
FE62
0173
02FF
03FD
FD20
0594
033D
02DD
0519
FB7A
FCE9
FD7D
FFD5
01B3
FC18
0392
0379
FC95
FD63
0190
FF05
FC2A
FCC5
011F
021C
0402
00B2
004B
FD05
009D
FE78
FE39
031F
0247
FC40
FE89
FEAA
F98F
FC86
FBBD
FC3B
FEF8
0232
01B5
FF70
FF96
00D6
FF1F
00FB
03F7
FFD4
0278
0384
FFE5
05AC
FF6C
0111
FBBD
0268
02E0
02DE
01FA
FB83
FAAB
FFE6
0252
FC7B
FC16
FE92
FE27
FDBD
FC7A
0171
FC67
01E3
01D7
0260
FE43
0229
040F
011C
0759
02AB
05E7
FFD2
FDBB
FEEF
FDDC
00F2
FFD3
01B0
05E5
FEE8
FCDF
FACB
F885
F44B
FC3C
FC9F
FC69
FFEA
0150
FCEE
FF44
0007
FF3E
0196
023E
0404
0477
FFE1
FF57
005D
005E
FF6D
012C
FD28
012C
011F
FCE7
02F2
FF78
FFB3
F64B
F825
FA6D
0111
FD7D
0133
00F4
026A
FC8A
0228
FCCE
0259
0235
018B
FA94
0195
02A3
FD0B
0271
0006
FC07
0018
FC3C
015F
0148
0466
FE22
FD06
F80C
F6EA
F702
FF2B
FD12
FFE3
03B0
FDE7
033D
FFDE
00B5
FE86
00CF
049D
0204
FF5A
04F8
F92E
00C1
0043
FA8C
012E
FFBC
0818
02FD
0047
FD49
0147
F8DB
F7F1
F904
FDF7
FF96
FF7F
01D4
0024
FE7D
016F
FF18
0234
0368
FFBE
FEC2
FE2B
00F1
01AC
FA6D
FE7F
FD16
FD53
03FA
0600
0B71
014F
FF20
FB3C
F814
FC13
FA63
FE8D
0361
FD68
FC7B
FE1D
FFDC
0152
03ED
01FA
FC69
FF44
03BC
04ED
FEB1
FA71
FB7C
00D7
008B
FE91
0363
07E6
0294
028F
FDAA
F91A
F97E
FD6C
FAA9
0323
0170
016D
FEEB
FE5E
FEF2
FF69
FD67
022A
FC56
FFA9
01C6
FD20
FE47
01BD
FF6F
FEBD
FDF1
0323
03E0
03F7
0120
FCC9
FB00
F9CD
F999
FD3B
FAB3
02B5
0297
FF8B
FCB1
FBFB
FED8
FCDD
00B1
FD35
FD97
0564
03CD
FA50
0264
02C1
02AE
01CF
FD05
05F0
FF3C
056F
0356
FF72
F953
FDD8
FE4D
FBB8
0315
0266
01BF
FEA7
00D7
0200
FC50
03CB
FE3B
FF7F
FEDE
FF3A
FE8B
FE71
FE14
FDFF
0360
FFA5
048E
FE9D
0461
071F
FE74
FEA9
FF86
FEC4
FF13
05F9
0492
00F0
FCF3
FE7D
055B
FD26
FEF4
FEB9
0257
0256
01A4
017E
01E3
016D
F99A
FF7E
FBAE
0025
FB3D
028A
FFBA
0456
FF23
FBE9
FDC2
FDCE
0352
01A1
FBB2
01A5
028C
007C
010F
FCEB
FDCF
FF24
FD48
0066
040E
FD1B
FCEB
FD06
FDED
FD42
042F
FC58
0104
FC82
053A
0455
FEBE
007F
038E
FF93
FFDD
FDBF
0231
FFD8
FF33
01C1
0141
005C
FFCD
0086
035F
FF31
01D2
FC6F
FFAB
03A5
03E0
03FC
03B8
03E2
03D7
02EF
FD01
01E9
F998
08E5
F887
FF7B
05AD
FEC7
0015
FEE9
FFFD
0085
0184
FE9B
0156
03C0
FE2B
033B
FE07
FCF6
FFB8
0131
FD48
01AC
0004
022C
FEF6
FE4F
04B0
085D
0074
0168
FE65
FDDE
0094
FF7D
0635
043B
00CA
00C5
0204
019C
0332
FCC3
FF87
0351
FF61
FC01
FDDF
FCEC
FCDC
FDDE
FC22
FFF6
F95C
FAA7
013D
FC8E
014B
FC38
FE30
014B
FEE2
00E5
0240
047F
FC66
018B
033C
FD99
FD3D
FDFF
FEAA
FC53
FC23
FED3
FAF8
FD8E
FF8D
FC9E
00D0
002D
0141
FEB0
FDB0
FC4C
FE9E
02B1
006C
FF01
FEB8
FFD2
FE9F
011E
FCA7
040E
FEB6
02DA
0118
03AB
FD95
0048
0211
FC07
FAF0
06BE
FEE5
00DA
0623
FD35
028B
0101
03D9
041D
014D
FFD7
FF53
070A
FDE0
FEA0
02A6
FCB4
FE79
0255
FEB9
03CA
0227
0066
004F
FF24
FDF8
0109
0013
FBB5
016C
008D
FD67
0041
02A1
FF93
FBBA
FD8A
0088
03EC
F8EB
FF3F
02F7
FA87
FB97
FF3D
FD13
FEA2
00A3
FD3A
01A9
FD93
FF14
FFA6
FF7C
FC5A
FED6
FBC1
FF45
FCC5
FDE0
03E6
FE67
FC60
FB84
FF36
0302
FF1B
FE8A
00CA
FEEC
FCE7
0328
FCDD
FCDE
FDD6
01D3
FCB1
00EC
01E6
004B
026E
0039
0062
039F
FC10
05EC
0214
05F1
FF5D
0839
FFEE
FB9A
FDC8
0091
FBBD
012F
FDE5
00FD
0174
FC98
FD9A
F96D
FFC5
FAFD
0275
018B
FFF3
FE92
028C
FCBF
0213
0211
FED1
FF35
FDB4
044C
0316
FEA4
FA2E
FBC6
043A
FE53
001A
0118
FF9A
0128
0136
FF31
00A3
FB56
011E
00E6
FC42
FC22
FD73
FF35
03CB
0353
01F9
FC6A
0435
0438
00FF
0401
01DF
0103
0188
FE5D
FE38
FE4F
F55D
FB93
FE68
FC48
00F7
FF27
03AF
FFC8
FCA4
FCA9
03FA
FE21
0350
FED9
FF99
FE38
FD1B
FF10
006E
FCC7
01CF
FF1C
0208
0150
0063
0024
FB52
011A
FED8
FF8F
FE23
00ED
FF14
0083
FC0D
FC95
FE16
01B5
FFFF
FDCE
0330
032C
01B6
FED3
FE2A
02F0
031A
FF20
023A
FDE7
FEB2
FFC5
FD66
FECD
01D9
0138
0220
030B
0051
01BA
0117
FC30
FD3B
00AA
0083
FF93
FD38
FD70
