FC2F
FC9A
00B1
FE0B
0309
FE37
02B9
0273
031B
0339
0036
027F
0307
FCDC
FE54
02F2
FFB5
FDBE
FC14
0323
03EE
01AC
01AA
0261
0147
000A
FF24
FEBD
FD25
0345
FCDD
00D5
032A
0189
0009
FC98
FFDB
01A9
0317
FFA4
FD1D
FD48
FEF3
FD16
0051
FF8B
0041
037B
FC2A
0300
0055
FD2E
01C1
FF44
0285
0342
0344
024D
FF64
032B
03F6
028F
FFEF
FEA2
0116
FF04
FB4E
FCE2
0385
00E7
FFBC
FFC0
FE0C
0232
00BB
016A
FF9C
FD26
00E6
FD4F
011D
FFE9
FCAB
FC57
FD59
027F
FEA8
0063
0324
FD06
FB39
FD7D
01A7
FD24
FE5B
037C
FD63
FD3A
03B2
0379
FFBA
FEDE
F80C
FDD2
F966
01AA
FA6D
00F0
FDD9
040B
018E
FC2C
02D3
00D8
011E
FED3
FCC4
0121
00AD
00FD
FC41
0042
0216
FB59
03DA
03F3
FB0A
FF0B
FCD4
FEF1
0112
0025
FE01
0172
0271
0207
0397
024A
FCDD
03E4
FFC3
FEAF
0139
0134
FECE
02D5
0245
00A5
041F
02CA
03FC
FF07
00BB
FDAA
FFF2
FF00
FD1B
000C
00E1
0059
02A6
FD6C
FD7C
0464
FFBB
02FB
0035
0110
FC63
FC76
FEFD
FDD7
FE1A
02A5
0002
FF7D
047F
0133
FB79
FE24
02EA
0065
FF06
022B
FAC7
0012
FBD2
FC2B
FF25
FFEC
FCDA
FFB2
FA41
0386
FE48
00B1
FDFB
030E
FE91
FE98
FEC6
034B
02AB
00EF
011E
FE83
FEDC
FCA0
FF55
FF01
FB76
FEBC
011A
0605
FDB3
01B3
02EF
FE4D
04C8
02AE
0478
FDAC
FF05
FF3A
0072
011B
01F0
02EC
FC61
00C8
FE8A
FF37
FE9B
05F8
FD51
01A7
FD8C
FF0D
FE32
0036
FB6A
F9D2
01D4
FDF7
FFEE
FEDA
FBFF
FC98
FCA8
006A
0256
FE5F
00F8
FE67
FD31
FDBE
034D
FE90
FADB
03F8
FC69
FF37
FFC9
FEDD
FF5A
FF25
FC2B
02BB
FF12
FFCA
0007
FDE6
008F
FB0E
FE2F
00C1
FAA8
FCB9
0097
0172
FF48
FF0D
0118
FFA9
FF0F
041F
FB3F
FF4F
FA4B
FEB4
F7E4
FF91
FF4F
FA86
F7DF
FC88
FD85
0561
0081
01E0
01B2
01B2
00B5
FFA5
F63B
F90B
014A
00EF
FECE
FECD
0395
02C4
F95C
FC52
047E
FEEC
00DE
0492
025D
0032
029D
FBD3
F992
FD7E
FE97
0412
FEAA
021B
018E
023F
FCBA
FC17
F35F
FB8C
0130
0074
03B9
006E
FD20
FFB8
FDB5
FF94
FE66
013D
0497
FF37
032B
036F
07B1
016E
F826
0327
0145
FF8B
01B2
0458
003A
01BF
02CE
FD21
FCE0
F992
FFC8
003F
FD08
FC73
FD19
FEF3
FBE1
FE20
FEE3
0261
FEC5
0166
0153
0466
FEC8
FE54
00E2
FFCC
01CC
0148
0602
FF9B
0309
FEF2
04A9
00FE
FF2F
FEDE
01D9
FE35
0248
0055
0226
FFC5
FFB3
FECA
0258
033A
077D
FF74
02BC
FF30
FF22
00D2
FEBA
0103
054A
0307
FE02
068F
FFFB
01BD
029A
FEF9
FEDE
FF91
025C
FE60
FF33
02D8
0203
0155
0588
0276
01FB
FF71
0136
0124
0492
032F
003B
FFFE
0015
0413
02EE
0607
FF23
074D
0518
FF86
089B
0199
FB8B
019F
0304
0369
0204
FD2B
FE95
01D3
FCBC
FD3F
021D
0242
0501
FDE3
01FC
014F
0293
FEA3
0039
05D1
05F2
076F
07A1
0144
04E4
0017
0126
030E
FD84
0209
FF3B
02AA
00AE
0152
FE09
FC57
03EA
01F8
FAB0
01A1
0349
01D4
02D4
FF97
FEA0
0083
0151
086F
040D
FFA7
041E
FA13
FF39
FFEE
FE8D
FCA1
00B0
FF20
FD61
FC6D
00D3
FEAC
FECC
FEC8
04AD
FD2B
FD80
014B
00C3
FF56
F983
FB11
00FD
044D
02AA
00DA
0481
0237
FDAA
FF43
016C
006F
FBC4
FD59
FFB0
0169
01D2
0391
FF73
FEF9
FFF7
FE77
0176
FFA3
FF9E
FF7A
0017
0198
FD61
0361
FAAC
FDF5
0498
03A2
03FD
FAC6
00EE
FC88
F7A3
02DF
F90D
FAED
FF2A
F9C5
FF85
FF8A
FD82
0142
FFCE
FC6E
0260
FBAB
FDE5
0083
FC84
F982
FA33
F911
FDFC
FCC0
FDC6
FC27
0406
0078
0348
0181
FB60
024A
FB22
FD58
FD85
FE40
0348
FCD3
00DC
004B
0266
0302
0037
FB6D
FF3E
F8DC
015D
034A
FF35
FC42
FDFA
FED6
FAAD
FA3C
FC88
F9C2
FEC6
FDBA
FB8B
FE1D
FCB3
FE86
FCBD
FF60
FB95
FD0D
FE01
FFA4
0276
FF4A
FA13
FB49
FF2C
FB88
0162
F97D
0418
0401
F887
FBF0
FD09
FAC1
FF1C
F9B3
FAD3
FF5E
FAF2
FEBD
FD3E
FCF1
FF0E
FA12
FE41
FCFE
028E
02E4
01FF
004F
FD0B
FA03
0311
02A7
FDED
010F
FE0D
0045
FE20
FC6F
FD84
FFB0
FB2D
FDD8
FDC0
FCC5
FFC7
056A
FCA6
FD8F
FD91
FC76
FF4B
0112
FF80
FDE3
FCA4
FE91
00AE
FF6B
0070
01AD
00C5
01A6
FBD7
02BB
FF76
0068
FAB2
FBC6
0053
FDFA
FC03
FD72
FB32
FE55
FF10
FF1A
FF62
00B2
FE48
FD81
030C
FD71
FDB4
FF14
FD49
013F
FEC9
FEB8
FDA5
0215
014D
FECF
FC7E
00C6
FCA1
02CA
FE75
FFC0
00C5
FD76
FAC4
FD66
FC8E
FDD6
FFE6
006F
FF39
0226
FE44
FD03
FFD4
0033
0390
03BD
FFE2
030F
FD1C
0272
00E7
FAEE
FC7E
FA16
FACD
026C
FB2C
FC58
F8BF
FCEA
FFC4
FD09
02F4
FDCD
FFA6
0383
FEE7
0314
0084
FCFB
0281
01D5
0235
FDA7
03DB
FF13
FE86
FD61
025C
FDB4
0052
FBBC
FAB0
FD45
FC18
FBEC
01B0
FE51
FCBA
FC9F
0144
FD40
01B3
03F3
FD5D
0131
