0325
FE1F
021D
0201
FE3D
FE00
FDAB
FEE0
009A
FE28
FD6A
0175
00EE
FF5F
0115
0084
010D
0110
01EA
024E
FF8E
FF7C
03A8
FEBF
02BA
FD59
FFA8
FC9C
FD9B
0170
FCA1
FDEB
0041
0172
0359
01EC
FC3C
FCFF
03D1
0356
FC31
0335
FE64
009F
FFFC
00D9
03D9
00C5
0100
FC27
003B
027D
0037
01FA
FF76
0138
FE64
0099
FC0D
02F0
0158
034C
033A
FF7B
0216
FCED
00FA
FD79
FEA8
FDAA
0054
03F6
0702
0355
FC0C
0259
014A
FE53
03AD
02E9
00AA
FD2D
FECF
FDEA
0123
FD59
FC5B
0400
023D
027D
0101
FC5E
FFD2
FB7C
FC38
FC61
FFDA
02A3
FF5F
0136
FFE8
FDB4
054D
033A
FF2B
FD17
010A
FCA3
FE85
035D
FC44
FFAE
FFD4
FF19
02C1
FCD2
FFA7
FEF2
FC2E
01E9
FF62
FDBF
FDD6
0156
FEF6
01BC
FE56
0046
FF19
FE6A
FDF0
FF6A
008A
0151
019E
FF78
00D6
FE5B
FE07
038C
FCD6
0246
FC46
FE10
FE39
04D5
027C
FF3F
FB3C
FE2E
F8A3
FD78
055F
03EF
0390
FFF6
FA64
002F
FFE4
011C
FB53
01D1
FFE7
FDFF
035A
0027
FBAA
0366
FFCC
FF5F
0403
02FF
002D
011F
0629
0027
022E
FCDE
FF8F
FFD1
FE72
FE10
0580
FE34
0019
004E
FE29
0094
01FF
FBDB
FDD5
FE28
FEC8
00E1
01A6
02A7
023E
FFD9
FF92
FF5E
FD60
FDF7
FCA9
02F2
F7F9
0267
0646
01B8
0313
FFA7
0130
FAB8
021A
FEB0
FB89
FFDA
0143
FB87
012A
FFBF
FF91
FD7B
020A
FC10
FC0A
FC28
FFDC
01E3
FFED
FD61
FF0E
00DF
FD24
FEBD
0158
02F0
FFF8
018F
05D2
03EF
FA41
014A
03A5
FF1F
FD47
06A4
FE45
FFF1
0511
03AC
FD76
FD90
0256
FF64
FC51
FF0E
FF5A
FD6B
03CE
02B3
FEA9
0150
00B4
FDF9
FC1D
01C0
0369
FF6E
FE59
0618
0364
0676
026B
02F5
059B
0231
04EF
06C9
0284
FF22
00D0
0009
FE72
0158
FCB2
FD52
F9C9
FE3A
FE84
FB2D
FEAE
00EF
00BD
FEF4
05B7
FD9D
FDFA
00F9
FEB8
046B
05AE
0488
06C2
07B9
03FB
06A7
FF49
02FB
0105
039C
FF81
FD33
FDBC
0126
F970
F820
02BD
FCF4
FF70
0237
FAFC
007A
010D
0116
FD8E
0454
FBDA
01C2
0400
0226
040A
FF90
01EE
FEE7
0305
FF43
0120
00E0
FFCA
01B0
FE28
FF3E
FF00
00A2
FD68
00DE
FCAA
FC55
FFE2
03DF
086D
FE09
0506
0204
0005
FA28
0337
FD67
FD9C
0041
FE53
FDCC
0254
FDC3
FFBA
027A
004A
001C
FAD6
FC73
FD5A
FF23
FD78
02C8
0278
FE5A
0504
05B8
031C
037B
FF07
02AC
FE8E
02A9
FE7C
FEC8
FAE6
FD0E
FBE8
FFD3
00E4
02EE
FD0B
0229
FD3C
015C
FF00
FC6B
FB5B
F963
FD98
0268
00F3
0059
00AF
0536
0307
0752
0052
0019
FCBB
FA82
FC6C
FCB9
FB5F
F786
FD15
009D
FFA1
030A
FF78
0368
FECE
027E
02A7
FD56
FEE3
F979
F923
FA6A
03F5
00F4
0347
0710
045B
FF36
FF74
0218
00E6
FDAC
04E0
0263
03CA
FADC
00C6
0176
FF29
FDE3
0233
FD9F
FC3B
001C
060B
076D
FB03
F954
F817
FE7C
FE95
FD52
00E1
FF31
0576
FE3C
05BC
FE04
04E8
FC4F
FEC2
F81E
F9C4
FE01
FCEA
FFA1
FC78
00FB
0048
0161
008A
FFE1
0303
0183
F909
02F5
F93B
FB30
F5E0
FCE0
008B
FFEB
01A2
0192
031A
FD02
FF31
02D5
FF7C
F79A
002B
0404
FD4C
FF46
FDFB
FDED
007D
FC3C
01BA
FAD5
FFFD
0070
043E
FC50
0188
FFD1
FC9C
FE9A
FE6B
0240
028A
01CC
FF8B
019C
024A
F6B1
F8E0
F876
F8A2
FF6D
FCE9
02D1
FEA8
0354
025A
FE9B
FF27
FDA8
FD88
02FB
FF1A
0091
0332
FB69
0225
F87B
FA43
028B
FFFE
FEE7
FE0B
FD1B
FC75
FE42
FBAA
FC09
FBBA
0013
006E
FDF0
00DA
00CE
0323
FE3D
013D
FF9A
FB62
FF34
042C
0257
00E2
FBD8
FD7E
FE62
FA32
FAE7
045E
03E8
FD97
FE63
0166
FFC1
FBAB
FD57
F8D0
F7BF
FDDD
FE06
00E3
01E9
FFC5
01FE
01A1
FC21
FFAA
0080
FD0A
0209
FEAE
FE44
019F
FE6B
FF7E
FE66
F9C4
FE58
00CA
FE86
003E
F5BD
F85F
FE88
FE16
FAFC
01AB
FC9F
02FD
0170
FEF5
FFD4
0015
FC90
0109
FFE9
05BE
0259
FF73
0031
02B9
0303
FBBA
FCF5
0334
FE60
FB5F
FF1D
FCE2
FD9E
FB83
FE3C
FC70
FB3C
01E3
FFCF
02A7
FE90
007C
0151
FDF2
FFF6
FE76
0571
FE7F
FCE1
0140
0056
FF70
FFDF
FD3C
01F4
FFA5
0122
FD11
FDCF
FEF0
F990
FA67
FF4D
0053
FE86
FE05
FE1D
FF2B
02F4
FD3D
FE0D
02F0
FD5D
FCBC
02DC
FD98
01A4
FAFC
01FA
0281
02E1
FDD2
FFAF
FF48
FB53
F944
FE9D
FA2B
FF79
00F7
FCD2
FF6B
0426
FF76
0236
0203
FE71
FFDC
0122
FF84
031A
FC99
0251
FE11
FF7B
0227
0085
F8C1
FE1C
00A8
FF68
FE7F
F8DA
FB84
FC56
010D
FCA1
FB9F
02AE
FCAE
00B8
0362
FDA7
FC2C
03F1
00B2
FE1A
0061
0279
FDB8
0012
FE69
02F4
FD80
0350
02EE
FE99
014F
0264
0609
0254
FEB7
0568
0215
FE64
FEE2
FEC4
FF0A
FCA6
FC80
FDFE
018B
FFC1
FF4C
FCB3
02BC
02F5
FC31
FD14
FDEA
FC03
0040
FE2B
0106
FE6F
FE3D
0256
00B4
03F7
FDB7
00FD
0007
FE71
001E
0128
03DF
03A4
FEDD
02BB
02DF
03B1
