0140
FCB5
FD8A
01FD
032B
0279
013C
FEF9
032B
02A4
FD4B
FE39
FDB4
0264
FFA5
00AB
0341
010A
0106
0200
01C6
FEAD
030F
03BF
FF89
FC9A
FEF5
FF48
0019
FE11
014C
0271
0285
035D
0354
FDB9
FE0E
02DB
0090
0177
FDBB
0387
02E1
FF44
002C
0025
FC4E
0259
FEF9
0132
03E2
030C
FDA7
0171
FE6B
01F8
017B
038A
02E5
0096
FF39
FF8E
012A
007F
0001
FCD0
0089
FFCE
FF59
0127
0236
0076
FEA3
FC72
0112
FFE8
019D
FC8E
FF3D
FBF1
03DA
FCD8
FC64
FEB3
FF08
0061
FD71
0056
FD8E
023A
FF32
FE7C
FD9D
0476
03E5
0300
FF04
063A
04BF
00FE
014A
FF1E
FEE6
FED4
FBD5
FE85
013A
FD05
003E
00D0
FD0F
FFAA
FC6F
0180
FDC5
FCE0
0054
FEAB
FD77
03AE
066A
0263
01DA
0141
0661
0351
06B1
0702
02B6
0409
048C
FBF8
01D0
FCB4
01EF
FEF3
FA5D
021C
FEDC
FF79
009E
00A9
FFB4
FE9A
0030
008B
02B6
022B
04CB
FABB
FDA3
FECF
0141
0138
0267
01F0
04BB
FE84
0640
040E
FD59
0061
012A
FF59
013C
05EF
04B5
01EE
FF6E
FFF2
FF41
FEDC
01AA
0397
FD4F
FA8A
FE01
FFE1
0372
FD96
FE0C
FE29
FBED
01A8
02CD
0720
02CF
FDA1
FDDA
03B8
FC15
FD4C
0056
FD60
FB6D
00F7
FD65
FEB8
0064
02CA
FDC7
015B
0039
FD3C
05DF
FFF6
003C
FD68
029C
FE29
FFD7
0453
079E
FB09
03F5
048A
FF90
02D3
016F
0152
FF46
FEE5
01EC
035A
003B
FCFC
003E
FF5B
FD46
FC36
026E
059C
009B
FF5E
FFA8
0056
FBD1
FD07
016A
FEFA
0726
0453
068C
0431
00C4
0100
0700
FAE8
FC61
FB86
044C
FCD6
FE4C
01A6
FF4D
FC18
0418
FE20
002D
FD19
FA74
FA3C
FC8A
FDA4
FE2C
FD0A
F884
FCAD
021D
0035
FDED
05C5
02B1
0134
FF29
01B0
F593
FF5A
FDEE
0205
0367
037F
FDD7
FD69
FE4E
FE04
02AD
FD1F
FD3F
FFD1
FCA1
FEF9
FC85
FD87
005B
F77B
0623
015C
0579
03EB
0434
0190
07BD
0471
F5D0
FF64
FC40
0251
00F7
01D5
FDF5
FD7B
FE1D
FAD0
F938
FECD
FD5F
FE38
FAB0
0040
F9B2
02CC
01E6
FB7D
FC68
0312
00F6
0119
0B38
005D
057A
F782
FC72
FACB
00C0
FF8E
0132
024F
0266
0174
FC3F
01AE
0087
0140
FFC8
0334
08B1
00D5
0091
FF8C
0291
FC85
FEAC
0535
0020
074B
0400
005E
FC30
FA1F
012A
FEDB
02DB
0260
03C4
008E
0185
FE1C
FEA2
FEA6
FD38
FD73
0421
FF49
FDAC
049E
FBC7
0101
027A
FFC9
FB0F
00F8
04CE
0304
049B
FD09
FDED
FDD5
FFAE
FF3B
0396
FC59
FE06
FC68
0242
FBBD
001A
F7D0
FDBA
FF86
FF9D
FCC8
FE07
FD66
FFEB
019F
FDB6
00E4
0263
0411
014B
FCAF
FD27
FE86
FF9F
F9E3
FA16
01FB
FE25
FDA4
FFD9
FE6D
FE19
FFFA
0273
0383
01D2
FB5F
FB7C
FC0F
FDE4
03C7
01C0
026E
FFFB
022D
0127
FAE9
00DE
0169
FE15
FCA1
03E6
FA51
033E
00BB
03A3
FCF9
0318
FF73
0426
0433
0415
FF0A
FF48
FE9F
039A
FF65
007F
FEEA
FE52
0281
008A
FFEB
02CD
0382
FF6B
FFBC
FCDF
05B0
FD48
011F
0406
FBCF
FC9D
010D
00F6
FF2C
0044
FEA5
04CD
FD70
FA04
FC5E
FE20
0085
FE30
0098
0468
069F
FBCB
FC21
028B
FCAF
FA0F
FF40
FCC9
FF92
00F9
FC85
FC83
00AA
02A9
FF3C
021E
00A5
0169
04A2
02B4
0010
00ED
FCB7
00D8
FDDF
001E
0060
004C
0209
FD15
0257
0175
FD54
0119
FD76
FF83
FB3E
0149
0188
FF9B
0494
FC7E
01B8
00A4
FFA1
FF1B
03A7
FA26
FB22
010A
0123
0008
FDF3
032A
FB18
033E
FF80
FB98
FFB6
FE0E
02BA
FFC8
FE08
FAD6
01BC
FFF1
0898
059B
04A1
FD9E
FD44
FD1D
0178
00E6
076F
014D
0070
036B
0511
FCF0
FEBF
FF5E
0190
FFB3
0205
0180
0060
02E6
FE7A
01B0
FEE7
0284
0120
F8CA
006F
FE18
0382
028D
0207
023A
FCA7
0425
04BC
00D3
F722
0184
FEE1
017B
FCA6
0346
005F
0167
02E6
00F2
FB1D
FD01
0157
FF1B
02E1
FE16
FFF0
035E
034E
0013
01B2
FCA6
0048
FD12
0308
03D1
00F0
00BE
0015
0615
FFEF
0353
0234
0549
FE23
FD89
FFAD
0458
FEA4
003E
FE0B
FE0C
01D3
FFBC
FDCC
02C2
0087
0445
0418
FE63
0150
FF91
FF0D
02C3
02A2
FD78
008A
FFA0
0106
000E
0410
01E9
06D2
FDE6
05AA
FD19
FFAA
FE1B
031F
0584
FE5C
FE76
02AC
0256
0208
01FC
0145
0307
FD38
FDCF
01A8
0043
FF59
0022
FF66
023B
FDBE
FD8E
FE7E
FF3B
FDB8
00F6
04B7
FBC7
0602
FC5B
FFD7
FEB9
FFCF
FD42
046E
026D
FF7F
FD2A
FEDD
009A
02C6
FDFF
0156
FF01
FD43
FE5B
FFD4
FDBF
035B
08CA
02A2
031C
FC69
0317
0028
017E
0163
0023
00D2
FFA5
0185
0156
029C
FFF2
0197
FEDF
032B
00C8
016B
011A
FF9F
FE67
FE08
00FF
024E
FC3D
0246
051E
05C1
05BA
001F
0416
0666
06E2
03AE
0172
025A
FF15
FCB4
0134
FDB5
FE6F
02B6
FD0F
FE71
FC7A
0174
01DE
03CA
FC07
FE70
FC2D
FF97
FF76
FEB2
0113
FFBA
FE14
011F
FDD1
FE13
FE2B
FDC9
FD65
FC90
0183
FC36
011D
0350
0081
FDFD
FD83
02B6
0371
0123
