FC08
026C
FF57
FFAD
039D
FF26
02EC
00B5
031A
FDDF
0176
FCE0
030A
024B
FEB2
FCB9
0083
0311
02F6
03D5
0364
FE99
01DC
002D
FF04
036D
FE33
03D4
FD9E
037D
FD7D
FFC8
0033
0177
011C
0056
FEF5
FC9F
FC69
FF44
030B
FD58
015A
0146
FF50
03AF
00DC
00E2
FF0F
FE45
01AA
FC51
0145
0322
FCC2
0312
FCF0
FDDF
FC47
013E
02EE
FFAB
02A7
03DB
FF99
0225
013A
0669
01C2
FFDD
0258
011A
FD9E
FFA7
04D8
0250
0394
013D
0320
040F
01EE
00DC
028D
0016
0215
FE83
FF22
FEF7
015C
006E
0164
005C
0312
03DE
00AC
036B
052A
0184
0A73
016D
05D2
0284
FF48
078B
000A
06EF
0332
0220
0259
FD89
013B
013C
026C
014D
FCAA
FDDC
FD2A
0581
04C7
0532
06F9
02AD
04FF
01D5
FF1E
FE0E
0073
FFA3
FB6C
0004
00BA
01EF
FCD2
FDCB
007A
FBFB
FC7A
FD1F
FF46
0295
FD33
FF93
0379
0377
0140
FE9E
054D
003B
064A
06F5
0478
F6CD
00D1
FB96
F8D5
FB22
FEE7
FECD
F907
FBEF
FD80
01FE
F69D
FE77
F978
FCEB
03E1
FF64
0190
0335
FC87
00A3
0361
0035
FFAE
FC4E
FFED
0464
FEB0
0644
FD21
FF65
FFD9
FAA1
FC83
FBD0
F753
FF45
FB9B
FFB3
F71B
FA4E
FC9F
026E
FE0D
FC44
01E6
0060
FECD
FF16
0031
008E
FC65
FF78
FE57
FD8D
00DD
018A
014F
0276
FC78
FF0C
FC64
FEBA
FC80
F516
F7C3
F86B
F2CB
F864
FCBE
FFD2
FCA6
FEA9
030D
FE30
01AF
FE31
0197
0016
FC12
041B
FE15
F971
FC9E
FA7A
FE8A
020A
FFFB
FD0F
FA9A
FC7B
F7F0
FD0F
0016
F8BB
F92F
FEB9
FAFC
FB8F
FCAF
00B4
021A
01DF
002C
FF1E
02D6
0735
FE6C
0057
FB7B
FCCD
FDE1
FC66
FC31
FBE8
FE00
FE3B
FFA1
001B
F9B2
FDB8
04B6
004A
0011
FE08
0012
FCD7
00C8
0428
FE02
038B
02FB
025D
0285
FA71
F8B8
009B
FF02
FDD3
00BF
FF95
FB1E
0338
03AB
FB53
FE30
0104
010D
FB87
004E
04F7
FF71
FF66
FD87
FB7E
FDAD
FE4F
FE43
0375
FED1
0238
FF18
FDF8
FB18
01AF
01F9
01AE
FC22
FFA8
FF36
017F
0378
FF3E
03A2
FD95
0229
05E9
FBD2
03FD
01D4
02E0
FE3B
FBCE
FFEA
0237
FD4B
FE03
046E
FE15
0477
0253
FD30
01A5
0428
01B8
FC97
0624
0631
03EB
0624
007F
FFE6
036D
020E
FF96
03A8
0115
02AC
FFA6
0191
02C4
007D
01E3
0144
01A1
0269
048B
FF6B
027E
FE36
FFE0
FA0E
FD9F
0637
FB91
FE41
03A3
059A
FD13
0359
FE8F
0109
041F
FED9
0368
0072
0637
05E5
FCAD
021B
0316
00E8
FEB0
FFE5
0275
FBA5
FD7E
00ED
FF36
0110
0121
0251
FF5B
0041
FD9D
02A3
024F
01C4
01AC
0379
01E9
0160
082D
061B
07A5
FD2A
FBFD
FF9C
FDAF
FCA3
025C
FFB9
FE21
FACB
FAE5
FF64
FE3F
FBBD
FD1F
FE48
FC7A
FF38
01FB
03D6
0013
FF00
FFA3
021C
03DE
0737
0157
0026
04F7
0001
00AB
FF87
00FD
FD56
024B
009D
FFA4
FAE2
00C1
0175
0405
FF5D
0300
FF99
02A9
00FB
FF51
000A
0339
FDC5
FBB8
0759
024B
0001
060F
FF85
0523
03B0
03C5
FF29
021D
001B
0302
0234
FE77
0302
FF40
FF8A
FC87
004C
FE25
0014
021E
FF53
01CB
FB56
00E8
017C
FCD6
FEFC
FE61
0155
0390
0221
0095
FDF7
0709
037E
FC04
033A
0263
0379
FF68
0105
FD73
FC13
0272
0551
FDAF
0083
FDF5
03F5
0311
01C1
FE7E
0313
0611
FE31
05A9
FFA2
FC3F
042A
0296
FE23
0187
025E
FC65
0305
0265
FDF8
010B
FD55
00DA
01FD
FE95
FF66
00C2
053E
0300
0063
00D7
018D
FE03
FF95
00FF
FE69
FEB0
FCAC
FFCC
FD0C
0175
FCCA
FE43
03D2
FDA0
02C2
03F3
FCD8
0109
0155
FDA7
F779
02CD
FE80
FCF4
05C5
FFF1
0205
02BE
05DC
0295
00E9
FD63
0405
F7AC
011A
030F
F867
F986
F9D0
FB62
FF07
FE7E
0340
036D
0295
0363
FAE3
F937
F8FB
009C
FF97
030D
FFD2
031A
035C
04BC
019E
FE9B
026A
0767
02B5
FD6C
FDD8
FA08
FD52
F9AF
FB39
FBEF
FF83
0004
FCEA
FF8F
FE2D
FD7B
022B
FD24
FDFC
FE18
FF66
FEB5
02A3
0146
FD98
0047
F982
0347
FE3F
FC06
FC7A
0073
FF99
FA3B
FE97
F91B
FAEF
01A1
FCB3
FCE5
02A2
0310
FEC3
FF82
021F
0061
FE9C
0009
FCBF
014F
FAD4
FB08
FCC6
FA2C
FF67
FFEC
FAC9
FC6A
F7B1
FC99
00DE
004A
FD00
FDE8
F94B
FEDC
FDA6
FDC2
FC26
FE57
01AD
000E
FC34
FE4B
0470
FFA1
FB99
0785
FF99
0167
00C6
FDAA
FFFF
0119
FF85
FEAA
FDA8
FC35
FC58
02EA
016C
FBBE
009E
FCD8
FF93
FE56
02A3
01A5
03AF
FE86
FE0B
0001
02F7
FCFA
FC5B
F7F5
0510
FE29
FED0
023E
FB57
FC7A
FCCE
FA26
FC2D
00F8
FEAE
FF7D
FE6D
0346
010B
FD35
FCDB
0056
FCDA
03A0
00BC
FFC8
0061
FCC9
FBDD
01B2
FC0B
0148
FC74
FC4E
FA9C
FFD0
FAAA
FF9E
011A
FDCF
0022
FE3E
02DA
FCAC
013E
FD73
00F9
0123
00BD
0061
00B7
FF7A
00A8
FE08
00A7
025B
0144
FDC7
FF3E
02D7
FFE7
001F
FC61
02AB
0137
FDB8
FC15
FCA0
0227
FCA2
018C
FD04
0126
FCE6
FF9C
0041
0360
FFE8
