03CA
0294
FE92
FC1C
FF08
FFD2
FD1C
02D3
FDA8
FD8A
FCF0
008C
02BA
FED3
FEE2
FEE1
03DA
FEEE
FDC0
0237
FCFF
FED7
FC9D
01F3
01D4
0097
01CF
00B7
03B6
FD78
0368
02A6
FF93
00A3
03E9
FEF4
FF5B
FCE3
FCA9
FDF0
02EC
FF73
027B
0154
FDBF
0100
FDD9
FC0B
016A
FC19
0288
FF35
FC76
FE16
FE40
FC58
021C
FFDC
FCA4
FDB2
00E9
FD83
0036
01E9
FEF7
01FC
032D
FFCE
FE85
01BE
03F4
0229
FC77
02ED
FF6B
FFED
FBF2
FFD7
034A
FBFB
02DC
FF3B
00A2
FC3F
FCB6
FD59
0289
FD6C
FF4C
FFA9
0390
025E
FF61
01B8
FDA4
00F4
02CB
FE07
FFA7
FDF2
FE31
FF00
FB60
FFA5
FBD8
FCD0
FEB2
FD20
FC25
022C
01EF
0075
FF27
FD61
006F
01A0
FEFF
FEFE
FD79
FFB5
0701
05E6
0476
03E9
04BE
0295
FAFF
FEF4
01CD
FA62
0135
FE8B
011C
FE91
FC1D
FB96
0009
FC7C
0076
FFF5
0007
FFC0
03F7
03BB
034B
0709
026D
0715
00A7
0124
046A
0123
FF05
FFDC
0094
0791
FD25
FE9D
0042
FBCF
F8E4
F976
FD45
F7F3
FE51
0161
0354
0216
FEEC
02CA
0075
03AD
00F6
FCA7
0332
FD7C
FF2D
FE5C
FD3C
04FB
014D
FEF6
0489
FE74
03C3
00B4
FD84
FE0A
FB1E
FF14
FBA3
FCB3
FE47
FF42
0246
02BC
01B7
FFE7
FBD4
040B
04EF
01B5
FE4C
021D
FD72
008D
FF57
FEFF
01F0
02C4
00DC
0076
0163
00B4
0015
FB2B
F70F
F872
F734
F9D6
FA6A
FDBC
FFD3
FD06
FEA2
FFBE
FCC3
0220
0625
FF96
0084
0710
F7C1
005B
04BC
FB0E
0502
0214
01FD
0764
FF6F
001E
033E
FD7B
F9C6
F6C3
FA7C
F802
FB17
FCF9
FD08
FC8B
FC2E
FFB5
FC83
02AB
04E4
0078
00F7
FE88
FD50
0206
F9E4
FA85
01DF
FFC5
0704
08D2
03E4
03AD
02E2
F8FD
F54D
F5A8
F784
FC5A
FCF6
014B
FCAF
FCD0
FC90
FC32
FF65
FD8C
FC79
FE7D
01B1
02E0
F846
F995
0178
FFDD
FD61
01ED
0566
028C
07FE
0268
FAE1
F9B4
F68B
FB51
F8FB
FB52
0170
0184
FF39
FF89
0387
00D7
038C
FBCF
0001
010B
F97D
F9F3
FDC9
FDF5
FF0B
FF13
0057
022F
0704
0310
FECB
015A
FF71
FB99
FDC4
F9B1
FBDC
0004
FD53
0010
FEAF
0104
006A
020A
FD15
017A
FEE8
01FA
FAC4
02AF
018C
0465
FD3C
0495
0371
011C
06F4
FEA1
043E
FBFF
FA99
F9AD
FC47
FB1C
FB48
FF84
033C
0419
0354
0103
FE64
02AA
FDC4
0167
FE4E
FEA2
F9EE
FA96
0105
FD13
0461
FF24
00D0
02A5
02CA
00E6
051C
FE72
0201
007D
FF16
FC2B
FCEF
FC60
FD6B
04C2
020E
0082
FCA3
FC60
FF9B
03B3
018F
FF38
FDAC
FC06
0286
03CC
FBAD
FC0A
00DF
FD8C
0098
0253
FF0E
FE0E
FBBA
FDB1
FCF8
000C
FF29
FFE0
FDE7
FFD8
FDA3
027D
FC3F
FD6E
003D
FE83
FD69
FE20
0062
FFD6
FAEC
0194
008F
FCE6
FC3E
090F
0848
01DE
0394
FDB1
F8FF
FB32
FF8B
FF67
00FC
00A9
FEDB
01ED
0032
FEE6
FC3C
FFC9
0350
0105
03CB
00D1
FEBE
0606
02D9
0081
002C
0322
013B
FB57
03AF
F99A
FE06
FD06
FFE2
FF48
016B
FDBC
0084
01AA
04E5
0382
0396
FD7B
FF1C
FC6E
FC9C
0199
FEF3
FD5D
0236
01A9
FF59
FC3E
FD61
FF2D
00D6
0218
04CE
FBA3
FE86
F926
FFDC
FD25
0003
024E
04F3
0349
018F
019C
04A6
02B4
0212
FC35
004B
031B
FF0C
FEF5
FCB6
FD7F
FEAB
0139
02FA
F91C
FD10
0071
FA88
0063
032D
FDE3
00BD
00EA
047B
036A
03BA
009D
0209
005D
FE79
FFA6
FC9D
01B0
FDD9
024F
01BE
0188
FC9D
FD06
FA41
0016
FE7A
FD01
FB33
038F
FAE6
FF02
FFEB
013B
01B1
FE85
FF1B
005C
0289
0040
00B5
028F
0244
FEAC
00D0
FF5A
002D
FFE9
02B5
FCC1
FA07
0357
010D
015A
FD85
0142
0004
FFBF
008B
FD6D
00CC
010A
0185
0070
00A5
029C
FF5F
FD60
0581
FE6D
FC6C
025D
FD78
FC35
FF4C
FF60
0275
01F1
02C2
FFBE
0215
0424
FCDF
FEB2
00FF
FAF3
FE69
00AE
FF79
FEB6
020B
FFD9
029E
F8C4
FFAA
FF41
041F
0462
0359
00CF
022D
01E3
FEE0
01C1
FE7E
0577
065E
FFB0
FD1C
FF7F
01D0
FF38
FBA0
005D
FE60
FF1E
F8DA
FC03
028C
FFA0
043A
02B0
01C0
FB2E
FFD8
FD74
018D
0267
032F
FDDA
01F4
01C3
FFA8
02CB
0177
0015
FD08
0238
FEE3
FE49
FF05
033E
FA0E
045D
FC82
FD50
FF08
FD74
0372
042A
012E
FC93
0067
00A4
FE3A
FE9B
FCA0
0269
020F
FCA8
FF80
03CF
005B
FE92
03B6
0431
031D
0240
FE81
FC4A
0031
F968
FFD3
FECF
FE74
FE74
FC77
FFDD
FF03
FEB7
0283
FDEB
FF95
FD5A
0178
0349
FDA1
023C
00F1
039A
003F
01CF
0387
0483
FC82
0036
FB88
FCD1
03C2
FFE5
F812
FAFC
FC78
F9AD
FFDD
FCA4
0146
FD52
02E4
FEF6
01CB
01E3
0193
FFEC
FCF3
FF4F
0264
FD32
03D0
FFF0
FB4C
0140
FFBC
FF60
FAB5
FE99
FE73
FCF7
FECC
FF9D
FCD8
FD0B
FD7A
FC62
0291
012D
FF97
FD3B
FE4E
FD5E
0084
02F5
02E2
00FA
0163
FD88
FCC3
FE1A
02B8
FE93
FC6A
FE07
027F
FDCA
FDDF
01DE
01BB
FBFC
01D2
FFF5
022E
FF98
0336
0373
012C
FD37
FF22
030E
