FC86
FE77
0199
0097
02B2
FE48
0252
FF4E
0364
FD3B
0164
030F
0250
00CE
FC3D
FD4D
FC1B
02F6
FE13
FC83
FD99
FD68
0389
0322
02CE
0035
028A
FFB0
0108
00A4
FCF3
FF60
FDDE
00D1
FE66
01A9
0281
01E3
FCAE
FF27
FCA5
FDE8
FEDD
FBE1
FFF5
0103
03A0
FDA3
0150
0387
00D4
0387
FE62
FF55
026F
031F
00C9
0363
025F
0109
0218
FC0A
0145
FFBF
03DE
0301
FF6B
00DA
033C
0316
FA7F
FFDD
FD15
0379
FE68
0180
0255
FF5E
0421
03A7
01FC
FC4D
FD0A
03C9
0212
0217
0386
0058
FDA4
00E3
0168
0178
030F
FD75
00DE
FC57
02A2
FEA7
FF4C
0109
FDD6
FF35
03BB
000E
00EC
03BC
0425
0601
FDEC
FD47
02A8
03D4
0099
FD9B
010D
036F
FDA5
FEA0
0080
FBA9
FF79
FFE3
FCFD
FDF1
FE1F
013D
0524
0324
FE1F
FA03
FD89
FF17
00AA
FFCD
FD0A
FEC3
01B1
FE09
03A0
FC5F
00D1
FC7D
FE26
02D2
0165
0027
FFF7
FFAA
FEC3
FF93
01F2
FDF4
0217
044C
FF9A
002C
FEA6
04DE
003B
042D
0439
FFB1
0194
F98F
FE8B
0318
01FA
FEC5
025A
03E2
0236
0174
0373
FE39
FD6F
FFFE
00E7
FA1D
013F
0314
FEA5
FF2E
0208
027E
00D6
FDE7
FE04
0780
028B
0136
0670
001B
FC9F
0481
0280
FF36
010E
0306
03EF
006A
0329
FB9E
FC92
FECF
FE5A
0207
010F
02D4
FC92
05C5
FD44
FF48
006B
0706
FF98
006E
FABA
0046
FE5F
00AF
FF19
019B
FDB9
FF63
027B
FD8A
01FD
FD96
FDFE
0069
007B
FBBD
FDCE
FFE6
0172
FF26
FF68
0069
0243
FCD3
FE8E
04DF
021E
FC4B
0097
FD81
031F
FC44
FD07
FD1A
02E3
FEA1
FF32
039C
0348
FD01
FEC2
FF6C
FE75
FCA5
FC63
01D6
0079
033D
FA70
04A8
0159
FD4C
FE9A
FDC9
FB56
02E8
054F
0138
FF47
0799
0443
FDC3
FC7B
0103
FE4B
FCBD
FE9B
0278
0390
FAE8
FF50
057E
004A
0084
FF5A
FEF7
02FF
04F4
0644
FE99
FF11
FBFE
FD53
FDE3
FEED
00F6
04F1
0205
FD47
FD4A
FFDB
0209
03BE
0144
FE2D
03BD
FE93
FA09
0028
02F9
FE28
008B
FE8F
034E
003D
FD7A
0240
03FB
FEF1
FA93
FECE
FC77
00B5
0038
0200
03C8
0309
FD88
0229
FF94
FEB3
FFBA
01E6
FF32
01D1
FD7D
FDC6
0356
FA4D
010C
FEBA
027B
FF9F
0337
FFEC
03FB
FC01
02AA
FEAA
FEF1
0116
FF96
02C3
05C1
01BA
FE02
03CF
0358
FD48
FDB8
FF45
FBBA
FF5A
0055
FC34
000A
012F
FC9B
FABB
FFDA
FF13
056E
FFDF
0376
03B8
FD3F
0097
FD23
0148
0318
044A
083F
FEC0
FF8B
FE44
FDA8
FF50
01EF
FE67
FFDB
FF5B
FE94
FEEE
03B2
FCDA
FF91
02E8
FE51
014C
00A6
0178
031D
FE79
FC26
FDAF
F950
007B
02BE
0175
FD73
FCE2
01C4
02A1
002D
FDFB
FF65
FC8D
FD56
03CC
FE33
FEB2
0143
FFB3
01FE
0034
FD04
0586
03AB
0002
FC6B
03D4
FC01
0133
0128
02BF
0051
F93D
FA09
023B
FD12
FE59
00FD
FE99
02E5
FF81
FBF6
0141
FD8D
FEA6
00F5
FE7E
0713
03FD
FEEB
0271
FC24
025C
053D
FCA4
01ED
FFFA
035E
FEB5
FEE7
FFAF
FF88
FB4E
FBE9
0335
FEEE
FFB5
0039
0176
FD57
01D3
FB33
FFD8
FE9D
0639
06D7
0168
FE42
FA67
FE8A
00FC
FAF9
FAD1
0367
FE92
FC9B
005F
FCB2
FBAC
FAD8
FD73
0016
FDB7
0175
FCFB
0208
019B
FD70
FF79
003F
024C
05B2
021F
07A0
02CA
FF82
F494
F989
0281
017E
FECD
FF2E
F8FE
FB6F
FE28
FE61
01DC
01B5
FB60
FEDE
FC22
FCA8
FF9A
FF43
0066
01E0
01E9
01AA
FF30
00EA
071A
090B
0224
F7A7
F97F
FDBB
FC5E
0001
FEE2
FC2E
FAB1
FBC3
FEE3
FDD3
052F
055A
FF00
019A
FFFD
02D8
0188
0242
00EB
03CE
050D
FECE
0392
041F
033D
002C
03CB
FC07
FAB9
FB38
FCC5
0095
FC49
FDC2
FA01
FAEA
0094
03AB
03B9
FEAB
FDB7
FDDD
FD64
0079
FC23
0070
FF51
00F4
04C4
FC22
0654
0351
FD30
01F2
02C5
FF98
FE2A
FE59
FC68
FB87
FBFE
0236
FF8B
00E3
FFE2
FD51
FC60
FE91
F997
FDA9
0318
FE8F
01A5
0281
FF1B
0203
0542
029E
00B8
0051
FF86
033E
0873
0532
02F1
0440
FC61
FD16
FA1C
013A
FBBE
0203
FD30
FD17
000B
FB04
00C6
FFD4
000E
FD1F
FF1D
02F6
FCB0
03BA
FF10
FBD5
FFFC
FFD7
005D
010F
019D
0140
01F7
00C3
FB7A
FDB6
FBC6
FE81
0023
FDD6
FA4F
F95C
FCED
022C
FEA3
0249
FF86
0215
FC71
FEDA
0090
0012
FC45
FC37
FD2A
FECC
0031
0411
014B
036D
02BF
03C8
FBAC
FBFB
FAA2
FD36
004C
FC81
FE1E
0007
FA39
0014
00FD
FF82
0269
FE07
0398
FE95
0205
FCC1
FDB5
FC71
FD93
FC65
007B
03A4
FFCF
FDEF
FCFB
FFBB
0146
FD2A
032F
0042
0001
FECF
FBB9
FF30
FF97
FC53
005E
02DF
FCF6
FD82
03BE
FCA5
0160
0272
FD39
FF0B
FCFF
FF15
FDC7
FE37
0014
FBA7
0114
0191
0202
FFBA
FD12
01F7
FFA6
FEE3
012B
00C8
FFE4
FED4
FEF1
FE14
FDFF
0304
FE80
0345
031A
FF0B
FF9E
FD4E
02DB
FC4A
01C5
FE6E
0391
FDE5
017B
0346
031E
01ED
FFD9
FFCB
FF69
FC51
FDE7
0057
FFE3
01C3
0188
03E0
022D
0215
