FC39
FF86
036B
02B1
028E
FF0B
FC8E
FCD5
0331
FCEF
FE8D
FF9F
0275
FF39
FC1C
FF30
FC81
FD3C
FF45
0042
FF09
025E
0239
0264
FE80
02D7
0372
FDA2
FE3D
0348
FC6E
FEE4
FDA2
FD0B
FE79
FE3D
FEBE
FDFE
029C
FF53
FF09
01FA
FDBF
03B5
0073
FEC1
030C
FFB7
024C
03FE
0387
03EB
02C9
02E7
FC68
FD97
0334
FC1A
FE38
02BD
FFE7
002D
01B6
0213
00A5
0374
038D
FF72
FEF7
02B3
FE05
0105
00D7
FD92
FD57
02EC
0203
030C
03A8
0275
FD7B
03B1
021C
0217
FE1E
FE4F
FEDB
FC72
FEAB
FE04
FC5E
FC24
0012
01D2
018A
00B4
00B2
FD8F
017D
FC75
0167
FCCB
00ED
0183
FC3D
01A1
01A8
FCE3
01AF
02DA
012F
0392
FEB6
FC09
FEB4
01CA
0381
FF24
0228
FE47
FF19
FD44
FD25
FAF1
FC53
0203
FBEB
02DE
FF58
FE4E
01AF
FF07
024E
0322
012C
0143
FFA1
005D
FE88
0304
FD37
0243
00EB
03A2
003B
FCAD
0059
0206
00CA
FBF4
FB52
FCEA
FE48
FC0A
FFA6
0067
FFC1
FF6D
FC86
020D
FF28
FEC5
FFE5
034F
FBA4
01FC
FF81
FCE3
FCEB
FF5E
02E4
FE45
0062
013C
010F
FCB4
FCB1
FE09
FA92
FB54
FFCB
FE79
02D6
FA89
0047
FC06
FF75
FC59
025E
02EC
03A2
00C1
FD84
0245
0245
00B7
FF57
004E
00A3
020C
FE12
FE54
FD6D
FF56
008E
FD4E
FBCC
01FE
0040
FFEA
0197
FF1F
021E
019A
01AD
0066
0011
FFA3
00A2
FC9C
01FB
FB34
FD07
0365
0296
0189
0249
FE3A
0184
030C
018D
010F
FBB0
FD26
FCDA
FFAA
0004
0427
0274
03C1
006E
018A
FD10
000E
0051
FF82
FD5A
02C2
FDD0
00AC
0069
FDE3
03BE
0082
01B4
FC2B
FC85
00AB
FCFF
02BC
FB5F
FC30
00A3
FF53
FD7B
FCB9
FF1E
02D1
047D
FFE2
FC49
FE4E
FE30
FFBF
0006
FD8C
FE34
0367
0354
FFDB
FC9C
00D5
FCB0
FFFE
FD26
FC17
FC60
FCED
FEE1
0083
010E
FE80
FC08
FC3A
0396
056C
035A
00F2
0243
FE1C
FD3D
FF00
00F9
0496
015E
FE05
0192
0361
FE8D
02BB
FC1C
0089
02E0
FEF9
00FA
FE6A
FEED
FE59
013B
FEDD
FC2C
0320
03B2
0906
04BF
01C4
00AA
008E
020E
FFD1
0079
048B
0226
03A8
FD03
FFF9
FE27
FD12
037C
0187
0349
00A0
01F3
FF35
00DE
FD53
FEDE
FC0F
01E7
024B
05F9
008E
0264
FD6C
01BD
FC80
FE3A
0091
0003
FCAD
FC1B
FCA2
FF84
FDC1
FF4F
FD80
FE6C
FCD8
FFAF
FCEF
FF77
003A
FD0D
FF73
FE3A
FFFF
FFF2
FE93
0208
FFFA
035B
001B
FF45
FD5A
FF97
FE93
003E
FF43
FF6F
FF77
FF3F
FDC3
0215
01E5
FE78
00E4
FE47
FE5B
0003
005A
0253
FF94
0322
FE09
02C8
FF19
052B
0341
0292
FE38
FCEC
FDC1
FBDC
FF25
FD8D
FEEC
0332
0212
FD09
013F
FC6E
FDDD
FE2D
0338
FFE9
02BF
002E
0168
017D
FC9C
02AD
FFA9
0426
02AE
FE57
0097
04B6
FDC8
FA63
00A8
FC1C
FC56
FF69
FD62
FD87
0152
FEF2
00A8
019F
021E
039D
FC41
0357
FE8A
00B7
FC56
027F
012D
FDB0
032E
0141
03D9
03A5
FD37
018B
FC4F
FA9F
FE26
FDA4
FC27
FF70
FEBB
FC25
FFBC
FCDE
FE70
035C
FC90
037E
005C
0028
00A1
FF50
FC83
FF6B
FE39
02BD
FEDA
FF2C
FED3
0389
FD0D
FD7D
FB2F
FFE2
006A
026F
FFDF
0147
0017
FF04
FF2E
FDCA
FD68
FCF8
FF31
006C
01DC
FF1B
FE12
FE96
FF94
FCCB
FCDB
FCBE
005B
0476
061E
FF77
FB3B
F8A0
FEA5
FD5F
FDBC
FBC1
0112
FE8B
00F3
009E
0072
0127
0369
00E8
FCC1
FF5C
0314
FDF2
018C
FCA8
014E
026C
0268
016B
FE7F
0164
015B
00CD
FAF4
FCFF
FD01
FCDE
FE2F
FB99
025B
FE64
0088
FE24
FDB6
FC90
004C
018C
00C4
0342
FCB0
01C6
014F
FF7D
FF45
0079
FBF7
0276
FDE6
01B2
FC64
FCC2
FD7D
FC51
FBE9
FE92
FC11
0199
FBFB
FEEE
FF68
FFFA
FF20
00D2
FD16
027E
FEAD
FD80
FDBB
0156
FD16
0086
FD7D
FB75
FDCE
0078
FF34
FCBB
006F
FDB8
FE3B
FD28
FC47
FC05
FF57
FDF2
0089
FEDC
FC1B
FEA8
0380
03C6
FE32
FD00
FC07
FC22
0383
03CA
00F8
FE89
FDE4
02B5
FF56
0140
FD17
FB72
FCA2
FD01
FF97
FDC1
02E1
FF26
FCDB
02BB
02DE
0332
FF4E
FC2B
009A
FE59
035D
FD56
00F4
FCC2
FE49
FF75
FE9C
FE92
009B
0010
FE50
FD40
FB9B
024E
FD9A
00FA
0257
FD2B
FD7A
FC4B
FC18
FCFF
FC7E
FFCF
00EF
FCE0
FCC5
FC84
016B
FEBC
FF10
029D
016E
008B
FF73
001C
0064
0151
0095
002E
0046
FE60
FE01
FDA1
FD7E
FBB9
FFA3
02D7
0131
FE7C
0396
FFD8
FFB5
FD42
0246
FCC8
FFC9
FE28
FD19
03FF
0013
FC6B
FD46
FF61
FE57
FF92
0288
FF08
FE72
FD77
FDF9
00DC
FF75
FD61
FF36
FC12
0287
FDE8
FDCE
FE24
03F0
FDE8
FD48
009E
00A2
FCD6
0278
0230
FED5
013E
FF1A
0017
FF35
FC98
FF1D
FD3A
FE4F
040E
FE00
FC73
01BE
FEBC
FDB2
FFF0
01B5
FCE6
0284
0386
022E
FF80
FD29
017A
02A4
FFF5
0031
FD98
0289
FD25
FFD2
03A9
FE10
FFA0
01F4
FDDD
01A0
020C
FE3F
FFFE
0019
FC1F
0369
FD00
0330
0210
FDF7
015B
0248
01C5
018A
FD0A
0251
