FFA6
FD1E
0118
0058
032A
03A6
FCFC
FC64
FCA2
FE9A
FFC4
FCA2
006C
FD2B
FC17
022E
0109
FC06
038D
00D8
FF1C
FF3C
0343
031D
037B
FE9B
037D
FEF2
006B
FEB1
FE72
FDB6
FE95
03BC
FFD0
01F7
0317
0183
FD3C
FDA2
00D8
009D
013F
FD8A
0322
FE50
FD73
00F3
FD6D
028F
FCED
FDBC
FEAC
0307
00C1
FFF9
0174
FC42
0341
02B3
0177
FF1D
FDC2
0187
0222
00BA
00B4
FE49
FD8E
0235
00E0
01A3
0240
00CC
FDAF
002D
FE89
FD46
FFF1
0014
028E
FFEF
03CE
0270
FD63
031D
FDD8
0087
FD37
FE77
FEEB
030D
FF8C
FEBB
FDB8
FF3A
00A2
FF24
FC47
FB81
FCAA
FF0C
FEB0
0286
0028
FEA9
0253
032B
FD91
FEBA
FDB4
01E1
FE38
03DC
010E
0234
FDC8
FD36
041D
0143
02D4
03A4
0093
FFE5
026A
0074
FE4B
0131
FF36
FDEE
0068
03E2
02C0
FF14
0090
FE27
FB6C
0334
00AF
FC84
FFD7
0334
FC1E
FC88
04AB
0097
017E
FF48
0077
FFD1
FF5A
FEC6
01CD
F965
FB50
FEEC
0084
0158
FDF4
026D
FD06
0013
FC9A
FED5
FE19
0247
0285
024B
FD94
005A
029D
00FA
FFB5
FDAF
035F
FDDE
FF64
FB36
FFD4
FC14
FFEA
00C1
0032
FC37
FE62
FD9F
FD44
014F
0010
0028
0071
0011
FB14
FFD5
0180
00DC
01F3
FCFA
FBE0
04DF
03E4
026C
02A0
017B
FF67
FB7D
0277
FDE6
FB9F
010E
F9BD
FDBA
FA24
00B3
FFE4
FDB8
FF90
0258
0115
0066
FEF4
FC95
FC90
03F3
FCB3
022E
FF3A
01B8
05E4
FE78
01E2
FFB1
0181
00FA
03A5
002E
027E
01FD
0235
FD65
FCBE
00EB
FD1C
029B
FFED
FF40
061D
023C
FA66
FD64
03FD
038F
FE5E
0327
FD54
FEDA
0525
FFB8
00FC
FF25
0117
03BF
FD50
01CA
0570
FCAF
0290
FE6E
00BF
FF45
0156
FFBC
0229
020C
0268
011D
FFBC
FDC7
0028
FC93
039D
0191
012D
0215
FE6A
04BF
037D
0391
01F2
0214
060D
0632
FF0C
FCA5
FD58
FDEE
00DF
0162
0266
0025
003E
FFFB
FF93
0199
02C0
FCB2
FC52
FC86
FC96
FC48
FCFD
FCA5
FD3B
01F2
030F
051A
0110
002D
FE63
0124
012A
001F
FDA4
FDEA
F9EF
FEDD
FE66
01FC
01C1
00F2
039D
FF6F
0143
0216
0256
FE35
FE36
02C8
0035
FC5C
0117
FF1F
01DC
01DA
019A
FF2F
FC17
F969
F998
FAE9
0162
FBCD
06DD
FEB9
FDA2
012D
0076
05A7
FCCE
0062
0410
FD61
032F
024A
0138
0030
FC81
FBBA
FCFC
FE1C
F9BB
FADB
FC7A
FB28
F772
F875
FAA2
0252
0505
FFB4
021D
FF2F
034A
FDD1
02B9
FF93
0074
019B
0107
FEFB
048D
0228
FC41
FC69
FF8A
FFB2
F7D4
F685
F903
F6D3
F6C2
F371
FA6B
0092
0015
0373
0157
FEEE
031F
002B
FCDA
00FD
0270
F905
FFEE
00CD
0389
013A
0119
0212
01AD
FCAA
FE0C
FC40
FD16
F96E
F9AC
F497
F890
FB33
0104
037F
05A5
0622
0378
00D3
0133
FDE6
00EA
FF74
FE35
FEB6
FE26
FE10
044F
001A
0042
003F
02B0
0001
0097
016F
F980
FB27
F9B8
FC58
FF19
04C6
01A2
04D8
066A
00FC
039C
045B
02C1
FE70
00C6
0393
00A5
0185
0089
FF05
02C5
0130
035F
0123
FC6F
018E
0284
FE67
01B9
FB62
FD81
008D
FEBB
009D
002F
05AF
0180
00D7
067D
00A4
00EE
04FF
FC8E
FCF7
FDCE
FDCE
007C
FE5D
036B
037F
FE41
FE18
FE00
FF4B
0338
001A
FDF0
006B
00CC
02D9
FDB1
010B
0500
0268
0306
00AE
FD9F
FFAF
FF51
FE57
FD9D
0031
FDD1
01B8
0012
0366
0395
0376
005A
FCCE
0235
00DB
035A
FE99
03A8
FFCF
FC9A
020A
03FC
0256
052F
0337
009F
0134
03B2
018D
0137
0312
FFE2
FD34
FFE7
FD26
0141
04B6
FF0F
FF2D
02DB
0269
035C
FC39
0432
04C8
0315
00CC
03C8
0704
FEE1
00CF
037B
00E6
0336
FC73
FF43
FF9B
0180
0013
03C5
FE40
01DE
FF60
0086
FEF7
0099
02DA
FE54
FF1C
0290
0069
03F2
00BA
0677
FD5C
0056
0194
FF6A
FE78
FF2F
0018
01BF
0122
FC58
0116
FE8A
FF32
018A
0496
FB70
FD6D
057A
0315
02F6
FDAA
0177
0134
03EB
0191
FCC4
FFE3
014E
03E9
023E
045C
FBDD
002E
FF46
029C
FE88
01C4
FD17
00D9
FED8
FC88
FEAF
05D7
025D
00EC
02C1
028B
FF99
03F5
01BB
FF4C
0205
FFE4
FC2E
FFD9
FFD8
FDB2
01D2
0201
023C
02A2
FE9B
0469
047A
05DB
FF3F
0131
04BC
007A
018A
00A9
FC54
00F5
FFFE
02FD
015B
FDF4
00DC
0238
02AF
01F6
FEEE
0255
00C8
FE9D
FA67
FB92
FB0E
0094
FF8D
0004
FF8C
0323
03C6
01DF
00D3
0088
02AD
FAC8
01DB
FF9C
FEEC
013E
FE21
0310
FFE5
FD3D
FF7E
FCEF
FF15
FE57
FEDC
FD30
FDC6
FF55
FE83
FDDE
FCBC
FDFB
FCB2
FF9B
0376
FE86
FC6F
FEA3
FCCD
FFF6
FE46
FCB6
02AF
0275
020D
00F3
013A
FFD2
0367
008F
0266
02E2
FECE
FD38
006C
000E
0035
FFC7
FC48
FF7C
FBD4
FD47
FF4A
FE25
FC84
FF5A
0100
FEFF
FBD7
FAF1
FD3D
025D
0017
0168
FDEF
01FA
FF85
FD26
FF2D
028B
0208
FF89
03F2
FFF7
001C
FE1D
029E
FDDD
FBD7
FCAF
FFA6
00D1
FE73
02B1
0222
FD3F
FEB7
0281
FE72
0119
FEF6
FE34
012A
002D
