00C6
0318
03E3
0229
FDC2
FDAB
0192
02AB
02C5
03A9
FD7C
FF29
FD00
0218
019F
FE39
FFF0
FEC5
01CB
008A
036D
00D4
0205
0341
FE3B
03BA
02F9
03B4
FFDD
0195
03E5
FFE0
0397
036F
00DA
FD58
025A
FC1D
02DF
FDAC
FCBC
FCA9
FEE0
026A
FE2D
00D3
FF28
FFB1
0211
FD7C
0176
FF3D
012C
03A3
FC09
037C
0312
03A5
FF1B
0122
FC74
FC6D
0087
FC63
FE08
00D5
FDFE
FD9C
FA3F
FEAD
FF38
0458
0490
0360
FF02
FF43
03FB
03B1
FFF1
FD43
026C
03A2
FDFA
0268
FFC1
FD5F
0055
FFDA
FF9A
0196
FE62
042D
02DC
00FF
FB17
FCE3
FD66
F5D7
F87F
FB77
FC63
FF9A
0262
FBC6
FD05
06C0
0128
02CC
FE44
0191
FC6B
009E
018A
FDC1
01A6
018E
FDBE
01AA
FEE7
FE99
0082
F9F6
00E3
F7D9
F784
FA9D
FC19
FD0D
FAAF
FCD4
FEDB
02EC
02AA
FEBD
01BC
0782
FD7F
FEED
FE20
FD81
02FD
FE70
0043
FC92
FF94
03C8
03F2
FCE3
FE0D
FE3C
FAD2
F96F
F5E4
FD20
FD82
FED9
03C9
FE66
01B8
FF32
FF24
FBDF
00BC
00FD
026E
0008
026F
0444
FDD8
03AA
FC8B
039E
FF28
FF9D
02A5
0092
FC58
F9D7
FA17
F8D6
0096
FEB6
FDEC
009C
FA49
FD85
FE90
FDBE
FDC4
FB04
0168
FDE9
00D0
FF68
FE03
FDAB
FC89
03F0
012D
03A2
0133
043B
01D2
00C6
FC81
F96D
F996
F622
FE5B
0087
0421
06EF
FF87
0129
0058
FDCA
0235
008C
05B5
0418
FD20
FDD4
05B8
FF98
0276
0257
FDA2
00FD
FEF1
0793
0346
FF88
0301
FA25
F62A
FCCF
FFA6
00F3
068D
FFB5
01FA
04A3
FE61
FA13
00C6
003A
0756
FBDB
0342
FCEC
01A2
00B5
FEE2
FDA4
FFC5
01D7
FE87
FFF6
FE2F
014F
FE2A
F892
FBC2
F8CD
F755
FE16
FCD5
015C
FF31
FF2B
00A2
028D
FD7A
FF99
FD9C
00D2
FCA9
029A
036B
FE27
0014
FEC7
FED4
FFC9
0305
0374
FDEC
0291
FDB2
F79D
FEE4
FA07
FD97
FEDE
0765
026D
FDE7
002E
FB47
002D
FEE7
FE4B
FCB6
FF58
0045
034A
FD5F
0281
FF5F
02F8
0118
0082
FE02
0345
008B
0365
FE1F
FAE6
01B1
015A
00CF
03E4
FFC3
0459
FA69
FE7A
FCEC
FF3E
FEF0
FDCA
F8D6
FE13
F985
FEBA
FEBC
FD2A
0304
FBE4
FF98
FB3D
FDFE
0339
0004
FFB4
FEC3
002C
0272
052C
031E
0619
05F6
00C8
FECD
F893
0121
F87E
FAC1
FB01
FAAB
FC04
007B
FEA4
FDE6
FF28
FDF3
FD8C
0002
FE48
004F
0150
041B
04DD
0364
0502
0176
01F8
0045
01B0
0189
FEE9
0153
009D
FEA1
FAA0
014A
FB7D
F8CE
FAF5
FF09
FDE7
FF19
FCE6
0354
FD3F
02EA
FCA7
0052
02A0
FD7C
FC8A
FEC5
0083
FE50
02CA
FEA6
00E4
FFA0
FE11
02AF
0312
FD7E
FF75
FDD2
0005
FB8B
F80D
FD66
02DF
FE2F
FF9F
00C1
0281
015B
FD5B
FF3A
006A
FFFD
04FB
FF03
00C7
FCEA
0279
0953
FBF3
FAD8
FF84
FBA9
00B9
0334
FE91
00FF
00C4
FF16
FE59
012D
FBC5
028B
0016
0275
01C2
0014
03D9
02AD
03C4
FBD5
00E8
0514
028A
FEB6
FF5A
0203
0165
FBB0
00D3
0153
017C
0478
0282
0345
FB3B
0087
FFB4
038A
FE6D
01E0
FE41
FFE8
FD29
FECA
034E
058D
FFBF
00C9
0290
FED0
02BF
0426
FF4E
FE3B
05A8
FECD
FEE7
057B
FE1E
FFF3
FE29
02DC
FC3A
F797
01E9
0047
FE34
03F5
FD02
029E
02AA
FFBD
FF76
04BA
FF65
FD9F
FEC5
03E6
0310
FC5E
013D
FD92
FFDF
FDF8
FDEA
FD10
FCEC
026E
023C
FFDE
FE44
FA11
FA2A
FBD0
002B
FD86
FCD7
FFE7
FE4F
0338
0275
049E
0112
0619
FD29
FE1D
00DD
FD1B
0166
0442
FED7
0040
0012
029A
FF70
0338
FD6B
FEE0
F7C6
FD2E
FF1A
FF50
0369
FD09
0000
FDD4
0363
0375
0330
FB2F
FF48
0014
0180
FF1D
02B9
017A
FF40
0413
0616
0278
FE18
FF27
00C2
03C0
FFDB
FB16
FC1A
FE5F
00C6
00C0
0148
FE0B
FC6C
FCE5
033D
FDF9
0059
FD5C
FA88
FE02
0046
FC1E
FC60
056D
FCD3
03DB
0429
053A
015D
F915
F895
018D
F9F5
FE0B
FDB9
FBA2
02C6
0193
00DC
FDB5
0328
0370
023C
0198
0059
01C3
FC10
FFEC
0154
FD9E
024B
0448
0201
FEE4
016E
038C
05C2
FFE8
FB22
FF05
FA34
FDA3
0346
FD5B
0324
02DB
FE6C
FF2A
0335
FDEE
FC7D
FFAE
FE44
0122
FF13
FC5C
FCE5
01F5
0544
00CF
FF5D
0621
006E
FFB7
03D2
FE05
FA06
FCB7
FD00
0325
0061
FF54
02A7
00E2
FC9D
047A
0002
FC89
FD12
FC0B
FFDF
FD34
FC51
FE64
0343
013C
0301
01EA
FF47
FE31
FE15
00AE
04D6
FE9A
FB5F
FD6A
0256
02DC
0061
FF12
0411
0204
03B5
03D8
FFBE
FC42
01A6
02CA
00E7
FE83
FF83
FC6F
FCB4
FC9E
05CA
0047
FBAC
FE6F
FCB7
FE7F
FFF9
FD13
FFC2
007E
FD28
FDB4
FFCC
040B
FF06
FF56
006A
0145
018B
FEBB
0218
FDF3
0166
FE79
036A
02DE
FEFD
FE4C
0031
032F
FE1F
FD00
FDDA
FF10
FEF3
FC3B
FE90
02F3
0001
0376
0153
FECD
02F2
FE2C
FC81
01E2
01F8
023A
FDA6
033C
FDB9
039F
039F
FCC7
002C
FC8F
0170
028F
FDA3
FEEC
0197
FCD4
0053
FC76
FF24
0074
002C
FE24
011C
032D
FF46
FC1B
FCD8
FC7B
FCA9
