03ED
0159
0039
FCB5
FDDE
00C2
0372
0389
00BE
FC75
FE97
FD33
FDA1
0319
FD70
FC7E
02B1
FFFB
FEC6
0233
FC1E
FC3D
0023
FD68
0389
0248
FE58
00FC
0118
FED7
FF90
00A4
FF0A
FE16
0306
012E
FC12
FDB9
036F
FF12
004F
FD77
0060
FE22
0261
FC48
039E
FF48
FC98
FDE1
0269
FF8E
0132
FD16
02EA
01B8
FC21
FCED
0214
FE7E
02FE
019C
FFDA
0386
0134
FEC2
FFAF
FDC4
FEE7
027B
FEB7
00D0
0315
04E3
01E2
0437
000E
0201
FF51
FECC
FD95
01D2
007B
FF1F
030F
FD85
018A
FF75
007A
0023
FDFB
0248
FC63
FF8D
00C4
008D
FF3C
026B
FD96
002D
FED2
0410
047A
FAD5
00E6
0272
01FD
FF71
FD5E
FC12
0048
020C
01F7
0025
FDC4
03B0
02D3
0065
FC87
FDD3
FEBC
0350
01D7
00A6
0426
FC01
0128
FF7F
0617
02A0
007F
FBEC
0207
02C0
FF04
0066
0327
FE13
FE43
FCC5
009C
00C5
0226
00C9
FBF5
F9CA
FDD0
F9F1
FE6F
01A4
FF73
057B
0215
FD40
0211
FF96
FF3F
FF48
FE87
FF23
03E6
008A
FF0A
065E
0339
FF9A
FFDB
0263
FEBC
037E
FE0A
028F
FB1A
FF95
FAC3
FCA3
FDE7
FDE2
FF83
028A
03AD
FFB8
003D
0198
0234
0119
F973
011A
005A
009F
0135
0421
000A
032F
02B7
FD6E
02E6
0078
01DC
FB3E
FD81
FE72
FCCD
FAA8
076E
FD3A
01BF
FED6
FDF1
00FD
0009
0616
012F
000C
0286
00E5
FC97
04D4
0286
03F3
0177
00E1
00B4
FEAB
FE76
0251
FD3B
FF76
FE92
FEBD
FDBE
0095
015D
0338
0488
02DF
FD46
FF9C
016E
02E6
002F
FD79
0104
012B
00BC
00B7
FFFC
01DF
0557
0336
FD71
023C
000A
FD3F
0384
0092
FA01
FD79
0446
FE90
02F1
0315
FEA4
093B
00B4
F5DB
FC66
FD27
FAAB
FCFC
F9C5
FC08
FD71
FEB3
0027
0175
06E0
01E9
0075
FB43
FEA0
FCC1
FE23
FDA8
FDD5
FD94
0392
02C1
02BF
0432
0422
02DD
0400
FE44
FDFC
FC55
FAF8
FA3E
FCF4
F9AE
FBD8
006E
FE73
00D4
FFAD
FFE8
FE73
FCDD
012B
00B8
FED5
FA88
FDFA
0170
00EB
03D8
0233
00F0
01ED
0326
060D
FF99
0586
FE9E
014F
FCFD
FFB9
FFDD
F8C9
023C
FD9C
026B
07DE
042F
FDBA
FED0
0184
01DE
039E
00D2
FDE3
FE98
055A
07C9
0486
0483
0023
02AB
0115
0267
FE00
014B
FC5F
FEA2
00E7
FE42
FDE6
049F
FD71
02ED
0271
0126
FE6F
FF52
FED4
FD7C
FC9A
FEF1
FA4D
FC86
FEEE
02EB
FEE6
02D1
0135
04BB
05B9
0596
009C
012E
0034
0004
0052
0271
00F4
013D
FF2B
FDAB
0030
0168
0176
FC4E
FCD5
0296
FFBC
01E9
FACC
014B
0437
0111
FE9B
FCE2
00B5
0590
0233
0126
049E
FE8B
007F
FF9A
FFF9
FD4B
FD2C
FF00
FE4E
FEC5
FD57
FFFB
011B
FF2F
0237
FE48
0384
FE6E
FA72
FAD4
FCC5
FF4E
FD54
04C7
0371
0143
FFFB
029E
01D1
FC9A
01D1
0248
FDDA
0143
FB83
FF6A
FB3C
00CD
FD0F
04AF
01D1
03AE
FD6A
01D5
FCA3
FBB9
FEC3
F8DA
FB12
FBCA
FE01
FEFA
FFFB
FC54
0445
FDD5
00AE
0413
FEA1
FE2B
FBDF
FD2D
FD42
0040
0114
FEE2
FC96
009D
FCBB
FFFB
0056
0233
0175
024E
FFEC
FF77
02F7
FC73
FD5D
005B
01D7
02A0
00DE
00FB
0108
FF45
0186
006A
00C2
FCC7
01A6
FD8B
FD33
021C
FE6F
00C3
0081
00FE
00CD
FDD5
FBBD
FE65
0344
0163
081B
FFA9
02C4
0058
01ED
FC89
01E6
FD23
FF75
FF28
FE8F
FD9E
FCF8
FB80
FE17
FB55
FC07
FEAB
0038
FEF1
FF56
036E
FDB4
0349
FEFF
FEC2
0151
02BC
0425
FEAE
0330
FF2E
003A
FDB1
FFCE
FDBC
FCED
FE01
FADC
FCE7
FD2C
0011
005E
FF9F
FD8C
FED2
02D0
01ED
FCBA
0020
00C4
0131
FEC2
FF2C
FC32
02C7
FF41
022F
0222
01AD
0200
014B
00D0
FC25
FCE7
00BD
FBD6
FEDE
FC78
FEC1
FF72
0082
0359
FFAE
FF47
FBB8
01D4
FE35
FF95
FD32
FEB1
FDC7
FF2C
012E
01A7
FE7D
0244
00D3
FDDD
0234
0092
0152
FDB2
0145
FF25
0098
FD79
FF1B
00C3
FC4A
0326
028E
FC82
0112
FC53
FD61
FDE8
0179
00CE
0335
03EE
FBFD
FD09
FD78
FEB5
FF5A
012A
01A6
028A
FED1
05DB
FEF1
FE8E
013A
FF21
FF7C
FDAA
FFAC
FFEB
03F8
016A
FE4E
01FE
FF39
FEE8
02B6
FD50
0285
025F
FD30
FEF5
0003
03F0
FC91
0095
FE77
0154
014B
042A
0042
0484
0021
FF2C
FF4B
0021
0436
01C2
0116
0259
0017
FEC2
FE5D
FC93
0126
0366
023F
FED1
FD07
FD12
033F
FFC9
FE3D
0199
04CF
006A
0049
FFC1
00E4
0414
FD6F
01FA
02A6
01CE
FE81
0320
023F
02F0
FE43
FD1C
0001
0246
FE74
02E1
01F0
0071
FF0B
FE97
FFA2
FD2B
004E
0029
FC7B
FC04
FFC0
04D9
0267
01F1
02FF
01C5
036A
0317
01AE
FE77
03E5
03D9
0198
FC77
022F
FD28
FFD9
00DE
FF7B
FDEA
0185
FF37
00D6
0309
0160
0142
02D9
FD2C
FCF1
FFC9
FE5C
0086
045D
FCD7
0256
01E6
0392
FC84
0233
01D6
FD1F
FDDC
030B
03F3
01B5
039D
002E
FCCF
001E
0095
01ED
0378
FD0E
0096
FF07
FF33
00F8
01CB
03F1
02E2
FC34
FDF7
FFDD
FC58
009A
0227
FCFA
FF53
00A9
FE0B
02F4
