0328
0225
029C
031F
0100
00AF
00F2
FE5A
0137
FC97
002C
FD6C
02A3
0364
0223
FE1F
00BA
0085
FE67
03B7
FF1C
FD15
FF1F
FE33
00A9
027B
0059
FDA8
FD1B
FD93
0058
012D
0392
FC86
FE13
FE64
FFB8
0240
00CC
0163
FD0A
FD7F
FFFE
FF75
FF2F
032D
FD09
FE78
FE7C
FF3D
FD67
0053
FED2
FDAC
00D7
00BB
030A
FE52
02F1
00F2
FD58
FFD5
0046
FF52
02FB
FBAE
FE7F
0134
0284
FB79
FFD9
0225
019A
03B3
0296
FC42
FCC8
004B
03A0
FD5F
FDAE
0002
FEA3
FC34
FDB7
FF4B
014B
FE02
FFE3
FE6F
FEAA
FC28
FCAC
FBB6
FDB9
FE4D
FB18
FBD7
FF84
022A
FF6B
05F6
047C
FAA1
FECE
FEDF
FCE4
0022
0079
0210
0396
03FE
FDD2
FF37
0174
FFB8
FD14
FD03
03BC
01FE
FF42
FF07
FF20
FE84
FCA2
FD6B
011B
00E6
00EB
0925
0280
0147
FD2F
0460
FFE1
FD2B
FDA5
022F
FEC0
0396
035C
FC8F
FC83
FDB8
FE5A
02B8
00FA
FD46
FBF4
04E6
FB1B
FDD5
FFE7
FB44
FC24
FEF6
01CB
028C
0197
0341
0361
017E
FE19
01D7
FC75
FCC5
028C
0205
FD5C
FE29
0097
020D
FCC0
FF82
006C
FE99
FF57
FBFA
0211
00B2
FF9B
009B
FFEC
04C0
FF18
01C4
FE3C
FD06
08F4
0439
FC2F
FD2D
02E5
0028
0124
000A
014A
FDD8
FC1E
0239
FF0B
02B3
FC78
FD7E
FB2D
0058
FDB2
FA08
0278
FE08
012A
088B
FFA8
028A
FE36
0099
0424
FC38
0209
007D
FC43
FF4C
FD30
0198
FE3C
01B8
FF58
027A
0272
02BD
FFBA
032C
FB68
FE68
FF71
0178
0076
0092
FEBC
FBD1
FA92
0271
FCB4
FDF4
FA0E
FFB4
FF0B
FD6A
FCD0
FD46
00B0
03D2
FCE5
0373
FD07
FBBF
00C4
FE9E
0074
FBF0
FDF1
F9ED
0625
047F
061B
FEC4
FE4A
00C7
0183
FCA6
009F
01A9
FD19
FE56
FDF3
FE2E
0266
0045
024F
0199
0052
FF6E
FEDE
FE94
FFE3
FBD8
FB08
FEF6
FC3D
F9A9
0245
FFBA
0540
012C
FE85
FF81
FDCD
FEAA
0135
FEC1
FCFF
0230
0062
00C4
0035
FEEA
FF06
01B0
FDA4
FED9
02DF
FE3E
036A
FF9E
0242
FF69
00FD
FDE7
FF47
FD7D
052D
0414
015A
FEF3
05F9
FF04
050E
01C3
FF97
FD11
FD5C
FBFE
FC9D
FC3E
0243
0113
0014
FD05
FF3F
FEE2
012D
0196
FD77
FF25
FCA6
FB4E
FCE9
00A2
0194
0409
03C2
012C
0566
0494
FEF5
FA2C
FA78
FD41
FE10
FFD6
0062
FE3F
01BA
00D0
03B9
00DB
0188
012A
04F4
029B
FE54
FC9D
00C4
FF6D
FC0F
FDFF
FF3D
00F2
FF91
01F6
FFFC
0272
0092
F7DC
00E3
FFC1
0150
FBAB
FD0E
029D
02C7
FE0A
01EF
03CE
FF65
0212
02E4
FFAF
FD81
0187
FF2A
FD37
FCE1
FE74
FB14
0356
01FF
FE84
01B5
FE6A
FA53
F958
FC44
FC10
FD22
0342
0228
FD34
011F
FFDD
FCE2
01CB
FE0B
01CA
FFAA
022D
022F
FCD4
0272
066D
FE0A
FC81
FF26
0567
0395
FA12
0340
FD36
FCC0
FA5C
FEA3
FD91
FB5D
00C7
FF55
FEF1
01AE
FD8D
FC78
0345
FCD8
FD03
01F8
0171
00E5
FFC5
FA04
0104
FC81
01D4
0294
FDFE
FDF4
01B5
0304
008C
FC7E
00F7
0149
FE35
01C9
0000
FD95
00D0
FE8E
000F
FF4D
0045
FFB1
014F
FC0D
FB08
FAE6
FDB5
FA35
FFF7
FC4C
02BF
010F
FB1A
FFA6
032D
0368
FA76
036E
FE18
00F7
FFFF
0117
FB99
0334
0149
0293
FF11
0208
0222
018F
FC70
FDDE
FF7A
FF59
FC5F
FD0A
FEC3
000A
0092
FEA4
FF0E
F994
00DB
0201
FA7E
00E3
0183
FEBC
00BA
FE9B
013E
FD87
FD5F
FC0B
03C5
0356
FCDF
FED6
02CE
0032
0009
003E
FCE6
F916
0116
FFC4
0255
FEBF
FCE8
FB9A
FEC4
FF97
01E4
FC42
FFA4
01A3
049D
0222
FD7C
FF78
FFE5
FDD3
0115
02D5
00D8
FE59
0371
FE64
0067
FB5F
F6CD
F97D
0126
06F8
018D
0122
FF3E
F555
FCC2
FEAD
05F2
00DA
FF67
0413
021C
0240
0319
000D
FF6A
FDF1
02EA
FC28
02AB
FCCF
01B2
FE57
FF5D
0292
FECA
00D2
00C5
FC1C
0306
05A2
0308
00F5
00C0
0042
045F
035B
FFBD
FEF7
00DC
00B0
005D
0392
FF26
FD0D
01DD
0157
FDBC
FD71
0140
0192
FFB4
FB1B
FB6D
FF29
0339
FE4A
FE14
FDE6
0315
00C5
00C2
FBC9
FA72
02DC
FD57
FF21
FEB5
0406
01AF
0164
0130
FE4F
00C8
0094
FF25
0012
0165
FF8B
FD78
FAD0
FA6B
FD15
F98C
FC41
FEFC
03EA
022D
0168
05B4
FF97
FDB8
F9B7
0276
0225
FEF2
02BB
016C
FEBA
006C
FF6B
FCDB
FF54
03E1
026E
0191
FEB6
FD6D
013F
F897
FA27
FEB2
FDAC
007D
023F
FFBB
FD29
043F
FE8B
FC15
FC72
FBCB
03B6
FDD6
0354
0312
0053
018D
FCED
012C
FC81
02C4
FE98
FDE2
FC8E
FDC2
02AD
FF1C
FE1B
F922
FDD5
FCD3
014E
FCF8
FDC7
044F
01C8
017F
03F6
FE48
FC47
0373
FEB0
FE02
FDFA
FD97
FFE1
FFC5
007D
0008
021D
FFC6
01C9
03BC
0081
01E7
FC7C
FF5A
0141
03BB
FA3D
FB18
0810
046F
047E
02A2
FC79
FF09
021D
FCE6
01F3
0134
FCC1
0222
03A8
02A6
FEEA
FF40
FD9D
01C1
0220
008B
FEC6
FC68
02FA
FE02
FF4C
0006
0138
0111
0484
014B
039B
FE1D
FC2A
FF08
023F
018C
02EE
FE37
0191
FF2F
FE6A
0380
