007F
FC6F
037C
03ED
FD28
FFA3
FE1F
011C
03C4
00A6
FFCB
FC13
0262
01EF
0332
FDBD
0066
FC96
026F
FFD6
FE5C
027C
03FB
02B6
FD6A
024D
033C
FEAF
0131
0342
FD62
FD13
FFFF
FE66
002D
03A9
02C0
FC9E
FFDA
0085
FD87
01C4
01A4
FD32
FCB3
FCB8
FC8C
FFD2
0049
03AA
FF1D
FE3B
FE81
01BA
0322
FE48
0320
FE6E
FED3
FEA6
00A9
FFE2
FD62
FF2F
FFA1
FE8F
01DB
01E5
029E
025A
022B
FFF6
00F9
FD37
FD33
FF7D
FF26
FD69
01C5
00A3
01F5
02E6
02AC
FFC7
020F
FFB2
03FA
0317
FF63
FE2B
FFB0
024E
FFD7
FEE1
FD77
0058
FCD9
FAC7
FC12
FE46
FB30
003C
FEE7
00F3
FDF7
FB64
FE40
029B
FDBF
FD63
03DA
023F
02EA
FC9B
0060
029D
0346
01E9
01AB
FD77
FFC0
00F4
FE8B
FEEE
03C1
FC32
0092
FFFB
FC7D
047F
04F8
0472
04E0
FD70
01C3
FF97
FB8C
005C
0041
0190
03B7
FFF7
FE30
0108
FC1C
FDF8
FE30
FD5B
FBD2
FF28
00DC
FE94
FD86
F7B2
FB73
F74B
FF00
04F3
04DD
088D
FEC6
FED0
FB25
FA55
F90A
FFCF
00F9
FC89
01CD
03CD
03F0
01F3
01CB
0134
0144
048E
FEA8
0335
00BE
F9B4
FDF5
FC04
F2F6
FC63
FE5F
0064
0217
0409
FF9D
FFB0
F859
F65C
FD8C
FD44
02C2
0316
03CA
00D1
FBF0
FFBA
FF5F
05C6
005D
FFBB
FA7A
0012
00CF
FBE3
0370
FC28
F7EF
FE8B
F9BC
098A
025A
0271
042F
FD6B
FA12
FCCC
FA96
FF8C
FF68
0342
03A9
0166
00DD
FF5B
0246
042C
027A
0089
FEAD
03E6
FFC4
FEB8
FC6C
FBFC
F436
FB0C
04B3
0805
0258
FF42
FD9F
FD41
FB0C
FD13
FE47
FBB6
FEAD
027E
FF6E
002E
0182
0339
0248
FE44
FE9A
FDFC
0068
FB30
FDEF
FE0E
030A
F6F0
F10A
0527
06AC
0024
FFD1
FE19
FD7A
FE83
F920
FB55
FCA5
FC2F
FC7A
FD95
FC65
FE67
03E7
FF59
007E
FFCC
F89A
FB63
019F
FFFD
FF76
0052
0262
F737
F9F5
0219
0249
0454
013F
040E
FB33
F8C9
FC2D
FA06
00AC
007D
FF35
FC8A
FD98
FD4A
0363
031E
FDAD
FD8D
004A
FD10
0448
03D7
028A
FF0A
01EF
FA96
03A5
04CF
05F8
00FB
02A5
F88C
FCBD
F99D
FD2E
FE01
FD9B
FD28
FD2C
FCC6
FD5B
002B
019B
FD1F
FF0D
0039
01AF
FCC5
FCE8
FFD2
05F5
0243
0243
0035
F9C2
FC23
027C
FFA8
F929
F6DA
FF51
FB66
FC21
FF56
0145
038E
0204
FF07
0347
FC78
0265
01BC
FE13
00C9
0324
0143
01A4
0142
00C2
0067
022A
FC20
00B9
FF5C
005E
01A5
0215
FDBC
01C5
00E8
0111
FCED
FAD8
FCFC
FE72
014C
FE27
00F8
FC89
FEFA
03DF
0383
FFFD
01BD
0082
0106
01DE
FDF2
FFCF
02D2
FF62
FF6F
027B
049D
00FA
0443
02BC
06F8
029E
FC24
FC10
0017
FF97
FEA1
FEF0
FEF9
0127
0265
FEEB
FEF7
FB92
04E7
012F
FC57
02A1
0460
0225
FF3D
0294
FD7F
FF99
0125
0058
0108
04D1
034D
0202
0538
FD23
0128
041F
FFA7
003B
028B
0333
0134
0050
FC8D
03D7
0154
FD59
048C
FBCD
FB0A
01E6
0054
0258
FF68
F8E0
FCC9
055C
08A3
01ED
03AE
FD0E
FE22
042B
01BC
02FB
FF7A
0011
FFCA
0391
04CD
0629
037C
0014
03FB
0213
FA7A
FE11
00BC
FCA5
00CE
03C7
0538
0097
022E
058B
0002
0114
0292
0010
0721
012B
FCEC
FE96
FD3B
FF9E
03C9
FFE9
059C
006E
02F3
FD34
FF1B
FF1C
0006
FF43
0167
FFB5
03F4
FD05
FEAD
0289
0166
0087
F957
FF53
0136
0081
FFDD
FD48
0128
FC41
0111
0198
FE58
018B
0875
0122
00F5
0289
0138
FE83
023D
FD65
00B5
F7E9
01D4
0259
0139
FD89
01CD
F8B7
014D
010D
011B
F890
FD47
02A0
FF35
006C
038F
FECE
FF02
016D
026A
FB96
F9DB
FD49
021A
02D4
FC0F
FCDB
FBA8
02B4
FAAF
FD3E
FF70
0456
FDA0
0680
0027
07C1
0304
FA89
0044
008B
FDD9
001E
FD82
FCD1
005D
FCCB
FCD1
0047
FE7F
FE84
0023
03B0
0303
FE31
003C
015F
FD4A
01BD
FD78
0101
FF5B
0166
FC28
006C
036D
02BD
FCDC
009C
00BF
FE78
FF46
021C
FDFC
FEFD
FD04
0240
FD13
062D
000E
FD1C
02B8
FDD3
FF6B
FC71
0094
FF3B
0308
FE85
FD7D
FD2C
0289
009D
02CC
01E8
FB40
FE1B
0186
03CA
FE55
007D
0281
0111
FDFF
01F0
FDD6
FC9D
06F1
019F
FD73
0155
FE5A
FBB1
0342
FE57
FEDA
FE45
FD29
0521
0009
FC2B
FFB0
FABC
F8BC
FFA1
005C
FCB6
017D
FFE1
FD46
00B6
FC70
03AC
FC5A
FACA
FB64
FF70
0005
015C
FEEB
01F6
03A9
007D
FEF6
01F8
031C
0373
FB6D
030A
FF35
FEC6
00CF
FD33
FDB1
02C7
FDFB
FD8E
FF54
FEDB
FD24
FD46
02E4
FE1E
0251
FFB5
0092
011B
0047
009B
0308
FFE1
FDF8
00FB
FC9F
FEF1
FF56
F9AD
FED6
FD9F
0158
01ED
02B5
FCDB
FD68
00E4
FF08
0185
FC0C
FEFE
FC72
FC02
FC80
FD89
FE76
FC54
FC08
FC33
FB8C
FCE3
FE9E
FFA6
F984
FB77
FE4C
F9AA
0170
02E8
FC3C
000B
FEBC
FDAB
FD4B
00CE
FE01
FDD2
00F1
FC27
03C3
03B4
FDA7
0270
027F
FF28
FBF6
FDA3
FC7E
032A
0028
FC68
010E
FC3F
FE43
FF81
FE6A
014D
03E2
FFA5
FFDC
026B
FEDD
