FF19
005E
0123
FEE7
0055
FC03
007C
03F6
00CE
FDD4
0399
FE18
FC92
0389
FCFB
0252
0261
FF93
FF45
FE91
FEE4
FF9B
FE71
0309
FC10
03D5
FCF6
0283
0351
02E3
FFFD
0251
FEBA
037D
FE09
01C1
02AF
0213
0148
00A7
02B4
FC35
FF73
FD6F
007F
FC27
0169
FE8C
01DB
FD62
00FB
FD57
0075
FE23
FF93
00DD
0035
037E
0353
FC8A
0132
FCAC
FBC0
005C
0317
FEF1
FE36
FEDA
FB2D
FF3F
FF00
0012
FBBF
FFA8
00C7
FC6E
FD01
0168
FE13
00DD
0336
FFAA
0219
FFDE
FD7D
FCB5
01E9
0168
03B6
FCA3
014A
000C
029B
0165
FBFD
012D
FBCD
FDBF
FF85
FD57
00B3
FDC6
FE23
FC90
015D
FF44
FE37
FFA1
FE3F
FE93
FD5A
0058
0240
014C
01D6
FE24
FF8F
FFC3
FCF4
03E9
0265
04CF
FF0E
006C
0042
00F5
FD45
0073
FE3A
FCBB
FF0F
FC3E
FEA3
FA2E
FB67
FB86
FFEC
02A5
FC90
0266
FCDD
02B9
0131
023A
0119
01EE
FE2A
FDD2
FD9C
FE36
06D7
0375
00D8
03E3
FF58
0037
FD8B
026A
FFC2
FECE
0087
FF50
FF31
FE5F
FC25
FB0E
0397
FD90
FC15
0290
FC63
0040
00F4
FDDC
03BA
014D
FA0C
F7A1
FCB3
FE12
FE69
0185
0237
02A0
0078
01E1
01F8
FDD9
FFA2
0425
00DD
FE15
F9DE
00D8
01CD
FD20
FCC0
0150
FD66
0060
01B8
01F8
FDF3
FB74
FF4E
FEB6
0300
FE1B
0260
0385
FB85
0269
FD05
FE0B
034D
01C5
FC16
02E7
033E
FF4D
FC9D
FF1A
FD4D
01C9
0345
FDD4
0058
FF16
0101
FB9A
FD96
FF26
FD05
FCC7
0362
FBE4
016C
FCA0
04E6
0001
05A5
04C5
0020
04BD
02F9
0040
00D5
015F
0127
00C4
009F
0106
FE9F
0057
0247
013F
FDA7
00B8
0371
016C
FEF2
0133
00C3
FCA9
FD96
004B
032B
011F
0495
01BF
02F6
0410
054D
0335
FADF
02E1
018B
FBC1
024C
FE91
FDCB
FCAC
025F
018D
0395
00E0
0414
028C
0379
029A
FCED
FD25
FB09
FC1C
FF1D
FC5F
FDEA
06AD
05C5
00AE
FF3B
FF61
069C
02B6
019E
FC3A
FDB3
0014
FC78
01E3
FDC0
03CD
FB47
FE98
FEA7
0422
FD37
FD22
022C
03CE
FCEB
FEAA
FBA3
FD14
F7EC
0013
FEF7
00E4
0107
0617
0009
FED5
FEDB
0130
FFFB
0316
FCC9
FC59
FFAA
FFF2
0201
035B
01EB
FDDE
02AE
0037
009C
0092
009B
FF54
FA66
F87C
F659
FEF4
026B
040D
0428
035B
FF48
00F5
0588
FD18
0308
FD16
FEE9
FF3E
FD77
FFF7
04A8
FD22
02C3
0054
02C6
01E4
0353
01C2
FEEC
FD09
00EE
F6A7
F9CE
0163
0019
006D
01FF
0092
0369
03C7
FF2A
FFC1
021C
016A
00C5
FCC3
0036
FE1B
01D7
FE5B
028E
03B2
0096
FF6A
FFF6
04C1
025C
FE13
FD96
FBE0
F6F0
FEEB
0274
0086
000D
00F5
FE2A
0157
0187
FE5E
FD74
018D
02C7
008D
FC34
0166
0002
013B
FF32
0078
FD3E
0112
0159
007E
FF34
FD38
FC7F
FA91
FFAF
FD01
FF70
0081
01FB
0194
0047
044A
03F8
FEC9
03B8
FE87
0110
00F5
FD5A
FAEA
FF07
01FC
FC65
036C
032A
FF19
00C9
0270
FD27
FD23
FA2D
FE51
FF14
0344
00EB
FE3A
03A1
FFFD
04E2
FBB3
008F
019C
03BD
FFF5
00B3
023E
FD3D
FCAF
0142
02B4
FFA0
FF5B
FF0D
FFDE
02E1
FD59
00FA
FD9B
FD47
FCF9
00AB
02D6
FA59
01C1
FD7B
0123
FF1F
FF6F
00D5
01FE
FD3E
FDB3
0230
00AE
0394
FD7C
FFFF
0054
FE77
01CB
00D9
04CE
02A4
00D2
FCE6
F983
0266
0195
FF39
0112
0128
FD0C
FF95
FE3F
FE9F
FFE8
FAFF
FD05
FFD3
FFF3
0046
FC57
01FB
FBD5
FCA1
00F8
0074
0079
0517
0212
03DC
04CB
00AB
FD49
0080
FD8A
FFC5
FDA5
0424
FDF0
010C
0192
013D
0143
011C
FEB3
0396
FC88
FD22
FEB2
FE5D
FDF6
00FC
00BA
0120
01DA
06B6
FDE3
040E
01EA
0370
FA80
FDB1
FF77
FC01
FD0D
FCAD
FA6F
FFAF
0212
FF9A
0165
00B1
FB8E
FD46
0216
0351
0102
0254
00F2
FFEB
01A7
03AE
FFA0
FD5F
FFC6
00D9
FFB9
01ED
FF19
FF73
FEC5
01F7
FCF3
FD85
FF3F
FD7D
0021
0332
FE0D
0354
FD36
FDF3
FD25
0065
003D
FEE0
FE55
FE62
00FC
0526
01A0
033E
05FA
004F
0364
0302
006E
0245
FD50
FE06
0091
FEE5
FF0C
003B
0043
FF74
FEA4
0244
0159
FF70
FE4A
FDBC
FD02
01B5
FE55
FB78
FFFE
0482
032B
FFC7
03FF
02B0
0366
0376
FEB8
00BE
FC28
006B
01E8
FD3B
002F
F95E
007C
FF5B
0325
FBEA
012A
01A9
0073
FD84
0153
025D
01E1
FC81
FF3E
FDD5
0048
036E
FFBA
FD5C
FFC4
04CC
0042
FDAB
FF1D
FE41
FAE6
FB62
FFE7
FE52
FEAA
FCD2
FF37
0361
0236
0370
03EA
014E
0055
FE13
FCAA
040C
02FF
FCC9
007A
FC8E
F97B
FEA1
F80A
FB24
FB07
FEEF
F77C
FD39
FBED
FBB7
00CE
FECA
0216
FE02
0213
017A
FD93
FC23
FE7C
FF3E
FD10
FD03
0220
FF81
02C6
0039
0170
FD6B
FEE4
0109
FF07
FC46
FF94
FE45
FC8A
FA98
FF8B
FE50
FFF8
FD96
0369
00EC
FC35
FE20
FD01
03DA
FF46
02C6
02A9
FD20
FF05
0059
FF84
0254
0399
FCA7
FDF4
022F
029C
0429
FD3A
FE1C
FE8C
0105
FFD3
021B
00A1
0013
FD60
FE7E
0016
01F8
FFFA
00A1
FE5F
