0074
0053
FCE7
FFE9
0128
0233
013C
0361
FCCA
FE89
FEF4
0368
012E
01ED
0077
01AD
FF84
FDE3
03C4
01BE
00E8
016C
FF16
01FB
03DF
00B7
0087
FE97
FE3A
012D
FEA3
FCA2
FFEF
FD38
0394
0155
0041
FEAF
02A4
0336
002C
0185
00E2
FE82
036D
FF56
012D
0376
01F7
038E
01DF
01ED
FDFB
0043
0166
FC43
036B
0039
0143
01D3
01E2
FC83
00AF
FC0E
FED2
FD7A
0280
FC86
FCF0
FF78
FE94
FED2
0037
024B
009F
FF62
0119
FE0B
0147
0194
FF38
0074
0139
FDF6
FEFA
FF48
FE0D
01DA
FECA
0067
00D6
FE54
FDF8
FDA6
FFD6
037E
02D8
0425
FD55
01FC
FF20
FE9E
FF34
FC74
03A5
03EB
00CC
FC4E
00B2
FCE3
005F
FDA9
FE67
FF7D
00E7
034B
FDCB
FF96
FF25
FD81
0132
FFB0
0030
0091
0292
02BD
FD82
025B
021A
FF20
FF65
FD90
03D3
023C
FE85
013B
01E8
03BB
01AE
FDD9
FF74
0025
FE26
FC03
FD9A
FD03
016B
FE77
FFBA
FF42
0436
FEDB
037A
FF64
0148
FC97
0245
0166
FE08
0126
FF97
00B4
FF41
FFDE
015B
FC70
FD75
02EB
FC3D
FF48
009B
FBF2
FECE
FDF9
035E
01A5
03E3
FE3F
FFDA
00C5
01B0
FE1E
FCC4
FED9
0084
0093
FDBC
FE4F
0079
FED3
FDF9
02D3
FECF
FE1D
01FB
0318
009F
FC6C
FBFD
FFA8
01D9
FD2C
FF02
0068
0114
FFFD
03AF
0258
00F7
FFB9
FE42
FFDE
0024
FCE2
FE32
FC6D
0053
FF95
017E
FF7D
00CF
0050
0288
FCCE
FCD9
FCCA
FDAF
FE96
00EF
FEEB
00C8
0180
0227
038D
0162
0333
FE55
FC39
0216
FEB7
FF3F
FF60
0099
006E
FF78
FAE0
FECF
0007
0096
01D2
FFAB
007B
FF9B
FE64
FCE9
FEB7
FDA2
FDA7
FE04
00A0
013B
0527
056F
04F7
FDA3
FAE7
F98A
FAF7
0223
FD90
FDD1
0113
FDD6
014E
FB54
02C3
00B9
017B
0024
03E7
FC99
FC87
FDC1
FE07
0125
0232
016E
0077
01F4
0422
05A6
032D
0090
FA10
FD4E
0139
FD9B
0535
FF3C
0161
FE75
004E
0181
00AB
0392
033C
FD1D
FD44
0071
001B
02E2
0015
01FE
00E6
0422
035B
0123
01D0
02F6
FE44
FC16
F7BD
FAB8
FEDB
014A
FF9E
FDA1
FFE0
00B6
037C
FF02
FF66
FE6E
0123
FC62
038F
0330
036C
02A8
FF6B
0094
016E
026E
0498
03E3
02CA
04A0
0122
FDE0
FBEF
F8C1
FE6D
00F7
0107
02D7
0052
05FE
FC56
02CA
03C7
0316
0287
FD22
FF96
02FF
FD43
03E7
0128
FF7B
0364
01D5
01DA
02C2
00EC
0075
006D
FB9C
FAE1
FF8B
0154
F9CB
01EA
FFD2
00C3
FFD9
029C
0327
0257
039D
FFA0
FDE7
FFD0
0304
FC28
0144
0196
0368
0251
02DC
01A1
03D8
034A
0267
FE51
FB20
FECD
FD20
FBFC
FC1A
FFCA
FCE4
0105
00AE
FE28
01FB
01B9
0392
FEC0
FE6E
FF79
012A
FCFC
0117
FDF3
0019
03F5
050C
00B7
0221
01E9
01C2
0253
0008
00AD
000D
F916
FF16
FFEC
005E
FE5B
0199
FF01
022D
039C
02FA
000A
0169
FC4B
02A9
FC4E
FCC7
FFB9
02EA
FEFD
0527
0193
049E
FD09
FEE6
FC3F
FB6B
FE4E
FE19
FDA3
FCDB
FCD9
024C
00A1
FF1E
FF5A
FF91
0107
013C
FCB4
0371
02EC
00E6
FD01
01E6
01A7
FF8F
0284
FE17
0064
0186
FFDA
01A8
00DD
0088
FEC9
FC1A
FB64
FBD0
0065
0338
FE75
038F
FEE1
0221
0072
FF29
03AA
0341
FE87
0196
FE87
FE78
FFA1
01A9
01AF
0112
00AA
019A
0480
02AB
00E9
FD13
0045
FAAD
FD9B
FAF6
02CC
0161
03A2
02DC
0348
0182
0039
01E9
00D9
021F
03C9
0117
0051
00FD
FFCE
FF42
0179
0169
FEBA
013E
FD63
01AB
FF08
FCBD
FDE4
FC1A
FF1B
FFDD
04C0
00E3
0237
FE50
FEE8
FD23
FF24
FE68
FC4C
00E1
FD0D
FD76
FDAE
003F
0266
FF6A
0309
FF14
01B6
FD92
FFE9
FD6E
FCEA
00D5
FB45
01F5
FF80
FFB0
0433
00DE
FE3F
0007
026A
FFAA
FE9F
0140
FCBB
00C3
031C
FEF0
0071
0273
031E
01A9
03DE
FDED
FF37
0191
FF5F
FEAB
0389
FD58
0160
00D4
FFAF
0589
0194
0227
FD55
0488
0142
0301
FE0C
0102
0251
036E
FF2E
FDCC
FEAD
0269
FC7A
0261
FC5B
FBD5
FFFA
FD91
FAA5
FF9F
FF3A
FF13
FE23
FF79
0193
0086
02A4
000C
001A
02E3
FDF0
FBF2
FD9E
FC55
0265
FF61
FF3E
0151
FDC3
00BC
FDFB
FEB8
FFAC
FCA9
003B
FFC1
FB98
016B
FD08
FD78
0394
0093
0182
010A
04B1
00C1
0082
0435
0261
0278
FD5D
02F3
0309
03D7
FD70
FD33
00A4
FF89
FD98
FFE9
FF67
FF52
02BA
FEC0
01B6
007C
FFE2
00D4
FFE6
01BC
045C
FD96
FE26
0264
02A9
FE75
FEE7
009E
FED3
FCD7
FBF7
FEDE
FCE6
FDE1
FED8
00BD
00B1
FF90
FFA0
0052
02C6
FD52
FD46
FB8D
009F
00A8
FC99
02DE
FF1E
00BC
FC1B
FE71
02FD
0080
0046
FE5C
FDFB
FEEF
0027
0045
0101
0302
FEDD
FFFC
FFF0
FE3C
01F9
FD56
02BC
00B6
01E9
FC8D
FF14
FF10
FDCC
FC30
FDD8
012A
FEC9
0096
03B8
01A4
016D
0036
FD78
013F
FEA9
FF94
03F1
FCE7
0252
013E
03D3
FC5B
027C
FE0F
FC52
00C2
0219
FDAC
FCCC
0215
018F
FC0C
000B
01BC
FFE8
012D
039E
034A
0165
00C1
024E
FF19
FC2A
01BD
FF48
