023D
039D
002A
FDFE
FF0D
03F8
0160
0367
00B7
FC96
FD32
02EE
03DB
FDBA
03DC
0059
FE3D
FC68
FD50
0261
FF93
FCF5
FFA3
02A2
03EE
FC44
FDC0
FEBD
005F
03A4
0024
FD07
03BD
FDCB
01B7
0157
027E
FC1A
031D
FEA2
FFC6
00D9
FEEE
FEF6
037A
FC40
FEB0
0283
FEE0
FDDD
FCA7
FE30
0008
02DC
FECA
FDA8
01C5
0266
0062
FE26
0312
FE7E
FDDA
FD31
022F
FCD1
FC10
FD39
032A
FD5A
00BC
004A
0159
00E6
008C
0176
0050
FC60
FDEC
FF91
0067
033C
FD76
034A
FD39
FC64
FCA6
0286
00A3
FE75
01E3
FFD6
FF77
FF24
FE0C
00B9
010F
FD1C
FE3E
040B
FCB0
FCCD
00F8
FC92
01A4
FF87
0117
00F1
03A5
016E
FC89
01BB
FEE0
03C3
FCDC
0348
FD9A
00DC
01F4
0031
0098
00E3
FB4D
FB8E
FECA
FE3D
F9A4
025C
FDF9
FC51
0255
FE5C
FE08
FD02
FE59
0219
0246
FD9B
0003
021F
02E7
FFDC
003E
019E
FEB4
0285
FD22
FA14
00F6
0288
00C4
FAAE
FEA1
031A
FD59
FB8F
02DF
FFED
FDB6
FDCF
FEF6
F983
FFC7
00B1
020A
FCC6
0276
0146
02CC
0033
01EC
00CE
0359
063F
FE58
F865
028C
0168
FC15
FF2B
02DD
FE8C
FFFA
0339
0089
020E
FD79
00F4
0020
03FD
FB8B
FE58
FB9A
FE65
FF2A
FEEE
02E4
01B8
012D
0095
036E
038C
04F5
0ADD
FD31
01E1
01A3
FB02
027F
0145
FE36
FDE5
FD8A
0121
0063
0350
0407
FDEA
0400
0335
0131
FD00
00C6
010A
0206
FD10
FDBE
0392
03F0
FF98
F9D4
0483
02A2
0290
0248
0577
FF76
FEC1
0048
01EE
FE85
0095
FF0C
FEB6
0105
FF8F
FFEE
046D
0016
FCBA
FCE1
FEFC
0179
03AD
FF5F
0260
07EB
0361
035A
FFF8
FF77
05E7
00A1
013D
0004
FF80
0359
FD4C
FF2C
08E8
0272
0021
013B
00F4
0583
0573
FF9D
04CA
00A3
03D2
FE2B
FE47
01AC
036C
FEED
FFC2
08C6
0191
FE0E
0457
FF09
00CB
FF3A
0621
01A2
0397
0388
005E
FFAC
0145
038D
0318
01CA
FEDB
FF5B
00B1
0161
FF86
01C4
FD3D
0160
06AE
0672
061E
009D
0374
FE7F
0066
04AF
0746
00FB
FE20
F807
FC46
FE24
0059
0388
03ED
03FC
FB5E
0375
FC0E
FE60
0227
00A7
FE0C
FCD0
00DD
FFE1
FEAD
FFA4
FE8F
FBE8
053A
04FA
032A
003F
0001
01C5
F461
FA37
023B
0549
02A2
0585
FC7C
FE17
FF5C
FF06
F7F9
FCDC
0177
FC3A
0064
FFF2
FD58
0020
FEED
FF29
FF77
01C9
FCE2
FE35
F997
FECD
00FA
F8E4
EC85
0066
FDC2
0093
02E5
FFD6
F7B5
0302
0068
FBB2
F8E3
F9AE
FB6D
FE12
0154
FC9D
00E1
050B
FEB0
FA62
FF13
FEE1
FAC9
0130
0174
FFCD
021E
EFB0
F113
0001
FF53
FF06
0120
FC63
FF7A
0131
FD33
0117
002E
FAED
FFEE
0065
FC01
FC7D
FD60
FF23
032B
F85D
0060
012B
FEBA
FC21
FFB0
FB22
F9F9
F29B
FB10
0431
FE82
FCD8
FF9A
0021
02BE
04C4
02CA
07A0
00B8
FB21
FCB1
FCD6
FDB5
0310
FC3B
0087
FE5A
FEB5
FBFE
FFBF
038E
FC37
FDAB
FD9F
F8CF
FA23
FB54
FF0E
0638
012B
01C1
03EE
0499
FE3D
0560
0543
FC2C
046D
FD93
0449
FE97
00BC
005E
FD8D
FBB2
006A
FE70
00D4
FA17
FBAD
F8B2
F78B
FBB9
FB60
FF02
01F2
013B
0179
FF71
0475
FDD1
01FB
0210
FD5B
0194
0223
0259
040D
0270
FE5B
FD64
0151
F962
FA48
00D2
F95F
FCB7
FB79
F8C5
0007
FFA9
FBB3
FE0A
FEC5
009E
01E4
03EB
011E
FF87
01EC
035E
01FA
FD63
FA7E
0298
0067
FE34
02EE
FD66
0406
0041
00E9
FEA7
FAFD
FB72
FF91
0031
FCA6
04D7
F918
006A
01FF
00F6
FD17
FD0F
FBCD
016E
00A2
FADF
F71D
FD69
FDCE
00C1
0144
FFA0
FDCB
0251
FCD2
FB69
F6D7
F7FC
F64F
FC00
0002
FDBE
FAB2
FEEC
0166
FB73
0266
039E
FC02
FCF1
F9BB
F97F
FFD2
FBDC
FB2C
FA00
FD81
008D
FC53
FC5D
0002
0220
FDC5
0131
FD04
FA4C
FA0E
F9CC
FAAC
FD3A
FE85
FFF5
0079
000F
FA8A
01C5
02E2
0226
0338
016D
FBA6
FF9A
FC50
FE1F
FEDA
FEDC
FCB0
03C1
0190
FF6A
0229
FE9F
FB73
FED8
00D7
01D7
033C
FFC2
03F8
0168
FF9E
02EF
00CB
01C8
022E
017E
0598
0030
FF63
F836
FCE3
00C4
FF3C
FEBE
FE0F
0198
0239
0240
0260
0260
035A
049F
07F9
013D
FB2B
FEC5
004E
0175
FAD6
FE48
FF33
FF08
FBD5
FE0A
FC57
0179
FF1F
FF54
FC57
023B
0267
02A9
0221
0040
FD8F
026E
FDD8
FDEF
029F
0671
01D9
00FD
01C3
FE9A
FE4C
008F
FF48
00D2
FE13
028A
FAD8
FF6C
01F2
FC60
FB2E
0159
FE48
0338
040D
FFD6
FCAE
033D
01DE
03AB
0206
044C
0394
FD96
00C6
FEC8
054A
009C
FCD9
02D3
0516
FF6D
FE66
043F
04C8
0466
FFDE
FE5E
FC55
FF78
0001
FF26
FCBB
FC1B
FCAA
0230
02A6
02E0
FE81
FD6E
0191
FC64
F91D
FF5E
FFF3
03E5
FF02
FF53
FAC3
01CE
00D1
04F5
FFFE
FFFC
02E4
0368
01BE
FE93
FDB7
032F
026B
0059
FF5E
027E
FE81
FDF0
FEEC
FD98
023F
0138
FD9C
01CE
FE5B
FCD3
FEEC
FD21
00FA
00B3
01A4
FD52
0260
02FB
FFA6
044E
0093
00BB
FF92
FE91
010D
03A9
FEA9
FFAC
