0298
02D5
FD2B
0257
01AA
015F
FE81
00C9
02E7
0255
022B
FE73
FCA0
FE77
00B0
FC77
FEC4
01CB
015F
0106
0372
01C2
02A0
031B
0343
FC6D
FD23
FE00
FD8E
FF60
02E6
FFC1
016E
FFC9
01F8
FE2E
03CB
0065
FF67
0037
01F7
FE72
03B7
00DF
FC4B
FF86
00FE
FE36
0292
0220
0148
FCFA
FCEF
FC11
01BA
0153
FE93
0259
0297
0267
038B
FCE8
FE5D
02B7
FDE4
FD37
01C1
0352
FB47
00AF
FD78
FA52
FFC6
0217
00E1
FBDF
0062
02BC
FC81
020F
01AF
0219
FE1C
00EC
FF62
0370
015E
00C1
FDDB
02F3
010C
FE1B
0224
01EB
012A
FF56
FF3D
031D
FF87
FD52
FD73
02E3
FF4E
023C
0069
FF10
FD01
FCF4
FFA4
00CF
FC9A
0257
FF6F
02EE
0107
01A7
0299
02F5
00D6
01CF
FC6F
01E6
FF7A
02CD
006C
017F
FD4D
041F
FEFD
033F
016C
FCC1
FD23
FB53
FEFA
FA4B
FEA3
00DA
FC97
FDAC
030B
0103
0039
03A6
0058
FD97
FE77
03DE
00E9
0020
0465
041F
FD9B
034A
0079
0177
FCAD
03D3
FFF5
FD5D
FED9
00C9
0142
F930
FCA1
03C6
021E
0143
FD0A
FDC7
0179
0006
0012
FF61
02A7
FD09
03A6
FAAD
FE59
083A
FD3E
00D8
FF3A
FF91
FD92
01B8
FC8F
FF0E
F98F
0452
031B
FC72
FE88
FC7A
FE95
FE55
024E
FF95
01B3
0130
FC01
03C4
0147
02AE
FEFE
01C3
04C6
06C3
0418
0351
FA21
018B
FD21
019D
06F1
065F
0016
02D2
0145
01A1
0241
FC32
013C
FF00
02BF
036C
02C3
0180
0156
00F2
02E4
FE70
010A
019B
0088
FA6D
0700
FF14
066E
024C
0866
025B
04E5
FEA5
02DC
FFF8
0236
04EB
003C
FE85
FBDE
FDB9
0374
FD8F
039F
FE7C
01E1
002C
FA79
0339
FE4E
0030
0280
FC46
FF5F
00CE
0090
FF78
041B
0308
00BD
00A4
0027
FDE5
FC09
042F
0693
02F2
FC88
029F
FCCF
FD4F
035D
FFD1
04E3
06AF
000F
024F
FC0E
02F4
005C
06A9
017A
FE24
FEA5
0370
043B
05AB
021F
FF2D
0004
062F
0262
064B
0149
FFF6
0295
0093
0091
0007
023B
018D
0061
FA03
FFD9
04F2
01AD
0330
FAE1
028C
0191
03AE
FD21
FAA7
FB84
0109
0190
0322
02D8
021A
03D6
FEC2
FFF1
FBC4
0070
FDD0
02DB
FE37
FD61
0224
FBCB
FBAF
00CF
0184
FED5
03DE
047A
FDB3
044E
FD98
F95B
FBB4
FC57
FD76
0121
FFB2
01E2
FD22
FB51
FE9E
FE6F
FDA0
FE58
FD5C
03E6
01BC
0155
0201
FD50
FD82
009D
00C3
0286
043C
0162
02E2
0208
F8D4
FBF6
F916
F512
FB9B
FE95
02E3
FE28
016C
00AD
06E7
00DE
013C
0217
FEB1
0311
FCE2
FC62
020F
FE08
011E
FF30
00A5
FE45
01D2
FF4A
002D
FC54
FB58
FE56
0006
FA10
FAC0
FC55
FA7B
FFA7
027B
038F
0393
0087
00E7
02DF
FFA8
023C
0065
0213
FC0D
F9D6
0204
FF14
00BA
F976
0039
043F
FC08
FC40
003B
FE21
F77D
FD1D
0032
FFDC
0125
002B
0274
00B6
02D9
05A6
FB81
FC78
FEC4
01EF
FCFB
0164
FE16
FE14
03F7
FC21
014F
077D
FD32
FB08
FD21
FF9F
F9B4
FE03
FD27
FD6A
0019
FD73
FE10
FC68
FF0C
FF8A
0196
FB79
FDBF
00C7
014E
037B
000C
FDD2
00A8
0100
FF23
FFF8
FB0A
FFDE
FDE3
051B
FF0A
FFD0
FFA1
FC76
FB9E
FD1A
0388
FB0C
FDFA
FF8B
0004
012C
02B6
0597
020B
006D
01A7
FF72
FD49
FF99
FAC1
FFFB
FF71
FE9B
0077
FB9D
FD4A
FE1A
0232
F943
FBB6
FECF
FFCE
FEEB
0011
018D
FB5E
0018
FD59
0259
03E2
FFED
FCFE
01B4
FE65
FC5A
02A6
FDCC
FFA9
0101
018F
00FF
00BA
00F2
03B4
04A4
FA97
057D
FDF6
FD0A
FE66
FCC0
01E5
FD60
FC2E
03FB
FE94
FE1C
FB8B
0190
012B
0295
FE48
FDE4
FD8B
FCF5
01CF
0563
01C0
01B3
0061
02BB
FF95
031F
0240
08C1
068F
F9BC
FDB0
FAA5
01DD
FE17
FF01
FB82
FC84
04B3
FA69
FEFE
FC39
002F
FE5B
03FD
FEA0
FFCB
01D9
FD99
FA6B
0014
FEFD
FCC4
FEEB
045B
01D1
046A
008A
063C
0000
020D
FBB4
FA08
FC4C
FC72
FF47
FDF1
FB9A
FE94
FD07
FD0B
FFCB
018E
FD41
0246
02E3
FFE2
019F
FED9
0189
03F0
0504
03B2
022B
FFA7
0316
007B
00FC
FE1E
023F
FDCD
0269
FC4C
FCC6
FE64
FB01
FC42
FEAC
FDCF
0118
0381
FE8E
0352
010C
FE23
0433
05A8
00C5
FD24
000F
061C
01BF
0394
FF9A
0618
012C
00B6
0267
FE88
F8E9
FDFF
FC6F
FFBD
FFD6
FFEC
024F
0217
FFA7
FC79
030B
FF05
03CE
FE6F
0553
0080
006D
014A
00C5
0209
FDD9
055A
FF29
01AA
FE02
0085
0101
00D7
FB36
FA25
0013
0005
020C
FBE9
FE94
0154
027C
000C
038D
0288
0427
0063
FA8C
FC8C
FC4F
FCC2
03B5
FA89
0051
FD39
FF07
FB70
FD73
FFC2
FF0F
FD49
0290
FBAA
FE00
02AE
FBB1
01D2
FC11
029C
FCEC
FF0E
FE2C
FD49
0357
FBC0
FCB5
FD9D
FFC6
FDF8
00E2
031A
FF2D
FF33
02D1
0104
0489
045F
00A1
00B2
FFB7
03F7
FD7F
FE54
FF43
02D8
FF85
0282
FC1A
0166
FDF7
012B
0022
FE74
0256
FD88
045E
009A
0398
FEC2
FB81
FC52
036F
022F
FEB4
011A
0206
049C
FF7B
FE8C
0273
00A6
01D8
FFFF
FEAB
003F
FFCB
