0004
FDCC
004C
0149
FC31
02D9
FC4A
031A
01A3
FE54
013C
FCF9
FF16
0203
FE6D
03EF
FE7E
025C
FEA2
03AA
00A1
FCC5
0297
005D
00C9
01AA
FEDA
0397
FCC4
0330
FF2C
01B0
003C
03B9
03CE
FDFF
03C7
FCA4
03FD
FD44
FF88
FEE9
FD67
01B7
FDE7
FDA1
FF4D
0003
FF5E
0026
0289
015A
01D9
FC75
FC1F
0128
FC6B
FFC5
00BA
FDB2
FC37
FE35
0356
FD16
FDAD
FF88
FCC7
FFC8
0088
0452
FF29
0101
FD3F
00BF
FC22
FC57
01C1
FFB8
FFB5
FD8C
0360
0220
FC9D
FD91
FDB4
FE90
FC4A
031E
FCA7
FE0C
FD59
013F
FFB0
FCCF
FC84
01C2
00CA
FF57
0501
023E
00C6
FE61
FA48
FB74
017C
FE8D
0384
FEA5
FD41
010F
0293
009C
FD08
0201
FE00
018C
0390
0531
FDD4
0802
013D
024B
030F
FE2E
0295
04D3
020A
FD7E
FE0A
FE0A
F310
F9BE
FD53
066F
060A
086B
047C
FCC1
0068
0223
0081
03B0
014D
FC3F
0150
02DB
04F4
0438
04BA
006E
06F7
0226
0189
FBE8
FEB3
FD10
FEB6
F6AC
F003
FCAF
0227
0422
0483
03D3
04EE
0430
01D2
FCBD
FC58
FD36
00F1
FBC2
0198
FBA1
FD44
FC5D
FEE9
0228
FCAD
F9D9
00B1
FC3D
FF33
FD51
ED82
F1CF
F86B
FE49
0331
FEEB
FF96
0687
03EF
FEBC
FC1F
FE5C
03C3
01AD
FD4D
FED5
FDC8
FF2A
FCEC
FF9D
0023
FDCB
02E2
0155
0303
0162
FE9B
FFF7
EB19
F6EE
00B8
02AF
FF5C
0447
FEEC
0689
0047
0165
0078
FD3F
FD17
00E4
0350
FD25
042B
021B
001A
00EA
0375
00E2
0085
FE2F
039E
0370
FD03
F362
F258
FD55
0176
FDFD
FF10
FE41
0241
0322
00CD
015A
006D
FFE9
FEE6
0309
FCE1
0437
0329
03A5
05BE
FC1B
FF53
FB99
FD9B
01FD
0509
00F3
FB25
F4E3
FC38
035A
04FB
FE25
062B
05E7
020E
034E
FEE9
0299
0027
03A0
01A2
017E
00F3
FC8F
0496
FE35
FE53
FBC0
01DE
04AA
0065
01F4
0251
016A
F7C1
F96F
FC28
0171
02A1
0436
06CA
0045
FEF7
040E
0235
FE6A
FC04
FC9C
FCE8
00C3
FE55
FD54
FF32
0466
0128
FEAB
FE85
FDB8
01AD
FE95
034D
FE30
FA3B
FCE5
FD1F
FCA9
05E0
02B8
FA18
0057
041E
FC05
FAAE
FE23
FC08
FF5F
FD43
FFBC
FF9C
026B
FFB8
F974
FC4C
03E9
00E9
FCFB
FF3A
0821
00A9
00E5
00FB
FF7C
FFD5
04EA
FFF0
01B9
00C5
01CB
0175
026F
02BD
FA64
0264
02A7
017C
FFC9
00D4
0267
00F0
0109
FE37
FF9D
0074
0430
059A
00DC
FD75
FC88
FFAF
03E8
FD19
01A3
FFA9
0238
0493
0467
FEC2
027B
04E9
FD0F
FFD7
FEE2
0278
012B
0401
03E5
FD4D
04CE
0495
F874
003D
0326
FECA
0121
01CD
F9EA
007C
FF62
FE64
0365
FD20
0498
0220
00DB
0366
0465
FF6F
006C
FF04
02EF
FCB2
FFBD
FD8C
00B3
FDC5
FCAB
01FA
00BA
023F
FD28
FEBE
007F
FCD1
FF68
0663
FD5E
FB11
024B
FE5F
FFB7
FEDE
FC1E
044E
FCD7
F7B8
FC8C
FD8A
0003
FF1F
FF4B
FE4D
04E4
FBF8
FAA0
FF2D
02FD
02D5
FF4E
FE38
013F
FE2C
04EA
FD80
009D
00C7
FD75
0479
FFAF
026D
FE46
028B
FF28
0181
02A5
F8E3
01C1
02AC
FF2A
FDE6
01B2
013F
011F
03F7
011B
0083
007D
FD9B
0187
FA65
0193
FE07
FFD5
FFFA
FF75
FFBD
FE9C
0082
040D
0360
FEDA
FE35
0241
FFF5
01F1
FFF4
FF09
022B
039E
02E8
FC15
FDAE
FCBA
0071
0131
FE6F
FE49
0041
0118
0528
FC21
0312
012A
0281
063E
FF44
00EE
00FB
FF95
FFA8
00F4
01AB
037A
FED7
FC61
0323
000C
00AE
FFD7
FD70
FF8F
0368
076A
FBCB
02D5
FE02
FEF6
0166
FE9F
FDD8
FC11
FBB6
FE25
FEB3
FD1B
03BF
FC7C
FEA0
F9A4
0272
FD27
0278
FD68
00C1
0280
FBE1
FD10
FD16
FFED
FD72
FA7D
FC30
F927
0388
038C
FFFD
0300
01B4
005D
003D
FAAE
0371
FE20
FF6E
FE31
FEEC
FF34
0253
0039
FE3F
01DA
01BD
01E1
FD09
FD00
FC82
00EE
01DD
FEED
0079
01A8
0172
FB07
FF8C
03C6
FD0C
034F
037E
0102
03E0
FC96
FFEB
00D5
FBB5
FCCD
FEE0
03E0
FCB7
FFBC
FDC6
01BF
029A
FEEE
FC21
01D9
0251
FA1B
FF16
017B
FE10
FF38
FCB4
016A
021C
FC5D
FF00
0215
FCE8
FFBD
0292
00D8
FA57
01C7
020E
02FC
0150
FC1A
00B5
0387
0009
048E
02C1
02D2
FE52
071D
0215
FC80
FDE5
FD32
FECC
FFF5
FF87
FC52
004C
FE7B
FB01
FF49
FC00
FABC
0144
FC77
FC3A
010E
FE8E
FE7D
FF13
FE6F
02D8
036A
01A3
FED5
0263
FEBA
021F
0702
056D
05A1
033F
00AB
0239
FDD9
FFD2
00AA
FF19
FF5A
0215
FD60
00E4
FDA3
020C
02FA
FE16
FE87
0322
0091
0157
027E
FE13
FB9B
FFB2
FF2B
02A0
FED9
053E
03C4
FC01
0668
01DA
0120
0296
FCC7
FD3C
FB71
020B
FEE5
000C
FFF7
025A
FD45
010B
0232
0179
FDBD
01DD
FED2
FE58
0117
FF1F
FC8E
FFD2
FBFB
FC21
FEED
FA86
01BB
FEE7
FC54
FE94
FD14
F9E3
FF8C
FFEC
028D
0197
02E9
0197
FD5E
035A
0164
0235
FE71
FF6F
FFFD
FBFB
FEC2
01FF
FE64
02B4
FC5F
006D
04D1
005E
FC0F
FFCD
003C
FF54
FEBD
FD67
FC4C
FF7D
02FB
01DA
0393
0134
FEEF
