FCBE
FC0C
FFD0
00EF
0342
0216
0392
FEB6
FFF0
02F2
02DD
FEFF
031B
FCD9
0015
024D
000F
0361
FF3F
00D8
0228
FC80
FD83
FEF3
0296
0121
FE98
030D
0391
003D
FD15
FE77
02E7
0363
FE78
002F
016D
022D
033E
FE60
FBC5
FE98
FDB8
FD8C
FCDF
FCFC
FC55
FDBF
FD6F
034E
FD6A
FC66
FDE5
FF97
FDE8
FFD4
FD8A
FD11
FD89
03B0
017D
FEB2
011A
FDAB
035C
FE3C
FFFE
FEDE
025A
FD51
FECC
FB55
0216
FD3C
03AC
FCA7
FDD4
FE58
FEE5
013E
FC4C
00CD
FC4A
0272
019D
FD12
FE72
FEC4
FCD2
00C3
FF30
001D
0060
FDE9
02D7
0293
022D
FEC8
FE56
FC44
FFD0
027E
FCF0
0151
FBD1
02D2
0345
FDE9
0328
00E3
00AC
006B
FF9E
010F
FFC2
FD03
FF80
FF00
01AB
FCB3
FC17
FC1A
00F9
FDBA
FC75
FB4F
0050
0034
0118
0249
F958
FA27
FBF4
0196
FD3C
FD74
FFAC
025D
FDAF
026E
FD06
034A
0131
01CE
FE0C
FE1E
FC0A
FB70
F999
FEA9
FE78
FFA6
FE7B
F4BA
F745
FA2C
F96D
F746
F600
F7F7
F9C6
FF90
FF3D
FD00
FF9A
FCE0
0033
FD94
FED3
FC65
0044
FE3F
FFD5
FAA5
014B
02C0
02D2
FE3A
FE23
FB13
FFF2
FB31
F6B6
FA68
F830
FA24
FCC6
F9C3
FB2F
FCFA
FEC9
FE4F
FFEE
FF79
FD73
FEA1
FF9C
0260
000A
FDD9
FC36
FBF2
FF36
FDCE
01E8
009F
033E
FC10
0228
FE76
01A5
0089
005C
02A2
FB72
0087
FF98
009D
008A
02EA
014A
FF41
FC8C
FF23
FD49
FDC6
FFA4
FD5C
FE4B
FDBE
FED1
FC53
FF2B
0072
FD82
02B6
026F
0603
04CA
069F
07DA
045F
FF9D
03D0
0424
0196
0323
0307
FEA2
01E0
FC23
FD5E
020A
FCEA
FD65
FFB3
0225
03D3
00EF
025C
FF69
FE88
0587
0275
03EA
047C
099E
05FD
FE3D
0A10
04B7
0116
027B
010F
FEAB
0249
0292
FE53
FC3D
004E
FC74
0237
0020
FEFD
FBA4
0240
011D
018C
01B6
02F6
0225
0675
04E4
083B
01A4
0329
029B
001D
0084
FF6E
FE3A
FD62
FD22
FEB2
FCD3
0355
FFCD
FDBF
0381
FE16
FC79
FF28
FCDF
FDCE
FF32
FC72
FEB1
0081
FF16
0659
FDAD
01F7
FE36
FF30
0115
F9CA
FCDF
FB40
FA6C
FB34
036B
00F7
00B5
00EC
038F
FD30
0217
FE96
FDFD
FD2F
FF63
0097
FF81
0068
000A
FDA2
FA77
0114
FAEE
FF18
01F0
FF30
FA04
FE60
0171
0367
0125
FC74
FEEC
FB1A
009D
0282
FFEC
FC15
0196
018B
0295
FE72
FD44
FECD
FFF7
002F
00A4
FE23
FCD5
00E4
FF94
0374
0198
0101
0000
FE71
FA18
FD44
FDA6
FC28
FD36
0079
00E3
FEB6
FFA1
007E
FDF9
FE5A
FDDC
0026
FEBB
FF2A
039D
00DB
FF32
0247
0385
0159
02B8
FF6F
0111
0296
FE92
FD25
043C
FD59
06A4
FEE8
FF63
FE3B
057A
047A
01EA
0214
FF02
FF1A
0178
FF28
017A
FF59
0443
0088
FE86
FEC3
FED9
0620
0245
01AA
FD2A
FDC1
0269
FEC0
FF09
FF81
000A
FEFD
FF2F
FE2F
01A9
0067
FE08
02BA
03FF
FC14
FE52
FD0E
FD20
0114
00ED
FFD5
01C3
FE50
0402
02D3
FF58
FEE5
FD75
FB2D
0173
0371
0068
FDF9
0095
FDF8
0277
FF99
016C
01BD
FF3A
003E
FD75
037B
FC7D
00EB
01D3
00F6
0257
00B6
FFFE
01F9
040A
0008
FC08
FFAC
FF7A
03B6
FF4D
00CE
FEAB
0205
FFE4
FE60
FD36
FF26
FFB5
FEB6
043F
FDA9
0351
FE9B
01BE
01DE
01EF
FF94
064B
0087
06BC
04A8
02F1
FFB4
FBDA
FAF6
01B4
FDF1
FE2F
00FB
018D
01FA
FDA6
FFFB
01D2
FD96
FDE9
FF55
028C
01B8
01F2
0179
FE30
FC66
043E
017A
FE25
FC24
FABF
026A
0093
FFEE
FD58
FDC5
017E
FD3F
FF51
FDBB
FDB5
02BE
FFF8
0344
0281
029D
007E
FF1E
FE64
00B0
FEDC
02BA
02BC
FFDE
FF32
FE02
FEFE
024C
0114
FB71
F9FA
FE19
FCA5
FB9E
FD05
FC1A
FC97
FF2F
02EA
00A2
FFD7
FE28
FE96
0082
FF29
FFB1
0385
FCD7
01EE
FED8
02DC
03D4
FE6E
00A8
FEFC
FB3E
F9F3
FF81
F8A3
FC3D
02F4
0148
FE7A
01AB
FCD0
F929
FBC6
FE0D
0031
0297
0350
FE14
FD71
0484
0000
01A8
FE39
FEC2
01D5
0318
000D
FC7F
02AE
FBB0
FAEC
FA82
FD83
FE04
FA3C
FCE4
FB0B
FC49
FE10
FE3C
FDE8
FA88
FBD3
FD01
008E
0538
056F
FFC6
FECB
FCB0
FCE5
0030
0353
FEC7
FFFF
00C3
FEF6
FE61
FE15
027C
015B
020F
0340
FF9D
FED9
FD78
003D
FE76
F81B
FC21
00F0
FFE8
FC14
0507
FE11
FED8
0124
01BC
0138
FEC1
002A
0043
FEBB
FEBB
0157
FBE8
FF52
FC2E
FDED
0059
0065
FE8A
FCFC
FA84
FE0F
FC7A
FE9F
0009
FDB5
0256
FD9D
03FC
020F
0309
0091
FDE5
018C
FF20
FF7E
0287
0360
0148
FC0B
FD8B
01C2
FFE5
0361
FFDF
FA39
0138
034E
01B6
FFBC
03D8
02BD
0409
02C7
0200
0151
01F2
FEFF
FFBF
010E
02CF
FF9F
FE32
0043
FF4F
FE16
01E7
FFA2
FFD9
0072
FFCD
0376
FF39
0302
04F8
0403
FEA8
05CF
00C0
03EB
01FE
FFED
0403
03C1
0122
FE61
01F7
012F
039D
022C
FEC9
0258
00C7
03E2
FF02
0159
02CC
FDB9
005C
FD43
FC95
0308
02AE
FEF0
0443
FCD0
FF4C
FF22
0142
FC57
FC18
0134
0018
FF17
01BD
0347
00D6
