011F
020C
01DC
02A5
00E3
0206
0277
FFA3
FD38
0072
0360
FDDB
FF43
02FC
FF1D
FD2E
00BE
0074
036B
FDC2
FE90
FFFE
012B
FE0B
FC08
FEDD
01D1
03E0
FEF5
004E
0331
FC1D
0202
FE07
0315
00A8
00D6
FF3B
FF0A
0278
FD9E
0282
01AC
02A2
FD48
FC71
02BF
FC72
FCB4
FF05
03D8
03D9
FE1F
035F
01D0
01D8
01FC
FE64
FE6C
FFC1
FEC5
0388
01BD
0118
FE8D
FC66
FBFF
FFDD
0222
01C6
0295
FE18
03EB
FE7C
0117
FD1F
016F
FD49
013C
0153
FFD1
FD21
02F8
033B
FC7B
0330
FC66
004F
0092
FFC2
0193
025C
0375
FF41
02F0
FBB1
005F
FE56
01BF
FDA0
032B
FDED
01E4
FDA7
FD81
FFE6
0355
FC7D
FBCD
FCAA
02BD
FCAB
00CE
00BF
033F
FC99
FFB2
FCAF
FD8A
02CA
0230
FBA7
FE9A
FFB9
FE34
00C5
FE68
FE25
017F
FFD3
FE2D
03CC
01A3
FFD5
FE4E
FD52
FFA4
FD98
FC47
FE9F
FE3F
012A
03DA
FF7B
019B
009C
01DD
FF11
FCD6
FF39
FC81
FFCA
FCC2
FBE1
FD32
FC55
FEF3
FE90
FFD0
FCA0
FE85
02FA
FE4F
01BE
01A0
FFDF
0289
FCD0
00F9
004F
01E3
FE7B
044C
043F
030D
FFFB
FFF3
0522
FF87
FFCD
FFF1
FC70
F9EA
FC9B
FFEB
FEA2
01C1
00DC
FFF4
0137
02B5
FD5C
0126
030F
FF93
FC2C
FCD5
029D
FE5A
FCAC
FCE6
FEDF
0279
0258
0142
025F
0625
0192
FFE9
FEB9
FB94
FBB6
FF19
FFCB
016B
05D1
0554
012F
00E4
0022
FD86
FD6C
FD22
00C0
FD8F
037C
FD07
022D
0357
FF5D
00B7
0180
0090
02F5
011B
045C
00E6
FDF2
FD50
FF80
0146
0271
0287
02DA
0161
FEC0
04F6
0163
FE50
0133
012E
01AE
026D
FFF8
02E0
FDFF
0114
FE39
05DB
0111
01D3
0156
FF4D
0335
04EB
0360
FD87
FF51
0350
0404
FE46
00F6
0102
FFF1
04B0
FD2D
010C
FF69
FC8A
02EE
034E
015F
FD8D
014F
022E
013F
FDA2
02C4
01AC
03E6
030B
0048
FCDC
FCFE
FB9B
FE99
02B8
01A7
01B3
00A7
01B6
FE0A
FC9F
0016
FEE2
031B
028D
FFD6
03D2
02C8
00B2
FF19
01C1
02CB
FFE5
02CF
0102
00FD
03A8
0155
F887
F8D6
FC57
0157
FF83
0276
01B1
FF9F
FE97
FFDB
00A5
0130
FDF7
FD92
02E0
02B9
FC87
0222
03A3
01E9
00BB
FC27
FDD7
03F6
012B
FE25
FBFB
F6C7
F7BF
F8E8
FD8E
0014
0092
0010
008C
000D
FD21
FCFD
FBA5
FC53
FF10
0376
0230
02D9
026E
FC7D
0076
FBE8
FECC
FE52
FCC5
FB92
FB32
F903
F6EE
FC42
FC33
FB0B
031E
0454
01F5
FFA5
012A
003A
FFFC
0194
FDCA
02A2
FDFD
FEE6
FFD7
FF44
FEF8
FC25
0354
FD81
FC20
0182
F98B
FA1D
F97A
F8DC
F9C3
FFE7
00E4
0064
0021
FEE5
FF76
054C
FEAF
FF4B
002E
FDD4
01FA
FC11
FF37
FCBC
FF2A
0088
0063
FC4B
0247
FDDB
01EA
FFB1
FC39
FD59
FB53
0137
026C
FF5D
0024
0285
FF71
05D1
FF7A
04B2
0353
038D
00B3
0399
FF91
036A
FEC6
039F
FFD9
02E5
01A2
00A3
FFDA
FD97
FE03
FDCB
F910
FB06
FEE8
FFB6
00FB
0359
00BA
00DE
0384
01AA
FDEA
033B
023E
FE5B
0147
03E7
FD7F
02FB
FE5C
FF04
FF60
00E3
027C
FF92
FF1F
FDDA
02A7
FE11
FD7C
005D
FE58
0381
01E7
0041
0036
0209
FFFC
0149
FD74
0096
FD8D
FD8E
00BC
FEE1
FECD
FE2F
031C
FE83
030E
0399
0022
0028
FDE9
02B8
024C
FB9B
FD51
FD8E
FE15
019B
0155
FF6E
FF91
01C4
014E
FF9A
0050
FE2D
0193
FE6E
FDF8
FD84
FDF8
0146
FC8B
FFE7
FE97
FDC0
FCAA
FFB6
0242
00E9
FE06
0201
000F
FBB7
FE20
0119
0162
FD07
FAFC
FF35
FFDF
0114
00AA
FFCF
FEFD
FF02
0260
FB18
0097
FB52
FFD8
FDE1
FC5D
0041
019D
0339
036F
0018
0065
FCC7
FC16
FFBD
0040
FED8
FCBF
FDDF
FBFE
00B8
0011
FEBB
FDB5
FF1D
FD0A
FBCF
FC3A
0192
FCDE
FD9D
003D
0042
0159
0155
0032
0270
00C0
02CD
0098
0088
033B
034A
FE53
FD45
FFBE
000A
FC96
FD63
01C7
FF1F
00A5
FE74
FAD2
FFD4
FFE9
FD2F
00B6
FC4F
FD4B
FD26
01A3
005E
FD74
0242
FDC6
0179
FE22
0404
FE9D
001B
FE75
00BE
FCA0
FEEB
FF20
0065
FEB7
015F
00D7
0042
0230
0376
FCAD
FDEC
FBC4
0175
FD29
FD28
FF96
0340
FEBE
FC43
FE31
022D
FEFA
0321
0611
03FC
FB21
FE01
0076
FF16
01C0
FFAE
0240
FF98
0453
FDE4
FF1D
FCFA
01D9
FFEC
FF5F
FE49
0350
02BB
005E
00C7
00F6
FEDC
FC87
FC20
FF2E
03D1
03FB
FE45
00EF
024D
019E
01DF
FF15
00D5
01BB
0149
0049
018D
FD67
FCB1
FDE2
FEDC
FE07
FD79
00C8
FEBC
FE11
FE96
005D
030D
0170
FECC
FFC3
016A
FE4E
FE56
0473
055E
FDF8
FF69
FFDD
FD10
01A7
FD0B
018A
FCDA
003E
00A0
FD56
FE0A
025E
FD2C
FE96
02A2
FD8B
FDB2
FE47
FF39
FDF0
FCAC
FF71
FD25
02A1
FCFC
FEDD
FDFE
FE31
0236
FD7F
0159
FEF4
FEAA
FF11
02B5
00AB
0404
0062
FF4A
FE58
FF03
0319
006C
FD78
FFDE
FE63
0219
0326
00D4
FE3A
035E
FEF8
03E2
0124
010D
016A
FED9
FD4A
0164
00FC
0112
0354
03C6
03D6
FFC6
FFEF
01AA
FECB
01DE
FFF7
FDDA
FE21
008C
