FE39
FEB2
FD7D
031D
FD8C
00C0
FD02
0014
FDA3
FEDE
FC37
FC60
FCBA
0148
FC1D
FE9A
FFE2
03E4
032D
03F4
0067
0189
FC47
FF16
0311
0302
0171
037D
FFC7
FC96
00A0
FD86
FDDB
FD2D
FE60
001D
0197
0224
0177
FD32
026D
0162
FED3
FD36
0169
FEA1
0162
0106
0203
0181
0162
0004
FC22
038F
FE5B
00F7
0034
0301
FEFC
01E9
FDF8
FE7E
FE08
03E3
03CE
FEEC
017A
FFC5
FE2E
00AC
FE4D
FE87
00BC
03CA
FFD0
FDFA
FF86
02B7
FE78
FDE7
FFDD
02EB
FF3D
FF42
FE0E
03F3
0346
FECB
FFFF
0364
FF12
038A
002B
0068
0136
FE5E
FD64
FEDC
FE28
0080
00F3
FF1E
FCD5
FEA1
FE82
0143
02D5
FF06
003B
FF01
FDB2
0014
032F
01A1
02E2
0139
0282
0370
FEF3
0115
008B
0170
FF6B
0283
FD06
FDF6
0051
FD7E
FF53
035A
037A
00F9
0097
0069
0194
0005
FE7F
FD21
03E0
0234
01E6
031F
021E
FDA1
FCD8
0265
FFED
FE41
000A
FDB0
FCB2
FEE8
FCB9
FED6
FE01
FF11
FBC1
FC55
F90E
FAD4
FAF6
FD2C
FA9B
FC20
FEFD
FE88
00CC
FCE3
01F5
FFEB
0194
0241
005F
000A
FF33
FC1B
FE34
FD3C
01C2
FCEA
FD5A
FE56
FBDA
FB40
FD0B
FC54
0086
FAB5
0013
FEAF
FD97
FE52
02A8
FF39
FFC6
FFD8
03B0
0374
FE89
FD5A
0140
FCE9
FD7E
01D8
FF0F
FEA5
FE3D
0009
0034
FD20
FD17
FD12
FD2B
0083
FF93
00C3
FC7E
03F8
0407
0303
FF4C
020E
0343
008A
00B8
FE7D
00B6
0345
0398
01C9
FE8A
00F4
FDA8
FC9A
FFF0
FC41
FCC5
FEB4
0261
FF93
0029
011C
00B8
04C3
0451
00ED
05F0
0012
0625
035C
FEA9
03E4
FC49
03D7
FFDA
FE01
FC20
009C
FE34
0087
FF2A
01FB
01CA
047E
0147
019E
0540
03A8
0573
0785
0816
0213
045C
02BA
04B7
05BD
051B
0547
FF3B
FD47
008E
0335
FFAF
0103
FED0
019E
FD4D
FF72
FDDA
0184
0188
0120
0208
0345
FDF4
0393
FF92
01C0
0171
0659
047F
04CD
FFBA
0170
0784
0279
03AB
FDD4
FDEE
FD0D
FE5D
01CE
036F
FCD4
FD02
FF10
0321
FEFC
031B
012B
03B5
01F8
025B
FEA4
FE29
FFDE
FDAA
FCA7
FDA5
005B
0235
0008
0022
023E
FCE9
0066
FDDB
FC91
FCF4
FD9D
FE6E
01D8
FD35
0161
004F
0143
02D8
006F
FE74
00FE
FF55
F8BE
FC59
F928
F845
F86D
FCEE
F83D
FA6B
01D8
0024
020F
0350
0238
00FD
02B6
005D
FCF0
FD85
FE68
FD5E
FF55
FDE3
0281
0257
03CF
FEC2
FFD7
FEBA
FEB9
FE45
FAF0
FD11
FD68
F905
FE5E
F9F7
FD82
0104
FCDD
0096
FFBC
02A5
FDA3
FE8F
FE58
FBF2
FD60
FF43
010A
021D
0229
FE5A
006B
000E
FF29
FE60
001C
00F4
01A2
FFEB
FFC6
FE25
FAC4
FF6F
FEE4
0014
FF5D
FD77
FD46
FC4C
01CD
00FE
0083
00D2
012B
0012
FEB3
FDB7
0383
FE17
01E4
01A2
FD6F
FF04
FF3A
033B
FFA2
003E
FFBB
FAC0
FA5D
FD1C
FE50
FE95
01B0
03C8
FF35
FE0A
0294
FECC
FFF5
02BA
02AD
007E
00D0
FFC9
FE1E
023F
FE3A
FED9
0173
00C2
FBAF
FC71
FECA
042F
FD77
FE45
FEA2
FCAE
0249
00FF
FC8A
FF96
0039
02D5
0030
FC8F
007D
FF02
FDD6
023F
FE85
FE07
0167
02B1
0043
FC67
FDE4
FCAA
FF31
00E7
03AF
FD10
024F
FFD7
FD9D
00C8
0044
027B
FC6F
03ED
039E
0126
01A6
FC6F
0092
FD4B
016E
02CC
FDE4
03DB
FCAA
FEB0
FF48
0140
FC0E
0275
0204
007E
FF05
FD5E
02ED
FF8D
00C5
FE52
FD71
00D0
FC87
FFE6
03A3
01CD
0248
0321
FE69
FC2E
FDFC
0258
FF59
FF4B
FD25
FD38
FEA1
FEA1
FE03
FFD6
FFF4
01BA
FFF2
017D
FE34
FD25
FE34
03FB
0170
FE31
FF0A
FDBA
FEF2
FFA6
034D
FFA0
FF43
0329
0396
FEC1
FDF7
FF55
0008
FC3B
FF1F
0101
FF81
FD28
FF5B
FCBF
0223
FF2E
0255
FCB8
FE3A
017B
0287
FC47
020B
FCC7
037E
FD0B
FC52
01E1
FCE3
FB21
FF2E
FC7D
FF30
FD81
023A
00CB
FD81
00F9
01AC
00FE
FCED
0294
FD2D
015C
0326
FFBE
01F7
02CD
FFD3
FDA8
02F7
FDF0
004A
03CB
0095
FE0F
009B
FDAF
FE57
0083
006A
0006
017B
FDA1
0186
FFC4
FC8A
FEB4
025D
01F8
FDEC
0153
FEFF
FEB4
FD61
FCAA
FD88
0361
FF9F
000C
FECF
019B
005C
0185
0229
FF24
FD0D
FF32
009A
FDE0
0387
0168
00A6
0319
0000
0079
00AB
FE50
00DA
FD2E
FFBA
FE44
0136
013D
0296
FD62
FC33
FEA9
FCCD
FD32
FE62
0128
FD3E
011F
FD4F
FF6E
026C
0185
0496
FEA4
0007
02A7
0217
FF62
010E
FD6F
03A5
0122
FC90
01CF
01BD
0018
FD2E
017B
FF5F
037D
FFE5
FD87
0090
FFE8
FC20
0194
FCEF
FFB7
00F3
FC80
FD6B
FD29
035A
FF72
027A
FC3E
FF88
0199
FF1D
FD5D
01F6
0147
036F
012E
017A
FF72
0103
FFD9
FE7D
FE0D
FDD0
0225
FE4E
FC3E
0095
0352
FFCF
FD27
FE96
0033
0355
FFD1
02F2
FEF1
003F
01CC
0012
00E6
0210
0429
035F
030F
FD1E
000D
00DA
03F3
FC01
FCEF
00B8
03B1
02EE
FD40
FF43
03C5
0311
FC71
03CC
01CF
FED4
FD28
FFDC
FC32
00B1
FF80
FF67
0035
FE45
FE31
002F
0271
FC10
FECA
00C4
0385
0014
