03F4
0209
0292
0294
FE74
033A
025B
002F
FE5A
FC42
FD93
0224
0256
02D6
FDFB
FEBE
0395
01F1
FEF8
FEBC
FE78
01C6
000D
FEE3
FC31
FC40
FF20
0097
FD78
007E
FFCE
FE61
FCF1
FF8C
FF31
FFE3
FE59
008B
FE1F
01FB
03D0
025E
0380
FDC7
FD6F
0087
FC66
02F7
02CC
FC45
02DF
03E4
FEF8
FF36
022B
FFFE
00DD
FF9D
FCFA
02E8
0071
02BD
017E
022A
0219
035D
0125
FFA6
039E
FBFE
FC18
008F
FC97
02E9
FF13
FDA8
FCD6
FCE4
FC39
02BC
00B7
FDDC
FC1C
FE65
FFD2
034D
0242
FF88
FCD6
FCA1
FFA7
032B
FF4D
FF65
0223
FE43
006E
016F
FF38
FC9E
0168
FD7B
FF8C
FD45
033B
0067
FC76
0078
FFAD
02D1
FF2B
FD0F
FD37
FC7A
0301
016B
0061
FFFB
0233
FF9D
FF7D
01B8
019C
033E
FD0E
FEA9
F9F0
FD6C
F9D2
FEDD
F9FB
FA3E
FEDB
FAED
004F
FDA9
0248
01A9
0026
02BE
00AC
FF5F
01E5
FDC7
FEA7
FFEF
FEAD
01A4
0018
014D
FFEE
01B7
0320
0361
FF16
0301
FB88
FD6E
FC35
FF8B
FE0B
FC02
F816
FADE
FC7C
0033
FCB8
02B1
FD4B
004C
FF7C
03E6
FFFD
FEEE
FE21
FDC3
FE97
00BC
01BF
0358
053B
04AE
086D
061C
0758
FFA5
02CB
FF60
019D
0298
FBA5
FEF4
FE09
017A
FE25
FD5F
0026
FDC5
01EA
FF9D
01DF
00A4
FED5
FCC9
FE0F
0375
FFF2
035A
01ED
06BA
060E
0423
FC0C
00A6
FAA3
F925
FC9C
0040
F634
F82D
FCBF
FF9C
FDFC
FC21
0145
0067
FC43
0408
FEF0
0045
FE7B
FD6D
05C4
FCC6
0258
033E
018B
0290
0421
FEC6
016B
FCA5
00FD
023D
0389
FDBE
FC06
FD1A
FC97
FC8D
0375
FE93
FF37
0396
FBF8
FFE6
0196
FC3F
0320
01EE
02D0
0494
060E
FF6B
0054
0263
018B
017F
FE8C
0597
FFC4
FE6F
FE75
FBBA
FA62
FFB3
FF13
FC24
FF67
01B2
0055
01FB
FDFE
0528
FCD9
FE37
045E
027A
0260
0360
FBCD
FC5F
F5E9
FC07
FFCD
FEB3
04C7
0263
0375
00EB
FDB8
0201
0537
FD32
F9F8
01F0
FFE4
0358
FFEB
FD9D
025F
0091
FFE3
01F8
05BF
0505
0387
FB54
08BC
FED2
FDFD
FA08
FA3F
00EA
028A
08E9
FFC3
011F
06C5
041F
0087
FD29
FE2A
FF4B
01BF
0364
030C
FE0E
0182
01FD
030F
014D
04AB
FD47
FC31
00F1
F93F
FB65
FB47
FE78
FF81
0023
FC45
0412
00DE
05C9
0282
0376
022B
0291
FD6B
FC91
FBCD
027F
FEA3
FE6F
00C5
FE79
03A0
FC86
FC3F
0353
F9BA
FD91
02ED
FDF6
FD4E
FF53
FEE8
011A
04E8
FF3E
0264
FD5A
FFB1
02B2
05B6
FEB8
FA5B
FFB7
FF66
0175
FCAD
FCF2
029E
FED8
FE39
FD33
FFC4
FF44
0298
FEBB
FF6F
FCF7
0233
0340
FB98
0361
FEFF
FFE0
00E3
0284
FF35
FEEA
0179
FEA6
FE11
FFF5
0145
FDB5
FCDE
FF2D
FB7F
0281
FD89
FC3F
0076
FD45
03E8
FB5A
FF30
00D2
FD88
FD3F
FC5A
00F8
0036
006C
FE02
0021
00AD
056B
FF02
FF11
029F
FF03
FEC0
FE30
FEB9
0284
FC38
007B
0295
02D2
FCC3
0192
FCFF
F8DE
033B
0197
010E
FDB9
FFF4
FDD5
FE6E
013C
0164
FD5B
03E0
FEC1
023A
FCE6
FE39
FDA6
FE04
FF8F
030B
03E5
FC73
0183
04E2
0251
FF33
FEF3
0265
FC38
0352
FE11
FF69
0161
FDA0
016B
FDB4
0106
FC78
FDA0
FEDA
FCB8
FD0D
F9E4
FD82
FF64
FE73
FF5F
00A5
026F
FDC3
FD09
003E
FEA0
016E
FC96
FADF
FF9E
050A
07DE
0258
FCC2
FC37
01D4
F927
05CC
0312
FDD5
FF1E
FD23
FDAA
F972
FA84
FD77
0260
FFB6
FC53
03F7
015E
FC7E
FE41
0308
FAFF
03DA
04AD
020C
014E
01BB
08BB
F8E5
FD54
0043
01C0
0058
FECC
046C
F8CC
0292
FB70
F878
FA4F
FF94
FCDE
00B9
FF40
FC03
FE92
FF69
00E2
0075
FAEF
0149
0078
F580
FF73
0170
FE74
005B
FFB1
FD80
FEF8
FCD4
FE85
03CD
005E
FB25
FF02
FA30
0257
0248
036C
001B
FC88
03B4
0029
0198
061F
066D
FDF7
0017
FE5A
FEA8
FD1D
FE0E
FF92
FBE3
00C9
0184
0273
FB98
FFDD
FC2A
FFF1
FF85
F993
01A5
05A9
FD61
01A9
FC47
FC9A
FF7D
FE65
FEFC
FDC8
FFD2
0462
FFFB
FF50
00DA
025B
FFF0
02D2
021F
04F2
FE5F
035D
FCD1
FFC9
F778
FDC6
FD2F
0524
02F1
FD5B
FF65
FC05
01B2
037A
FD44
037A
FDBD
FE1B
03E1
FD3F
00B5
0251
FC3E
FC33
03A0
FDD8
FEA3
0065
FD78
FBAB
FF76
FF75
008F
0082
FDF6
00CD
FED9
000A
FD4D
0066
FE89
FCCE
FE03
009B
FDA0
FCCC
0390
FD17
048B
015C
003D
025D
0006
FEB3
00AA
FF59
028F
03F5
02CA
FF14
017E
0092
0180
057B
03FA
005A
FE6B
0358
FD22
0073
0045
0167
FDF9
FC53
012D
01B8
FDF8
FD05
004F
0561
03AB
F934
FF93
FFC9
FD8D
FC61
029A
0134
0201
01B6
0543
006E
0340
005F
FC6B
022B
FCFE
FC14
FC1D
035D
FCDC
0272
FFC5
013E
02DF
FD93
0053
01D3
0424
0036
01A3
01FC
0143
0405
0761
078B
0399
0280
00CB
FF6E
005F
00CA
FE63
022E
02D7
005E
FF6B
FD73
FFA0
FEFD
00A6
0119
0182
FD09
FFB8
FCC7
0246
0091
0155
FF34
FDB4
FD7F
FF93
05DC
0340
043A
FF06
FEB4
0257
FC1F
FC4E
FDE8
FF0B
