02C5
FDB0
FCDA
007B
01F9
0155
FCA6
FF2B
FDE5
0339
FDC3
0053
020C
FC66
0359
FD15
0108
0216
FCCB
0170
FF17
FD44
022C
0200
0156
03FD
00BC
FF3F
FD92
024D
FF8F
005C
035B
002A
FD6B
0397
FC2D
0044
0256
FE11
03F9
FE67
FD8F
01D3
FF46
023E
021B
FE56
03A2
FC4A
0396
FEEB
009F
FD15
03B5
013E
FE6B
0372
01C7
03F0
FE52
FF1E
FC53
FC42
FC62
FF0B
0276
FE55
0104
031F
FD51
006E
034B
0478
FFFC
FEDC
FF80
02F8
039B
03E3
030A
03E5
FDC6
0319
0255
FDAB
01A2
02E8
030E
FC85
FCEB
02FE
FC82
FBA4
0173
FC54
FF59
FDC6
FDE1
00E6
026C
021F
01BF
0284
03AA
0215
025E
FD3D
FFE9
FF0E
FC29
018E
FE6F
0188
0041
0019
FC49
FC26
FBE1
FF22
FF65
FDC3
FEF8
FD22
FE04
FFA1
FF2C
FE10
03E7
019D
FECB
01C1
00EE
01C7
FF94
FED2
0518
00B0
FCC1
006A
0240
FCB2
03CE
FC81
02A2
FE9E
FD50
FA68
FF7C
00E2
FF0C
FDB7
FFD8
FFEF
FDB4
FF7D
FF06
0258
02DF
FF0E
0305
026B
01C4
0140
020E
0093
01B0
020E
0283
FF48
FFA8
00D2
FB9C
FCA7
FD0E
FB77
FCC2
FE60
0170
000A
FEB0
FF22
007B
021C
00FF
00D7
0149
0155
0307
00E6
06BB
04EF
0146
04B7
FD31
FED1
FD56
01B0
FD98
0302
FFE9
FF54
FCF6
FD45
0287
FEBD
FF99
0044
00B9
FD4A
0251
FEDF
048F
01AB
0512
0353
0590
0140
045A
02F7
000C
0378
0292
FCAB
FC72
02EA
FF51
003A
FD59
FC2F
00F3
FC84
01D0
000D
FEFB
0034
03A8
FEB2
FEE6
FEDE
009E
027C
FFE1
03E1
FFA6
02EE
0302
FF06
03DC
FFAF
FCA1
FD1E
009E
018C
FC5A
FCEB
FF35
017E
FFB4
FC22
FF05
0177
020C
010B
00B0
FE02
FC8D
F834
F54C
F8A4
F725
F9CE
FC88
F81D
FC28
FF34
02BB
FF71
017F
FDB9
FEB2
005E
FE8A
FBCA
FE61
FE60
FE71
01AA
02E6
00DA
FF54
FEF5
0088
FB9D
FA2C
FA6F
F42E
F385
F1FA
F092
F2D7
F82F
F749
FE2C
FD6C
FF53
FF27
FF81
FED4
FF61
FFDB
0290
FF5D
FF5D
0188
01F9
01BF
FF50
0154
0183
025B
028E
02C4
FE88
03CA
FFE5
F955
F4B0
F783
F497
FB19
FC0C
F995
FC63
FCF6
FFD9
FF0A
FFBF
FD01
0159
FC20
00CD
02DA
FCEE
0183
001E
0074
0131
FFCE
0203
FF98
FF6F
FDE3
007F
05D6
0097
FD8B
FB19
F4E8
FB12
00DA
02AE
01C4
01D9
FDCF
FE98
0297
01F2
FD1C
02D8
015C
FE6D
FB4D
00D2
FE84
012E
0273
0237
00DF
FD4C
FF09
0193
FEB1
FF39
0280
FA17
FE4E
FAAA
FAA4
FE11
FCCF
FF9B
02AA
FD4C
FFC4
FE44
01D5
FDBF
0140
042C
0352
FEA3
034E
02CE
0078
FF42
00DB
0136
01EC
FEB6
0388
FF5B
0371
FFDF
FF09
FD73
FC9A
FD93
FED3
02CE
FCE4
02A4
01F2
0221
FFCC
0097
022A
FDDE
FFBE
0066
02FB
FDCE
019E
FF94
FFD8
FEE0
01C0
0019
FFAD
FE6F
FF5D
FE73
0176
FD60
FED1
FD06
0108
FE50
FE2E
0399
03C2
0242
FABE
FFB0
FC1A
001F
0007
FE76
0264
FE79
FF4B
018F
0245
0067
0056
03E1
00DA
03A3
FFD1
03AC
FE67
00FE
FFCB
0089
FC15
FD33
FE82
FCFB
FD01
02F1
FDFA
FC44
0102
00C1
FF05
01A1
0324
FFB4
0297
0211
FD66
0031
FDE1
FE5F
FE93
0074
008F
00E4
FCCE
01CC
01B7
FBFC
FE52
000C
FDAB
FD8E
FC47
FF11
FE40
019F
FDC8
01AB
01B2
FDC1
0034
FDF2
007F
FC91
0151
FF48
019F
000C
02EF
FCED
FF13
FDEB
0167
FC9F
FD4D
FDB1
037D
FFBF
0052
0366
010F
FF07
02F7
038E
000D
FFB6
FEA3
FF11
FEB8
01CE
002C
FFFE
0072
FDB0
FF80
FFD6
FF0E
FF37
0126
FC69
0218
027B
0120
FF76
FFD4
019E
0210
FFC2
FE06
FF33
FDFD
FF9C
0327
FF38
02CE
FE4A
031E
FF26
010B
0148
0165
FF17
0099
001F
FD40
0220
FE33
00E6
00C5
0426
FF85
00AE
002D
01FD
02E7
01F8
FCE9
031A
0114
000E
FEE4
FE8D
00EA
01A9
FE91
0343
02E9
FFA7
0003
01C3
FF25
FFE8
0255
FEF1
0110
03A4
01CF
0124
003A
034F
FF59
FC0B
FE94
FF3F
039F
FD43
00FE
FCD9
00FF
0102
0091
FF95
0328
FFD5
FF1F
0170
01EC
0005
02CF
02DD
FEB0
FFF5
FF19
FD42
014D
00CF
FD0A
FE15
033E
FE2B
01A9
0070
FE19
FECF
FE93
028E
01D4
FF94
FD36
01E9
FF0E
FD52
0327
FF97
FF68
013F
FFAD
0051
0224
FCF2
056B
FFEB
02BA
04B7
010B
03B5
FEBF
FD4B
FE4F
008F
FDD4
FE4A
FF7A
FF94
FD09
FD69
03AF
FFC0
027A
02DF
FED8
FC75
0376
040C
FFAF
FE5A
05B2
FEBC
0066
FE6F
FFD6
FF61
FDDA
024E
FCEC
FE18
00A4
FEE0
00ED
FC46
0034
FE0A
FE3E
FCC0
021C
0244
00DC
FDA6
03F7
018B
0128
035F
030B
00F1
0126
FE9E
042E
00C9
FF2B
FE1B
025A
FE6D
FEE0
FDA2
02CF
01D7
00DD
FF30
022D
032F
FFE1
FE53
FFF8
0109
FFF6
0106
00C4
00B2
00E4
03CA
FDE9
02EA
0100
FC3E
019E
01CA
0063
0116
FF4F
FC53
028C
FEE7
0270
029B
0388
FDCA
0056
FCDF
0095
034B
039B
FED7
FCBA
FF5B
009F
FE26
0059
0336
FF13
0348
0163
FC68
FD98
FC3A
0375
FF4A
03D9
002E
FC07
FF04
