FC61
0026
0229
FDFE
00F4
01A0
FFD3
FD87
FC9B
0064
00D3
FE09
FE69
FEF1
023A
FDEC
FEF8
FEA8
0010
FCE1
01B7
FFB1
FD67
0278
02BC
0153
01C5
FC43
FEF7
FCD6
002D
FFC9
02D5
00AC
0043
005B
FDF4
0224
FD29
012E
0172
FD7D
FD10
FE49
006C
0122
0175
FFFA
021B
0027
FFA2
0173
FE85
FD67
03CE
0248
FC4A
FD64
0038
FFB2
03B2
FFD6
0038
023B
FC5D
021E
FEC7
FEC2
FDEB
FF6C
0064
FF48
FD9A
02FC
01B2
FE3F
FF60
02D3
02C3
0200
0016
FD80
FE9C
FC12
FC27
03CC
020B
FEA5
0177
0310
FCC5
FF03
0204
FC07
0023
FF49
008C
FC40
00DF
F815
FCE1
FDBC
FCEC
023A
FCCC
FEC5
FDBC
FD3A
FEE1
02B6
FCB0
FC91
FE15
FEDD
FE0E
FF88
FF7A
FB2C
FCBD
FFE3
FA5A
FCE8
0289
0267
00E3
FBA1
0323
02B1
FC73
01FF
047D
0325
FF29
FD67
0198
00FE
04A4
0432
FCA7
FC29
FF3C
FFA9
02AF
FCF0
02E8
FEB4
0016
FFA4
01BF
000B
FF46
FFE3
0497
FD41
01FC
FFAD
02BD
0405
FF0E
FE46
0520
0197
0008
0390
FE9B
0419
0300
FECA
005E
0394
0343
0424
0385
001A
FC6A
FF42
01B7
037E
FF44
04AD
00D0
0608
0440
031E
FCBC
0301
FE57
FEAF
064F
00A5
063D
017C
061F
FEEE
0219
FD28
FD6A
0324
03CF
0284
FCA0
02C2
026E
FE0A
010D
008F
03FB
FD50
0134
00F6
00C7
FFCC
0261
0187
07DC
FF7E
03EE
FE8F
FD96
FD75
010B
020D
01FD
02F2
FED0
FCDA
FDB2
FF37
0423
FCEE
FE3B
FEA2
0066
04C5
FF99
0010
00DC
0445
01B6
025C
054B
0290
FF25
00B6
012A
FDE7
048E
007E
0045
FE5C
FE64
FEFB
FDCD
FE3F
FD1A
0526
07C3
FF5B
069E
0089
FFEF
0328
FE15
FFA8
FE22
021E
FFF3
03D1
00A2
FF05
034C
FC46
0662
FBCB
04D8
00CE
FDAF
FEB6
FCDE
03EE
FCAE
0160
0434
055F
01B2
F8D9
FF3C
FDFF
FD47
0092
FD00
FE21
FEAA
FD3E
FAEA
F9B2
F9E9
FF74
FA5E
FA26
FF34
FA66
FE2D
FE5D
FC92
0258
0461
037A
FE56
FF68
FDEA
00D6
FF72
F999
0433
FC8A
FBEA
0464
FFF8
005D
FF4A
FF1A
FCB0
FEA8
0024
FBBE
FDB4
0290
FE8D
FDCE
FFD5
FE9E
FB58
FEC3
FE32
03B3
FFA1
FE47
FCC5
0090
00EC
FAF1
FE1A
01C3
FD68
01A0
FFB8
0245
017E
00C0
00B0
FF1A
0102
FDB5
FD1E
FDC1
04EB
FA7B
00E5
031E
FF80
00A1
FDA0
0121
0007
FEE1
FFD3
FABF
FFBD
0068
FDD3
01DF
027C
FEB6
01C4
FBEE
048C
0419
02E9
FD92
0153
FE65
02D7
FF1C
FFAE
FC49
F91C
FCEB
FC50
0049
FF05
FCBE
FF04
FFA0
01B9
FBCC
012E
FC70
0012
0216
00C4
0055
0041
01BB
0006
0477
03C2
04A0
FF94
03EC
FC10
FCDF
FF73
FC1F
F80B
FB56
F8EA
FC10
FC4A
FEBD
035C
01C0
01C6
01E9
FA8A
FF5A
FD8E
FFDC
0277
0369
02A1
FE6A
0762
FE4D
036D
FCF3
01D5
FE07
FB5D
FF3D
00D1
04F9
FF59
FEF0
FE60
FE84
0050
FCA6
FE00
038B
FF22
FE6B
FED3
F8B7
FBD8
017F
0062
0182
0566
06C2
0129
0359
03D2
FE98
FDF9
FED3
02C1
FD4B
FE0A
FE89
0071
017C
F895
FB5B
0221
FD90
03F8
FDC7
0205
029B
F8F6
F8DE
F359
F8A8
01C8
FDC2
FD6B
00EC
085B
0820
FEE2
FDE3
FD89
FEF9
0225
FD48
FD7D
0404
03E7
0220
FC10
FD3C
0127
0232
00DE
FE22
0375
0272
0020
F9C3
F338
F3A1
F02B
F41B
F8B2
FC08
FC14
FD8B
FB5C
FE33
031A
FB38
FA0A
FE3B
0795
0180
00BD
FD41
FFE2
FE18
FDB6
FECF
008F
FC4B
FE31
00CE
FF46
FDBF
F790
F79E
F0A5
EF54
F06D
EF93
EFA5
F29C
F9AC
FCBF
FECF
07DB
01F3
FE0A
FE24
FCF5
FD9B
00CD
FF2B
0253
FFF5
03CE
03F4
FDD3
FC80
0037
051F
FFB4
FE82
00DB
FF64
FFCE
F7D6
FD83
F7A2
FFF6
FCEE
FE5E
FF28
FD03
04FF
01B3
0135
0729
FF86
FF71
0488
01BB
FC79
03AC
FC20
004C
0160
05B3
0364
04D3
FD1B
06DD
FFCB
03F6
013C
01F0
04F5
014A
FEF5
006B
013F
FC0C
0139
FF98
0246
0245
0091
0123
0190
04CC
FEC0
0037
FD02
0240
0070
FDC9
0280
FD44
015C
02DA
0008
FF3E
053C
04B1
FEC1
FFAB
FDAE
02D3
FE10
FE8C
0116
FCA6
FDF9
FBC1
0279
025A
FE12
FD2F
005F
0225
FFD1
00BD
FCE4
0368
06AE
FF9D
0694
0524
00B0
FE94
0568
049C
FF86
017C
02C2
FF85
FCBB
FF73
FEF4
FE06
009A
FBDA
FE70
02CF
01D6
FE1E
FF8A
0368
FE15
FFD2
FDFC
015A
01F3
007A
02BC
04AC
01CC
02A1
0879
0398
0082
037B
00BB
0027
FCEB
FCAD
FCB3
FA3B
0273
FEE6
FFE7
03E2
02B0
FD30
FCD4
0390
014D
FF39
FF2E
FE58
0520
05F0
06DE
0108
06DB
0836
05FD
050A
0A72
02BF
FFB0
033B
04E5
0400
00F0
0792
FF39
0262
01F9
02AE
FFB3
030A
FCF6
FC05
01FD
FEBF
027D
FDE9
0301
FF8A
0191
0519
0117
0375
067B
0411
0740
0646
0478
0407
04F0
05CE
0214
01BD
0230
0231
04C1
FDFF
FD43
027B
0064
0096
013C
02D2
0299
FCB2
FCA3
01CF
0333
FF3E
FFE9
FC42
FFB4
FD96
03C5
010B
011A
FC7E
0275
01EF
FF8D
FE27
00FD
FE81
009D
03A0
0087
01C9
00AF
039F
