FD6B
FD1C
FFAA
FEBA
0310
0262
FDF1
FE3D
FD0F
FEAC
FFCF
FE99
FF74
0141
FCB8
00F6
03F0
FDC3
FF32
FED2
FEF0
FF3B
03A5
FFBD
FDED
FE67
03F4
0128
FC2D
FEC7
FF72
FEE7
FC54
0327
FC17
FCE8
0249
FEED
013D
0171
FC78
FF2B
027F
FCCE
0017
0250
018E
FED1
FEA8
FD37
FD56
FF37
FD35
FFF1
0187
00ED
FF2F
FC20
FF16
027A
FF50
018F
0134
FE74
01AD
00B1
0035
FE1D
04FA
01E2
0384
0291
00B5
FB30
FEFE
013C
0125
FFAF
02D1
FF48
02B1
0012
FE63
0129
FD26
0176
0370
03C1
02A5
FF7B
FF94
0097
FF31
0450
07F7
0384
06BE
019F
0175
0956
00E1
FEE7
FCE8
029F
FEDE
FE1A
006A
FE13
FF9F
FDA9
FCDC
031C
0199
02A6
0099
FE07
FD5A
046D
002A
03BC
04CC
01F9
07A8
00BA
03ED
0038
FD66
0399
0471
006D
020A
FF52
FE90
FBE7
FD93
FD38
0143
FE34
FE9D
0248
FC1F
01E8
FEDB
FE90
FE49
02FC
0501
02F7
FDCC
FFFF
FF23
004C
FE58
031F
01AC
FFBC
0217
FE1A
037F
002A
01DF
FE2C
FD25
FD5A
0034
00C9
02B9
FEA8
00C0
FFA9
FD0A
0163
01E4
0111
03BA
0070
0174
FCEF
FE6D
0253
FD63
00DC
00DC
FDD2
FD81
0004
00BC
048E
FBBD
02EE
FF9A
FCF8
0325
025B
FF9F
FC9E
0228
FD9E
01CB
0696
05F5
009A
FE7A
FE72
0668
0035
0140
FF44
0023
F9CA
0251
037F
014E
03CC
FF31
FE88
0245
0138
046E
018D
00DC
0299
00D9
0127
FE5A
0324
FE3D
047A
024D
FC0D
00CB
FC53
F961
02FE
019B
FD4F
017B
004A
FDB5
FF49
FB51
00A6
0285
FD32
FFEF
00ED
011F
018C
0075
0088
030D
FE3A
FC22
FCF5
0094
0255
038D
0367
FF12
FF69
0290
F3D5
FB51
FF10
FC60
FB53
01D4
FE6B
020D
FFEA
FFCE
FF93
FD02
0205
0198
FBF3
0177
0326
FF45
02A4
FDE7
0065
0118
FFD7
FD7B
FB32
FE59
0186
FF12
FF96
FFC4
FE6F
0287
06BC
0322
FEE4
00A8
00D8
0021
0048
FFF1
FED9
02A3
FF02
FAAE
03F4
0480
FF58
0268
01BC
0263
00BB
FE01
FB44
FAAC
FE84
FAF9
FF6B
FD3F
01B1
041B
FD74
079B
02CD
FCEE
FF16
0005
0129
03AD
FE27
FC2E
FD08
01E2
00AC
FE69
FC6D
FC74
0379
FB82
FFFD
FADC
FF44
FAF8
FBEE
0068
FD2A
0518
00B2
017B
FF65
0401
0210
0363
FD47
FED1
FF7A
FE0F
FF3F
FE30
F6F3
FB77
017B
FED8
0030
03F4
0362
FEFB
023B
FBCF
011F
FE47
02EB
07B1
0040
FF4D
FC42
034A
0701
0297
FA93
0146
FF93
0012
FE48
FC0D
FD73
FF2B
FC7C
FFC7
022B
0381
029F
0320
FC73
FC89
FC69
F7A6
FC0A
FB10
F7A3
FA95
0057
FFC8
052E
06C8
FCEF
044E
00C5
FB27
FA5B
FE2E
013F
FDD4
038D
FE09
02BF
047A
FFA8
FE7D
FE85
FE88
02C7
FDA5
FCCC
FB7B
F82B
FBCA
F51D
F104
EE3A
F08D
F677
0049
043B
0280
FEDE
01C3
0341
01BD
FBBA
0359
054A
00AA
05A8
01D3
0535
FF62
004B
FDBA
0063
FF46
FFDC
017B
03A7
FCC4
FCB5
F7DD
F753
EFB3
F13D
F043
F9B1
FAB1
FF0E
FB85
018C
02CA
04C9
02D7
0138
00A9
0570
03A1
FDD1
02A1
FEC9
0228
FFAA
FF4C
0830
00A7
FF5B
FEEF
FECD
0571
00BD
0041
F8E8
F919
F56A
FA2C
FD28
FDE7
FF0E
00EE
036D
FC15
FFC4
FEA9
FDDB
FF70
026C
FCBD
0163
00EE
02EB
0022
0BB9
0436
044E
0433
003D
062F
04FB
0445
0406
FD23
FC17
FD8A
011C
02F3
0000
FB27
02EF
0023
030E
FED1
005C
01DF
027C
016D
FC4C
FCC7
FCC6
FD2C
0402
0029
078A
0885
0377
012E
0319
01F7
0180
0665
01B6
FC55
0129
F795
FF4F
FF2A
00CB
FEB1
04A1
0057
FF59
0059
010F
FE50
FE7B
00C7
01DE
FCE3
05BA
FD3C
0144
01B2
0009
042D
00D3
FEEF
015A
01DD
FF5D
026A
FF79
033B
005A
FF4B
FDAC
0461
FF65
FFFD
00EE
0502
FC7A
030D
0363
FF26
019A
FD5B
FD60
FC2A
FF5C
FF3F
0160
0358
FF3D
036C
02F1
034F
027F
021A
FC2E
FF4B
01C8
FF74
014B
FECF
FEF5
FEB5
0255
02C6
0064
FD1A
0113
FF1C
0284
FFA6
FE79
00EF
0237
FD31
FF7E
0096
004F
0414
FE1F
FEFB
FEDE
03F0
FE69
FE86
FE00
0158
02F2
FC44
FFDF
0365
0008
00F2
0332
FE38
FFBD
FF59
FCF6
002E
0564
0160
00FB
01DF
02EC
FC04
01AD
03FF
00D8
0161
0060
00D4
050F
FFC3
FEAC
0422
0088
011F
FC7C
FC4A
FCDB
02F1
FD1D
FFC3
03C1
01AC
00BC
FEA1
04F7
038E
0138
0105
00FF
0252
FF6D
FD7B
01BD
0024
FF87
013D
01BE
FAB7
FF5A
011E
FA21
FCB1
FB48
FE37
FE72
FCAA
FF78
FFD8
02B8
FF11
0328
FEC7
FD80
02D8
FFB4
00F6
018C
FE08
FEA8
FF51
FE8D
FFDC
FEA7
FF36
00AE
0163
0114
002B
01BC
023E
0231
0021
00B6
01C4
02BA
025F
031C
FD3E
02E7
FF5F
0355
FFD7
FF6F
FCDC
0358
FE2E
FF15
030E
FE4B
03DD
034C
FF25
FFD6
0336
00BB
FC5E
FECF
FE40
FD72
FFC0
0199
0387
0144
0116
02F4
FD9F
006D
03AE
024B
FDE4
02D2
FF08
03FC
FDC2
FEA8
0156
FFC3
FC4B
02FE
01B6
015D
FFB1
0046
FEC4
FE16
0290
00AA
FEC3
03B5
FD63
01E4
0310
02C4
