0255
0280
009A
02BE
FE69
0060
FCB2
FDF0
FCCA
002A
FF87
FD22
031B
00A9
FED4
FC20
FFB4
FDC3
FF3E
FE01
FC13
FD47
FFEC
FF41
FD4D
0319
FCCD
FEC2
02B4
FEBA
0067
023E
FCCA
FD49
0275
024C
01C9
FE2A
007A
0325
FE41
FFC8
0303
0272
00F6
0034
018A
FBE2
FC6F
0026
03E7
0230
FE80
0043
FC10
FC9D
0341
0252
FCDB
FC4D
FF12
01EC
0394
FE77
02C6
FE91
FEBA
015E
FE19
FC0C
FD20
001E
FBE4
0093
00DD
FD4A
FCF0
0045
FF2C
FDA5
FF22
0244
FEDB
FE97
03A4
FC66
FD92
FD16
0037
FDBC
01D6
FCC1
FF4A
03C8
007F
FC25
FFA9
FFE3
F864
F6E8
FEFD
FABE
01F7
FDDB
0125
FD91
0113
FE9E
FD3F
FFCD
FD53
FE47
0317
FFCF
0408
0214
FC35
0277
02AE
02CD
00E3
02E5
FE0A
0417
05B1
06A2
FFCF
FD80
018B
FC9C
0160
0251
FF08
FF3A
04ED
01CD
FBE2
02BF
FF38
FE15
0038
03CD
00D1
0097
FD8F
0322
0232
020A
FDAA
0140
FD68
FF67
00ED
FFB2
FE0E
FBD2
FC62
FB62
FF42
02A4
FC7F
00FF
02FB
FE65
FDAA
FD5E
03B2
FCE0
FE81
030B
00B7
FC75
0315
FDCC
FD64
FB76
0308
FB9D
FE05
FEA1
029D
FAC0
0216
FF77
FEA8
03EF
FE8B
F74A
FD7F
FFCC
FEA3
01CD
030E
FEFD
FFD1
0464
FF2F
0149
FD54
FF5D
FCD0
0121
FC92
FA31
00C6
FCD6
FE0F
0403
03A5
01CB
071B
FA78
047C
023E
FF4B
027C
047D
FD1C
FE8D
05BE
010A
0438
FCD6
020E
039D
020B
FEC3
FE3A
FD8E
0066
FEDE
FDBF
01CB
0115
039F
FBFA
FE20
FE14
001B
FE86
FE28
FC8A
0123
FD9B
FAD4
FF68
FB21
007C
FF76
0395
FEE2
026F
FE6F
FCAE
0111
FD3A
FDF7
FC44
F9DD
FD0A
02A2
00A2
025E
0057
FE6C
054E
0277
FEFB
00CC
FC22
0310
FD02
FEF0
FD3D
00E3
FC6D
FD5F
FC0C
03C0
0360
FC06
FE38
FED7
00D6
01E1
FC8D
FFCD
FB7A
FEAE
FE0E
0011
FF22
057D
FFEE
05E0
02C4
FF92
FDE4
F9E6
02A3
F95D
006E
02D7
FB03
013F
FE8E
00CC
0230
FDE9
0194
026C
FDCF
0175
0076
FF4C
FAB9
01F0
FCDF
03E2
00A0
FD82
F9EB
064D
0101
04DE
005F
FBA3
005B
FCA6
FD44
FB05
FB21
FF6A
FB7D
FE4C
02C9
02A1
0297
0118
FDB4
FD91
FE36
0009
00DB
0065
006E
FFBC
FD9F
0251
01FD
02D7
064F
0604
FF39
03FA
FE31
FBD9
FE32
FCAA
0253
FF20
021B
FD43
FDA1
023E
0299
01DF
020E
FFAD
F992
FC63
FF4D
FDA1
0046
034C
01A2
04D7
039C
03C6
032E
006C
002B
03F4
FA3E
FE53
FEEC
00F7
021F
FB37
0190
FDE1
03B2
FFDD
0324
FF7F
FEA4
FC29
FDE4
FF0F
FE0D
014C
02E4
0268
019C
FFCD
00FD
0A90
012D
039F
02B6
0335
FED5
FD96
01BD
01B3
FEC2
FCCC
FDF7
FDD5
02D5
0261
018B
034B
FC6E
0335
FD41
F705
F6C5
0125
032B
02C5
00FE
0373
0626
FF65
03F8
070B
0268
FD48
FC69
F84F
FDD9
0319
0482
025B
02CF
0160
016B
FC69
01AE
FE4B
01C1
FF1B
0214
02A3
FC6F
008E
02F0
03DE
0236
0081
04AA
0456
023F
04EE
FE8D
FFDE
FBF2
FED3
FF7B
FDCF
FE6A
00FE
0267
FD61
FE70
0146
FC7B
FDF8
01CB
FBD2
FBA1
FD49
FE4A
0155
FA6C
FF9F
FCB7
04EA
05A6
03DF
024C
FD88
FBFB
FCA1
FAD4
FDE4
FFA7
FBCA
FE08
01C8
03B1
FF61
00C6
0291
016A
034D
FE1B
01C6
006B
FD00
FCF3
FD7D
00A8
FC71
0034
FE9C
04A0
FFBD
F8C3
F72B
F9D7
F91E
F821
FB93
FF5D
FDE7
0399
FE90
FF55
FE21
FFD2
FC27
FBE9
FCDA
FD96
FD98
FF2D
FBC8
FE8F
00D2
FC1E
FC3E
FD3B
F9CB
FF29
FC90
FBEA
F8FD
FBEB
F50A
FB44
F786
FB60
0031
01DE
043C
FCBA
000F
01F7
028B
FD3A
0341
034F
00A6
FEDE
FA80
FB29
FA25
FB6B
FDF8
FEA0
038D
FD65
FD38
0141
FD1E
F92C
F9B4
F539
FD9F
FBF4
035B
FFE1
FEA6
0351
0319
037F
FE66
FF4D
FE4A
0315
FF25
037F
F9D1
FB93
025C
0057
FFC6
FF44
00BE
00EC
FF71
FABB
FF96
FE69
028A
F66C
FD80
FB4B
FC03
FDC3
FDBF
FFF7
008C
FC50
016E
FEA0
0359
0008
FC21
FE26
FDD5
FF9B
FFDA
FCEA
FD57
FBFE
F893
00BF
FEF9
FC19
02A2
FD9A
FBE8
FC2F
FF94
FE83
FF6E
FE78
006B
022B
03E0
02AD
0205
0244
0192
02AA
0108
FC29
0108
0237
FFC2
FFF2
FA04
FAE9
00D4
0523
F9C3
FD1B
01AA
010E
04BB
0523
FF44
FE95
FF84
010F
FC5F
FF91
0136
025B
0197
0005
0318
FC5B
013D
02BB
FC8A
0242
0503
0089
FE9F
01A4
FD2A
F947
FCE6
F922
FBE2
FFA2
FF15
FF0F
FB03
FE8D
FB8D
00C9
FEEB
FD49
FF63
0254
031D
FD40
FF39
FD89
03CD
FD30
000B
FFBF
0009
FE35
FD53
006E
FD4C
00EA
0427
001E
0204
01FC
0289
FD34
0151
02C3
FB05
FB52
FD5A
FD87
023F
FE31
002E
038F
0328
FDAA
FCBE
024F
FE13
00FF
0114
00A3
FCDC
0211
FF1C
FC53
044D
069A
FE5B
FE08
0174
FE18
0184
018C
FE74
FFDF
FEE5
FE61
00A6
FC1C
0176
02BE
FC91
0180
0042
FF54
03CA
0352
03C1
028C
00F2
FFFC
FD85
02F0
FF12
00AD
02AD
FCD3
FFF2
0061
00BC
FCA5
0050
036B
010A
FDFF
FC57
FCD2
