FFB5
FD9C
03A2
01AA
FC8D
0317
FE9C
0004
0323
FE19
FF0C
FE9A
0328
FDF6
FC87
FF93
0272
038D
019A
FC50
0363
03CA
FC04
FF58
019C
02E1
FEC3
00B3
031E
FE6D
FC9D
01C8
FDEA
0164
FDD3
FE93
FC8C
001B
025A
0273
01E5
FC69
0237
FDE0
03DF
FFC7
0345
014D
03B8
FF16
FE25
007E
FDFA
000D
FC37
038F
034B
FC6E
FD12
01BE
FEB0
FC7A
0382
0111
0110
FF7C
003F
0421
FD3F
0096
FF2C
0282
010A
FE67
FEF7
00DB
FE5A
01FF
01EF
FF96
FF77
019F
FC7F
FDA2
FD2F
021E
FCEE
FF56
013C
FD05
FD8C
02D2
00D1
FC96
00CD
FFA4
0008
FD1B
FE8A
0128
FF3C
FD78
FDE6
013E
03BE
003F
0322
FEC0
FEA7
0335
FD77
FFD0
FD99
01A0
FE72
01C0
0226
02A5
02DC
FFE8
FFE3
004C
0696
023F
0154
02C8
033E
FA8D
FC09
FACF
FE09
0127
00EC
FDB0
FF43
FDD7
01BB
FF60
FFF9
01FB
0147
030A
0136
FE1F
FE9D
FF8C
0148
FF78
FEB1
053E
062D
00A2
044F
0100
FBD2
FFD1
FA26
F68A
FDC8
04B0
0265
FD06
009C
03F1
024D
0349
FC21
0350
02B3
0107
FFE2
0151
002F
0769
0168
FD67
FE7D
0317
FF90
FEEE
03F5
FDF4
FC97
F925
F334
FA36
FA90
FFCC
0230
006E
0490
084E
FC61
FF38
028C
FC94
024D
03B0
FE33
FED5
0352
02E5
069E
0185
017B
0199
FFCA
FE1C
0038
0431
FD08
F9F8
F343
FD8F
02E5
03A5
FA23
0011
013A
02FE
014A
FFF8
FDE0
03C8
02F8
FE9B
0209
0208
FDF6
0306
FC23
0015
FD7D
033B
0335
0124
056E
0575
0389
F7E6
F101
0208
0120
FE12
FBD4
023B
0169
004B
FD3D
01A9
FE9F
FF0A
FD65
FD89
FF48
FCE5
FA80
018B
0223
FFA3
0299
FFD0
FF9A
0126
0116
0407
0155
F8FA
F76D
0196
0008
0137
02B0
0061
01A3
FFE7
013B
043E
023F
FF44
0351
FCD6
019D
007A
FF6D
00A4
F521
FD5D
0111
FDD6
005C
0550
0223
087C
F9C2
EF7A
FCE6
02D9
FF02
025F
02D2
02CB
015F
FD30
00BC
FCE1
FEDE
00D6
FFEC
FFF7
FD73
00FF
007E
FD90
FEEB
00D7
FE51
FE9B
0363
001B
03AC
0161
F814
F643
FC2F
0155
05E7
FFE8
002B
0060
023E
0085
FC38
FC03
FBEB
022F
00FC
039B
008C
FF60
016A
0156
FFC6
02B9
006C
01F0
FE82
08E7
08A1
FD99
F3C7
FEB8
0386
0259
0354
0165
00D1
0012
FF1B
FB64
FF9F
FECD
0255
FC4C
0037
0134
0019
FE54
0015
FE54
0227
FFC4
0468
05CE
05C6
0626
FF7D
FA32
F874
FD75
FD21
0027
FFDB
F8EC
02DA
FD7E
FBD0
002F
0139
00FE
01A5
0076
FFE9
FF82
FECF
03C8
FE14
046C
FE59
005A
026C
FE8E
0303
0451
F947
F6DD
022D
02CB
005E
025E
01C8
01AF
FB8C
FEF3
FFDF
FF8A
030D
FE0D
FF5A
FFCF
00CD
0076
FCA9
06AF
010C
0145
053D
067C
FDE1
0126
03D0
FD70
F69B
F971
0062
FB8E
FFA4
0445
FD54
0654
02A9
011D
FF97
FDEC
FC36
FB07
FDCC
FEBA
03CE
0374
0053
FEE1
00A0
FDFF
020E
012F
0405
FE72
01F8
F8FF
FB47
FE93
0493
02A8
035A
FB38
03CC
0335
0015
042C
010B
FDC5
FB73
FB6E
00D5
FE84
FEC5
01C5
0358
FEE5
01C6
00BE
FEC3
FE82
0260
FC7E
FA20
F97B
F89A
0009
0395
FE54
01BA
00C7
0563
FA4A
FD21
0305
FE89
FC85
FBEC
FBB9
FD6E
0257
03BF
03CC
FFF5
0105
0010
FD83
FF9C
0315
02F5
FAB4
F729
FAC0
0033
0122
0329
FE8D
0427
0344
01F6
FFDA
FFD1
0550
0198
0027
FB54
00F0
FC56
0220
FF31
FC8C
03F3
0062
0234
025B
015B
038C
007D
F7FC
F8D6
FD48
00FC
F885
03FD
0054
FC0C
FC7B
FD7E
FFFD
FED5
00B0
FDD8
00C9
FFF4
0132
00A4
FC87
FDBC
FDF3
01AD
02B4
FCCF
FB9C
FF39
FADE
FCBE
F775
FC57
FCE4
04E5
FF4C
0244
FEC3
01E2
FEBD
FC71
FFFB
FE7E
FD19
FCFB
F8C1
FB8B
FDE2
0004
01AE
FD7B
02C9
01E4
FD23
02B6
FF57
FC4D
F828
FC79
01A6
FF7E
03A4
00A1
FFB4
00BC
01D3
FF2F
019A
FD0C
FED9
02B1
FE06
FACA
FFB8
0098
0138
FE80
02BA
FCFE
FD7C
FE61
FD37
007C
FE36
FCB6
FFD9
FD9B
029F
FB44
03B6
FE68
030D
FA70
01E1
FF0B
FD62
00EE
0087
00F8
FFA1
FD4D
0384
0036
03D4
005F
FE4F
0238
FD6B
FF41
FEA8
FB51
FCFD
0192
0212
034B
00B8
0091
FC7B
FE76
00F9
FDDC
0198
017B
0122
FD0D
00AC
0170
01AF
0163
FC1F
FC03
FE7A
FE81
FD39
FFC4
0092
FDDA
FFC9
FEE1
03AF
03F8
03A6
FC7C
FC89
024D
08EA
FEDF
010A
0013
FEC4
FDB4
004E
FDDB
FE53
FFFB
0194
FD1C
FF1C
FCBF
FD7E
0188
FC85
029B
FD56
FE8B
03C0
0229
FB6A
0460
FE9F
FFE0
008A
FE12
0045
033C
01D9
FFC2
FD2E
03CC
025C
04A1
FCBF
FCEF
0416
0036
FE14
0017
FF91
FC2D
0091
FE54
FD19
0327
FD4A
0350
FD93
0040
FEB2
022F
FC13
FDD0
FD51
F94C
FEB0
FDDC
001E
FF9D
01E4
FE8C
FDFA
01F7
FEE9
0258
0249
00E4
01ED
02E6
02D5
FF1C
FF14
FCC8
0399
FE9B
031A
00CE
01BC
03D8
FD15
03A6
012C
FDB7
0162
FEF3
0204
03F7
014A
FF93
FD85
FE1E
02A8
0308
FEFB
00D5
FC78
03EE
00ED
