FCD1
0096
01C6
00BC
FC24
007C
0378
03B8
0282
FC6D
FF3E
00AC
FD08
0100
02DE
FE52
FCBB
002D
0346
FE95
FC95
FD2C
0004
FFD0
03D0
027D
FE99
FE52
FD36
FEAD
FD4D
FE07
FD46
FFE3
FD2B
FF51
FBAA
030F
FFAA
018D
02D0
FD59
FF6B
FDBA
FCC7
0273
0382
FED4
01F2
FDEE
03D7
FD2F
FCBC
0063
016E
FF6E
FEC7
FF19
0380
033D
FECC
03B2
0290
03B2
0231
FE04
FC86
02C8
FF99
FD38
FE8D
01C6
FDBF
03D6
FD6A
00D3
004B
FED9
FE26
00A4
FF77
FDFD
FEFE
FC98
0279
01AE
FCC3
0223
026C
01E1
0168
0089
FD81
007E
FF4B
0017
FB61
FF14
FE44
0280
FCE4
0031
FBBA
FE47
02A9
03C5
0329
FC9B
0072
03B5
002A
FF1E
FDA0
0136
FCD4
03C8
FF20
FEC3
032F
0216
FF23
FF5E
FD07
00DA
0009
0110
00CF
FE77
01AF
0205
FDB6
FFA8
FBBC
0109
FDC6
0445
FC78
0357
FFCC
FD99
FFF0
01F4
FF6B
009A
0308
FF9C
FCB6
01D4
01A5
FE3A
FFCA
FA85
FA4F
FEE2
FECE
F943
FB84
FD2B
FD3E
FF67
FD49
FE5F
03C4
FEFE
01B2
02D0
005F
013B
FCE0
004E
0224
0168
FDE0
FEE2
039D
FE2C
031E
FF50
FA1A
FB67
FF37
FA04
FB15
011A
FDA7
0375
FD72
FB9C
FEC9
0192
FE87
0184
0469
0067
FF87
01E8
0388
0014
FF5A
01FA
FD44
0015
FEEF
FEA7
0645
0443
FCC4
FA36
FBBE
F91A
FB99
0374
0181
FE47
FC84
FD0E
FFA2
01DC
02AC
0089
FD55
FE41
00D5
FE08
FC4E
FD38
0320
0158
0016
053E
024E
FF22
045B
0339
03F2
FC94
FE5B
FA11
FAC7
025B
020F
FF16
FF8F
FF84
FF0E
00C9
FDB2
FE61
FE0E
FDF3
FE61
010F
0249
FC59
000E
0493
061B
0579
0058
FCD9
0065
00CB
020C
FFE6
FB8A
FD42
FF3F
00DC
01A7
FFBC
FBB3
FEA5
FB99
00A6
FC34
FF15
03A0
FD42
FF34
020F
01AC
02A9
0169
FF2E
0159
FF62
015D
0022
02CA
0711
03E8
FEA0
FEE2
FDAD
FC83
FD52
FBDF
FD7A
018F
0160
FE5D
03AB
0339
0461
FF40
00E4
00DB
0306
FF68
01A4
0048
0402
008A
0354
0051
FF20
FDB0
06F2
04E4
FFE2
FB7C
FC83
FEF7
0136
FBC7
FB48
FD51
0006
FF98
0319
05E6
080A
031A
0389
0371
0352
FF94
FD5B
03CC
0255
0205
03FA
FF77
0201
FF4E
0710
0736
FE96
FDE1
FF1F
FDB1
0304
00DE
0131
009A
053C
FFBA
FEE1
02F8
0162
FA99
FC44
01E3
FEC4
FCFE
FD49
FF7D
FFA4
023C
FF8F
048C
0437
06C7
02CF
0218
FE46
01CC
01FD
0118
FFC4
FE01
01BA
FC22
0279
FEDC
031E
010A
FFA4
F9FF
FC2F
FF18
FFE8
0398
02CC
0143
FB88
01C4
FFA8
FD9F
FF36
026E
02AC
FE05
FD86
FB48
FFB9
FDDD
FE42
FC30
FE58
FDF9
FF91
014E
FBD6
0071
054A
03DC
FEBD
005A
010B
FCA7
0189
037E
0013
FD39
00BF
FF8D
FEEA
FEFD
00C8
03A9
F8F9
FF31
FD46
FB6A
F980
FD56
FDF8
FB60
022B
FCCF
FFF7
027B
0508
0378
0044
FFD6
00D6
02D3
FC96
FD44
039F
FCAD
FFF3
FFC2
0343
047E
FE0D
FD34
0041
FF03
FFA0
0051
FFFF
FCBA
FD6C
FF16
0208
01DD
FFF5
FDBC
003C
FE7D
FE60
FD0D
FE36
028F
01DA
0137
FE1E
FED9
0503
013D
00C5
023B
FCEE
FBE3
0099
038F
FEC2
FDFC
00E9
FCBE
02A4
FE64
FC3C
00B3
0198
0150
FDEF
0164
03E1
FD1A
01EE
FC85
03C1
011E
01E6
01DE
0409
FF70
FD34
008D
FD6A
FD29
FEB2
FD24
FD26
00C3
0092
00F6
FD53
00DD
FC7A
FF84
0332
0194
FDBC
0133
FE2A
00F8
FC94
FCAD
032B
00AE
FF45
00DC
FE97
FF10
013D
FE49
FF7C
02BD
F927
FCCC
FCD6
000B
0329
FF78
0338
0332
FE03
FD44
FD29
FDB4
FDBF
FF11
FC6D
FF82
FE4D
0351
FF19
0191
02FB
FA0C
014C
030C
035A
FFAE
FCF7
0023
FC3C
FE0A
FF6E
FEDA
FF8B
FA8B
016C
011C
016F
0157
FDDD
FEB2
0148
0100
0325
FDC8
FC94
FFB7
02B3
0271
0046
FBF6
0139
FE70
009A
FFD8
00B6
FD26
FA9E
FDA2
00F3
FC4E
FF78
FD64
0219
0073
028B
FE5A
023E
0034
FF86
00CC
FD8C
FCE6
0231
0292
FD46
FFEE
FFBD
FE1E
0077
0087
F9B2
FC9B
FE5F
FBCA
027F
025B
FEDD
FFAA
0200
051F
FF7A
0625
062E
FF34
0400
FCDB
FE3D
0034
FC41
007C
FE54
FCB4
0038
02A4
FC2D
00E5
0205
FA22
F995
001B
FEB8
0212
0201
FC91
0181
035F
08EE
00D5
0203
0340
FEBF
0008
FDD3
01A3
FD48
0085
FE03
03A9
FDEC
013B
FF28
FCEC
FE66
025B
FE77
FBDC
FF69
0043
0117
02EE
FBAC
FE1D
FE78
0002
00A0
FE03
FFDD
FFA7
0417
0025
FDC5
FDF5
FD4E
0231
FF2E
004F
020F
0305
FE12
FD99
0304
02BE
0378
01F6
01A2
013A
FDA8
FDA0
FC52
FF8F
0232
00CB
0220
02E5
004B
016F
0019
FDC6
02A3
01CD
FF99
024F
FE9B
FEBC
005D
017E
0074
025B
FCF0
0171
FC3C
FFEF
FE67
FD01
0257
FCB0
FDB7
FE40
FF25
032F
03F0
FF3D
FD64
FDE6
FCB6
0065
FF12
FF05
FC8F
FCF3
FC04
03A0
FD35
0163
FE26
FFF5
018F
0046
01C3
0109
FEDE
01A1
0037
FF5C
FDEF
0029
03CD
FE16
FE62
FF05
00BF
0292
0120
012E
00C9
011F
001B
00FD
FF6F
FD4C
FDF1
