015A
FE75
FD79
039D
012C
FCBB
03D7
0233
FEC5
FD28
FDD6
03D6
FF4E
004A
FEB6
010D
FF5E
FD7E
FE67
FEEC
0153
FDD2
FDC2
FD30
02D5
0131
0118
0286
FF69
015B
03B0
03D8
FF8F
006B
018F
0351
0347
FFC0
0078
FDCA
FE6E
000D
FCA7
FE08
FE5E
0037
011B
FE4C
FD8C
013B
FC52
0375
FC65
008C
FF14
00EC
026A
030C
01C3
FD6F
03DA
FC42
FDE2
FEE8
FFA1
02CD
FE62
FF60
FEEB
FBED
0038
006D
FFA1
00A9
FC40
0125
FFC2
0123
FF60
FD7A
FC0D
FC1A
01BF
FF81
00A9
FDF7
FDF7
0273
FD49
FF5B
FE94
FEF8
FB44
FDAA
FC6A
FCC2
FD10
013D
0070
FAE3
FB7A
0030
FF45
001F
015D
0200
020A
FE7C
FEA7
FCF3
FDD4
006C
03CE
FC4C
FFAC
035A
0053
FBB6
02B7
FD3D
FF3E
FA94
FE97
F7E0
FC48
F664
F801
FDBA
FE39
FB45
FF4E
FCA6
FB33
FCD6
FF8F
FD5A
FD32
0274
FDA8
FD7E
0282
FE08
02F3
FD02
0002
FF21
FE1C
FF50
FD2E
FDE1
FA06
FA0C
FEEB
FE19
F8E0
FE01
FD31
F8EA
FCF5
FC24
FE93
FD50
FD18
FC10
008E
FF07
FC2B
FC17
03EE
FCA6
02F7
FE3B
03D3
FF9C
0111
FF8F
0319
FF06
FDC2
0291
FF1E
FF0E
FFFD
01FA
FD85
0183
0219
FDCC
FDD7
0273
FB3D
F784
FCE0
FC4C
035F
03DE
FF82
0109
020E
054D
004C
F9DA
0282
0456
FFCF
0119
05F1
00E0
03A0
0436
FFFF
0061
0541
0322
FF6F
0172
025F
FFB1
FE5F
FC39
F6B3
FB2C
FDA3
036D
FBEE
0243
FC84
0374
01EB
FE7A
FF17
0151
06C8
FF03
0230
041F
FD8C
FE88
00B2
0235
00D9
0125
024D
0060
0030
0173
0199
0036
FA99
FAD7
01EF
FF63
022D
0362
FFEC
FEFA
009A
00AE
06EA
FCF3
02EB
FF4B
0478
0382
0616
01B0
05CD
019F
FCF0
0423
0198
FE83
0285
FFA6
035C
FD88
FF01
FDFD
FFF6
04A5
0263
01E0
0359
0316
FCC6
02FD
0402
00F5
0175
0609
00A7
02DB
FFC2
058D
FE4D
003E
055B
FC44
017A
FFEA
0099
FFB8
FF9C
FEB5
FBC2
03E9
02DB
006F
02E4
FEF9
005B
0674
FD83
FBEB
0459
0439
01D9
0500
0199
06B4
FD0A
021C
03E6
015C
0114
01A5
0321
FF88
06D6
FE7B
040F
FEC0
FA19
0141
02EB
FFBC
0030
FF5E
0203
0339
0697
01AD
019B
FF25
0032
FFCC
FC83
00EF
F860
FA87
01E6
024E
012E
0383
02CE
0180
002E
FFB0
0088
FF69
F8FA
052B
0051
0442
FE31
FECF
FE9E
FD6B
051D
0051
FE19
0652
FE7A
FDD2
FD93
FF7D
FA5F
FC6C
060C
FE49
0708
016C
03B5
030E
0352
03B9
FB4C
FC45
F826
02E3
0114
FD54
0007
FF69
FF8D
027A
0152
F802
FFDC
FD35
FEE5
FE89
0052
FAC5
FE57
01F9
FCA1
0125
0013
0627
0157
FB08
0103
FCFF
FD0A
FE2B
FBA8
FCE3
FEED
0211
02F2
FCBD
02FC
005D
FDCE
FFFB
039B
FA7C
FF4E
FBC7
FD68
01DA
FF94
00EE
FEED
064D
FB18
04FE
02C3
01CE
02DD
FF88
00A7
FF22
FC0E
01B8
FBA3
02BD
02CC
01D9
FE4F
F92E
0582
FF31
FF10
FF3A
0267
008F
FD84
01B8
FEC9
02C4
FBA8
001D
016A
0436
04E0
FF5E
017D
0303
03E4
FCB5
FA07
FF88
FDA1
01A2
0258
FF5D
FB82
0069
F9AC
006B
FF9E
021C
0317
FC3E
014D
FB43
FD0D
00A6
FF71
060D
016B
01F1
FDDF
FF81
FF53
0058
0251
FE97
0061
01D1
FE3F
FF92
0143
03BB
FC50
FDB6
FD31
FD4C
FE4D
0299
0046
FACD
FF4B
02B1
FA31
00B4
FE3B
FF74
00C3
030E
0378
02B3
FF4D
FD7C
0224
F930
FA68
FD9A
0207
FC4A
FE9D
0276
0145
FF2A
0110
FDBA
FDAA
01CC
FF33
FF85
FEA7
FD86
FBC6
FB4B
02AB
FBB9
FE34
FF2C
FDC0
00C2
0132
FB7C
F8E5
FD03
02CD
FDDE
03DC
FE18
0247
0359
FD41
FECB
FE3E
FFBC
FA41
FDE3
FED9
F9B9
FBEC
FBFE
FA17
FB2A
FAB1
005C
FA9D
FD40
F7FC
0144
F88F
FB12
FACC
FD5D
0539
FEB3
FD8D
001A
FEED
03CE
FEBE
FC29
FFC5
FD8B
FE8F
FB44
FA32
FD02
FC29
FBC4
FC1C
FBC5
FA65
F715
FE6E
FA8D
FB72
FD77
0045
FCAE
FB2E
FEA7
0084
00AC
FBB5
016E
FC1B
0202
FAB2
FDA2
FE1E
FE21
FD86
FD39
049B
FE4A
0602
FD67
0797
F9A0
037E
FE70
FA44
FE81
FD19
FDA1
FAB0
FC04
0125
FD98
FEB4
FF3C
028A
0112
FCDB
FCDF
005A
FF58
00C7
FD95
05C7
0474
FE40
FB3D
FEED
00A1
FF33
FF7B
00B0
FDE1
FAEB
FE54
F94B
FCE6
FC08
FECC
FBE6
01D8
FFE2
FC72
0221
0032
FF7F
FE2E
FC37
FC83
0493
06AA
045A
008B
FBA1
FBE8
FC16
0178
FBC4
F9D0
FDD7
011D
03F6
FF00
FB3D
FC65
039E
FD14
038F
0321
FD4A
FE6D
FC38
FD10
FC98
021C
0271
0116
FF32
04BE
008E
040E
0535
FDA7
FF33
019A
FF91
FFFF
02A2
FCB8
FF13
FEF7
FDF1
0243
0070
FC44
FE1F
FB2F
015D
FEF3
02B0
0140
FCD8
011D
FCC5
02C4
FC3E
FB84
029E
084C
0430
0811
0413
019A
0395
0A23
0B17
0525
06EB
0682
06DE
0160
01A6
0417
FF8A
0307
FFB3
023A
FF76
FDFD
FC30
017E
014C
026A
01FB
0041
FE5C
01D4
00E5
010F
FF6A
0105
FD24
FD27
02E1
FED8
FD17
0533
FFC0
02B7
FD48
FE68
FEC6
025C
01C2
FE03
008A
FCB0
