FE59
FF84
FC0F
02F0
FE50
FD65
00D8
FC52
FC3A
0020
007A
013E
01F4
00BD
02EB
FCD5
FDCA
027C
0156
021F
FD9B
FFA4
FE6B
FED6
0084
0304
FEF8
FC13
0148
FD05
0079
01A7
00F0
02C3
02F6
00E8
FD09
FFD3
00C5
FEEE
FCA1
FD6F
0035
FDA2
FF26
036A
0360
03EE
004D
FD48
03AD
FCE3
032D
FE8C
FF47
FFF0
FD4A
0280
FEA5
0291
0395
FFA1
0169
0090
026C
01C4
0540
03D7
FF58
02C5
FF29
FD0B
01AF
0252
FFF9
FF52
FDAF
FDDA
FDF1
FEE0
FED3
FD07
0284
00D9
03F9
FC20
0151
FEAC
021F
FF73
00B3
032D
FF73
05CC
0345
00CF
FF6F
FE16
034B
FAB1
0422
FFF1
03CA
0241
0091
00B1
FFD7
015E
0138
0204
0053
0043
FF00
FC55
00E7
035B
FCF3
FC61
05C0
0466
0329
045A
024E
01F2
075B
0090
FF14
03FC
FF02
0127
0066
0488
FE5A
FC6B
FD52
FCC0
01DA
029A
FFC1
0315
FDD5
0256
01F2
01E5
00A5
FD6D
035E
02E6
07D8
01EA
042E
054D
0459
0498
005B
01E7
009D
00D5
0129
FBA8
FF53
FE99
0262
FDF5
FD75
0165
003F
FD08
FFD1
005A
FD36
FF6B
FFC7
FD5E
02FD
0241
0384
047E
03B9
02F3
0989
023F
01BA
04B8
0374
0552
0490
00E1
FD44
FE76
0264
FB7C
FC6B
FD0E
0067
FE2F
0211
FCAB
FF5B
0119
FE06
FF8F
0163
FA99
FF70
035D
FFF8
02E5
0261
041C
0759
034A
0706
0148
035F
FEE9
0113
00D5
FFAC
002C
FD55
0187
0106
004B
FF65
FD7E
01E1
019D
FFF2
FB03
FD86
FA57
0355
FEF4
0137
FBF9
FE8E
02BE
0956
02C1
0112
0185
01F2
03AE
0222
FEB0
FFD3
FCAE
FB78
02CE
009F
01AA
0013
FF59
03F2
01E0
FFA9
FD07
FB0E
FAA6
FCFE
FD15
FF3B
FA0C
FE95
F781
F59E
0317
0043
047B
FCB3
010C
009D
FB2B
02E3
FB23
FCAD
041B
FE64
FC6E
023B
FEB1
FED3
FCDB
FAEE
FE5D
0059
FAD7
FF8A
F6FA
FF25
FBBB
F6B3
F6F8
FCF6
FC17
022D
FC5D
03BB
0527
011D
048C
0025
FB92
0087
FF66
FFD2
FCC2
FFB6
FD62
FF0D
FC47
FD18
FE7C
0255
FA7C
FB1E
F73F
FAC5
FF20
FAF2
FF31
00BB
F9C7
FDAD
006A
013C
027C
FF9B
01C2
0181
FD8E
FD91
FEE0
FFD4
02DF
0311
002E
FF8C
0111
F8DE
F9E5
FDC0
FDEC
00E1
FD27
04C1
FCFB
017E
FD80
FAAB
009E
FE1C
0175
FF70
01F3
FFAC
FF8F
FF62
F841
FD49
FF57
0039
028F
FC72
FC0C
00B4
FF40
F962
011F
FEFA
07CB
04D9
0344
03A3
FFE5
00D4
FD06
03C4
FC62
FEE3
FF6E
FEF3
FEE5
02A2
0037
FCE7
F8FA
FDC7
026B
01DD
FC2B
FDF1
034C
FFB3
0499
FC5B
0433
034A
FE4C
01E4
FC7B
FF5B
01CA
F972
FE84
03D4
0123
FDC2
FD95
027C
FFE5
FD0F
00D3
F89C
FD1D
FD75
FFBC
047D
FDE5
02B6
0179
012D
0231
0429
FC87
02FA
FECC
FB65
FF0F
FDE1
FF33
FF38
03BE
01E5
03CB
02BA
FC2B
0122
FF20
FECF
FD55
FBC6
FB8B
FCCE
FE58
FD2D
042A
FDAA
FE57
0300
01A3
02AE
0239
FD25
F455
FB35
FF39
FF70
FCFC
FE65
032D
FF6B
FBAA
009A
02C3
FF74
FB72
FFC8
F8A4
008A
FBC4
FDF3
04EF
0401
0369
0085
FE99
FC37
0129
FD28
00D9
FBFC
0090
010C
FFF7
012B
FC90
0188
FD62
0393
0434
017B
FBC0
FCB4
FBC0
FC2B
FED1
FDC8
F980
0166
04E2
0471
FC9A
0231
03E5
00D0
FD13
009E
FEA7
FF47
020D
FF86
FF48
FB67
FF4E
FB4F
01C7
FC63
FFD0
010E
FE95
FB59
FFF2
FFB2
000B
01AC
046B
0351
02C3
FECB
FECA
FDF5
FFE4
0033
029D
0249
FDA4
FD6D
0002
0258
FB17
FD89
FB87
FDE6
05AA
002F
01DE
FD2E
0066
0020
0018
024D
FCF9
FF92
FF30
00D6
016C
0090
FE3D
0369
0168
FF8E
09FB
067D
0545
015D
0624
0179
01A5
FDCC
002D
008D
009C
FE8B
0294
0633
03BE
FDCE
016B
0085
03CB
028F
FE39
02EE
0232
FDEC
02B7
0115
016B
FFDA
06E7
03E6
0512
04F8
0031
FEF2
0218
051B
02FD
01AA
FE2F
FFAE
F922
0436
FFBD
04C9
02AD
03CD
021F
0658
0699
028A
025F
04FB
FE55
020D
0304
00BD
0053
033B
00B4
004E
02C0
0265
0399
00F3
006B
FEA8
FF2D
01FA
016A
FFA5
009B
FE48
FE63
011A
F8DC
FEE5
08E6
036B
0208
00DB
FFC8
FD0A
FE7E
039C
02AB
FCA0
003F
0072
03A5
0146
FFF8
FCEA
02DB
FD38
014C
FDF2
FD81
FBA3
FF60
0070
0301
04F9
0717
08B0
0578
037E
0435
0048
FF51
FD8C
02C3
FC68
0401
00FA
FE0D
FE46
0189
FBBF
FE8C
FD28
FF7D
FFCF
019C
00E8
005B
FF63
00EB
FFF1
00F7
FFC8
06C3
03F7
0197
002C
0375
FC4C
FD85
FCBC
0190
FC3B
024D
0367
0073
FB73
0006
0042
0403
05B2
00DC
0098
0153
02BF
0362
0203
FC79
0113
FDBE
041D
0157
0315
02B3
0369
0399
013D
0252
FDA2
00CF
004F
FEB3
FDAE
FEFE
FF9E
FEBB
0248
0366
0490
FFCA
035E
010A
013A
0187
0108
0133
FD8C
0084
04B5
007B
0295
00B9
FD7A
FD22
03EF
FE9D
0335
FCC2
FD8D
FD8E
02B8
00C7
FDE2
03ED
FDC4
0056
0124
0147
00DD
0208
018D
01C5
FC25
01F4
FC9E
FEF3
FDFC
03FA
011C
03ED
027F
FF9D
FC4D
02B1
