02E4
0323
FE1A
FDA6
03B6
FEB7
0261
0255
FDB6
00B2
FC48
FF15
0381
FEEE
FDC9
FF6A
00F9
0317
005B
FE11
01FE
FD21
017F
FEB1
0278
FDEE
0369
0278
FC6F
0116
FECA
03B1
0256
036B
028F
FD96
01B0
01C2
FDBA
02E4
02B0
013B
01F3
03E0
FC87
02D0
0151
FDB6
01D4
FCE7
FF0D
01AD
00F7
0128
0207
FC58
FF50
014A
03BE
019E
FDEB
FCF5
FE27
0010
FFAB
FFC2
FCD5
FDD8
02B0
02A3
01DF
FC79
01C7
0338
017E
FD54
0270
FF82
0143
FE22
FE78
FEA8
00A3
0095
017F
FC4B
028A
00E8
00A0
0210
FC7A
FF30
0212
FD27
FCBE
0139
0128
F8BA
FBC1
F902
FFFC
0034
0199
FD94
FE63
00F9
0034
FE60
FC3D
04AA
033E
FC77
FCC6
032B
FD3F
FFD2
FF5F
02CF
02A7
009F
0174
00D0
FC7F
FFBB
FABC
FD4C
FBA5
F87D
00E0
FE4D
0069
FF31
FAC4
FDD1
FCC7
0075
01DE
FF8B
FC6B
FF95
FE88
FD55
00A7
0049
0253
03EE
FF22
FDEB
F825
F9D4
F99F
00AE
FFE3
0185
FE26
FCB2
FDF4
FFC2
FA2C
FA10
FDC9
FBDA
FD51
F8CD
FA2B
FBEA
FEF9
00A7
02A8
FDC3
02D9
000B
025B
026C
0042
00D4
F94B
F92A
0190
FEB1
FB72
00B5
FB55
FE41
FE9E
FDB1
FFB7
FEF6
0616
FF17
021F
03C9
0126
FD20
019D
FE6E
0344
FDF6
FC70
FF5F
0217
FDF5
FEF3
FFDB
FC63
006D
0381
048A
FF3E
0114
0127
03E1
FC91
0283
007C
F887
FF8C
023B
02C6
0225
FF80
FF0E
014E
0285
0017
FE9E
FD1E
004C
FFB5
FE13
FCB2
FFDB
0106
04D3
FD1F
03F4
0312
00DD
FBC8
04F9
05DC
066F
03F3
041C
0370
042C
036D
030C
06F2
03A4
03E5
FDF3
0163
FFAA
0378
FD97
0089
FEB1
FCBD
001F
FDA3
009B
FF36
FCAD
FC94
05DA
0907
01E4
FF85
055C
05AC
021A
0425
01A4
FFB0
FF95
0B1C
0C15
039A
FD9E
0024
00CC
FCFD
0244
FF38
FEE9
0313
FEC5
FFCA
FE13
0629
019B
FCE4
0359
02EE
036E
0293
FD85
060B
FE49
046F
0598
07B9
02B3
0B60
058F
01E7
0399
FD6B
02FF
0146
FFB7
FE7F
FE8F
FC85
01FD
0004
F73D
0072
01EE
F8F5
027D
FC23
0293
FC8D
FB77
FCFB
FEB6
FC0D
078F
0876
06C5
090E
0790
0416
FCE6
FDA6
0343
FC55
FDA8
FD93
FE21
FC81
01D4
FF9F
0046
FF9D
0142
0175
0809
0447
FF13
FC41
FBED
F820
F8DB
F6D3
F424
FCE3
FC50
0439
0085
051B
FD9D
0394
FF6F
0199
FCAD
FD95
0171
FCCA
FF41
FD20
0373
0238
0522
FF69
FCB2
FF5E
FA7B
FC1D
00EF
F58B
F7EC
EF95
F3A1
F363
F603
FC55
FECF
FD22
FD81
01AB
028C
FDF8
01DD
0024
005A
FDEE
00DC
000F
FF97
00E4
FDE0
FDF9
042B
0022
031F
FFC0
FDF6
FEDA
FFDE
FAE2
FB23
FCAF
FD0B
FDF4
0027
FC37
FC12
FD9B
FF04
FF65
FECE
03FF
FE78
04D7
FF17
028A
039E
0110
015D
03A0
FF0F
0240
FA64
FED1
FE35
FF13
0053
FCBD
FC1F
F93D
F9AD
FE6F
FF95
FBF6
FF73
FD1A
0126
FBB4
FFA5
FCB0
00A3
FD2B
FC14
FB37
F78C
0217
FEEF
FF46
FFC5
FBB5
FBBB
013E
FEBB
015B
0108
FC77
F5FB
FED1
FAB1
FFB3
FB8B
FCA3
FD5F
00E5
0074
FD4F
013F
00BD
FE2C
F836
020A
FBC3
006C
00ED
0056
FAF9
000B
021C
0187
03E3
0381
FFEF
FE87
02AC
F9B0
FF4A
00AF
FFDE
FAB0
FF40
FD69
FE16
FC8F
0224
FE8A
FC8C
FF1B
FE11
025C
009E
01D8
FF97
01A0
0381
016C
0046
FE45
FF0D
FC99
FE96
FB55
FA0C
FD8A
FE58
FAF7
FDEB
FED7
0036
FE7E
036E
03D7
FC9A
FE1B
F76F
FF33
FF41
FEBB
031B
FAB4
01D1
FD3E
FF7A
0419
FECA
FEA0
FD46
FD1A
FDB1
01FE
FCDE
F8CD
FD48
FBFF
FC71
FC8A
FC2B
0034
0148
FFF4
02A3
FC14
F789
0025
02BD
FFDE
FFEA
FF79
FFEF
FEB8
007B
00FF
012A
00B5
FBBD
02DE
FEEA
FC83
FC25
F72D
FB24
005B
FBD8
0176
FD42
FE83
FEA7
FE6D
FE99
FEDC
F8F0
02E6
FD4E
FF5D
0049
00E6
FE32
024E
FF24
00FF
FF09
0228
FE61
FD42
00A0
FA52
0174
FB09
FF63
0077
0334
FCEB
FC3D
FDF7
FC3B
FE95
FD96
FE30
FC3A
019C
0190
04B5
FC08
013B
FFE1
01F2
0058
035C
FCC1
FE04
FDEE
01FB
FDF3
FD10
FD5D
FB5F
020B
00DE
0360
018F
00A7
FF96
0082
03E7
FCE2
0162
028B
FF55
00AF
FCF1
FB61
05D5
033A
FD0D
0026
02B6
FE90
FF14
FD6F
FEBA
FD2C
02D4
0303
FDC3
FC2B
02C9
FEDD
018D
FD03
0089
02EE
03D8
01BD
FECC
FD57
00FE
F9D7
FA3B
FD42
FDEF
0017
FEAB
FCCC
0340
FE0F
0508
FE5A
004C
F9F6
0197
044E
FF34
FE54
00CB
FD19
FF98
01A2
FED4
0172
01FF
0379
FDA1
FCEE
FD7F
FF3E
FF34
FD90
FB40
FC30
0298
043B
00AF
FCDE
FE62
0488
003A
FEC2
FDD8
FE65
0281
FE24
FEFE
02F4
0179
FE19
037E
0329
03B6
03F8
FE93
FC45
FBCC
F9F7
FE28
FFE5
0125
FC10
0339
0455
00E3
FDB0
FD9D
0220
056B
03F7
064E
03C5
FDA1
FEAE
FF8D
FEC5
0146
03AB
FF99
FE24
03E7
0035
FFEB
012C
01FD
FD8E
FEC1
00F3
FC47
FEF9
FEA8
0105
FEAB
02B5
0033
0057
0106
0203
FCDE
FDB5
FCDF
FD2D
FFAA
025C
039C
FEF8
026E
