FC23
0325
FC07
01B3
0284
FD1C
FE52
02A3
0004
FD64
FD20
0391
0372
01A9
00C5
FD3F
01AD
FE27
FD63
0064
FFAE
031E
FCF8
FEC9
FEA5
FFFD
FEB4
FF87
0008
01D8
FD46
FC28
FE28
01AA
0033
FF47
01B2
FFB3
0386
010F
014D
FE8D
0382
0021
0094
FF3D
0248
01A1
005A
FD5C
0362
FECD
FD2B
FF1A
FC32
0111
02F4
035A
FF09
0326
FE94
034F
025E
014B
FFFE
00EA
FD1E
FC55
03AA
FE4B
FB6C
03A9
FD20
FDF1
FDC5
FFC4
FD6F
0149
FF1E
00B8
02C9
FC60
039E
02AD
00E5
02BF
01B1
0235
0308
0130
02D3
FC43
FC21
FFC5
FDFF
FC77
FE0C
01F6
FD1D
FABF
FD16
FEE2
FBAC
FED2
FDE3
01AA
FB5D
FEB7
FD19
028E
FFFF
0145
01DD
01F3
0361
03C8
021A
FF38
FAAC
F990
FBB5
FCA4
01D7
02CE
FDFE
F9E5
FFDD
0327
005B
FC71
0185
FDC1
FE2F
032E
0500
FF88
0634
FF0C
014C
FD19
FC77
03C1
FCCB
00F4
FA6B
FE1A
FCC8
FEB8
0089
0222
0330
FF86
0301
FF1A
05A3
FAB8
043F
FF13
FE4D
FB6E
0386
02FF
0089
0416
0230
0349
0107
FD7E
FD6F
0317
015D
FE67
009A
FE7F
FE11
05B9
FBFA
0223
0287
FBF1
0117
019F
0284
FE24
FD34
FDF4
FE89
0016
FD37
02DC
FF74
005D
05ED
01AB
FF22
032A
FD25
FD59
0294
FBA7
FC38
0482
004D
0247
00C1
008D
0151
0389
FD18
0224
043B
FD7A
02AE
0416
0583
0353
008C
012A
040B
0190
0312
01E8
01A3
032C
0298
FD15
FF41
FD00
FA7C
0180
FBF3
FD57
FAA6
035D
0496
FF5B
0074
FEBC
05CA
FCD9
047A
0042
FF14
FF6F
03ED
FEA7
011A
04EA
0177
02C1
FEB7
FC63
0284
FEE1
FE65
FE2A
01C8
FC0E
FD76
01CD
FE5C
002E
FF1B
0506
0096
04B4
0160
FDB5
FB09
F52F
FB46
FAC3
FA56
FF5C
FE8C
03F1
024A
FFF0
006C
0290
00C0
FD06
FC4F
0473
010B
0262
031D
03AE
08C1
0231
0399
02A8
02B1
032E
FD2B
F7FE
FCC2
F7B6
F9D3
F891
FB3B
FCA5
F748
F4BD
FF0D
FCF4
FEE5
02C0
02BA
FC85
03DB
036B
FFB0
01C7
FFA4
FD3D
FC57
FCE1
0130
FF36
010B
0189
FC68
FE1A
00A0
FEF5
016D
FA90
FB2B
FA9D
FBE6
F9B1
F73A
FD8B
0158
FE88
00E3
FCFA
FE69
FE80
027F
FD61
018A
055E
0395
FFC6
0254
00E5
02BC
FE25
FD1E
FA7F
FD5C
FAEA
0156
FD25
FE90
006F
FCE4
044A
F90E
FBE8
03E7
0304
FDFF
FD76
FC39
FF14
FE40
FE9C
01A4
0604
FABE
00B1
0528
FD4F
02B5
FD09
02F6
FD1F
FE7E
FC5B
FF73
FCE0
FFE5
0058
FCBC
0002
0081
0019
00FF
0363
FD68
0147
FC95
FF5F
FE65
0252
FBCD
04D3
0327
01D3
03F0
FE7C
00DF
FE90
0345
FD9A
FC04
FA44
FE4E
FD95
0259
FDC8
FF86
047B
03DB
FC6B
FF47
FFB8
0333
FDBC
01AE
00B1
006B
0016
00AB
FD27
FD87
FD2A
01A8
0186
0318
FE01
FC16
FD57
FCED
0056
003D
FF67
FEBA
03D1
020F
0444
0072
017D
FF83
FCA1
FFD5
FC6E
0131
0038
FDE3
0197
FAD8
FB79
FC5A
02D8
0209
0249
0387
FFB1
FFA6
FCAA
FD61
FD71
FE51
FEAD
01D4
047C
FE88
0570
0355
FBF4
FD86
FCA1
00B2
FF76
FC7C
FC45
FE4C
F8EC
FABD
FD3B
FD6F
F975
FEEC
002D
0088
01BB
FB97
FD3A
F974
FE5E
FFB9
027A
FF9E
FC9D
0297
01CB
0012
0076
FD72
FCDC
FFE6
0277
FE15
FE21
0199
FF0B
FDC3
FF07
FC99
F67A
F660
F32D
F37D
F66B
F9AF
FB42
0266
0315
007C
FFC7
0070
045C
042D
0164
0036
FFD1
FF90
FD77
0319
FF84
02D7
FF42
0217
FE7B
FE07
FC4F
0023
FBDD
FE01
FC46
FB0C
F98F
0068
FF2A
FD1E
00E1
FFB2
003C
04C9
FFEB
02F8
FEDE
FE8A
04D5
01E5
01B8
000C
0244
FC6D
FE9B
02E4
0611
FD42
0098
0495
05AA
01DB
FEDC
0095
00BF
FE92
FC86
017B
0492
FFF9
001B
FEA9
00A5
034B
0137
036E
0144
032C
038B
FC26
FE3E
FC67
FD00
0501
FEFF
014D
02F7
052A
FF4E
016E
04D7
04AB
0429
073C
0437
038C
FEFC
0137
0325
0007
FF96
FD8E
0361
05FF
0143
00B5
FECA
03CD
03C3
FFCD
02DC
02D7
0159
0175
0088
0089
00CE
FF09
03C5
0325
000F
02C1
00B3
FDC5
FF31
0074
FC7B
03F8
0126
00FC
076C
01A8
0428
0038
FC8F
0061
FD7D
006D
FCE6
0004
0376
01D2
0045
011E
02F3
05AA
06A4
007C
010E
027F
FE1C
006B
014B
FCAE
FD16
FED3
FF78
FE34
0623
FEF2
0033
01FA
01BC
0376
02BB
0136
FC59
FEBA
FE22
0367
0691
0428
0692
01C5
046C
05D6
0256
02F8
05E7
FE61
0348
026F
FEBE
0160
020B
010E
0372
04E6
02F0
012E
FD43
0012
032E
FC8F
0282
FE29
0227
FED1
05CE
0624
020F
001C
0151
0101
0626
FBDD
0537
0375
024C
0397
08DD
012F
0328
054A
02C6
0389
00C3
01CF
01EF
003A
03CC
0203
0274
00D9
03B6
FEE9
FD9C
018E
FEA5
FDAA
01FF
FEDD
0104
FEE3
0261
0195
FE4E
0206
02C8
01C4
FD07
FF44
016E
FC0F
FE41
FF26
FFCB
0077
003B
0200
FE6A
FE49
FF4C
FF1E
FC71
FD61
0112
FEFE
036B
FFB9
03A1
01E5
029A
FDB3
022B
FC76
FEDC
FFB7
FE87
FF70
FC3C
FD8A
00C5
00C4
FFED
