FE57
0290
FCDC
030C
FE18
02E1
FECE
0322
FD47
02FB
01CB
FCEB
0359
FD3E
FD90
005F
FD93
01E0
FF6A
0219
02D5
0006
01A9
FD3D
037C
00ED
FCC3
FEF1
0118
002C
FE23
FF86
FF33
0376
0332
FD0C
FDAD
FF8E
00E3
FC82
0074
02A5
026F
01F9
00DA
01F5
FECB
021E
0028
01F9
0079
FC3F
0208
FC00
FE21
FF96
022D
FD8D
FEBC
00E0
03A4
036D
FFA7
FD2F
00DD
FFFC
0379
033C
0134
FDC6
FCDC
F9E9
01B5
FB39
0086
0045
FDB0
FCC9
FD8B
0339
FD4C
FCD9
FE4F
FE7F
FCA2
FCB9
FF69
0270
FCA9
FFD2
011D
FC2C
FEFF
FFDD
FF93
FEAA
FE67
0752
01DF
0354
03EF
0046
01BD
0117
02A9
FE40
0120
00F8
01CF
FC9C
FF60
FF31
000F
00CB
FEEA
01CE
01DD
FEFA
00D4
FBC2
014C
04C0
0015
022B
00C0
0195
FE0E
0422
FF0F
03D2
0076
00EC
FF9D
F9EC
FC73
FD53
FE1A
003A
FF3B
FE5C
FD0C
FD69
024D
FC94
FB11
FF8A
FF19
FEDD
02BB
00FD
0213
012B
FB10
0247
02B3
02E9
FF56
005F
0017
0028
FF99
0489
00C7
FD55
FBC3
FBB2
0351
0045
004C
02E6
00B9
02F6
FD1E
FEBE
FC80
0226
FCBF
F9DA
013A
0500
FAC5
04FA
FEFD
FDA5
00D8
01A1
FDA2
FEA9
FDCD
03B1
02B2
FCF0
F966
FB1F
0068
FF33
FEAA
0398
FFD6
02CC
0283
FF83
0271
FEE4
FB8F
039D
03BD
0197
FD5C
019B
FC6D
00E8
FEA4
047A
065D
04EC
FE15
0249
02F0
00C6
FEB6
FCA5
FF26
0031
0094
01E6
0343
004C
0369
00E3
FD91
FF73
FDBE
010E
01C1
0116
04A5
FB42
0566
0443
060B
0810
0166
014F
FF05
018E
FEF6
FF7B
FE55
FF81
FC7C
FC81
FC9E
0160
FD11
020F
01F1
FE2D
FF9C
FFE8
FFDD
0116
0312
FE56
01CF
02D1
FE99
FD36
FD10
FE25
0046
0237
058D
FE80
FEF9
03FE
FEEB
01FA
003E
FD9C
03A3
FECC
0170
FFCD
01EA
FFC8
017C
FF4C
FDEA
FDD0
FFAF
03E6
FF94
0123
0097
0101
FDD8
066D
0351
FEC7
FEA6
03F0
0468
0385
FFB2
FE2A
FF3F
0389
FDEA
FEA7
FC1C
01C7
FD8A
00C8
FE06
020C
00C5
FCA2
FC27
0454
FE1B
FEE7
FE9E
FA83
F778
F63C
00DB
FEBF
01E3
039E
03DE
FF2D
05AD
FFDD
FF05
FD4F
FC31
FFFE
FDCE
FCCF
FBFE
FD73
0400
016A
0086
0513
FE3A
02B3
0076
FF41
FFB4
F55F
FBBD
03CC
FE14
FE3B
0011
02B2
03F4
0234
06AD
FECA
FB65
004E
FD45
01C3
0121
00DA
02AD
FD44
FF91
0229
FE32
024B
02B4
FF69
FE98
FE9A
00E3
FA85
FEFB
FC92
FEF6
049B
FF72
FE91
060E
07C7
0098
0423
FE6C
0260
FD57
00C9
0229
002E
FCBB
0276
0337
03B6
040A
FF90
0039
024A
0584
FFE9
0021
FE76
F2C5
FA51
0023
FEC7
FD9E
01D8
0459
FF65
0290
FED3
FC7D
012D
FED9
0218
FD75
FD4D
FA00
03F9
FB71
01A7
FA24
FECC
0360
FFDF
03E1
FCB1
FCA7
FB74
0082
FF4F
00E2
FD1A
03AC
FF91
012D
FE3D
029C
013B
FF91
03F1
00A7
FD8C
FD92
FD1B
FFD6
03B9
FE24
02C7
FFF8
FF10
0067
0467
0272
FAAD
F879
FE01
FDC9
0228
FE8C
FDD7
01DF
0320
FFAC
019B
0142
0356
0346
FE56
FDB8
03D5
012E
FD51
FE00
FF32
FEA4
04B7
00AE
01D3
0520
FD64
00D0
FAD8
F8E8
FC1C
03F1
FF57
FBD7
0285
FD2A
FBF6
0454
0333
FEE3
FC73
010F
FEC1
FEDB
014C
03BC
FAA9
FE7B
0399
FCD8
FFD0
060D
0513
0638
00A1
FE01
F79B
FD19
FB8A
017E
F9AC
00D1
FACE
01E5
FE8B
0373
0242
0447
015C
FF1B
FDC3
0255
FD77
FF9B
FC69
FAEC
024F
0188
FFAA
01FD
01D6
04FF
FDAB
FF1E
FD3E
FF1D
011E
FA21
00F4
FE82
FE7C
FE53
02E9
0342
00A9
FAC1
FFC5
FC8A
FC9F
FEEF
03FF
0268
FD86
FF82
0293
FFBA
033E
0369
FDE0
0141
04FC
044B
F9BB
FD63
FE22
FDAA
FE75
FA04
00F9
009D
0209
00BE
FEE8
FC7C
FFA1
FEAC
018A
FF2E
FC95
FFB3
0173
0455
FC47
0167
05EF
FE10
00F4
04C9
0220
06E9
FFDC
FD49
FE55
0394
FD49
FD67
F8BC
F85F
FCF1
FF83
FC9A
FF28
FFFE
030A
022A
033C
FDFC
03D0
FF88
FE4D
042E
0227
FDDA
0339
058C
FF04
0242
0490
0801
FEEF
FE60
FC9E
0014
024C
00AC
FD51
FAB5
FDE7
FCBD
FBD7
FD1C
0081
0342
011D
002B
0196
FFEA
FADD
FE39
0208
FE88
04F3
FEE1
04F4
0251
0226
03BF
01C3
FD34
FD65
0056
0155
F9DD
F861
FB39
008D
FF3A
FB18
0381
01E1
01DD
FF4B
FC9A
FE0B
FE51
005F
FEF4
FB4C
FE3B
013A
028D
0033
FFFA
0776
005D
02BC
0175
0059
FA8B
0293
FC17
01C0
FD7F
FF40
FE8B
FF29
FD35
012E
0369
FFF5
0204
FED6
0161
FF3C
FC3A
FD4B
FD5A
FE81
00B2
FA58
FB07
FEB0
FFDD
FCBF
FC1A
0300
FC3E
FCAB
FD2E
FCD4
FCD0
029D
00F9
FDC4
FCE7
FF6C
FF70
02C6
013D
FDF7
FE74
01A0
0296
FB58
0367
FEB7
00DA
01DB
FB2D
FCE6
FD15
FC78
FC44
FD47
00B5
FC4C
00EC
FEF1
012E
FEC8
0063
0041
0028
022D
00EB
003D
FCF6
FCBB
02F1
FDF0
FE53
0313
0392
FC4B
00DF
015D
02CF
FC5D
FE9F
0320
FE31
022C
0183
0385
FD75
033D
FCF8
0149
0371
FCC9
FDCB
FDFF
02F5
