00B5
FC34
FEB5
039F
FD86
0355
FCA3
01DB
FCAF
00AA
FF2B
FCA4
0113
00E3
027D
FCBB
03C5
FEB2
FD86
FF08
FE7B
0381
FC88
FE66
0027
02EF
FE43
00E6
FC18
01AC
0231
FF3D
FD4A
FE89
00EB
0267
03A9
0042
FE7E
014C
02B2
0231
02A1
FCB8
FE14
0150
FFA6
01D8
FB94
FF63
FC9C
FD44
FE95
031B
02A9
02BA
0006
03B4
FDD9
0362
03D1
0125
01C2
FC55
0019
006B
05B5
FF94
FBF7
FADD
02D6
FF41
03D9
0072
007D
01AD
023E
FFAD
0148
FDE7
0206
FD24
FF4F
FD33
FD61
FDFA
0200
0059
FE79
0009
0308
FF4B
FEAE
FFF2
0490
0228
006A
02BF
FFB6
0670
00B8
02C6
FE6D
0031
FED1
FD8A
FB26
FE7A
0183
03FB
01E7
0015
FC5A
FD16
037D
0349
02B7
0232
007B
FFB5
015F
FD5C
04AA
0609
FF96
0444
0041
FD96
FC96
012D
0442
021D
0291
FD93
FBFE
FB14
01E1
02A0
02B5
FFBF
0190
01E6
0279
029C
FE50
FFAC
02AE
03A5
0139
FF21
FB6F
FFA1
0394
FDC8
0120
FA80
0377
005C
FFA1
FD41
FE5B
FE6D
FB4E
FB17
FD12
0188
FD45
035F
039C
0100
0185
03BA
01D2
0337
0311
01BD
FD3A
0496
05C5
00E7
002C
0367
FF06
0226
03BC
FCBD
FAF8
03F4
0232
0132
00B0
FE02
FD24
FD0E
01EE
FDC4
FC2B
FE3E
FE32
02AC
033E
0015
01FD
0174
FEA9
038E
00B9
0007
005A
03C1
FFB1
FC1F
FC30
0189
0015
FF87
FBD5
00A0
FF23
FE07
FA14
FD4C
018F
0228
03A0
00C3
FF53
040B
0679
0417
FF75
0622
FE77
0060
0457
0552
FE69
0574
0457
0299
0038
0045
036D
FE91
03BC
021D
FFAE
0022
FC17
FBB8
015C
0215
02E0
FC20
0146
FFAD
072C
028F
043C
048E
0335
0245
FF62
05B6
00DF
0299
FDF9
FEC9
0023
020F
FFCF
0095
FB51
0097
0630
FF31
FA7C
02E7
FE22
FF75
FE10
011E
FCB4
0008
FF03
FC63
01DD
0408
0A86
03BF
019B
FAC1
F9DC
FA6A
F958
FB34
FBC0
FEE9
01BE
FDFC
FE1B
0006
FBA6
FE79
FB34
FFB8
FE03
037A
FEEE
0133
FEDD
00C2
FF97
F71A
FC25
F85E
F70B
F181
EA5B
F418
F488
F5A1
FC19
004C
FE50
010E
FA7E
00B0
04B9
FB7F
FB56
FE47
03BD
0094
FC27
FD34
01C4
FF1C
FFB5
F8C3
F6F6
F6FB
EDF1
EA93
E1E1
EA2D
F970
FAC1
FD2F
01C7
03D4
00A2
0091
FBD2
FB7E
FF63
FD2B
0102
00F5
FE2D
FD52
0355
03A4
02EB
FC72
FEB5
0151
FCBF
F51C
F058
EE6F
F41D
FB22
FDE0
032B
0196
0289
02FD
FEC6
0075
03AC
FCAD
01A8
FE70
FF15
047D
FCD8
0175
FDF0
06B6
0319
01A2
03C8
02B0
FC7A
FDF5
F9F0
F823
FD2E
FEEB
039C
09A3
016C
0268
0357
FEE0
0485
FF92
005C
020F
01FF
FE8C
0213
0038
FE7E
0144
00BB
0586
FEDB
FC34
FCDB
FFFC
0218
FD05
FFA4
FD33
050D
03C6
FF18
FDE6
062F
0328
FFBD
06A9
FCC6
01E7
FEF5
FD13
FF51
0093
FACF
00FA
03CB
005E
02B6
FEF5
052D
0257
0081
FDD1
047C
0093
01F4
0157
0499
07A8
0171
048A
0671
FF96
013E
FF0C
05F0
FF20
0023
01B6
FFE2
020A
FE94
0148
0059
032C
051F
031D
049C
FFE5
FC47
01B9
030E
05C0
039B
FD69
0069
0281
00F2
FD96
FE6F
FF46
0231
009B
0434
008B
FE17
FE8A
FEA9
FDDF
0309
FC06
0453
030C
01F0
011C
FC76
FEF9
0341
FC14
0442
0250
02BB
0100
0041
FF8C
FF29
0116
FDA2
FAB0
02A3
026C
FDB6
FEC4
00C1
02C0
01EF
0152
00A0
FDFF
0399
FC21
0030
0331
029B
00A0
007C
017E
01C4
0085
FCDC
02DA
034A
FF3F
FFFC
FD54
0401
0360
F9FD
0328
002D
00D4
025E
03E5
FE94
FE4C
008A
04D9
056F
0818
FFAE
FF8B
FED9
0130
02B9
02ED
035B
02A1
FBE6
FFD1
01BB
0167
FE2D
001B
00DA
FF01
FAF9
FDB9
00EE
0027
FCD7
FB42
0652
00F2
FFCF
FEBF
FC64
0082
FF2B
00CF
0136
00C6
FC20
0225
0021
026C
0117
003F
FC69
FD93
0197
FE77
FFD7
FEF9
07CB
008C
0038
01B1
FE48
FC2E
FDD9
FE4F
FEE9
FF95
FCC9
FBCE
02F6
027E
FDA5
FF73
FC9C
006B
01FF
03B9
0203
0372
F9BE
005F
0167
0004
0028
0175
F760
01EC
01DD
FFED
0200
0211
0026
040A
018B
01B6
018A
006E
FC93
FC27
FEE1
FFC3
023E
FD5A
03D0
0025
FF6A
042B
053E
0798
FF5E
035C
FF7D
00E5
01EE
0518
FEA8
022F
01E7
FDF7
0056
FC17
FF64
FCE4
00D7
FDF8
FCD0
FD88
FEB1
02E0
0289
FE12
03BE
FD86
06EB
0210
FCEA
02C9
02C6
FF9E
FED5
01EA
015A
FCFE
FEE7
0095
0243
011C
FD61
FE9E
0151
0032
FE04
FC8D
FCF9
0216
00A2
00D6
00D3
FFA0
FF90
FDEB
0094
014C
0325
FEE7
05D3
08BA
0819
0413
054C
0101
FE92
02D1
02F3
FEB5
FA6B
FC7C
FDAA
FBAF
FCBD
FC90
01A3
025E
023A
FE4C
FF2E
0208
021A
FEF8
007C
FD3D
FCAC
FF9A
0325
FD9F
0098
011F
04E3
FC95
01E7
042F
024C
FD84
02D9
0111
0175
FD1F
FBC0
FE4F
032D
034D
FFE6
FC65
0305
02BA
03F5
FE58
00C9
FC1D
021F
02ED
01B3
02CC
FEE7
FC8F
0094
00E5
03EA
03AF
FEEE
FC80
033E
FEF9
0099
FF5E
FB1E
007D
FC89
03E1
FDD3
FC27
