FFDA
0311
0118
FE16
018C
FD5A
0308
FDB9
FDCC
FFE9
004C
FF49
00DA
FB6F
0079
02DB
016D
004D
0218
FD50
FEC5
FF9A
FFE1
03E1
FEC4
0089
0114
FFDD
02BE
0339
0029
FDA9
038F
0379
FD0E
FE00
018D
FE04
FE9A
0192
0282
0084
FFAE
025F
FC72
012B
FF73
FD10
039B
0351
FC65
FC27
FF9F
FDC2
0392
0151
FFC9
035C
FFF7
007E
010A
FD77
FC26
FF7D
017D
034A
01BC
FFE5
FE1B
FE7B
010F
FAB3
FC23
FD8F
FD2B
FDE4
0352
FEB8
FE52
00FE
FC38
FDE5
FD46
03C0
015F
0303
FDDC
FE27
FDF0
0084
03C9
FD7F
FCF0
FB76
00AC
0170
FF0E
031C
033A
FDE7
FBD6
FD02
FC29
FE98
FC85
FEE3
0040
FBBF
FE63
0368
00B1
FECA
029C
FEBB
0301
FCE4
FE64
FFA6
FF34
013B
02D9
0311
FF9C
FE07
0210
005E
FE19
02CD
FD33
FE67
F956
FC3F
0171
FBF3
FFCE
FCE4
FE25
FC6C
03E4
016E
0327
FCFF
FC48
FCE0
028E
0145
0092
FC05
FBDA
FD95
FCC3
0150
FD81
029E
0113
0305
FE4E
FCC1
FB01
FEDD
0018
02F6
00A0
FFAD
FF8A
FFB3
FE98
015D
0152
03E1
0366
039F
FCE8
FD34
FBE8
014D
FF4A
FBAF
FF2B
FEDC
FC97
FA09
FF8E
FD59
020E
0303
FFC1
FB7D
FE98
017E
FF7C
FCA8
0130
FB58
016B
FFDB
FF19
FF1C
FDA1
02BF
FCE9
004B
FB80
FB39
FBEB
FD32
0065
FA92
F8A6
FE8B
00E8
006B
00DE
0085
FC99
FEC2
FF57
FAE9
FE66
FE1D
01FB
FEAE
0199
FC31
FF28
FC96
035B
FFC8
FCE7
FECC
FBC0
FAD7
FB44
FA52
FCEC
0104
FCE3
FD10
FD92
0325
FD2A
FFDB
FF48
0186
FB3E
FBE2
00E2
014D
00D4
02A4
0024
FE9A
FF37
FF5F
FFF0
FCFE
FBC1
FEA4
FF45
0136
FB0D
FB2E
FD4F
0095
0167
0234
036C
034B
FDFB
FF8A
008A
0021
FF56
0109
FFB0
FE7F
03E6
032D
002F
FE08
027A
FC13
FF2D
009F
0115
F9A3
0197
0550
024A
0305
FFE7
02DC
023A
FF1F
0433
0220
0312
FB4A
029B
FC76
0192
04B0
03A0
FDC9
0057
0016
FD6A
FEC7
0294
FF02
FF85
FF69
0341
0149
031A
FF34
02EC
FFB6
FD50
014D
FAF6
FFFA
017B
02BD
068C
FDF3
00D4
FF6F
00F9
0261
0154
008F
00E4
FDB4
02E0
FF59
000C
03DB
FD0F
FCDA
0174
0515
02E0
0319
0344
0092
0375
FB9D
FFE1
FC33
FCA0
009E
026E
0195
FED5
FF08
FF4C
FE23
02A7
0004
0213
008A
0045
0346
014D
0008
FE9C
0065
00ED
010E
00EC
FD94
0099
0010
FE6D
FBFC
FC14
FD47
FC36
FDEA
FDDB
024E
0253
FD82
FC9F
02B9
FEF6
FEAE
00AD
026A
FFDF
FE2A
027B
030E
0117
FEF3
FF70
FBB7
FF88
045A
0021
0443
FE45
0180
FF36
FF31
FAAD
FEC2
FAA3
FDBD
FF8A
033F
0115
FEA9
0100
0057
004E
FF00
FD27
0037
FC1B
FE76
0154
023D
FFD4
0380
056E
FED0
FC4B
0566
04FC
046A
055D
FF98
FDE5
FC13
FEFD
007C
03ED
FDF9
0160
FDD0
FA3F
FEF8
0355
FD1C
FD70
FEB4
02C5
FC10
FEC1
04F3
04C6
00C5
01E1
06A4
0464
02CA
03C4
0321
07D5
01FE
01E3
03B5
FF56
0294
FDD2
012B
FC4C
FF9B
FFCF
F9FF
01A9
01CA
FEAE
0303
FC7A
013A
038D
FC22
FD32
0164
FD42
FFFD
FE68
025A
FF67
003F
FFAC
0045
00FF
0292
0399
FDFC
FE80
FE7D
FDB4
FD44
00E5
FE6D
0197
01D2
FE02
0368
FE3C
0120
00A2
0025
0164
0469
067E
04D8
0109
01DB
FDEE
01A0
01E5
FF22
FE86
002F
0413
FFF5
01E0
FDBC
FD04
FCF2
01AA
F91A
FC57
FC9B
FC63
FEDF
035C
0050
0037
013E
0303
0139
FE79
0444
010E
FF00
FCAF
FE0D
00A4
FDA0
000D
FFFC
FFB6
FFAC
0418
0324
051A
FF4D
FEE6
FDA4
FF64
00D6
03E0
02A0
0083
FE12
0182
03A6
01E6
FC52
FBF3
FD5D
0136
FE19
FBBA
038F
FC3C
FFA1
FEBF
FA40
FEC7
FF02
00A1
FEF6
01F9
02AC
02CE
0330
FE77
0331
FFC3
FC94
03F9
FC88
FF84
049B
FF70
0407
FC67
FD67
FEAD
0003
FFFB
FF4F
FFA9
FEA5
FD87
03C7
FCB1
FF1D
0106
FFB0
FEC9
013F
FF22
01BB
FE83
02A1
FE72
0144
03F9
01BC
02B5
00AA
0314
03A8
FCCD
01F2
FDA5
FDB8
FDC5
FEC3
0005
FD64
FFA7
FE2E
FF8C
006D
FC10
FD3B
FED5
FCD7
01BE
02C0
FBDD
0376
020F
03DC
FED3
0380
FDB2
FD17
FE28
000E
FDA9
031C
0093
FA81
FB8C
015E
FC56
F940
FFC5
FAC2
FC5C
FF33
024F
0225
FE51
000C
00B3
FDC4
FC7C
0153
03F2
0129
FCDD
FC4F
FF98
FE92
FCAF
FF10
FD38
011D
FC20
02D8
FA3E
FBB9
019F
FF70
FBBC
0155
FD2C
FBBA
FCA5
FF3E
FCCB
013D
0255
FF8F
01A4
0216
00AE
0274
03FA
0157
03C3
03A5
FEF5
FE0F
FFDA
FFD4
FBB4
FF90
FDDB
FD48
001D
FD99
FC5B
FCEB
00B3
013E
FD6A
026D
FC70
01A3
FD93
0170
0331
0109
FE2F
FC77
0021
FCED
0137
00E0
FF05
FCFF
00EA
02DA
015F
FCF3
FB6D
FED3
037C
FF1C
0187
009D
FFDB
FED8
FAF6
021F
0119
0303
FD04
01DD
0285
026B
0015
0177
FDE9
FD91
FECB
FF0D
01BC
00D2
FD3B
028A
025D
0114
FC37
0291
020D
0007
FE0C
0376
01B6
02BA
FCC4
038C
0384
0365
0361
0292
03AD
03A0
010A
FE9A
