FF45
FC04
FCE7
FC55
FD6F
FEBF
0005
FFF0
FD3D
03C0
00AE
0073
FD63
0380
FD02
0257
FFD7
FEFD
0047
FC78
FEB7
FC9E
0027
FF51
FDC9
FEAC
0114
FEAE
0152
022D
FD2B
0151
017A
0202
FD94
0364
030D
0100
FF7F
0010
0337
0349
FE94
006B
FD55
03AF
0233
FCE1
0195
FC85
FF44
FF86
0317
FC03
0268
FF9E
0346
FD61
FE76
FD04
0361
FE0E
FD7B
FDC6
03C9
FFE1
0264
0203
02F8
00E6
0426
023A
0173
0157
FFF2
0414
047B
040D
0266
FEF0
FDD1
FE74
0049
FD29
FD47
0072
FDED
008D
FE68
FDC4
FFC0
0197
FCE0
0617
03C2
FFE8
0361
FDC0
FDEC
FE83
0120
FD61
FD56
FC81
FB71
FF9C
0028
0103
0433
010D
01DD
FF14
0172
01ED
FD7D
01E8
FF0F
0288
FF7B
FF19
FD60
035F
0355
FDBB
0144
FEB0
FE06
FC3E
FF4D
FC43
FC5D
00A5
FDDF
013D
FA01
FF84
F9AC
FB93
FD4A
034C
FD40
FDD7
0274
FFE9
FFFD
0092
F86E
FD9A
FF2B
FEF0
0062
FCF1
0203
FFB3
02F7
FE39
02F5
018F
02B5
03E2
00F7
0040
0329
0473
00DD
FF33
FDDB
01F5
009C
03D2
FE08
FC5C
FFBB
FBFC
FF76
FFCD
FD00
FC62
FB2D
0407
016B
FADD
FFB5
FF7E
FD37
FEB4
020E
FF5A
FE49
FC59
00BE
02AD
043E
0272
01A9
004F
FDD6
FE26
03A3
FF02
FFED
FBA6
FA4D
FEAB
02D0
F9BE
FCD7
0196
FE42
FDF0
01B9
0075
FECA
01BC
FBE1
FEC6
FF7D
0124
0661
FB84
01B8
01AF
0447
0322
02A9
00E6
022E
FE62
FA91
F777
FE71
FF7D
0072
0264
00EE
0104
FCF3
0173
010B
00EC
FEB1
025F
F7B1
00F7
FC04
FCBB
FC36
FDB7
FCE9
FF98
FD51
0045
FD7D
023F
02DB
FBD9
FB61
FF3C
FFD6
014A
FF68
FB7E
FF21
016C
0012
FD05
FEC9
FE39
FBFF
FC67
FD55
FE2B
FB43
F73E
F7E4
FE5D
FDA2
F9A7
0067
02E3
0273
FE30
FE69
FE43
FD58
009E
FE91
FFF2
FD13
01F9
F7CE
00BC
FDB3
FB87
FF73
FEAB
FB6C
F9ED
FB21
FC58
00EE
FA7B
FAE7
F8FF
FB2E
FC1C
FF73
02C8
016B
FE7A
FDA7
FFA1
F96C
FDFA
FE45
FD00
FE3F
FC0B
0084
FB04
FE0C
FB6A
FB82
FD53
FAC0
F433
FA17
0028
FE74
FFCD
FC70
FB84
FEA8
FB2A
FBCB
FF55
00EE
FCE9
0341
0183
FF1F
FCD4
F9DE
FFEF
00E8
01F1
065B
0450
FB5F
FB7E
01E2
0232
FCD8
004D
FD6F
F6FB
FE5B
028E
046E
FB76
FB78
FD3B
FBCD
00C9
0071
FD52
00F3
FC66
FCD5
FEEF
FDD4
FF86
0173
FD3C
FC75
003D
03B9
0497
0668
0016
FCBF
FF3E
FE7D
FD70
FD41
FF53
FF85
FCD1
024A
022C
001F
0357
FEED
FC3D
001C
031F
FF35
FF24
01A7
FFFB
FDA4
FDA6
FFC3
02B2
0030
0234
FEB7
FE63
0476
FD7D
02B8
FF4F
FFE9
FCFC
FFD1
FAF3
FF08
033C
00E6
FFCC
FF76
0304
FC52
FEC3
01B5
01BE
FDE1
FC3F
F9EC
04E9
01A1
0427
0327
064A
FE93
FDDB
00D0
0099
02FE
FDE4
FCFC
FC2B
F8F7
0097
01D9
0340
0099
FC7E
FFB8
FD54
0011
00ED
FDC2
01E4
FE95
015A
FFFA
050D
0151
0631
040D
039B
03CF
0140
01A2
0757
FD0E
02F8
FA98
00ED
FE1C
066F
FD17
0598
0239
02B1
0379
00D5
FFDE
013B
015B
0207
034C
021B
020A
FFEF
02AC
FD23
019B
046F
0072
0076
FE1F
FE2F
FE80
0025
014F
FFA8
01FB
0404
0240
0375
0253
FDFC
0303
FC5D
FDBC
003C
019E
02B8
0354
04AD
0517
00F0
FFC2
FDAF
03CA
05C3
05B7
FEB4
015D
FF41
0228
FE45
0144
038C
013F
0060
0652
055E
FFA6
0289
FDCB
0118
FFA9
02B5
027B
0015
FF92
02E6
FCAF
0339
0019
0690
FC5F
FFC3
FCEA
015F
FD2D
001F
0336
0440
0822
006F
06A3
043E
01AB
0390
FF62
FFD9
03F8
FE55
FDD6
FDBF
0493
FFC6
FE99
0168
010D
FEB4
FDCA
05CE
057C
FCB4
03F2
0478
02E7
0131
0189
0233
0032
0227
04EF
FFA2
01D7
0180
006C
030E
0332
FEBD
0375
0426
09A1
028F
01B0
019A
031C
0322
FFE8
00A7
0268
007B
01DE
FBFD
FC5A
0247
01C9
00F8
0087
05D0
036A
0421
FFC8
FFEC
FE13
0125
FDEA
001E
FD40
01D4
05E0
022B
FFC4
FEB2
00CB
01B5
071F
007D
03EE
00B8
FD3E
00C6
025D
FEEB
0249
FF50
06F2
0152
01E4
0363
FCFA
FEB5
0339
FDC6
FCAB
FD3C
0282
FFE5
0377
0398
FBAB
F95E
F978
005E
F8DF
01D4
03D0
F9FB
FFAF
048A
FDB5
FBE7
FF8E
FF9F
FF66
FD24
0135
FE6A
FAC7
FDC0
FE92
FDE6
FFE4
0191
035F
FFD2
FBCF
010F
FC10
F957
F931
0286
FC89
FB2C
FDBA
FA74
FFB5
FC3F
03EC
FDB3
FF74
F69C
F8FE
FA21
FDA7
FB62
FD71
FF9A
02AA
02AA
02B6
0338
014C
FDD4
FDDC
FE22
01F0
FDCB
FA22
FCBE
FE42
FD72
FEBF
FB1A
F98D
F908
F9CE
FDCA
F92F
F990
FED0
FD1D
FCC7
FDF3
0442
FF28
0023
FEC2
FDE3
00C4
FF1C
023C
FD30
01F6
FF86
FF29
FBE1
0273
01E2
025D
FD59
FF98
FF21
01F7
FEFF
FDC0
FD13
01A0
0322
03EC
02A3
033B
0314
0115
FEC5
02DD
0159
FCFB
0047
0155
026E
01DA
FD56
FE00
0084
FD57
0334
FFF7
03F3
0182
FF01
0118
FEF0
0198
FC8B
FE27
025E
03EC
00CD
FC7D
0290
01BE
FF51
FC15
