00B4
0161
FFFB
009A
FE7F
0145
FEB7
0316
FDD7
0246
FD3F
FCB5
02CE
FED4
0343
004A
00EA
01DF
FFCC
FFF4
0168
FD08
FFE3
FE31
FDC2
0211
0282
0113
FC5F
005F
FC72
FECA
0171
0004
004C
019B
FB4B
0324
0147
0174
FCBE
FCBE
FD1E
FE8C
FC13
FFC4
00E8
026C
FFED
FCFB
008C
00F6
FDC5
FED5
FD8E
FE3B
0275
0384
01C2
014B
FCA4
0246
FBFF
FD4E
FE9E
FBBD
0455
024C
0228
05C0
FD51
0052
FE4C
FFAF
FA57
FF4A
FFB5
03BB
FCAD
0271
FD7A
FF4D
FF52
0079
FF23
FF75
03B6
03E5
03E7
FED3
FDC8
FD03
FF81
FC5A
0250
04BB
0507
07BF
002B
0175
0433
FD14
FB68
F99D
01D7
FCFD
01B6
FF4C
044C
0267
FE9F
02DE
0239
00EA
FE1D
01FE
FEB6
05C8
012D
00D0
03C1
0239
00BC
05DC
02CA
04C1
FC65
FFED
FF63
FE89
FF63
F829
FD10
FF2A
00E5
0362
FE1B
0347
FD8B
000F
004E
FC5B
03EF
00F4
015A
021C
01BF
0001
0138
019A
FDA6
FF6E
01BA
067F
03B9
0448
0161
0161
F598
FAB4
F334
FA16
FC72
0105
0088
FECA
FC5F
0035
FD9C
0247
0123
FFFF
01D4
027D
0614
000F
FEDC
0242
FE19
FF7C
FD86
01EE
FD19
011E
00C6
FD42
0133
F79E
F261
F9E6
F920
0252
FDC6
FC1D
01CE
00E1
FE82
0364
00E9
0205
0348
005E
062F
0033
023F
030C
FEEE
FFB7
FC69
00FA
043F
042D
01ED
0368
0202
FBEE
F402
F64C
FCF5
024D
FF86
FF09
02A0
0297
FC4C
03A4
02CB
0218
0104
03BF
FBC9
01FE
FF48
FC96
0277
FD98
FAD6
FDAF
02F1
05A7
047A
FE75
FEF9
F9CD
F72F
F66B
F96D
FEFB
FF7F
0216
FD84
FD0C
FD19
FFF7
042C
0461
0356
054E
FF15
FB7F
FC66
FF5F
FAC7
FBA3
02B9
0235
08E9
0966
02CB
FE63
FC2F
F76E
F9AD
FAA8
FECA
FDA1
FF7F
029C
FF22
03F3
FFB7
FED8
FEB3
0205
FD6F
0014
0402
0051
FBC8
FC44
FED0
02A2
FD06
0570
0624
02D8
03F6
0180
F8A9
F3A0
FBCC
051A
0718
0072
FEA4
0149
FC2E
FF85
0082
FF5C
045C
FF56
03CA
FF50
FE3E
0517
0039
FE12
0306
0068
04FB
0283
0435
048C
FDC9
FCF4
F832
F6C4
FF75
FEC5
04B6
027E
FFA6
FBF1
0075
000A
0263
FEAB
FFE9
02BE
0145
033C
FB05
00D9
012B
FBA8
008E
FF20
03AA
FFB8
0574
FD85
FC17
FF88
FC2D
FFBB
0301
02CD
0245
00C5
FDAD
01F1
FAE5
022A
FD94
03AD
001D
039A
001F
FE0F
043D
FCBA
FEC6
0121
03DC
FF49
004B
FEBF
05FB
FE62
0251
FFB5
FE2A
0016
01AD
03AA
068A
FF07
00EB
019F
0236
02A3
0087
008C
FE6A
FE02
FFDD
FD7C
0183
FE4E
03DC
0401
FEC1
F88E
0469
018D
039C
FF04
005B
FFF4
FB72
06DA
FF4A
001B
00FE
000D
FDD2
FC5F
0297
00F4
00D4
FF7E
FFFF
FD59
FCA0
017A
FC66
FFC3
FF1E
FBEA
FE1B
0065
FE1C
0018
0151
FD1A
0046
00DD
FD0E
001D
05E2
0894
0429
015D
FBDD
01D4
0259
FCE2
0198
01F1
FC17
0243
FCE9
0252
FEC9
037D
FD3A
023E
023F
03B0
0326
0093
FFBF
FB6C
03CB
FDF8
017E
01D0
FC75
023F
FE3D
FA38
FF87
FF91
04BD
0195
FEE2
FDA6
FF26
02B4
02AA
FCCC
0434
0268
FD0E
0658
00BC
FF5B
00BD
02B9
05AA
043B
03CA
0058
025C
036B
FD50
0357
055F
000B
0038
029F
03E8
00E0
00BA
FF0A
FD71
FD2A
FE01
FEF7
0119
F9B3
008D
FCE6
FB7E
F9E6
FBE0
058C
FFB1
FE69
FFA5
FE33
FA40
00B3
FFE5
FF97
009D
0031
003E
037D
013F
02D1
0257
0354
FB93
002F
FFBF
FFBB
FC76
FF02
FE17
FD07
FDD1
FCAA
F85F
FE75
FE1F
FE37
018F
0247
046B
01B6
FF3B
00FB
FE59
0148
0455
FD06
FCE7
FE35
021C
FD75
FFD7
FE09
F8FC
FC53
04B2
021F
00A6
017C
FF73
FFF6
FFE4
FF45
01BE
FC8F
01D7
03CA
0575
FF94
0058
F960
00B3
FC34
FF0E
FF7A
025D
0162
FE66
FC17
FCD9
FE4E
FA6F
FE43
FFDF
FFF6
0143
FD66
FE43
00F6
FEB8
FA1E
02DD
024E
009F
FBD0
01AF
FEF7
FACA
FF4C
0068
FDDD
01CA
FFD8
FE46
FC3D
FEFA
FD27
0216
0040
038F
049D
02D4
0181
03E4
FA64
FF75
FF42
FEF7
FCAE
FDDD
FF98
F9E0
FF70
02CA
0040
02ED
FF74
FE59
FE19
0003
0168
01E2
0268
FFC0
FDF1
030D
0434
0020
FDB0
FDBF
FD66
FD58
FFD4
0169
0282
FE6A
FD62
FB09
0177
FCF1
01B3
FC3C
0007
FFB0
FCAA
FBAE
FAFC
FE79
0072
FE8E
005D
001B
022E
FE11
00A6
FD5E
029D
01E7
FF85
0512
0422
0172
005D
FE17
0219
034D
FFA7
005E
008C
FED5
0201
FF12
FF7B
FF50
FB43
032A
FDB7
FED1
01D6
FF2D
FC4A
035A
036D
03CD
010B
FE30
0088
032E
FFEC
FE06
FBE2
FD84
FEDB
02C7
FFFE
0187
F999
FFED
FBF3
FEAC
FDCC
039C
FD40
FE97
FC7D
FCBF
FF69
03C0
025C
00C6
FC03
FF1C
00C4
0363
03C1
FCE2
0192
008F
FE05
01A0
FF7C
FF34
01A2
0244
03FD
FF1F
02CE
FF83
FF11
0320
FDFB
FCD8
FC47
FEE5
00D9
FF38
FFFE
0118
FCB2
FFED
01FD
00C5
FCC9
02B1
FE03
02B6
026D
02F4
FF54
FEA0
0272
01E5
0046
FCC9
FE9C
02D0
FEAD
01D6
FFBC
00D1
01E7
00DA
01A7
