FFD7
0347
0058
FE3D
00D6
FF6F
00A0
FC4A
FF98
0238
03A1
02F0
FEB3
013D
0121
016D
0258
01FE
01AC
FF60
FDD7
0206
FC39
031E
FDE2
03A3
009A
02DE
FC5D
FD62
FF5E
FC25
FE99
03C2
0117
0226
FE4A
0385
0015
FC7E
FC7F
FF2A
03D0
00EE
0250
FDDA
033C
0338
FE27
FE92
01B3
0163
030D
FCB2
0065
FD33
0083
008D
024C
FD48
0293
007A
FF39
FDB8
019F
FE59
012F
FD04
018B
FF60
FDBF
0196
0179
FFB9
FFE8
FE48
FD8E
00BA
02A7
0359
FF18
02F0
FF02
00EA
FC2B
03B0
00FD
0172
035E
FE5D
03DC
03AF
FF39
00FC
FF30
FDDE
FE23
00B3
01C2
FFE8
FFA0
0009
01A3
FB3A
0317
0169
FCB6
0266
0249
FCE2
0348
FFA8
03BA
00E6
0034
FD3C
0291
FE1B
FD15
023A
0105
03DC
056F
0797
0288
FDF7
045B
010B
0412
00CE
01C9
FDC4
0078
FEEF
FDAF
028D
0281
0385
0297
FDDF
FE21
027B
0115
FDD3
0194
0257
01A9
082F
FDA3
029E
FEFD
024F
04B1
050A
00FB
FEDC
0300
04E4
FA67
02CC
065C
FE73
FED8
F7F9
024C
01AF
FF00
FDAE
0184
FD50
007B
FE45
02CC
037E
00E1
FE85
FE6F
00C3
FB8E
04D7
0364
FF78
00D1
0149
FE62
03B4
FDE9
022F
FD6D
FFC3
FFAD
04D3
0278
FE15
030E
0283
007B
FF67
FEAC
FB73
FF03
01FB
FDBF
F9EF
04E4
0137
03B4
FC32
024F
00D8
0073
05EA
0092
0089
0335
FE3A
FE24
01A5
FFEA
0312
FEE4
0341
0044
0269
0396
03D5
FFC6
FDA3
034A
FE57
0243
FE5A
003A
FF5A
05FF
0229
FDCB
05EE
016B
FF82
01C8
FD40
01C6
0224
00B6
0095
01FF
02CB
0125
0657
0481
FD3E
03D7
0071
FDDE
FF67
FCF1
FD9E
01B5
00B5
0200
FEE6
0235
01A6
FDFC
03EA
FD5D
0009
FEBB
0262
FB98
FF6B
01C7
007F
FEF9
0848
0463
0345
01F0
FB39
FDB2
FE45
FD5C
01C0
0164
026C
0185
02A2
FD91
0195
047B
00E5
0590
FB8B
0417
FA1E
FA7D
FBDD
01D8
0046
047A
FF30
00E9
047A
FC8E
FE18
0032
0327
FDD3
FCD0
FB7B
FD33
024E
FFD4
FF07
00FA
00E3
FDD9
FB7A
FD00
FF65
01D1
0493
04A9
FF22
00B6
FD6D
FD28
FEBC
FF7F
FF27
FDC1
032B
0592
01D0
000E
00F7
0158
00DE
0405
FF1B
01F4
FF0F
026C
F99F
FF32
FFA9
02F9
FF9F
03C6
0721
0156
FD56
0268
FCF7
0392
009D
02DC
00C9
012D
FDBF
FDA2
FF77
FD6E
03AE
FC1D
FD60
FF36
F8A0
FFF2
FFC0
FFC3
0305
FE1D
FAE5
0520
044A
07FC
098E
0266
042F
FC5D
015C
0517
03CA
FB64
F874
F9FA
F952
FD15
037C
FF34
FD2B
0373
FB55
FFA0
F6C4
FA3A
FE1A
FE5E
FC40
0226
FF53
0070
FFE4
05D5
093B
019C
00B0
050F
0170
F88F
FB8B
FB51
FE25
F64F
0147
FDD2
FE03
01A9
FCF7
019C
FC0F
00D9
FFF8
FAC2
FDBF
FD7F
FD3D
FDC8
00AD
0268
0285
0633
0508
0092
FFAF
FEB4
F998
FB9E
FCD3
FF76
FBB7
FF05
FE5F
03D0
0095
FCCB
00D9
0025
02D9
003E
01B0
F9AD
FA9E
FDB6
FC83
00AB
018D
00E5
0352
0257
0158
0313
FF9B
FBDF
0363
FE4B
FE23
FF78
00E3
0397
0621
0245
01C6
FC79
FC24
031B
01B9
04C8
0112
F93B
FC94
00AF
FFF7
FDAC
F9FB
FC07
FE95
042A
01D3
FDD6
0055
FE80
FDD0
FD1D
0063
02F3
FE28
014B
016A
F920
FC4B
0357
0193
FFD4
01FA
FF2F
FEDB
FEE3
0679
FD3A
FFA9
FC13
FF1C
FD78
FBAB
FF9B
FFD9
FF91
FD6B
FE5F
FED5
01D0
03DD
01AC
0011
03A7
026E
FC00
FEB1
FED0
0261
02AD
FF93
00D3
05D0
00AF
FE0B
FCF2
00BA
FCDD
FFC8
F776
F69A
FA6F
FCA3
FDD0
FF29
0518
FF45
007F
FEE7
0508
088B
0554
FB9F
FB0E
00AB
FDF4
FDBB
00B8
0159
FD02
0203
0324
02B4
00F7
024E
FB57
FECB
FC3E
FEC9
FDA7
FD9C
FF54
FDEA
0052
FCB5
0201
01BA
FF25
049E
FC7B
FDD6
FFBA
0254
FED3
036C
03B2
0435
04FB
03BF
0072
0282
0423
0297
045E
FCE0
04C1
FE35
FE34
00F0
FEE9
FC0F
0224
0142
FD3E
0087
FF22
029A
0162
F6EE
0015
0293
FFB4
FEB7
00B2
FF1E
00A3
FFF1
00F6
FFD1
024B
FE74
FFE9
FD1A
036B
FE47
FFD0
FE77
0176
FC26
012B
FDE1
FE50
FF44
FB4A
0027
017A
FF7F
0003
000F
FE4F
019C
FFC0
0059
0062
04B1
029A
FDE7
00AD
052C
FD76
FFDB
FF37
FF91
0614
FE40
FFDE
0214
FEBC
03B9
FE22
005A
0346
FE23
025D
02BE
FF35
FD7B
036B
FF5F
FE95
0395
051F
FF43
FA23
FF19
FF14
021C
0111
FF12
026B
03CC
031A
FC44
FFB8
0687
FBEA
FF05
0261
FC66
FEEA
00C5
FED2
FDB6
FD4A
FD27
024A
FC51
00AD
03F9
0185
01F2
FC30
01CA
023E
0195
FF3B
06F1
03B4
0278
0134
0672
045C
0415
074E
0112
0488
FFFF
0082
FD4C
01C8
FEB3
FD14
029C
FECA
FE57
0297
FC1B
02F3
028A
03A8
FDC4
02B1
FFEF
00F2
016B
02D0
04C1
00E6
0047
FFF5
03AE
048E
0409
FFF0
0195
0384
FFBD
00AF
01B5
037A
FFDD
FE16
FDF7
FC1C
02DA
0202
FD69
0132
0217
FC2B
0357
0130
FCF0
0346
00A4
009E
FF8C
02D1
FE9A
FC64
FBE9
FF81
FE34
FEF6
004F
FD20
035B
0263
0099
01FE
