034F
01D3
FC11
FE3C
FF07
FD52
FFF4
005E
0269
FEBE
FDF7
FF18
00D1
015C
0253
034E
FC95
FF8A
005F
012A
03D6
0143
FFBC
0127
FE1F
0097
FC71
FD7A
FC6B
FE91
03B2
0396
FE21
FD6F
FD47
0308
FC76
FCA7
00C6
0309
01DC
FF59
FC55
FF25
00E5
0152
001B
0333
FCD6
0177
FF76
03AF
01B4
FECB
FC78
0189
FE23
03EE
0170
0060
FDF5
00A0
0343
0381
FF68
0075
0105
01A3
02CD
FE60
028A
0327
FE3A
FC82
0226
FD7F
0232
FC97
FE85
01C9
007A
FC32
0062
FDC1
0185
02B6
FFC7
FE30
FC2E
FF87
FBD4
022B
023B
FEFF
0383
FC66
FECD
FE29
FB59
FDFF
00F4
FE33
FDDC
001E
FD71
00D0
FE1F
02C5
01F8
FD7C
0363
FF9A
FE31
FFD3
010E
FF56
0282
FBFF
021F
0370
002A
0311
015C
FEC2
FE3B
FE4C
00A0
FBBE
0319
FF44
FFB9
FF77
00C8
0076
FBF8
FE54
FED5
0263
FD73
FC33
02CF
036C
FE82
0182
FDB5
0247
FA3B
FF1F
0015
FDF0
FEEF
FA56
00B1
FCC3
FF67
028F
029B
F972
FCF3
00CD
FDD6
03F4
002D
FF31
0362
FE48
03FD
0063
005F
FC30
0293
FBFA
0074
F9DB
0058
01E1
FD32
FD7C
FB9B
FB1B
FE3F
FF98
FD99
FACC
FD1B
FBFC
FD3F
032D
FE77
FEA7
FD25
FF4B
FFB3
009E
FD4A
FC45
FCF9
0342
FC50
FD5A
FDDF
FCD8
F959
FFD2
00CE
FD0C
FFBB
000B
FFAB
FC20
FC11
FD2F
01C7
FD63
048B
FC79
FF74
0458
01E3
013B
FCE7
FC84
005C
011A
FD04
FC6F
017F
FC3D
03C4
0327
026E
009E
00E5
0082
FD7B
FDEC
FD0D
FE13
0413
FE08
FF15
0120
FEFA
FE26
02AE
FDE1
04A5
03EE
FD16
FF4A
FEAB
006F
006F
03B4
0318
FC4D
018E
05E6
0112
022D
04EE
00F4
00DB
FFA5
FD1A
020E
032E
FCBD
00E0
0094
0379
FDE3
0216
FEC8
FFA9
0407
FCA2
01E6
0091
FF47
00B0
0292
FCC6
FEBA
011B
0526
0666
FD28
07C0
FFC7
05B1
057B
0150
FBE8
FE01
FFA0
01EB
015E
FE84
01B2
FB08
010B
0513
009C
02A2
02B2
01C1
FE9A
01BF
FEB9
FE1D
01B6
0233
0871
03DC
06AF
FF19
07E4
0236
0126
FAA8
FA4F
0053
012A
FE75
FD2B
00DA
0209
FFE4
00A2
0210
0008
0455
FF40
FE56
FE70
0221
00A4
0208
FF5B
03E4
00B3
00CD
09F9
02F8
FE1F
FDEC
FA20
FE13
F889
FC25
FE4D
FFE7
01CF
FA9C
FCCA
FD03
FF35
FA13
0106
0308
0360
0416
FFA3
FDDC
FF76
FE46
0260
FB05
00F0
FE1C
FE0B
FD3F
0106
FE87
FF13
F698
F9CD
05BB
00BF
FE62
0053
03E0
FF00
0020
00FF
032B
FF5F
026C
05A7
0031
FF46
01EE
03B9
FD12
FCE4
FCE8
FDDC
FAE5
FB44
FB76
F7F3
F848
F556
FD48
00D7
0186
FCE9
02A4
FFDC
FD6A
FC7A
FF8A
00F3
FE0A
0128
001E
0442
FE55
FEAD
FF08
0080
03F8
FE44
FDE4
FA24
F89F
F84F
F585
F5EE
F5F6
082A
059B
0328
0415
FF52
FEE0
FA68
FD46
FE4E
FC8D
F948
FDAA
F960
FC25
020B
FDCF
03E5
036E
02B2
0073
0099
FD58
F440
F347
F61A
F200
FD09
FF21
017D
048A
08E5
FDAB
FE51
034A
02AB
0343
016A
F79A
0061
000E
FDE8
00CA
FF6F
FDD8
01D6
0274
035E
006D
0011
F7FA
F781
F6F4
F79C
FC14
02A2
02B4
038D
03E6
0560
0618
FD71
FEFB
00FE
0301
0505
F863
0014
FEA8
FFDE
022C
02DE
FE96
FD82
0156
FCBD
0313
FD2F
F98C
FB80
FB3B
0659
FE4F
FDD6
035D
FE8D
04DC
054A
FC18
0300
FDF3
FD99
FAC5
FE16
FFA4
FFE0
FFFB
FF5E
FF57
FE63
0262
FF65
FD22
FE19
0135
FCA5
0151
F9DB
FD08
008A
FEA3
0657
0654
FEEF
FD3A
094A
011D
00AF
FFB2
FED7
FC8F
FF4E
0180
F977
FD61
FF84
0376
0151
02A7
0376
035E
0203
0214
0298
FC7D
FC32
0822
05E4
0897
FF53
030D
0622
058A
00D2
032B
0104
00B1
047F
0488
0028
FD9D
FEED
FE8D
02D6
0480
FF35
0198
01FC
017E
FFDC
0084
00C0
0033
0302
0367
FE8A
FFE0
FFAB
03FE
FFC0
0075
0340
0071
03B6
FDFC
0185
027F
07E5
016E
00E3
0223
078F
04AD
FF10
FFD2
0325
FC4C
FC6B
FC5D
FC56
0357
053A
030B
0172
FE84
058B
FEC7
04B9
FED3
0312
043B
FD7F
FFD9
00E6
FED8
01D8
FCD6
0367
02B5
0587
037A
FDFF
FFA1
011A
FD30
0334
FEC7
0058
FB24
029D
00A5
01BE
03CD
01AF
0258
0132
002A
0838
FDB9
0456
052D
FFEA
0171
02A0
0047
02B3
01E0
046A
FE7D
FD27
FEBD
FD2F
0256
FFDC
00FE
FEDC
0046
FE59
FF2A
F719
FA85
0100
FEFB
019E
0324
FFDD
04EB
0359
FE53
FE11
0433
02AF
FF24
0363
0180
FEE5
03C7
FEC9
0302
FC02
FC7E
FFA3
0170
01EB
0060
004A
0088
046D
FFE6
FC19
FE3B
F831
03F0
0231
0327
019B
0134
0545
FDB7
0205
FF2D
FCC6
FE58
FFE8
FCF7
FD90
FC90
FFFA
00D8
FC70
015F
01E3
02C7
0017
FB52
FD80
FC27
FD90
FC7B
FD02
F9F3
FC10
FAA8
F93D
FCA4
FC88
FBC5
FF84
FBE8
0153
FC89
FE85
FF57
FDA5
038E
FD34
0384
FE20
01FE
027B
FCAE
FE7E
000C
0365
013E
FE43
0072
FFB3
FD0E
0044
FD1A
0180
FDF8
FDEC
FE2B
0116
0040
FF4C
0141
FD7B
FD48
025F
FE59
FFF0
