FDF1
0116
01DE
FC72
01A2
FF5A
FCDD
03F0
0181
00AC
FD59
034C
FC83
FF38
00BD
008F
FE36
0084
FC73
0009
000E
002A
0043
02AB
FDC7
01BA
FC33
FC3C
FE2F
FD9E
0044
0133
0201
0328
03B2
FEE0
013B
FEA2
FCB1
03D8
FE8D
0402
007E
019D
02F1
03A6
0056
FDBC
0002
0223
012C
FD4A
FF29
FC4D
0185
017B
FCC3
018E
0012
FCB4
FE6A
FE11
00CD
001F
0579
03EF
0225
00AF
0605
FFC3
03A3
03C7
037E
FED7
022F
FEBC
0145
065B
0298
FDFD
0255
FDE9
FEB1
0218
032D
FC12
035A
FD9B
FDC4
0088
FE1F
FEAA
042C
0469
003F
0933
FEBB
01B5
03FC
FE90
00BE
FED0
01A5
02FA
02BD
05AD
0392
0581
06FF
0323
FF26
FC9A
FCAD
FC92
FEEB
0063
0129
FF3A
FE41
0207
0512
0199
0048
FF1E
FDA8
002A
01A5
0091
FFA0
FF11
FF47
00F8
039A
FF9A
FA72
06D3
01A6
00E8
FD6A
FCB4
00C7
FD89
00A8
FEBB
027F
01B1
04AB
02B9
0285
0072
0349
FEBA
FF7E
FE5A
FD35
FB1F
FF19
0303
FD8C
00BC
FF5A
02A6
FD36
06B8
FFFE
FD1C
FCEB
FE78
002B
028E
0364
FD72
03A3
0363
00D4
0194
FDB9
FEF1
F998
02A0
FBFC
FD28
FF69
FE72
01F4
FBC3
F73B
F8B0
FD26
0083
FA31
F888
FDD2
FBDA
00AC
FD8A
0134
036F
FDE1
FE9D
02EA
FD9E
FDA1
0579
FF16
FA46
00D9
FAC7
FDD1
02AB
01F2
FDCB
FC84
0021
FF1F
F8EF
F8B2
F84D
F2D2
F40D
FE7C
FC05
FA1E
FDAE
00CF
FDF6
018E
0129
0297
FEF9
FA99
0188
00FD
0021
FAFF
FBA1
F975
FA72
FA6B
FAC4
F563
FCE7
F916
F969
001D
F56E
F69F
FC7F
F8E5
FD39
00F4
FD54
02BC
FCCF
02C1
041E
034A
FD84
FC97
01F5
FD19
FDEA
FBCF
FBD3
FC1F
F83E
FC1D
FBBA
FC05
FE52
F802
FB5F
03C8
012C
0061
FB5D
0190
F991
FD7F
0060
03A4
FE71
0268
01FA
01A6
FABB
FA69
FF3C
0359
012E
FFB7
00F9
00A3
042E
060A
FF49
FBDB
FEE6
F958
FF06
FC97
026D
FF96
0092
02E8
FBE0
FE3C
FE32
0220
FEAC
00A6
000D
FD87
015B
FFB2
FF16
FA0E
0257
FD0E
0190
FD3E
014A
068A
FD33
0516
004A
05A1
FD44
FFCF
0298
02B3
06A3
02B5
FF91
FC30
FCCC
FFD8
FD45
0118
001F
FFA2
FBEC
00D4
05A2
0730
0236
FEE2
03E7
FF83
02B0
07E2
02C2
FF3E
014C
043F
032B
FC41
FCF1
0441
0128
04F2
FEB1
FC95
01FC
02F7
022E
018E
FD89
FFB5
0456
014C
FFC6
FAE7
0115
03A5
FEBE
002E
01D7
02DE
0282
0569
F9B3
0629
00C7
FE76
0609
01E4
0860
02D2
FD1F
00F4
FEC0
FC62
FD8C
FFA8
024C
0087
FD2A
04D2
FBED
005C
FE58
0664
01FB
0106
00D8
02E3
FFA3
03DF
FC11
02E9
0081
065D
0606
0547
03B6
0155
FE27
FF5C
02CB
FDF1
FCAD
FFE1
021F
FDF9
FB99
FEBA
FDE9
0044
FDE2
FCBB
FBCD
031E
04F6
0261
02AB
FD3F
00F5
FEB7
03C2
04C7
04C5
0061
0786
020B
026C
FBCC
FC3B
03AE
FE0C
FC78
FEE9
FB49
FCA3
01E3
0277
0095
0091
FF8D
045A
FF70
FF8B
0373
012D
0041
FCF1
05E9
02D1
FE86
00C2
004A
FBFD
FFE8
006F
009E
FC6D
0311
FE15
FD44
01B7
FD24
00CE
0307
FB6D
046C
FD06
FF64
02D6
FF39
0159
FE82
00BC
03C8
FDBF
FF37
FDA9
0252
04BD
0202
FACC
0124
023D
004A
FDEA
03E8
FE64
01FF
037C
FDE0
0110
FEF3
FF93
FF7C
FF6D
0371
FC42
00D7
FF6B
0364
FE66
037A
0407
0341
0038
FC8B
FD6A
01B7
FD5C
0201
0113
FF8B
02A4
FF3A
FEC3
0195
FF18
FF4F
026A
03AC
FC00
00DF
0031
0342
00C7
021F
035D
01EC
013F
FE16
0175
FD3E
FEDD
FB85
0043
FC6D
FD9E
FA63
035F
03CF
FC9C
0226
01CF
FF45
0296
0016
FBBF
FBC0
FEB5
FF75
01D6
040A
0008
FEDB
0391
0213
0128
0005
FF48
030E
FCDB
0111
FD97
FE83
FBF7
F93E
FB2A
0339
FD53
FC40
0144
FDCF
FFAD
FD44
FDEB
FD1B
FEBD
FF29
0420
FFF6
01B6
0251
0467
03ED
0295
02FD
05EB
04B8
FCC8
0166
FC9E
FBB0
FAAA
FBAD
FD3C
026F
FFC8
0051
0364
FCE8
00B5
00D4
FEB8
FC6F
0197
FD5A
FE2C
0327
FF86
0281
FFCE
FD3F
0457
0085
FAA3
FE5E
FDDB
FF21
F976
FBD5
F842
F986
FD31
0283
FDA5
01EB
FFF8
0177
01EE
02CF
03E9
FCAF
FC1B
0022
005A
FCCB
F7C4
FF7C
F950
FF69
FB42
FBA0
F625
FA76
FB1C
FD9B
FDBD
FFF7
FC05
FF0D
FF8A
0384
01AD
02FA
015A
FD38
FFA5
007B
0064
FF69
FBBD
FDCA
FADD
FEB8
FBA9
F864
FAF9
FCBC
FA1B
FAEA
FEC2
FBC1
FF8A
0100
0511
FE63
FE41
FD77
FE55
0208
FF84
FD4E
03E6
FFAE
FF88
03D7
0026
0440
036C
01C6
FE06
01A1
FE9A
044B
FCA8
FD6F
FEBA
FE0B
FF72
FD8E
022C
FCFA
00B2
0169
FD84
0384
02FA
0273
0108
FE97
FCF2
FEB7
0171
0096
FE00
FD9E
FC11
004B
0339
FFA3
018B
0642
04D4
02DA
FF8E
FF0A
FCE7
FFB7
00E2
FC7A
FDF0
0270
FC7C
FEAF
00A9
022C
FDD2
00B7
FE97
FDD4
011D
0164
0040
0072
FE77
FF5E
FC40
00C2
FD22
009B
FDD9
FCBD
FE69
FC56
03D0
FCCC
FED6
02A6
FC9C
00E8
018D
00D8
FD9E
FF7D
01B1
