08F
0BC
F1D
F63
FB7
F65
F69
065
FD0
025
07D
031
F88
FAC
F42
0C9
F49
0C5
FB7
084
F5E
EFF
0D5
08C
0E0
088
F00
04D
0AA
FA9
FCF
06B
F92
F06
0B6
F6F
F44
FAF
F0B
0C6
055
F16
F14
0A8
0BB
F4D
0BD
0FB
0CE
04F
015
F08
013
FB9
EFE
F34
01D
046
EFF
011
F1C
F1D
F73
FF3
08F
09D
024
FB8
08E
06F
FC4
FEF
FD4
046
043
FB3
FF9
F44
005
0BD
03A
0EB
F08
F42
FCB
FE1
F65
F4A
035
FC3
F8F
062
F31
0D8
F62
043
FD5
04D
FCD
0D6
004
F71
F4C
FC0
0BE
F69
F1A
F55
F76
FF2
FE4
01A
0B9
03E
FE4
00D
0D0
F4D
08C
0B9
F8B
F80
0CD
FB0
FA3
014
EFF
F4E
FE3
0DD
F40
FF5
F20
051
088
F29
F78
F8D
FB4
FF8
09E
03D
069
09F
F4B
F15
FE9
F83
F29
F47
061
FAA
06E
F0D
FB3
F8F
0E0
F75
F3A
F0A
071
EFF
FE9
059
FE8
FFA
F08
F47
0BC
F22
036
FC6
073
F64
F8E
F8D
001
0A2
019
F4C
088
012
077
F80
0D8
0E9
F96
F30
016
FED
F29
064
F97
005
011
FA6
F09
F24
04B
036
074
0E9
073
F06
057
FB1
095
F4D
065
FD0
F1C
084
F67
0B8
05B
F63
F1E
0D8
F1B
0F5
F5A
0F4
F68
037
064
0B8
F19
FA8
FE2
02A
F5B
F44
FF6
F03
F56
028
0A1
F6E
046
F3D
046
FC0
F8D
F0E
01D
F8D
096
0C0
024
FA9
054
F3B
FFD
FB8
0D0
FF2
F7B
FD5
05C
063
0C9
0A7
F96
EFB
0BD
F24
FAC
05F
F7B
FA6
022
017
FCF
F1F
F22
023
FB7
0EE
07A
FDD
FA6
F40
0BA
FD3
023
F79
F4F
09A
05E
F03
021
FCA
F3D
057
0DD
F28
05D
046
FE3
047
03B
0A8
085
F89
04B
02A
FD0
03B
0D4
038
035
FA8
035
F69
07D
07D
F04
FFE
02E
0E3
0EC
FBE
040
075
F7D
0E6
014
F7C
FC1
0E3
F1F
034
0F6
FDA
001
FBD
FE9
FC8
F6A
026
F30
0C0
F69
F61
FAE
FFA
FC5
FFC
05E
0A1
F8A
08D
FDA
03C
FB7
0CE
F06
08F
F89
033
091
08F
0F1
083
FF5
079
F29
F8F
006
080
FDC
097
F7F
FC1
0F8
F80
0E1
004
F42
041
057
FE5
F97
F5D
0F6
F36
084
F63
FBA
F6B
FFF
0AA
F04
04E
03B
01E
FED
061
01A
F8F
F29
09C
04D
F34
F47
0AD
F34
055
028
F49
FE0
0CA
00C
090
F1E
F3A
FFA
075
053
F1B
F87
020
FE1
FA4
020
F8E
0DC
F6B
F79
FDC
F6B
0AB
F70
F22
FC9
001
FB0
0C4
032
0D7
012
FED
0A7
01F
FD9
004
09E
F58
FAF
0B0
F3E
02B
F4E
009
085
0C9
095
F6B
F4C
072
F3A
FB2
0AF
005
07F
FE9
F58
F16
F2C
F0D
003
FA1
F61
F9A
F03
0DE
F1A
FD2
042
020
0E3
036
087
0E4
09E
FC8
FC3
081
F6D
066
0DB
F67
0D6
071
0CB
0CB
048
047
0C3
F01
01D
F68
0CF
F1B
F21
FD7
098
F8B
056
0E8
F91
072
045
F14
EFD
090
F16
F82
F6A
FE3
0A0
06F
07F
F38
07E
F9C
0F5
02C
F0D
F2E
F39
082
FE7
0F7
0DF
0EF
07E
FA4
F5B
FD4
FB8
034
F2C
F1E
FA7
0F9
0C9
F9A
063
F06
F54
034
FF5
032
F20
F34
FB9
F53
020
036
0C7
F57
0D6
FFB
094
0AC
0A2
018
02F
059
08A
F1F
0AB
F30
FA4
0D7
F1E
01A
0C3
064
FC2
090
07B
FDD
04D
F52
F1A
F55
F74
F5F
F9B
F41
081
F18
FE3
021
021
098
07A
072
F2B
FBE
0C9
088
F40
F3A
F97
0CD
F96
0B1
FAE
0E6
FF7
061
F69
032
065
FC2
0C1
F6B
0DD
04A
0F8
049
06B
044
F8F
0B8
FDE
01F
F54
004
0A2
F48
090
0BB
FF7
F3B
FBD
036
024
FD1
037
072
04C
012
043
FFA
FA6
06B
0F1
FBB
021
0BF
051
001
FC4
F76
090
0DF
F92
06A
F72
F28
054
FFD
05C
F08
F6C
F2E
0B2
F23
F94
F47
07F
0E8
0D3
FEA
FE6
FD2
FA4
0E3
F12
F54
07D
0E2
038
064
F12
FA2
F9B
FA7
FDA
FD8
F1A
F8B
0F3
F7D
045
0F0
0CB
F44
FA1
033
F9B
057
0E1
099
F63
0E3
FFF
0F2
F32
F9D
F1D
072
FBF
062
FC8
FB3
F48
F56
00D
FDC
F76
F44
F41
FBF
FD9
F29
F41
0A8
F0B
F7B
0FD
030
05B
0A1
F9E
04E
08B
F5C
F2F
F79
099
005
F37
F2B
F99
017
F79
03F
F32
F5A
087
FA3
FF7
F45
07B
031
FD4
F5F
024
08D
0F4
083
012
0CC
0CB
07D
F11
076
057
056
F0A
078
0F4
F49
F06
0E9
0B8
062
0B2
F8E
FCD
F5E
F2B
F4A
04A
061
0D7
F76
07E
0A7
F91
002
F8F
F9D
0D9
0A2
086
F50
FC8
FC8
FEB
F16
01E
057
0BB
F20
F16
F11
F73
F84
FD2
FF7
013
026
0F7
F2E
FF0
F43
01B
F7F
059
F22
099
01F
FEE
F50
F0D
F80
F2C
FDE
FF8
FDF
FCB
0DD
F97
051
F27
0B8
04B
069
F8A
F03
F31
F34
056
0C2
FB1
FFE
0B7
055
0CE
FDC
066
F51
FAF
F0A
F25
F94
00F
F78
FB2
F74
F6F
0DF
F16
F83
EFD
067
FE1
001
012
FDB
F31
FD7
05C
006
F63
03C
F54
002
069
090
F10
01E
FBB
F85
F80
F3A
FB7
F91
F11
089
038
0C0
032
0D1
07E
FEF
FD9
0E2
025
FEE
0EE
FB7
FCF
01F
07F
F35
F38
F90
0C5
017
F2D
F10
FF4
0C4
F47
F33
0D7
0A4
0B5
00B
040
FDB
F67
F34
FA5
0FB
FD0
F2D
0D7
F62
0D6
FBA
033
F13
F86
065
012
FAF
FD3
00E
F99
021
F1C
F9C
F4D
FDF
071
F05
0CB
025
F31
0CC
F7B
FF8
F17
0A7
FC6
0E1
FB7
FD5
FFE
0E4
F5E
0BE
F83
0FF
007
F61
0F6
FE3
FF9
0B7
F5F
06F
F82
01A
F48
F7A
FBE
F41
F24
0C9
F17
FF6
037
0E1
FE2
F20
F28
F20
04D
F2D
020
FF2
F82
FE7
FCC
FD5
F76
0E3
089
000
F7C
F28
0D4
0D5
074
0F0
FC8
037
F98
077
008
082
FF2
F42
F97
F09
F0A
027
021
086
FDB
0EB
FF7
F2E
FA1
FA0
F6C
FDA
007
046
F89
F33
F72
F92
F1D
053
F4E
FD5
095
FD6
0D6
0A7
07E
F2C
098
F9F
FC9
051
F6F
F4C
FCA
06D
0C6
FD0
100
01B
0CC
FD4
0DA
0BF
FC9
0DD
F76
F5F
0DC
0A8
0CF
083
FF3
FE6
013
F62
F05
F0E
03B
0E1
024
0C5
09E
F89
09D
0B3
F62
007
F86
0A7
002
068
FEC
F6F
03E
F14
F56
F10
0C8
F73
080
F1C
F69
FF9
FF4
FDB
0B7
00F
FE2
010
F6B
08A
F26
0C8
FD4
F40
066
FDC
0C0
F05
F8F
FB0
FAD
F30
010
011
FCE
FAD
F09
F65
F04
F95
036
0DD
FA7
F41
03F
FCD
F1A
089
008
F9D
FE0
04D
023
F2F
F20
F9B
FA6
0B0
FEB
06E
0F3
F44
FB8
0EB
024
03B
FEB
FB2
F93
F4E
F94
072
F43
F12
F47
F2E
034
01A
07D
FEC
FC7
F53
0A8
FEA
F19
06C
FE5
FFA
F37
03A
F11
FDC
07F
F86
F86
F48
F7D
FA4
081
01A
071
06C
061
FAA
09B
F73
092
F3B
F06
FBE
070
06B
00E
04F
F8E
FDA
F75
0D5
03D
0DB
068
09D
0B9
FC0
0AA
0F5
0EA
FBA
F3E
0F8
F9B
FA5
0F0
053
0E8
01E
FD1
FDC
057
F95
F31
03D
0D3
009
F9C
0C4
FBE
03F
0CE
F36
021
F5F
0BF
04C
0B6
F2A
024
F66
F6B
F2F
0CF
0E1
F84
F51
F81
011
006
F83
08B
005
FE2
0D1
F8D
F16
F30
F8E
013
08A
066
04A
010
F9A
FDD
03C
097
093
02B
069
FB6
F63
FFC
FFD
FE3
069
F1C
08E
FAF
0D8
F3F
F9C
F45
0E8
F1B
F72
FF0
F02
05D
FA4
F45
F0C
059
0A6
F0F
FB1
F7B
FDB
058
0E7
F67
097
0DE
045
F15
F6E
F27
0E8
02F
F8D
F8C
0DE
F8B
012
F27
F89
F6B
FA2
F87
080
F22
007
0D6
F67
F1D
021
F63
0E3
046
F09
F9A
060
F47
F2A
0B3
FF9
0CD
FF1
F90
FBC
F3C
040
F7A
044
027
FCE
079
095
F88
0FC
0DF
052
F03
047
090
04A
FBD
055
F86
02F
027
FB5
FE4
0B3
051
F62
0AF
011
F23
F4D
F9A
F83
050
FB6
0AC
FE1
034
051
F10
F46
FEF
04D
FA8
F3C
041
FFA
04F
0BA
FF9
F77
F55
F79
F1F
08B
FE7
03D
047
0AC
EFE
F6E
0E8
F51
0D7
FA8
0A8
F45
FE0
0EE
084
0EE
014
06E
0CF
069
F7C
F30
017
0AF
0DF
0C3
F3D
FA1
01B
F8A
0B0
FAF
F53
F1D
0E4
FD5
086
FF6
017
F44
02E
FB8
083
007
042
058
104
0D3
FCA
FDF
F7E
052
FFD
043
0AB
097
FAE
05E
F7F
F0B
F8F
072
F2C
04E
F2E
03D
FDB
034
032
0C4
FA9
0F7
043
F7A
FA8
03B
FCC
077
F55
000
FA1
F16
FBF
F9C
08D
F8C
0B9
FAB
F1E
0C5
075
F71
05A
FF4
FF0
0C1
016
FE4
FC9
EFD
0C8
F3A
0AC
089
0EC
0B7
F51
F82
04F
07D
FD5
084
FF0
0C7
F3B
057
FA1
0AD
020
087
FB4
FA2
057
F1E
FAD
066
001
0CB
071
0DD
0C1
F12
091
F0C
095
F23
FD3
FC9
04E
F25
087
F23
FB6
F78
0AF
F51
F29
06C
FA5
0C4
F68
0F1
F44
F49
FF8
FE7
FC5
0B5
F5C
F1E
FFF
038
FA1
F2B
0F6
064
0C0
06B
FB2
F1C
FE7
FB5
F58
0E8
F8E
086
0D4
040
F60
F9B
00C
FBF
F79
0BD
0E2
F66
FE6
0D8
FBC
002
038
FF2
05F
F7A
F9D
0E2
0C1
06A
04D
0CB
0C1
0A2
F47
09A
06C
05F
067
0B9
FE7
008
F9E
FE8
F50
06F
051
028
F83
062
002
07A
089
0EB
F81
0CD
093
055
FEB
FA1
FD2
FEF
F25
0F1
F30
040
0CE
F4C
FBA
F66
0DF
082
03C
FED
064
016
F36
F55
F06
FF1
0C1
F97
F37
F34
FEF
0E3
F14
027
091
F0C
05D
092
07B
02F
0CF
08C
0DC
F09
0C5
06E
0F5
00F
0CD
071
027
05E
F35
0E4
F44
F19
F41
FE9
F13
037
FFD
0D1
014
08F
00B
F7F
F8E
F8B
FD4
F26
015
F3C
FCB
FCA
F21
FE7
0DF
056
0C1
FCE
0F9
0C4
05E
0C9
0E2
F8F
FB5
F58
0BC
FA2
048
F45
FD1
0F0
00F
07E
046
F62
0E9
02F
009
F6A
01B
08C
F65
0CE
F8B
014
012
F0D
03C
F50
0CC
F46
0A1
088
0B9
F55
F34
0C0
092
F4F
005
F1D
091
F65
013
0B8
05F
0E7
FC1
F9A
02D
F2C
0D7
F6A
F4D
021
07C
040
011
0EC
F34
092
F84
0D1
FD6
011
0E6
0B5
FD7
0D9
0E1
0BF
F12
0AC
043
08F
056
002
FFC
F31
FC0
FE1
F2A
F39
0B6
0B2
0B6
FDB
048
FCE
06D
0F0
052
FA9
0EE
0ED
F4E
0D5
F4C
0E4
0F8
0D0
01F
082
F5F
FA9
085
F7E
074
09E
0BA
0B5
085
F3A
FDC
0E8
F61
FC6
FBD
F72
F6F
F22
0AC
078
0FD
037
F2C
07D
0E8
F08
023
F91
060
0DB
F9C
F9E
03A
020
F53
FAD
FF2
F0D
FE7
0E6
FE3
081
0B4
081
FF0
0A3
FEF
0C7
0F4
FAA
024
FEB
F71
01A
00D
090
000
F1C
0AA
097
0F3
FCA
FFA
F6B
FAD
F1D
FDC
07B
06A
F24
F82
05F
0A6
F22
F52
FC2
FEE
056
F09
F27
088
0F1
048
041
F4F
F45
0AF
0A9
085
0DC
FF6
F08
F18
F49
057
F4E
030
FCA
00F
F88
FAB
FA9
029
0BC
F76
0A6
09C
0BD
034
FB2
041
FEB
FD9
F25
0CA
F9A
00F
FBB
0B2
F5E
094
F83
F85
F4D
082
F40
F4C
084
0CF
F75
026
06D
EFF
FFB
0DA
043
FEB
F52
FC5
FD6
084
01F
011
F1E
F1E
FED
067
030
F18
F11
F10
F3A
FC3
F12
011
FAA
FCF
002
08B
F00
058
F2E
F23
089
098
088
FFF
F65
023
020
085
F8A
06F
FD8
076
051
FC1
FDB
0F5
057
FB1
02F
00A
08B
061
F9A
F79
F7A
FA2
07A
07C
F1B
F80
F96
F27
0BE
F34
FAC
046
F4B
070
F8B
015
F77
FD7
FAC
027
FBC
F52
F71
096
07C
05D
00C
F41
045
F8C
F19
F1E
FC0
01A
0C6
076
092
022
0C1
F9F
FB1
01F
0E8
0BA
F01
0BB
031
018
F4B
0FB
F30
FEA
FD6
05E
F63
F86
0DF
01A
0E1
F3E
F65
0BD
F1D
FA8
07D
0C8
0C7
F79
096
F99
F05
FA6
F8E
0DA
F27
F96
06F
040
0B2
035
F5F
FA7
0E1
FF0
0CD
F93
065
0DF
F3A
0C4
024
0A9
0B2
0CA
0F7
FDD
FEA
F9C
F12
F3D
072
FE3
041
F65
00E
0F6
0F1
FFB
F90
009
FA6
087
0B4
00E
F22
F24
F21
FED
0FF
0C3
006
F67
0E6
106
F76
050
0D2
0AC
018
F5B
062
0C3
022
FBD
FC0
F9D
F49
F01
F49
070
082
FE2
F95
F24
0A0
0C8
056
059
0DF
F3F
075
0DB
0B3
09A
08E
F15
06A
0D1
F39
045
F62
F85
FC3
F54
F7C
F2D
069
FE2
09F
04B
F93
F29
FAF
014
FE1
F1E
F0E
F1D
0C8
F8D
FBE
F93
FE6
0E1
F8C
022
0CE
FA2
F14
F5D
F90
024
09A
03F
FEE
F10
F1F
0B2
F1C
036
038
F4A
0CF
065
F47
F28
021
0A3
F1A
FF2
FE6
0EE
F57
0A6
F62
0DE
04E
FA1
0C5
05C
F52
03D
031
F37
F67
02C
0EB
0E8
06F
0D4
042
F8B
094
F27
0A1
F83
0C8
08F
063
038
04A
012
F92
05D
F96
F72
04C
FF9
F0F
03E
0B0
F2B
083
051
018
F4B
F33
03B
0F0
EFF
05C
0C0
036
06A
031
F61
01D
F4C
079
0C4
F08
F65
FF6
021
02C
0C2
F02
F3B
00C
F15
077
0D8
F60
07B
FD2
FA1
FE6
F6C
07C
00B
F9E
04C
0FA
040
FA5
00E
0D2
F21
088
06A
F86
F53
F45
FD8
08F
040
FAA
06E
FDB
061
07F
F29
F0E
F5B
FCD
F8C
F74
F35
073
FD3
F22
011
0BD
044
F68
F17
059
09C
F5A
FBA
FE7
0C4
0F6
F4A
F0A
09D
FC8
FBD
04D
0F2
F12
F13
041
FB8
F21
0B8
F73
09D
F1E
0B3
F74
00B
F0B
F40
0E5
F2B
0B8
F95
0A1
0AF
0C8
FCB
F87
094
F2F
F0B
FC8
0BC
F67
FD0
05A
F4E
00B
FE9
0AA
0AC
FC0
096
0BE
FEB
049
0BD
F4B
FA8
FCD
F0A
FB7
FFB
FA9
05D
006
033
0DD
F82
F50
04B
03A
F33
F23
FB3
FCF
F45
037
F3F
0F2
F5F
F55
0DC
0B1
012
003
0E1
F18
062
F1A
F9E
F82
FDD
F82
037
FAE
F57
F1B
00D
FB2
0D7
F67
08D
0E6
05A
F57
082
05D
0B1
FE5
069
F0B
0EC
F1F
059
FA8
F8A
0C0
F94
FA1
066
FED
03A
FDD
092
0E5
F1D
00D
00D
F02
027
0F3
F26
05F
F2F
0EC
085
F24
FE1
03E
FC3
069
F30
049
F14
0DC
F56
F84
01D
F0A
F26
F59
0CB
FFE
F04
FA3
0C0
F31
0FE
F6E
090
04D
FED
F4F
083
05E
04C
04F
FB0
0B6
086
03E
086
F1D
F69
FBD
0A5
0C0
001
FA4
0F0
0DF
FAC
100
0D0
FEA
FBD
0A4
F3A
0C5
F89
044
F67
064
FFC
07B
06C
FCC
0BC
05B
099
004
05B
F59
0DD
094
F62
FD5
F93
F9A
038
EFF
052
F02
0CD
F67
089
0FC
0A4
FD4
047
F23
F03
0E2
0ED
017
FF2
083
F7E
0EB
F90
048
F90
F2F
0AE
FEC
03D
02E
F5D
024
FAD
03B
F0A
F54
F20
0EF
F62
FC8
F82
08F
017
F20
FBB
FB6
FAC
F15
FD0
F0F
081
000
FBB
01D
03B
019
043
FB6
0B6
0D2
FD7
08C
0FC
F36
F27
081
0F5
03B
0A4
FD4
01D
006
102
F39
F9E
0CC
F41
F31
025
0F1
04C
FAF
085
F0F
000
08E
F66
FA3
F24
F13
022
F78
F4F
029
067
090
F13
017
FF3
0F9
0B5
08A
080
08A
000
FD3
073
FAB
FA9
038
F1C
022
08B
01F
07B
021
0BE
FEE
0B6
FD2
0C4
F2C
06B
F26
053
093
0D6
0DA
FF9
058
F93
F28
0B7
003
008
05E
FA5
FB0
0CC
0FC
019
00C
FCD
0FE
FA2
0FE
05A
F4D
025
07E
004
09B
FD4
F3F
F22
076
F2A
FD9
001
000
0F5
FB5
095
F3B
F6D
0EE
0C0
073
06A
F1F
077
F3E
F56
F30
F5B
FE8
FE8
0CC
0AC
01A
055
0AE
08C
FBB
F1E
FAB
04B
0F2
F1B
0E0
086
F4B
09F
FD1
077
04C
FEF
F38
F66
0BE
074
056
F34
F8A
026
F0B
F17
062
003
F92
096
07F
F65
101
031
04A
0A9
FBF
054
058
06E
0B5
09E
F06
FDC
0EF
F3A
071
0E6
F99
07C
04E
F3A
F65
F51
F1C
F60
F9D
FFE
F0F
0CC
FF4
07D
049
FFA
07A
F4B
FEE
0B9
F88
02F
F9C
0AF
F2E
F68
00D
0BB
F6B
FC9
F3E
FC0
05A
0E8
FC4
F5E
0D7
FF5
097
FB3
009
FFD
009
FAC
F39
F4C
FE8
01D
F14
0C3
025
032
F8B
F9F
068
0EF
F33
065
F25
085
F4E
033
F85
F7F
F07
F19
00B
0A4
039
FC4
FC6
FF2
F16
F91
0C8
07E
F02
08F
087
078
F42
0C6
F43
F5D
F4B
095
F41
08D
F38
F0D
FE5
029
04F
029
FC9
F09
F15
020
F93
0D0
FB9
0BD
0E8
FEC
F5C
06C
FD7
03F
FAE
0AB
0D7
0FF
05C
F50
FC3
0DB
FA0
F9D
09A
F16
0E8
F6E
FA8
F74
FD0
09F
078
025
F02
FDE
F84
08F
04A
0E4
F1A
FFF
F88
01A
F49
073
014
F47
0C4
FAE
FAC
0DB
F04
F4D
F80
F78
F70
F91
F9D
022
0AA
059
00F
F4B
F64
0D4
019
FCB
023
0C2
02C
0E8
F13
F80
09A
0CA
F19
F32
013
0BD
07C
0EA
05A
0F6
F84
F75
F1D
F1E
F32
F85
FF8
F11
FCE
F2A
F7E
0DE
F7A
01B
F44
F17
05E
02A
F4B
06F
F10
053
006
0F7
F88
F4F
0C0
F48
F5F
FD4
F26
FD5
F0F
0A1
03C
FF8
0CD
F9B
F42
FED
097
F90
F67
F91
071
F2C
FF7
FDC
0E6
FEB
0A3
F37
FBB
F43
F7F
F37
F66
061
09C
0CA
FE5
FFD
0EB
03F
0B8
087
099
F42
0BB
F38
FA6
039
FD7
097
F33
00B
04B
05E
05A
0A9
FA8
098
FB5
0FC
0A8
078
0C5
00D
FDE
F99
FC0
034
F57
00C
0D3
0AD
F84
F34
094
0F8
F9A
F04
FDE
0D8
047
FF2
F0F
F1F
03F
024
088
F44
012
FC0
009
05C
FA4
015
FF3
024
F89
F2D
012
FF1
FCE
033
F12
F1C
F59
F36
080
01E
F51
0B0
F6D
FCF
049
0E9
FA5
07F
051
0F7
F4C
FD5
0F7
05F
068
F18
045
F2E
FAD
F7B
05C
0C5
FD7
036
0B8
F22
071
0C2
F6E
07E
064
FBF
07E
0E4
0BF
081
F0A
044
100
01A
FC7
038
FC8
FBE
F3E
0FA
08F
07B
050
F12
F70
F58
0C2
0D8
F2F
F91
017
043
0B5
F82
0A4
FD7
083
090
02E
FE4
0B0
F5A
09B
FBF
F94
076
031
0FE
F25
0E5
F67
0D6
F06
FE3
025
F4E
035
0BB
0AD
0D3
FD2
F27
03D
F3C
096
FDD
FCB
F91
09E
014
0C3
079
F36
0C9
0CE
FAE
00D
F9F
035
072
FA9
F84
038
085
F3D
09A
01D
F6B
F1C
F8A
0D2
F6D
FDA
FE7
0BC
F22
FB0
FA9
F65
FC1
010
F4E
01F
FA2
027
0E5
FF1
0D3
FEF
F48
F33
076
FB6
0C8
05D
092
FBA
0AA
013
F75
088
F37
F6B
F4D
FCD
0C5
01E
0BA
0FC
03B
056
09D
0C2
084
F11
F16
061
01E
F6D
FC2
FBB
F5B
00B
F45
FDC
028
FAF
0C8
F42
0EE
001
0D0
04B
F8D
F15
F9E
00C
0A1
08D
029
07F
039
024
0BC
FE3
054
F2F
0DB
097
0A6
F0E
095
F13
051
F8A
05C
013
023
08F
F46
00E
F37
0E5
FB0
FB1
0F4
FC6
FF1
F39
0B9
FB1
00A
099
FBD
06E
013
0B5
0CB
07A
0CE
FBA
FC2
F87
038
F83
F1D
100
0E2
F9C
02E
FAB
F8C
021
070
F66
FA6
F0A
00E
0B6
F6D
F46
03D
01D
FEA
F90
F2F
FDE
FDA
0A1
043
F8F
049
063
FF4
043
0A3
004
0C3
0BF
F09
02C
026
088
FF7
F50
100
F28
FF6
F57
F82
055
F56
FA6
F6D
F1C
077
F3C
0A3
0DA
F99
08D
028
0A8
043
F91
F06
0E3
040
F42
FC9
FA7
FC2
F3D
02C
036
FF8
0B3
FC3
FD8
0A7
F9D
F08
F30
020
FF2
061
065
02F
F43
0FB
FE2
FFD
FD3
FF5
F56
02F
F64
FC8
FC2
070
FFD
039
029
03B
014
F83
03C
004
00C
0C1
F6E
FAF
0F7
F0C
0A8
0D2
F77
F32
FE9
F38
0D3
F55
0D1
0B3
08C
0AF
F58
F7F
F16
FDC
0E2
F75
F31
F20
063
FA9
FB2
0F8
034
0AD
038
060
FEE
F05
039
0D8
F25
FA6
F9F
FF6
0CB
F07
0AF
0D0
011
065
065
F2E
0B4
010
FFE
0C3
05F
F2C
0BA
051
F7C
F80
F1D
F58
0ED
F76
0F5
F8B
01E
F86
029
FE8
059
0A5
030
F7B
0DA
023
FB8
FFC
0BA
02B
FD3
FAF
FE6
FDE
07A
0FF
F5A
0EE
056
FB3
F6D
04A
F66
02A
0E5
F97
04E
0F5
F16
F27
012
F0C
07D
FC5
F19
0F3
0C3
FCA
F21
F6B
00C
FA8
FA0
F3D
F82
0B1
F1E
0CD
F65
0BF
009
F10
F7A
F05
F24
05A
056
0EC
FAA
FFA
F7D
F19
F2D
F76
0D0
F1D
F90
096
00F
0A6
07D
075
F3C
FB6
0E7
F72
FDB
00A
035
0D1
03B
00B
00D
0FA
F6C
FB7
FDF
F15
FFB
097
F77
055
FF6
0F2
FA3
05C
0DB
F1A
FE8
017
F06
FA1
03D
F92
0AA
F18
073
FCD
F20
F85
F95
09B
03C
04F
0EE
FA4
F04
FA9
0A3
FBA
FB8
06F
FC9
FEB
F35
07A
05F
0E4
07C
0F5
070
0BF
F2E
002
F0B
F91
007
0F2
FE4
048
F2C
011
02A
076
001
0CF
046
F6A
004
F94
0B9
FFA
0AD
0C1
0D3
F74
08C
F43
021
0B9
0E1
F7A
F8B
F21
052
0D1
033
05D
0F5
F89
047
F34
FFF
098
F01
F2E
FC2
FEB
FD5
F24
F74
070
096
F21
0B7
0DD
0A3
F78
033
0C4
FD1
011
F3A
FA0
07D
0BE
F3A
000
05B
F03
FD0
05A
0CA
F35
0BB
F86
F49
08A
F7E
FCE
00D
08E
FC6
036
019
F24
F1B
0E7
F50
F50
F5E
F08
FD7
F1B
F73
FF6
005
013
060
FD5
07E
F87
004
013
FD4
F91
F22
FA8
097
0F7
F1B
F24
072
FAE
0E2
F69
0D5
01C
F25
FE9
037
F87
05B
0E8
035
0EF
0FD
F91
F96
F6A
0B3
FA4
FA2
087
0D0
F9F
F44
0E2
043
F9F
F8F
0FE
F1F
0C4
F46
0D5
055
090
FE1
F47
FA1
0BF
020
006
FF2
FF7
063
0B3
F40
FA0
0FF
07B
F3D
04E
F35
F17
008
0B2
092
013
F8A
0B4
F6C
089
091
FF7
04C
FB5
FD6
F6E
F1C
F6C
FCF
0B3
F24
0C7
F2D
FAB
FD1
0CF
005
03B
F1F
F6B
FC5
042
F1E
F81
F16
078
000
052
040
FBD
07D
FEF
037
0BE
0A6
087
071
F39
04F
0F6
FA6
FC7
EFE
F4C
041
F05
F03
000
F3F
F29
FCA
FE1
F69
FBC
F43
0CB
0EB
022
01E
F2F
F86
F2A
0F0
F1C
0EE
FE9
F53
07C
FE0
02B
F62
0C4
0AE
0DB
FDA
FCC
0E0
007
FC5
020
079
0CC
F98
0C6
08A
FFA
F3B
0F1
F13
F8A
F01
01B
FDA
076
FE0
FBA
0E7
F96
F25
0ED
077
FD4
F29
079
098
FCA
030
08D
0E3
04A
0D0
041
059
FCE
0DB
07D
0BF
029
0EC
0AB
F21
FAD
F78
045
F2D
09A
FA1
F68
FCB
0AE
0A4
089
01A
F53
0E2
FFD
F47
F06
F9A
FA5
052
F22
0FC
FCB
0AB
FBF
0BF
012
0C1
041
0B1
08B
082
0F0
06B
0C6
FBE
F04
F7C
0D0
F63
F1C
F64
00F
0C6
08E
F43
079
0D4
027
00C
F58
0B1
F09
055
0CE
050
0B4
F44
F4F
F43
FB5
0B2
032
F6D
F53
07F
FF0
FF6
0CD
095
064
01F
FF0
FA9
02B
FE6
FF0
F28
F20
0F4
F28
093
02E
F32
F0C
FB8
F6B
F6F
069
FFA
090
080
0CC
FC8
F9B
067
FB9
FF6
FBE
006
FC9
074
F70
01C
068
08E
FA0
FBF
FB1
07B
F5A
F00
03D
FC0
F9D
FDD
FA4
F38
FCF
FE6
F62
FC6
0F9
FD3
FFD
F0D
0E5
F80
0E6
FE0
F6B
F3D
072
F26
F65
F50
0A9
098
0CC
0BF
0EA
02E
F40
F66
0BC
0F3
F61
FE6
02F
FC4
F5C
03A
0A3
FF6
0E4
F3E
FCC
071
F50
F75
F36
09C
F55
0CE
F4D
FF6
0F0
097
04B
0CD
064
0D5
FC2
036
0B2
FEC
021
FC6
FA3
F58
F34
FF6
054
FDA
F57
102
F3F
F4A
034
034
F3B
F0F
