FD5A
0102
FED5
023E
FC06
FC07
FD61
00FE
FE87
007D
026C
035F
FE2C
019B
01C5
0009
FE56
FDCE
02D7
FE29
FDE8
0055
FE6A
00E2
FF84
FE02
FFB4
FCF1
FEDC
00B4
FC78
FF7A
0207
FEBE
0009
0038
00DC
03A2
FCBE
0237
FCF6
0164
027B
02CD
0209
00BE
02DC
03A9
0225
FCAC
FF15
03C3
0354
00AB
00CC
0225
0294
030C
FF78
FFBF
FF37
FC5A
01B2
007D
034A
FE3D
0183
0059
FDBB
FACD
FDF5
FE98
FC72
02EE
FDCF
FEC8
0003
FEC9
0215
0205
FC9D
0112
FCA4
03C5
FD26
FD63
FC45
FDB9
FC00
FC9A
006C
000F
FE91
003F
FDCF
004C
FFBD
00C8
FBA7
FBE7
026A
020A
FEF4
0365
FE59
FF86
FEFC
FF2B
FC6C
030D
FE3E
01AE
FD6B
0241
037E
0262
FD06
FDA4
0151
FFEC
00EC
FB82
FE69
0133
FCA0
FE92
FF19
FB6E
FDEA
FB6E
0140
FE7E
01E2
FF75
FEE7
0218
FDD8
0210
FDB3
0084
FD89
FD3C
00BE
FC8B
FD66
FE84
02D6
0301
FD5E
FDCF
01AD
FBFB
0348
FBFE
F994
FFE5
FF2A
0123
FDE4
FBF7
FE43
01A1
00A2
007F
FFB9
FFBA
FBE3
0277
FE61
FC9C
FCA3
FE09
011D
0051
0327
FF98
015C
FFE2
FECC
FC5F
FDFF
FE3F
FB9F
FA0B
FAF9
01B1
FE9F
FEFE
019B
FE4B
05C5
0051
02D3
FD2B
0304
FC57
FDE9
FC75
FCAC
0079
FF57
FDF7
FD9D
0013
0230
0350
FC2C
00B1
017D
FD0C
FCA0
FAE9
FB56
FF50
01AD
FD23
FE55
FCAC
0246
0567
FF18
010A
028E
0395
0216
02E0
0218
FF36
016C
FF11
023E
FC81
001B
FF61
01B0
0155
FC17
FDF8
FDEF
FAF2
FC5D
FD7F
FC97
01F6
FEC9
FF49
0387
FF28
0259
024E
020D
00D5
FD14
FDA8
014E
FD56
01EC
FDBE
FFA9
004A
0228
FF6E
FE4A
004A
016F
FE9C
FF36
FC9E
FF61
FE55
001E
FD7B
02CF
FFA6
FDE4
022D
FE0E
024C
FE90
004D
0337
036B
02DB
00A1
FDC6
01A8
FEF9
FC8D
FFBC
04A9
FF4F
0411
0004
FD4A
0173
02AA
02D8
02D3
003A
FF23
FDA4
FDDB
FF63
0069
FC8C
007D
FEAA
FDCF
FEEE
FF29
0027
FD16
0112
FBE5
00DF
FE50
00EF
02EE
05CB
0411
072B
F9D4
FE90
0240
FF10
0074
FF2E
FD5B
FF25
FE34
FFE2
FCEA
FAE9
02A8
01B0
FD92
01B8
FF63
006C
0234
007A
FE6E
FF3E
0384
0057
02A0
0514
03B1
0438
0142
FCEF
0323
0506
FF24
027C
02CD
FE98
FDAB
01AE
FEFE
FC22
0016
0396
0351
01B5
0078
01BB
FF1B
0116
0084
FEBD
0482
02BB
03C6
0385
0482
04CD
0069
01A9
00AD
02F9
040E
031C
0115
008D
003E
FE52
FF72
FEC1
0345
018A
01C0
FEAB
FD20
01FD
02AC
FBD9
FE89
0298
05E7
02D2
03EF
00A6
035A
0320
0258
0079
035F
03D3
0252
02D3
03E0
0461
FF74
00E1
02A3
0028
02F8
FF80
01DE
FFDB
FD04
0155
0417
0030
010E
02CE
0039
00C2
05EE
0217
02B4
FF19
011A
02AB
064A
0494
032C
0372
FEBC
0103
FC85
FDE3
019E
027B
FC20
00DC
FFB8
FDF7
00BD
FF7B
FEAF
03F5
0012
0132
007C
FFAD
FCED
FD0F
0192
0247
FF1D
03A9
02F0
05D0
045B
02C8
FFF5
00DD
FD75
FECD
03E9
FE53
01CE
FE92
01A8
0309
FEE8
FF4A
FD92
FF48
FFAD
FA17
FF5F
FE36
FC09
FC08
FB58
FAF7
0259
0212
0288
0272
FFC6
FE78
FEAA
FC49
00A3
FE67
FFBC
002C
0345
FD04
02B2
0061
03BC
FFB4
03AF
FE30
FFA1
FB1D
FAAD
FED3
FCB1
F883
FD3B
FCA9
FC9E
FF68
FE57
FC65
FE3C
FADA
FC73
FD67
FB6E
FC53
FBCB
FD92
FDCE
018D
FCD2
FDE9
FC3D
FCCE
037B
0167
0182
001F
00A5
FC21
FBF4
FACD
FA6E
FB92
FA9F
FF7F
FE19
FE36
FEB2
FC76
F987
FC65
009F
FB2C
FDB9
FF1A
FE8E
030B
FFF9
037A
FD26
FBFB
014D
FE6C
01A6
FC8F
0040
0109
FE3E
FC88
FC98
FC81
FDD9
FE38
FC2F
FE28
FAE1
FD1F
FBA6
FB2D
FC3F
00B2
FEE9
0235
029E
FF0D
FDCD
00E6
0394
02C5
0230
010B
0180
FD6C
FF13
FFDD
FFF7
FF5C
FD7B
FAE3
FFEF
FAEF
FE07
FC35
FDEE
004C
FCB0
FB70
FE5E
FF56
0191
0046
0387
FF5F
03D0
0240
FD25
01BC
0303
FE34
FE7B
0196
FC6C
026B
FC4C
FF0B
FF01
FF57
FCE5
FAA9
FF9E
FDFD
FD89
009B
FEDB
FCF6
FDB1
001A
FED7
FF89
FF88
FD0C
FDC2
0376
FC2F
FD43
0270
FC12
FB78
002B
035D
03BA
FF55
032B
00FB
003B
FF57
02C3
FBB2
001F
FFB6
FF9A
0114
0010
FE27
FD8F
0194
03B9
FEFE
FD6A
FD65
00BF
028C
FC9F
FE37
FDB1
FF99
FFB0
FCDC
0039
0229
FEDD
0327
FDC9
FFA4
FFA9
0272
0068
00A8
00F9
012C
FC72
00EF
0248
FE2F
FC46
0231
030C
FD98
FCDE
FC70
0034
FD17
00B7
025C
02F4
FC08
00B3
FE37
FD51
0087
FA8F
01B3
FF2F
FDCF
FE5E
006C
FEFB
FDD5
FCC0
FEAA
01DB
FD05
FE58
00A9
FC18
0157
FE74
FD31
01E5
03D9
0224
03A8
019F
FFAE
FC36
FE29
FDA2
FE65
0163
FFBA
FA84
FE45
0250
FC05
FE37
FBBB
0301
FEE3
00DF
FC66
0121
FFC3
FFA7
FF23
FCB1
FC4C
0066
0030
FEDC
FD30
02B7
FD53
0195
FDD6
019E
FEF1
FE26
FD47
01BC
01A2
FE0D
FEF6
00D6
FDF6
02DA
0346
FCC9
0355
FEA2
FC57
FD49
FE20
