FE88
FC29
02C6
031B
FCF5
FEB4
FFE6
FEF1
FEE3
FF87
FC46
038B
0358
FE57
0271
0040
021A
0326
03D6
FC69
03A7
0279
FD97
0206
027A
0118
FD5B
023C
0335
FD51
03B2
0154
FF83
02C6
FF9D
FFAD
FE9C
0038
FD12
FE00
0064
FFE8
FD39
01B3
FC6B
FF4C
00AA
FCB2
FD0A
FF94
008D
03BC
FCE5
FE5F
039A
FF8F
023E
0157
FCFF
FEEA
0098
FDF2
0055
01CD
FC96
0357
01B1
FF04
0000
02E4
FF49
020D
0139
FFD3
0092
0025
0082
009D
FD73
00A5
FF92
FE29
FE04
FE49
FF6C
FC83
037A
0000
00C4
0275
FC45
01D0
01F9
035C
FD7C
0497
021D
003D
0145
FDBD
FD39
FD5A
0060
FD12
FDF9
03EC
FDFB
0075
01E3
0116
0133
FD20
0335
00AB
0131
FCBA
034C
FE09
FE6D
0308
0167
01C9
0582
0110
04A6
01B5
01F8
050B
0102
FFF2
0385
01D6
FE24
006D
FE73
FE89
FF71
0440
FF08
039D
0156
0080
FC19
FDC8
FCBF
0379
0336
029F
0286
FE87
02D0
0044
0159
018C
FFAD
FDE8
05C8
007A
FE26
FF78
FEBB
03B7
014B
FD34
FD6F
FEEC
00C4
0292
02B4
0087
0232
FEE1
012A
0583
04F8
FF1C
0273
0207
FEA5
034B
FE80
FFCF
FE23
FFE6
FF69
FEC3
0066
FD41
040C
FF44
02C6
0380
FE08
0480
01C6
0152
FEBC
03F5
019B
0156
04A7
FE9D
002D
01B8
FFDE
02AB
0332
0008
0240
FF82
0383
FD77
0196
0206
0205
FDF3
FEBC
FDD1
018F
FE48
036E
FF99
014E
002F
016D
FC78
FE33
FDEA
0028
FE01
02F8
0141
FF9F
019F
026D
FE4C
037A
0004
FDA9
FF44
0062
FEEB
FEF1
01FF
013E
026A
01E8
FC6D
01DC
0481
0312
0101
FEA8
00CE
FEA6
02CE
FFEE
FE97
00B1
02AA
028B
FCB3
FE8A
FB16
FB19
FE8E
FF0D
FE70
0205
FBDE
FFFD
FC0B
FCC4
FC58
FEFF
FEDC
03A3
FDD9
FF55
FEEF
FD93
019B
FD05
0276
0136
FE96
01C8
FAFA
FCFE
FDC4
FDC7
FDC3
01BB
0399
0271
FEE9
0050
00B0
FF4A
005B
FC27
FE67
FB52
FAC2
FF6A
FD5D
FEDD
FD05
01E6
02DF
0196
FFBC
031B
FB2F
012F
F9FD
FEB7
FBAC
025D
0058
0314
055A
02C8
FCAE
FF03
00BC
FE25
FF4A
0159
FBF7
FDE9
FDB0
FCEA
002A
0338
FE99
FEEB
0352
0333
018A
FBD2
0026
FB6D
FF65
FEEF
02BE
0571
06AE
01E7
FFF8
FEC8
FD1C
FD42
FF61
0100
FB80
FB18
FF4C
FAC0
00DF
FC13
FC17
FE2D
01F4
FE1A
FFE9
FC73
00FD
027B
020F
FCB6
014A
FE5B
FFBB
0353
00D9
01A4
02FE
00E4
FEDD
FD20
FE9A
FEAD
FE9B
FFBB
FE1C
FCDD
FEB9
017B
FFDA
FFA7
FFD8
FF05
FDB8
FF9C
FF6E
0201
FBCB
001F
FFD7
0219
FD98
FDF7
02A8
FF0F
FDE7
02C5
018B
FD6F
FE1A
0159
FCB4
FE62
FE4E
FE57
03B4
FF1F
FFE4
02EF
02F4
FCE8
0274
FF8E
FE8B
FEC8
FD4E
FC63
FE58
FA74
FE2E
0023
FBB4
0289
0459
0122
0221
00AB
FF82
FC58
0341
0357
0581
0250
0407
0333
0044
FE0C
FC71
FFA1
FCCD
0076
00E5
0182
FFE9
FCF8
F837
FC0E
F78C
F9A4
FD16
FF14
FE66
FEED
FF6E
FCEE
FED5
FFAA
0179
FDDB
03BF
00AD
00D7
FFA9
FC80
FED7
FC93
0397
FEA3
FD73
FFC0
0229
FF5D
FDA1
F770
F88A
F71F
F8F9
F65A
F76D
FFD9
FA5F
FEE3
FD6B
FF3F
00D4
036C
0458
0228
0567
056F
FF98
FCB7
FEC7
FCFC
FDB3
FE4B
FD64
FEFF
FE19
FE15
FBE0
01C8
0034
000D
FB1D
FD94
F5F5
FC69
FD09
FD04
015B
FF2A
FF69
02B9
0035
062F
00A7
0323
0338
FDF5
014E
0282
001D
01E4
0103
058C
FFB3
FEEA
0408
04B0
FFA5
FFEB
0522
FE7A
FB26
FBCB
FBC7
FFC5
FFDA
0092
0012
FFC0
0262
022C
0366
01BC
001C
FD41
00AD
FD22
FDD5
FECB
02FA
FDD5
01DC
FD41
006C
03DA
FF7F
035A
03B0
00AA
00CC
FFB1
FF66
FE53
0094
02B8
02ED
FE26
0161
0084
FF87
FCEF
FBFD
034C
01CD
007A
013C
FE2A
FEA0
02E5
038B
FE02
0219
02DA
02CC
01CA
FFAE
0024
0212
00C7
0461
FF5F
0302
FF4E
01D9
011E
FFD2
FFCB
0344
FE37
FDCB
02A7
025B
FD70
FFD1
00E4
FC51
03BD
01A0
01E7
0053
0340
FD14
FD7B
FF77
FF74
FEEA
FE2F
FE4D
02DC
0007
011C
00F7
00AB
03B2
FEA4
0040
FEC1
FD09
FDE8
0123
03EC
FEB2
FCD0
FF82
FCEE
024B
0055
03A3
FF14
0044
005B
0259
00D6
0210
02B9
0214
028A
005F
01D8
FFF6
0091
FCB4
FF56
0058
0356
0126
FDF6
FFDC
0140
FE3C
004E
025D
FFBD
FF62
0432
02D5
00E1
01E2
FF9D
0257
04F4
02A0
00D6
04C3
0041
0503
FEC5
FE08
FEBB
FD59
FE4F
0261
FE6B
FE86
033A
023E
FF12
03F2
FFAA
00AE
03E0
FEF3
FF52
FEBE
FF1A
02F6
FF84
0234
06E2
010C
FFAB
0387
02D8
0316
0278
FC52
FF91
01E9
0371
FFB5
FE11
FEB5
0278
FFED
FFDA
02A1
FF51
FCC8
FF85
004C
FCBD
FFDF
023E
00AF
FC8D
FDF9
FC83
FF8D
FEAE
030B
0311
FEA3
FFE8
FCF9
FD71
03D8
00DA
0012
0232
00BE
FC68
00AF
021F
0090
FD41
0136
0043
FEF8
00A8
FD5C
FD8F
FD73
010C
FFD8
FF34
025C
FD34
FED4
02B6
FF8F
00FF
010A
03E4
01BE
FE36
00EF
FC7C
018A
FF81
0208
0049
