0230
02F7
FD48
FFE0
0349
FF57
FC40
0324
03DF
FDFE
FCEF
FF27
0079
FCF6
0079
0119
FD4B
FEA0
FF7D
FEC2
038D
FFFF
03EA
FFB5
02B0
FE85
005B
00F5
FDC8
FFCA
019C
02AC
029D
0149
FE7D
FEE2
FF84
01CF
02D8
FFE9
004C
FF55
030F
FCB8
0279
FF6B
0104
025D
FB05
02A7
FF9B
FC7A
FCF0
02EF
FE45
021D
0332
FD74
FE6D
FFD2
FE6C
0276
FC98
FEAB
0073
027E
FDA4
01DD
0003
01E5
0098
FEE9
FE8C
0120
FA9C
FDE4
FABC
0134
00E0
FE1E
0344
01B4
00B6
FC79
FC12
021B
023B
FEE5
003F
FC37
0389
FDCB
FC0E
FCB6
02C0
04AE
00DB
FDA3
00C6
0336
0152
FCA5
FDDD
00E1
FDA7
FC34
FDDE
006D
FC17
FD38
02C8
FE77
0213
FC72
03D3
FC01
03AA
01B5
FD28
FFB2
FFE8
FE0B
FD2A
00CC
FF76
040A
FFF0
FD1C
F9D6
FDD3
0232
0181
FF05
FE05
F9E7
0231
FDD4
00CA
FD7C
FDDF
029D
FFD0
FF44
01F2
FC6F
FAE7
01E6
FEE8
FC28
FAA6
FDE0
FE46
FD67
F8E9
01EF
FD41
FFE3
FCF1
068B
00F5
02FC
FC98
0141
FCF8
0507
0012
FCC6
029D
0176
000E
039F
030C
FDA6
0081
FFB0
0299
FF48
011F
FD82
FD9C
FE99
0085
03AD
03D8
FD3F
FB7B
FECC
FDA2
01D7
FFE9
032A
0121
FE36
FCB1
03F1
FC77
FDC8
01E9
02E5
FCE6
0027
FD8E
FDF6
FDB1
FFDA
00A4
FBB5
015C
F979
FDFC
FF1A
FAD0
0159
FBD9
FA4B
FFDE
FF8B
0482
0004
FEEB
01BD
0342
0367
FF83
FEB9
0151
026F
FD3C
FB90
FB58
003A
FF9C
F7E6
FFFF
FF4A
0354
FD4E
FC50
FCBA
FFC3
0018
FEAC
000D
0015
0019
03E5
FC8B
015D
FEAE
0596
013E
0051
FD9E
FE07
FEFC
0107
FD6E
0043
FAF8
00AC
F799
FECE
FF64
FEBC
FF45
FF28
FD63
FF71
FFD3
FC9C
03A2
029D
01C6
002B
FE8A
FD5B
037C
03C5
FDB2
01E3
FCB0
0191
FE49
03E5
0211
0351
023E
01B4
FC27
002A
FFF5
00B8
0639
01BA
0241
015B
FDD6
03B2
012A
023F
0212
0705
00F9
FB2F
004E
0347
03B4
FD72
0061
FE18
02CD
FE3B
FBAD
FF6C
FDD9
008C
0082
FE4B
FF9B
010B
FBEB
F5F9
FA10
FFE7
052F
0251
0120
0119
FD74
FBFB
FFF4
F81B
0005
03FB
FFFF
FFC0
002B
01BF
FE9C
FE73
FD25
FAEC
FA75
011F
00CA
FA7C
034F
043E
03A1
02B5
FA34
FAEB
FE5C
FA06
FD9C
FF60
FE84
FFD2
0160
FCB7
FEEF
017C
00F8
0035
0232
02DB
0197
0130
F678
F83A
FE82
FE95
FE67
FB7B
0101
003C
07CF
0387
FDC5
FCE1
FC4F
FAB8
FD65
FC8E
FFE5
FD1D
0208
FDB7
02BD
FEFD
FE3C
FFCB
028C
FD51
01D5
0059
FFBD
0260
FD00
FF55
0215
0738
0095
00C7
0859
05DC
FFEC
0463
0617
023F
0019
FD7D
FCD7
FE7E
FC2B
00C7
0370
03C9
0138
024E
005B
FD08
FFAE
0253
046C
0634
02DD
04F7
0033
06B2
017A
FDBD
07EE
02F3
FF23
0447
009F
04D4
030E
0367
FBC6
FCD2
0129
0144
0412
0012
062D
FF6D
FFEF
FC72
FF1C
FF51
0395
03D9
033C
0380
FEB1
FB51
FEAB
02F3
02A9
FDB9
0054
08CC
021B
04F9
FE87
FFAB
FD1B
0647
FFD6
006E
0181
01B3
03F2
FF1E
FEE2
03E8
03E2
001A
009D
03C3
00A6
FDA8
029B
06EE
007C
0008
015D
FE48
00FD
0190
055F
03C7
06FA
02F6
FF70
008C
FFE6
0104
0187
00AE
FE0E
FD3C
FC3E
0027
02D4
037D
00DF
039A
FED9
FF59
004E
FFA9
FFA4
0290
0003
06FD
01B6
00DF
0520
FF7A
00B3
0280
01CC
04D9
01FA
FFF3
052A
03A2
0313
0175
FD5C
FD95
0254
FE9C
029B
021E
FEDF
0572
0324
025D
FFDD
FEB8
F8AF
FBB3
031B
0611
07E2
00D9
018E
FF00
FF78
FDA6
0642
0541
04AA
05B9
0167
006E
0363
0249
FC8D
FED8
0640
FA56
FCA4
01A4
FFEB
00C5
FBD7
0062
FEE6
0006
FEE2
F813
F9DA
FCE0
01E3
FF42
048E
042F
0114
FE75
FF33
0376
01AA
0291
01C1
FC77
00FA
FCB2
0365
FF5D
FE02
F960
F833
FE0D
FD49
FED7
FF15
FB25
F3C8
F567
F6E3
001B
FAEB
0513
02B3
00B1
0275
FF4D
0057
FFE5
FF26
FFC7
0314
FD30
FEAE
FCEE
0047
FFAF
0183
FC47
FB60
FBF6
01AE
FA7B
FD68
F8DA
F6BE
00DA
FE59
FDE4
FEFB
FF48
0176
051F
0571
00AC
026E
0182
FE64
FF5F
030D
FEDD
01DB
015D
FEE8
FB73
FFBE
001F
FFA9
FA78
FDF5
F8E4
FBDC
F9B8
FF4C
FE03
FBA9
FC4A
FC82
FD30
FBC4
FDF9
FCA0
FEFC
FD50
FBE8
FF57
FE7C
0215
02A4
FEB9
014F
02F6
0207
FAD6
FE5F
F87E
FA57
FC7A
FE69
F9A5
0005
01A6
00A1
FCB0
F9D9
FB65
FD40
FE91
0314
008A
00CF
02B2
FC25
00CE
FEF2
0033
03A3
FD9F
00DF
FEC7
0483
FD1E
F947
FE5B
F8DA
F95F
019E
FBAE
FC5A
FA74
00FC
020A
F793
FF18
FEA3
FC7D
FC82
00D5
049E
044E
FF12
01FE
FF4D
FFCA
FE92
FCB3
FC05
02F3
FFE7
FC8A
FF06
FEAE
F847
F99B
0030
FD22
0075
F892
F8AC
FACE
FD58
01F5
FD12
FDB3
FD2E
0203
FC8E
02E2
FC52
00AC
FDBB
FFD2
03F6
FFC5
FC17
02A8
000B
FC7E
02A3
FF09
FCD5
FDE4
FF87
00A0
00EB
FD30
FEB5
0179
0010
0206
FE98
FC17
FBCC
FBBE
FC05
FE64
FD1F
0111
FFDC
