FD5
077
013
036
012
020
F7C
09F
F28
022
FE2
F2B
FE3
F0B
0C0
0BE
01A
039
0F5
0D0
FC4
F1F
F57
FEB
0F8
076
0A5
F4F
F30
EFD
FDB
09D
07C
0A6
F73
082
033
0EF
0A0
F69
F54
F4E
FA1
0A0
039
F98
F7F
F6F
0D9
FA5
FCB
FDA
09F
026
07B
091
092
01E
0F5
0E4
F35
068
002
F51
086
02E
F58
F12
F73
0BC
F27
042
F46
044
FF1
FE2
008
F10
FDB
FAE
FBF
EFF
F3B
FF9
006
F1F
0BD
F32
F85
FC9
F67
011
F19
0B1
0F6
008
F92
F84
035
029
FF9
02D
02F
05C
F7C
FA2
007
F7E
062
028
04D
FAB
F83
074
F41
015
06B
FDE
025
F5B
0EB
FF1
038
EFC
06E
FF7
099
F54
04A
FC1
07E
F0C
081
080
08C
088
F13
F5E
FF6
F6A
FC8
00F
0B2
08F
0CC
098
FF1
FC3
FDA
032
F1F
031
0A5
04B
063
091
0EC
F08
FAE
FDC
F3C
0BE
FDE
08A
FD4
F56
0F6
0A1
F59
FC2
FEB
FA1
F8E
03F
00D
F9E
F8B
0FA
05A
0F1
0C0
088
04C
F24
092
047
F03
F83
071
F4C
FE9
F99
01B
FEC
F31
046
F46
FC2
F78
0C8
F63
0AC
F1D
F80
0D0
F3B
FEC
003
0C3
FFF
F18
0DE
06A
0D5
0A1
F4D
F93
06E
068
FB9
FF5
070
01A
F89
02F
F20
0C3
F9F
F6F
010
04A
09F
075
EFC
FF6
F47
F6B
010
F60
0B3
087
0D9
F27
0F9
00F
051
0CA
067
01E
00C
EFB
04D
F57
080
F96
0B9
09D
FB8
FF4
044
085
F71
FE8
057
0DF
04B
07D
F0C
F17
F4A
F98
F2F
FBB
0B7
F55
FCA
0C9
F85
0CB
F90
014
0F4
0E5
F1E
0F0
046
076
017
0EF
F01
FDC
F7E
0D0
F63
FF7
0EF
0E9
F22
0B5
FF1
F8E
F28
09C
06F
F8A
F6D
0E9
FBA
0F1
F18
0B9
07D
FC6
0B1
F34
04F
021
02C
02B
05D
FD0
06F
0DF
073
005
F78
FD1
F1A
FE9
0CA
0EB
075
069
FE8
F8E
F80
FEB
F1E
0DC
F5B
0BB
F52
014
FCC
0B6
F85
091
010
0B1
0E0
F24
078
F55
064
0A2
050
00F
079
0C6
F10
FE7
014
F15
FFE
014
047
F6B
08E
FC4
FAB
05F
F06
F4C
F48
FE0
F86
01D
FBF
016
F9F
F45
08D
06E
0BA
FBF
0C5
059
000
073
009
FFC
00C
F2D
022
0AE
FAB
F82
F47
F07
0A1
0B8
FE8
0A9
F46
0CC
FB5
F04
0F5
F45
0D7
F46
FCA
0C7
F20
FF1
F31
0E3
08E
01B
FE9
FE0
0E6
0E1
0DB
004
FD2
078
FFA
075
09D
0C7
F9D
0F0
0E7
076
F29
F44
016
FC0
F34
FBA
0AB
EFE
FE2
044
00D
0C7
FB7
FAC
087
0E7
F5D
0C4
0CB
0F4
039
0C6
FE1
F01
F5C
FB4
FC7
F60
004
0EC
FE1
0AD
0DB
0C9
02F
F01
0A6
EFE
FB8
FB4
07C
031
FDF
044
065
071
F04
0D9
007
020
0B0
F3D
FB7
FEB
F91
0F3
FCB
06C
F00
05B
069
F0A
05E
02E
F82
092
0EF
02F
F4D
01D
F01
04E
0DA
067
092
0A4
0C7
0AF
02A
09C
FEB
0AF
FA7
FA2
022
01A
F47
0DE
0EA
0D2
0E5
F84
0CC
069
FD2
F43
F8E
0F9
000
0AE
F29
080
F0F
FE3
063
0CD
F9D
06A
F43
0CF
F30
060
0C0
FCA
F3B
072
0C2
016
FF4
06B
FFB
074
0C1
003
F40
FAF
F66
F9C
F09
09B
02E
06D
0EB
0B2
06B
039
F2A
0F9
F43
0ED
015
F28
F09
F63
F0A
F1F
0A7
0EC
F14
0AF
0EF
063
0EC
FB8
F68
0DA
F23
F35
FEA
06D
08A
083
F2D
F8B
FFC
098
02E
0F5
F4C
00B
FA9
0E3
083
0C6
F3B
02A
FD6
056
F97
0E9
FAF
FBE
0F1
F33
F16
FF2
063
F2F
FCD
04C
0B4
F1D
016
FFE
0C6
0E4
FE1
067
053
041
0E3
F39
0C2
070
F79
067
0A3
0F9
F74
04E
084
09C
081
059
0AE
0B5
FB7
0F1
004
0EF
F11
F3C
F7D
07F
F89
FFE
0AB
05B
0B7
057
F07
00C
01B
F6F
FD7
F6B
0A7
F25
F4B
0EE
05F
0C3
FBD
F16
03F
F9C
F34
0FA
FF7
03D
FCB
F0A
028
037
0DE
F87
FF8
FDC
0F6
0C7
FC8
0E0
F16
075
0EA
FB2
0EB
FFF
0C6
F4E
FB7
058
063
099
0A7
0AE
0F7
0C6
F08
014
034
06B
001
FFA
0E2
F83
0CD
FCF
0AF
068
07C
FF0
F53
F45
F17
FAB
FDE
F53
F23
FED
F3A
013
F96
F9A
FFC
05E
03D
FEB
F53
041
F7B
097
0EE
F34
FAB
000
F8D
002
0D6
F9C
013
0E5
0E7
099
0C1
F36
F89
060
09A
00E
039
F6C
F70
FDD
F99
096
03F
04E
057
066
FB1
FFF
048
0BC
04D
04A
00C
0BB
FD6
FC8
F13
034
F47
FD6
FF0
FFB
016
F91
08D
F2D
FF2
F36
047
037
0F1
01F
F67
05E
07B
0B2
F99
0EE
F8C
031
FF0
0F3
092
FBC
F80
FEB
FC1
F34
F69
FCC
021
F23
079
FDA
026
090
085
F77
0EF
075
082
EFB
070
F3A
F3F
FDF
003
08D
0B9
FAA
0A4
FF0
001
0B4
05B
FFA
F1F
07A
0E8
08C
F18
F68
084
029
F9A
0AB
FCD
09A
049
F6C
F58
F05
0BA
094
FC9
0B4
06F
FB0
FC7
F21
01B
FEA
0A4
F2B
02F
096
0E2
F6B
F89
013
FC9
0F1
FDF
0AF
F1C
09C
F70
F79
F53
03E
0BB
010
0DD
0D9
F88
096
094
03D
F33
F49
F64
0C3
F19
00C
F9F
08C
FB1
058
088
04E
005
0E0
F8B
F37
04A
FB2
0DB
FDC
F64
F44
0A3
FF7
072
F42
FE1
0A2
093
F58
088
00B
F90
F95
020
FE1
FD9
06C
FB6
F6C
F9D
F2A
0AF
090
FE9
F03
F36
048
F03
F97
F96
FDC
FF9
F9B
F26
F38
F65
0CE
0CC
F3A
0D1
060
0A6
0EF
FF5
FC4
F4A
F8B
FE0
F05
0C1
F20
02E
0E9
06F
FA1
03A
091
0A2
FCD
F55
F5C
067
F95
F03
00D
FDD
0EB
038
FCC
FBB
029
FAC
09A
075
F50
FA6
F58
081
FD8
F50
FEC
F64
0B8
FAE
06F
F1F
F28
F0A
06F
0B5
FB9
FCD
F59
FDE
FBB
0C9
F79
0E8
05D
F04
0AD
F1A
098
023
FAE
F37
FD0
FE0
034
0D4
FA1
F40
0C7
FAF
FE6
0CC
FAD
F50
0DD
FF0
F18
063
FD0
0D7
08D
FEC
F8B
FBC
01B
F21
063
F50
031
EFB
0D5
FD0
0CF
061
FF1
082
F0D
FDA
058
0A8
06E
0B5
FD1
F8E
05E
F8E
F21
024
F42
F78
0F9
FF0
08E
082
00F
0E1
037
064
FE9
0D7
068
FB9
0AB
0C5
00A
0A0
F03
05F
FD4
037
F5F
FDD
F2C
F8B
060
02C
F30
0C1
0B2
079
FC6
FFC
FE3
04E
00B
FAC
087
0F8
0B7
FDB
07C
FA3
0CD
085
0B1
001
F2B
0F8
F0B
039
03E
042
09D
064
F93
082
F67
FB4
FAD
FB6
F23
078
F14
0A6
052
F47
F85
06C
F14
F97
F8E
03F
03D
021
05D
FBE
FDC
FD0
F84
0EB
072
F80
020
0A7
FA3
F11
F8C
010
FF1
FAB
F34
FE4
F39
FEE
F58
02C
F81
027
03D
0FE
0B0
0A5
02D
EFC
06A
060
F52
035
F92
0B7
FA9
065
0D7
F58
FEF
0A9
03B
051
F7C
F8D
FA6
080
F48
0C9
F08
F9E
FEB
045
FB9
0B2
08D
0F1
045
017
F6D
F9C
F68
078
005
FEC
FC2
F40
F31
F36
F07
0AC
F9A
F5D
F12
010
F2D
EFD
0E4
FEB
021
F47
077
F87
F2D
F3A
F66
04F
FFC
F88
F62
F3B
06B
FE8
085
F06
FEB
0E6
F68
F17
F79
0DA
FE5
FED
0D5
0D2
0C9
0CC
F69
F79
074
F36
010
FB4
02D
FD9
00B
F3B
021
069
F2B
08C
F37
FE4
F00
F1F
0CF
048
092
011
FF7
01C
03E
F0E
F1B
0E0
F06
FED
005
F88
065
03B
0B3
FE6
091
006
F28
F03
037
F0B
0C8
01F
FCC
0A7
FCE
F33
013
090
F1C
01B
FB8
0B7
00B
FDA
08C
F7F
F1E
0DB
0C2
0D7
02B
023
0C5
FE9
FD8
FEF
0E5
FA6
02A
0F4
0F3
F78
FFB
050
01E
078
FB0
0A8
0CE
01D
FEF
040
FBB
F38
090
F64
0A4
F7F
074
FA3
03E
F53
FC5
F94
FB9
F26
F03
037
032
F69
051
0F6
003
007
0C8
FB4
000
0E5
015
082
03C
F99
F47
0D4
F5D
0E8
F5B
0D0
FC0
F83
FE4
038
0CE
0B9
FE3
F39
FC7
003
F08
01C
FF2
FC5
F34
0D7
F3A
090
038
FA9
072
075
F5A
F90
F28
0DF
F95
091
FCB
0B9
F47
F16
09C
F5E
0DB
FA1
03A
085
078
F1A
F5F
090
F32
F60
FB0
FE0
077
06E
F25
FE9
F31
05F
FD3
07B
F57
FA5
00F
049
FD5
F85
F1C
FEE
F32
FEF
FF2
02B
F76
F1D
F3A
EFD
F31
F02
0E0
09B
050
038
FCA
FBD
09F
F67
F42
022
F89
F16
F7E
F0B
092
F84
062
F88
FAF
FAE
F57
F80
015
F1B
F0A
0BA
0E9
FD1
091
081
FA9
FFA
FFF
0A7
F3C
0B8
F32
00C
FDA
EFE
FB9
02B
0D1
F96
06B
FBB
071
F43
0FB
057
038
EFB
F0B
001
F48
FD8
FD7
0AB
F1E
012
F19
F82
06F
0DF
018
FAA
081
017
F6F
F73
052
06C
FAA
079
0DE
06C
0D0
0DB
01A
FD8
0B4
0A7
0B9
FD6
08A
05F
F20
026
097
FE5
F51
F72
EFD
089
0C7
0C1
05B
028
FCC
F78
FF5
F60
0A8
052
088
FC3
0D9
F78
FC9
0D5
FCE
011
03B
F23
0E3
F62
060
F49
FE7
FDC
050
FDB
F80
FC2
F8C
F20
F54
F7B
F27
074
F0E
0F4
FE8
06B
F50
05C
F7E
F3E
FBD
011
05C
FFD
F77
EFD
F8D
F3A
025
06F
0A5
0E1
0CE
076
069
0B9
F48
FF8
02C
FCA
F2F
FA9
0AF
04E
F8F
FAC
FD2
096
0A9
FA1
FE7
0B0
0E6
0CB
F1E
07A
075
F15
FA9
F4E
F1E
082
07A
004
07B
087
07E
F5C
FA9
F77
FB6
01C
FBC
0EE
042
F71
F26
0DD
086
066
027
F7B
F75
F2C
FB3
FB7
F4F
F98
FEA
FB0
F37
089
FF8
FAB
FBD
F5F
04F
05F
F8E
F35
FCD
0CB
088
F05
058
F83
0F2
0C6
0BC
FB8
013
FC2
037
073
0A0
0AC
04D
0F7
F98
FD2
046
F20
F83
0DC
044
F96
F08
043
0C1
03D
06E
F6C
F92
068
0F2
011
021
032
FD9
FC1
F79
F54
F6B
0AB
03C
067
F69
F52
FE6
FB7
0F6
F87
056
08A
08A
0B9
0E6
08B
FA4
F3D
08D
0A3
0C3
043
FB1
F93
FF2
07D
0C5
FCD
02F
FA1
F02
005
FC2
F6E
06A
F0C
FD1
FFA
FCF
052
021
F99
08A
FB8
013
0A2
FCB
FA9
054
005
04C
0E1
0E0
F25
024
FB2
F00
0A6
FD2
07B
F3D
015
F83
FF2
F64
037
0A7
0E3
0F8
021
0F1
F16
0BE
FD2
F59
03E
F2C
FB7
06B
FC3
033
0B1
057
087
F35
FBF
0B1
F8E
01C
FBF
055
FA9
069
F1F
F14
FCB
01E
016
F19
F7C
F48
F17
091
02C
FDA
FB4
062
075
F6B
F96
030
FAD
FDE
0E1
05E
FDB
F86
008
F06
F66
03F
0C7
F72
0CA
F59
FFD
F3C
F23
F33
04C
F5C
0DE
F07
0A2
09E
F16
FFB
06A
070
F2A
017
F4E
023
02A
FCF
08B
09E
F10
F9F
F05
FE8
075
F2D
0A6
076
056
F88
FAA
FCB
013
07F
F56
FEB
05B
F6A
063
092
F3B
F28
FC6
08D
F64
03E
05C
025
FCC
FE7
065
02D
070
F92
049
F83
FBA
FB0
FF7
F00
FF6
07B
07A
F0B
0AF
073
061
0E4
02A
0B6
092
0CC
0D7
F51
002
0D1
F7F
0E3
F4F
09A
06D
F00
EFE
0F9
F3E
F69
F19
F0F
049
FBD
FD3
020
EFA
081
FDD
FB3
F57
06C
045
F43
F99
056
029
F24
F9E
F1D
025
014
0D1
F47
F72
F0E
F25
F36
F04
F9A
F20
F2A
FD9
FDE
F6A
0A3
0AD
FF1
049
FA2
FC2
F8B
F51
089
F21
FFA
09D
0C2
0A3
F94
FD6
0B7
04E
09F
F4B
F3F
F3C
07F
010
0E9
071
FF2
FBB
0C7
0A5
FB4
0E6
FCB
F81
F93
F1A
F5B
F78
001
FE2
037
0CC
F4B
09D
05B
FCB
02A
F08
004
065
021
F0C
F50
F48
0BB
F6B
08A
0E4
F3D
FE2
F72
FDB
F38
FB6
F29
F10
06C
FAF
050
0C4
0C8
004
F02
FB6
FD2
0E7
0E8
F0B
04D
FA2
0BC
FA9
F16
FD2
FBF
0A4
FAC
F91
071
092
FB9
049
F05
F9B
F36
0CD
0DE
FA4
FA3
050
0CE
F6D
08B
089
FE9
0CB
0B1
003
FA8
0B1
EFD
F61
0B7
FAF
F46
FD4
0AF
F6E
02C
0D4
F11
0CB
04C
0F2
FF0
0ED
0B0
F90
031
003
FC0
F6A
014
FC5
F69
F5E
01B
0E6
0F0
F16
05D
046
FC9
F0F
F90
073
FB4
F2C
FBD
F50
08C
0E5
0C0
026
FB9
09C
F01
0BC
09F
F3D
F5D
F7F
035
F24
073
F22
FFD
0C9
019
069
01B
F99
00E
F6E
09D
05B
0B1
080
F6D
06C
FB9
F1C
0D8
F5D
F8E
0B6
F51
F2C
09A
071
0E8
04B
F23
073
095
FDC
005
F3A
F77
F91
F15
0AD
FD1
F03
F35
004
09B
085
0EB
046
0D9
F70
061
0DD
F0D
FE4
04B
022
F13
0A7
093
0BD
087
06A
0C2
0F2
0A8
FC0
F8E
04D
FBC
059
FA4
0C2
0D6
056
F2B
0CF
F1B
F0D
0A0
F13
F89
00F
096
FBE
F8F
068
FD4
01B
FB6
08F
F29
FF6
0C3
F76
0DD
FA5
FC2
F77
099
003
0EE
0D0
0DE
041
004
004
F8B
0DD
FFE
FE9
057
0A8
FED
02D
FBB
03E
F58
FB9
FA3
F7D
007
F6C
0D7
F51
F66
05C
0F4
FAE
FBC
04A
0B9
FAF
F79
0DB
F95
FD7
EFE
EFD
FF9
078
FB9
FCD
F2F
F9E
F43
02A
F8E
011
F70
F12
02B
05C
FD5
F10
033
005
0AD
FDD
0B4
F0F
01A
000
005
F0B
018
F10
031
FF7
088
016
FE5
FA5
F0A
075
066
FEA
F1B
024
FA9
FA2
0B9
F57
098
FAE
08F
016
F1C
0CA
0E9
0B7
0D5
087
F18
021
F34
F5A
09E
FAE
0D6
F4F
F93
0C1
0A0
F9D
009
F16
000
F72
0AA
F3F
FC3
0B8
F7C
FD0
F8B
F85
009
0A6
F90
F69
055
04B
087
0A4
0CC
F94
F8C
F24
F91
001
073
F03
094
F36
F85
018
044
F2A
FCE
FD8
F45
FB6
04A
FD6
089
F46
F0F
F74
0FB
09D
0AA
042
F9E
059
0A1
F1A
069
08C
0A0
FDF
FAC
FAF
088
F38
0D0
FC4
018
056
06A
051
FB5
FA4
001
F48
F3C
F74
FAB
F2B
FDF
F27
F21
FDC
0B8
F4E
FB7
EFF
0F9
F5C
003
FD3
05D
02C
0D3
FB5
FC6
F1B
F9D
F56
F5C
F89
0BE
F3C
FBE
F86
05F
024
034
0CC
F41
0B4
F0B
FB0
FFC
0BA
F1B
068
08A
00C
010
00E
F59
0B8
F2C
08C
06B
F6F
FD1
EFD
0C5
F55
08F
05E
FB8
FCC
F24
0C0
F5B
051
0F6
F8D
08D
F83
082
0F1
05B
F0F
08F
F28
F0A
F86
FD1
FBE
F6E
018
00B
FA3
08D
F74
019
F32
060
039
FC3
020
025
083
F37
03C
FA9
F2E
0D6
06A
F0B
014
097
F4A
F0F
049
00A
031
FB0
09B
069
F1E
066
FD1
0C8
07D
0DA
037
0A5
F5C
FBB
02A
F59
045
050
FD9
0CC
FFC
F9C
0B7
0D8
F4C
0A0
0D1
0EB
037
F2B
054
EFD
FD5
F3F
F16
F04
FC5
F92
0C4
FAF
FEF
F5F
F9C
F86
0BE
F9B
FFD
F3C
06D
F22
F72
05D
06F
037
058
049
08E
008
0D3
05F
002
0B2
FB5
022
03A
058
0D0
026
F23
0D1
F9F
057
F1A
0AC
02A
F6C
07B
0E9
01C
F0E
F76
FD3
FC5
F96
06A
F66
F0A
F77
0E5
F50
084
01A
F19
093
F82
FA4
049
05C
0A3
040
0BF
08F
0B0
FDC
EFF
0B6
0D2
023
0D9
FC2
04D
0D7
0EF
0ED
FE1
082
02A
0A7
F27
F4F
FBD
FFE
02F
F48
0EB
0A4
006
09D
037
FF5
F2A
FCF
070
F5A
065
FBF
FF1
05D
036
F91
F00
F7C
0FC
F7F
012
F38
044
0C5
099
049
0F9
FEF
F9A
078
0EB
F7D
01E
FF7
03F
08D
07F
048
09D
F42
FA6
FBF
071
F60
0A7
0E8
FB9
0E6
05E
F90
F2E
F05
F58
F14
060
F49
FD0
F7C
FE5
F21
F51
067
F72
050
F8F
06C
07D
F4F
FCE
061
F43
F6B
F51
F10
F02
084
F30
0AD
0CC
0CF
04A
0A0
09F
EFF
059
06B
F50
F4D
F09
F39
FA3
F79
F66
0D9
F85
027
0B8
F2B
069
096
09B
0E9
F06
04F
FC9
FB4
F10
FCD
FB6
F2E
F5E
F58
F9C
F34
0C7
F03
F7B
086
F18
047
FCC
0F3
F6A
F04
FAA
FB8
FE5
01F
0F9
0AE
F22
F38
063
F0D
080
0D6
F29
FB6
F3F
05E
F50
F62
0BA
F56
0D6
0D4
FCD
0DE
F37
05D
EFF
0A3
F11
F06
FB9
FF2
F65
F46
0A3
089
071
F14
08B
062
F10
06D
F51
F90
F51
089
06E
F57
08A
F83
F07
0E9
F67
FE0
FAA
081
076
F89
F33
F70
FE6
FF2
FBF
027
046
FBC
050
F48
FE6
F15
F62
00B
0BC
04B
FB1
F20
FB1
07F
FCE
FEB
06A
FE4
F31
070
01A
FE3
046
079
0D9
0F2
099
071
F10
F2A
F09
FD9
0D5
FE8
FF0
F00
F90
051
FC8
FBE
089
F26
F6B
F71
F7A
FA3
0DE
FEA
0AE
07E
073
F5F
023
F87
F23
03D
F92
F61
FE1
F7E
03C
0BE
0B8
0CD
05B
F4E
01C
04C
FF5
002
F48
F82
0C6
FBD
FC8
0D2
F04
F4A
F51
0CF
F42
F48
FC7
FA3
FAE
0BE
0F7
0AD
059
FE7
09C
00D
FF4
F75
F3B
F64
0F7
02D
0C6
04E
01B
0EA
03C
08A
F86
F35
FBB
0F6
F82
080
FA2
FB4
063
0ED
F38
F25
FD0
F71
052
F5C
0A4
031
06F
F91
F7D
FE1
03C
06E
F5A
F85
F64
FDE
FBA
FF6
081
FF9
FF3
F49
0E9
FDE
07C
F5C
06A
081
FD5
F7A
004
0F2
F2C
F75
0CA
F92
F74
054
0B8
038
F5D
017
F29
052
FAC
0F5
007
F19
0CD
05C
03E
037
FEF
F88
0C8
0BD
F23
04E
F78
FC3
029
0EB
F8E
01B
F0E
0B8
0C9
081
F5C
084
FC8
F32
F3B
FDD
0F8
F48
06A
08E
FF1
0B8
F0C
0EC
001
F47
FAD
09D
0A0
0EB
089
FFE
072
F52
0B3
030
0FA
00F
004
0A4
F3C
0F9
0DF
07D
F2F
F61
F80
056
01A
044
0B5
F08
002
F75
F04
095
065
FA7
0DE
F8F
FC1
FA2
FE5
F4B
F3D
F90
F41
F5E
F65
F58
070
03D
0E4
072
F6C
F60
06D
FCE
F8C
0E4
F97
FEC
063
0C0
0D9
FD0
FB3
F69
038
000
03D
074
F8C
FDB
F16
FCB
0BF
090
066
F62
0AF
FA1
F91
F3A
FFE
081
091
024
096
FF9
0F5
F60
F7E
F1C
0CA
FAB
F39
F2A
F8F
F99
0D7
04E
F65
FA1
FDC
FA9
FF7
097
FCD
F67
FF8
FDC
02D
00E
FFB
03C
032
F43
F9A
FE7
F6A
0FC
063
004
F15
0C5
00C
F95
F90
0DD
06C
F67
F43
F77
069
09C
FE9
0A7
FE2
021
F32
F13
0C7
0E3
FF7
0D0
06B
FD9
F3A
030
0E3
FDF
F99
0C8
F91
F31
072
081
F8D
04A
FCD
009
085
02A
F58
037
FD2
088
F48
092
F63
F19
FF5
059
F96
078
F97
051
F08
064
0DE
0B9
04E
F2B
040
F8A
F94
FD9
097
038
FD7
F3E
037
F2F
F32
F52
092
F3D
0FC
05B
F48
0D3
FEF
059
FAD
F40
03D
FDD
0A1
0A6
FEA
F68
F68
063
049
08E
08D
0F3
08F
FE2
F62
039
F62
FDA
F02
FEE
FDB
0DE
084
098
F9D
02A
013
02E
099
0E6
04D
099
075
035
0EB
0FF
FC8
0CB
F7A
01D
0B5
05A
06D
FA6
0C5
037
F3F
F6B
F9B
F10
0C0
FDF
0D6
002
F38
F1E
083
0F6
F3F
00E
035
001
008
FEE
FBE
F66
F03
039
018
F80
FAC
FB2
F39
068
FF3
0C5
F4B
0CA
029
F5C
FEE
09B
05F
F2E
052
F41
F2C
030
042
07C
F36
041
F9E
FB5
FBB
03C
025
0E8
04D
F27
F15
FEC
F4E
01A
0E6
FAB
F5B
071
01D
083
F04
093
F0E
0A7
F7C
F4A
0A7
F7A
045
FF1
F57
023
0BD
F56
077
F3B
0CD
0DB
FCD
01A
006
FD1
034
F2B
FB5
05A
F7B
021
F24
095
030
0D3
F80
FC4
FDA
FC4
0FB
FFF
F47
F1F
0AA
F4D
091
00D
08E
07C
F11
F67
F68
F5C
F74
0CC
F0C
0C1
FE8
0F3
0A4
0E7
F99
F0B
0A9
0C3
099
F36
F9F
FB8
0AA
03D
FF4
FC5
052
F86
0E2
048
FAD
F1F
0D7
FCA
003
012
FD1
F26
0A8
0FA
F13
FCF
FE2
0C1
0A7
0E5
0ED
054
FE5
042
057
038
08A
F20
023
098
04A
FE3
024
F3A
F2C
F21
01F
FC8
FCB
0AD
04A
FA9
FD8
013
FA9
F2C
F06
F90
0E6
F1E
06A
FE4
07A
F42
F57
F10
F71
0BE
FD5
091
F67
F68
F93
06B
FEE
0CA
FCA
FA2
0E9
0FC
F42
F1E
F44
F65
F77
F9A
F9A
091
058
064
F31
0E2
0F5
083
069
018
FCB
F8D
F19
0DF
F20
F34
081
F00
F0A
F15
FE5
F4A
FA6
06E
F7E
0CB
03A
FF5
09A
066
07E
08B
F84
FC4
F63
070
F9E
F16
F42
026
0EC
0AC
0CF
0B6
0B9
0DC
F80
0B6
067
F34
F7E
023
F93
F29
036
003
0A4
F8E
006
F2C
F23
0C5
0D2
FCA
0DC
F39
F0C
F1A
FEB
017
020
083
FA4
FAB
F70
0C9
F7F
F77
0A1
F09
F47
FB1
022
F8D
F77
0D0
0B6
08C
F34
088
F29
087
F97
FC7
F25
F3C
F90
F73
0F8
FB5
F9D
0F6
F5F
FE7
F88
0D5
F86
F44
F66
0FA
083
FF7
FBC
08C
F3A
FF1
0E4
0C1
00B
FAE
020
FC2
0E4
FBE
F09
FD9
F68
FE6
FB9
F23
F73
F0F
F1C
081
FEE
046
0CC
F5C
F3D
054
F27
049
F97
0F0
0BB
F4A
FFA
0E4
F8A
02E
023
0F5
04D
F37
F44
FF2
062
066
FC2
F07
FC2
F69
F29
0AD
FB9
F85
0A7
F40
008
F86
FAF
0D6
087
0A6
F55
F8D
F5B
04D
F4D
050
090
F77
F26
0DF
F17
0E3
FC7
059
016
F9B
F15
F00
0FD
FA0
F24
0CB
F0D
066
F37
F24
F57
F1D
053
046
FE6
082
044
0E6
0F5
F57
F26
FB2
F09
F41
F0B
F05
FAF
00D
056
0AE
0A5
0EE
0FC
0BD
015
084
F23
055
FCF
FA9
FC3
F40
089
F46
FA7
0C2
FD7
F81
0D8
F33
FD1
049
FA4
F88
F88
0FE
02C
0E5
FA6
00F
F48
084
024
025
F15
020
01D
01F
FDA
FC7
F33
032
046
007
085
033
06C
020
04D
F7B
F09
F6B
0CA
F5D
02A
FB1
F76
F89
F0B
0B6
F53
FBF
01C
F09
F53
030
0C9
F14
02D
FB9
066
FE9
F76
F64
FF6
03E
FCE
FF5
0E8
FC0
0C8
088
0B0
01E
FC4
019
F48
F22
FAF
F35
0B7
FCF
FF4
06E
FA7
FC3
F3B
F61
FC1
FEE
026
FC3
02C
0AE
F81
F34
F95
FD8
067
FD9
034
0EF
FFF
0C7
019
092
FD5
F16
F3D
059
016
021
06F
FAC
03F
F9A
FA7
F56
097
FA0
0E2
0CD
FD8
F6B
FA3
0EE
0FE
007
FA3
F05
0CA
03D
09E
08A
F8C
F8C
F1A
F35
040
01D
0BE
FE5
F1B
014
F4B
0E7
0B1
0E9
090
003
F86
097
F88
013
FC7
F44
FB6
FDD
0DD
F53
0A0
03E
F34
F09
F15
F36
F7C
0D1
0A0
09D
FF9
F62
041
092
F6E
FCA
05A
0E0
FC8
F26
0D1
F4A
0FD
019
018
03A
094
FB8
0D7
0F3
FED
F30
F50
088
F19
F87
06D
FDB
F09
FFB
05C
F95
FF7
F96
0B4
F27
084
FB5
F8F
FED
F27
08F
0D7
03A
F0A
FBE
F0E
0CC
F0C
FB6
F3A
F34
F9E
0D9
FC2
0C1
0A3
FA2
FE2
0B4
F3C
0EC
04D
FE8
FEA
F94
F9F
FA9
0F6
FB3
04D
F56
05C
025
F86
03F
F69
083
FE3
F7D
FFC
027
03A
F18
048
018
01D
071
F3A
024
F57
07C
0CF
FE8
F32
F13
F92
079
F67
F3A
FE0
0CB
001
0DD
FCD
015
0EB
0A8
F1F
0B0
0C5
F6A
0B3
FBD
082
083
F43
FE1
F21
F1C
0E4
029
081
028
041
05B
FC7
0F9
F77
F53
05C
F61
F63
07A
F12
F5D
FFB
F07
0FA
F2D
F9E
00F
03C
0F8
01E
FB4
090
02B
F37
F1C
FC5
F3E
F58
02E
F7C
F1E
F58
F7D
0C8
05D
093
FA6
F38
FAB
032
00A
0AF
0F8
07B
F26
F25
0EF
F26
0C9
085
FA9
F70
0FF
01D
F46
017
FEA
0EA
FB4
05A
F3F
F3E
0FF
0CE
F59
0F2
08A
FC1
F64
FBB
F73
F68
0ED
0A7
F36
005
01F
0ED
F58
F7B
F0E
F7F
F52
FC0
F84
FA5
F3A
028
08B
09A
FFF
FB9
04B
F06
0ED
FF7
001
02E
F23
F99
FA5
FCE
F65
032
F36
022
F0B
052
