0126
FF50
027E
FDCD
028E
FC29
FEA1
FF85
00A7
FEEA
0010
FF79
FF01
02E0
00C5
02F3
FE53
FF18
FD40
FF0D
0196
FFAA
038C
0043
0044
012A
0040
0030
FC53
00A4
FCC9
FC5E
FEC8
00A9
FD79
FD7E
024B
FDD6
FFF7
0369
FFD9
01D0
FE7F
021C
001A
00F3
02E7
FD35
0061
FFB9
FDD2
FCDB
FF05
03AE
0342
0041
019F
0072
FF54
0304
FD52
FC21
015D
00B4
04D5
FFC7
001A
0454
0055
00F5
0254
FD33
FBC3
FF74
FDFC
FC0D
00D2
FDED
0120
019D
FFDE
0004
0065
FD34
FC31
0036
0208
FEAE
03ED
0220
021F
FF9C
005C
0287
0648
0300
0510
033D
FEAD
FD93
05EC
022C
FEFF
0216
02C2
FF79
FF52
009B
FDFE
FEB6
0222
0124
00B8
FED4
0187
01FB
00E7
FE99
002D
00F4
050E
0290
0033
06BD
0219
00EE
00C9
FD7C
FFDF
035C
0202
FB10
039A
FDB4
FBD4
FE67
FF99
01D0
FCC6
FC95
01DB
FC47
FFA1
020F
FFEC
FF63
FFAC
FD20
FCFC
03F6
01F2
FE7C
FD37
FEF9
FFEC
0139
02FC
0011
FED7
00CB
0366
FDC0
02E1
001B
FE5D
02B5
FE59
FD28
01AA
0301
00CA
0285
FD8B
FF33
FAD7
008B
00A2
0174
0574
0332
03DA
FF4A
0018
FF32
FF84
0144
00E4
FCFC
FD4C
FBEF
00D4
FD0E
FBD5
FC00
FD62
00F3
FE03
FE9E
FBD0
01EB
049E
FD97
FDC2
FF47
0277
FEAC
FEAD
014B
0134
0511
032B
FEE9
FFFD
FFC6
FE8E
03D9
FB82
04E9
0592
FEE1
FC9E
FFE0
FD34
00C3
FC75
FF1A
FFD5
01F6
FFED
0079
FBB6
FB08
FE44
FD13
FEBD
004A
FFED
FDEC
018A
03CA
FDF4
03DC
FF47
0075
FF1A
FEAA
031F
FFF3
FAC2
01AA
00C6
FF24
0129
032A
FD65
FE30
FE95
01C7
0006
02C4
002F
0172
FEFF
FDCC
030B
FA5E
FE88
FBD0
0402
FE16
0176
FDE1
029F
FB8B
036F
03C8
FD10
02A8
0318
FF37
0319
010D
FCC5
FD22
03E8
01E5
012D
01A7
0169
029E
FDE1
FD03
F950
0041
FF2B
F6DD
0292
003D
0326
FBAB
FC40
024F
FDC8
FF67
FF5A
FF48
FE20
FFCC
FF5E
FC9D
023B
FFEF
FE32
FE91
04E1
0144
FE26
F855
FE0B
F96F
FC75
FB64
FD8B
012E
FB90
FF24
01A0
03F0
FCBD
00E6
FD0E
FF31
FE8C
0051
FE48
03AF
03A4
0208
02F1
FDAA
00A8
FACA
F8BF
F503
F5D2
F88C
F925
FAEC
FDFD
FC63
FAED
FC5C
FECD
FE05
FC96
F916
FEAB
FC95
FCFA
FED1
FD88
0269
FF84
FDEE
FE4E
FCDE
FE17
FEC5
F7AF
F818
F5B2
FA8B
F59A
FAF9
FEA9
FFF9
FDE2
019A
FC71
FDA0
0105
FED5
0065
FD93
0493
FD85
FF3A
00F6
FDB2
FCBF
FCFB
015D
0202
0247
03DF
FE1C
F753
F600
FC0F
F8DC
0182
051D
FD0D
FCC4
FFB9
0029
0004
F947
FCB8
FF4E
020B
0039
FCC5
0064
FF4B
F952
047B
FF7A
02FA
FFDE
FFE5
021B
FE77
FEAD
FB98
FD43
004C
FC9E
FBBF
FF89
007D
021F
FABC
030E
FFE6
F987
0138
FEE5
FE7A
FDFC
FB09
0227
FAEC
FEAC
FF08
FD1E
038B
0047
0054
FE74
FF22
FF79
FD2D
0248
026E
0171
FD0F
FD86
FF5C
0022
0380
04E8
FC84
FC5C
FC72
FF69
00E8
030A
FB6A
013B
FDA1
FA6D
0199
00E4
FE6A
FCC0
0043
FDF9
01B7
0380
034C
0451
00C2
0002
FF8B
01DB
0478
030D
0231
02C1
01DE
FDC1
FCED
FD1F
F88D
FB6F
FB03
FC02
FC77
F8E7
FD63
02A4
FFD5
FCE3
FD5F
FCA8
006A
046A
FE54
00A5
002D
03F6
043F
0238
02FF
0057
0412
FDE2
0054
FD2D
02C9
FEDD
FE85
01AE
0060
0032
01ED
0191
0345
024D
FE10
FF17
FE85
0060
03D9
FE39
06C2
0429
041E
03C3
01CB
FFA2
0106
024C
02CA
0BFE
0129
FF59
FC78
FC8D
01BA
FE67
FF70
02B8
FEB1
FCF0
FFB2
06A3
FDCD
FE96
FECB
FCD3
023C
0000
00C7
063A
0594
08C5
02B9
03FB
02D6
048D
014D
0285
FFA0
0409
0410
02BE
00AE
00E0
01C5
022F
04F5
02A1
0486
FEB3
0122
0275
030A
FCFE
048B
0133
02A3
FEDB
FFCA
FF0D
FF01
0151
0407
FEE6
0419
000C
FFB5
01A7
009A
0347
FFB0
02DB
FC71
0295
0011
06A5
05E2
0386
00A0
033D
FDF9
FE8E
0309
042C
00A3
0292
FE90
0100
0416
0677
007B
037D
009A
01DF
045D
FE54
0016
0415
0410
048B
FDC2
0559
0152
06D0
0419
047A
FEEE
03D3
01AA
031E
021E
FF03
FF81
0000
00E2
00B2
FF15
FFAD
008D
04A0
0304
FD14
FEFC
FE3D
FEF4
FEBB
FF3E
0511
03DF
03F9
059F
03FB
016C
0077
0049
FEAD
FF66
FFEA
0104
0016
FFF6
FF3E
FE0A
FE00
FFF4
FE78
FCA3
FC39
0319
0184
00F1
010B
014B
0235
02D5
0312
FE70
FF52
02AE
03D8
03E2
019C
03EB
FCC0
01AC
FF7C
039F
023F
000D
FC63
FC21
FFEF
025A
0355
FF39
FEEF
0267
042C
FFA8
0326
FF51
03C9
0086
FBE0
FB54
FF45
0172
FFB8
033C
0388
FD72
FD7D
FC64
FC1C
037B
0207
FD8E
0091
0076
0225
FCBA
FC7D
FC99
015E
020D
FE9E
FCE4
021D
FD39
FD51
FE21
0258
FEB6
00A6
FFD9
FC60
0318
030F
02ED
FDA0
FCA2
FD6B
FCD9
FF2A
FE28
0113
FE42
01DE
02F5
FC93
0307
FC85
014E
00C3
010D
FD88
FD9E
019C
FD7F
00F3
021A
FD1C
FE0A
FF2E
FF06
039A
FCCF
FEE2
