02E3
FF77
0199
FD86
FE71
00AC
01BF
FF03
FF3A
037B
FEE4
018B
FD48
02BA
FD94
01E8
00ED
FCE1
0222
FFB6
FE93
038F
03E1
FD8F
006A
0153
FE69
FD69
0395
FF49
0095
0158
FF89
FE2C
007B
029D
FE08
02C2
01CA
FCD0
019F
FF7D
00AD
FE49
00B4
FBE4
02D9
FDAF
0062
00C7
FC1C
03EE
022E
0217
020D
0244
FC7F
036C
FCF3
00E6
FF4C
00CB
FDCE
FF13
01E1
FE49
FE84
FEA8
0134
FF1E
00B5
FF6D
000B
03A4
FFCA
00BB
FE81
00BE
0166
0145
FBE8
FE72
024C
02F6
FEFF
03D3
0305
FEF6
FED9
005A
FCCC
0149
FBF3
FF3D
FD43
F528
FF24
F948
F904
FB41
FC8F
01E6
00E5
00F1
FEAC
0386
0546
FD93
FD79
FD82
FC14
FF1E
FCB2
FDDA
0154
FDBA
FEB5
FD76
0221
01F0
FCF6
FD07
FA12
FA34
FC67
FDE4
FB26
001A
FC76
0228
FEFC
FED8
FC81
FCF2
FF7E
03B4
FE30
FEA8
00C7
031D
FD35
01B4
01CB
001B
0323
FCBA
0109
FDD1
FD66
F575
F4C5
F94D
FF0B
FFE9
FFA9
FD8C
FDC7
FBC8
FD5E
FD37
0314
F833
FEAC
FB70
FE8E
FF85
FCE9
FD4A
0231
FCC3
0296
FE16
FFDB
023E
FB70
FE0C
FA95
F795
FCEB
0364
003B
FAA0
FF60
FFC5
FC4E
FF3D
0332
0078
0361
FE7C
FFB8
0003
FFCD
0279
00F2
013E
000C
FE22
0115
02F4
FCF5
FAAE
FC56
FAD4
FC0F
FF01
FECF
FF2D
0C37
008D
016C
008A
001C
00E3
FE35
FE1B
FFFD
0150
FF4A
073A
FF0C
034D
0386
FE98
00F6
FFF1
FEA1
031A
0107
FB4F
FFDC
FD94
0116
01A6
FB70
FEDA
0548
01EC
FE92
FD58
FEE9
025F
FFA9
017F
FE3F
0401
0015
078D
05CD
06EA
FF79
02D8
01EF
FCF6
0343
0043
0175
FB1D
FC66
00FE
FDEC
F8F5
0022
F91B
0245
0497
0609
0143
01AB
FF2E
0548
03C2
01B5
029E
04C7
018E
0353
0479
FFD8
FD8A
FEBC
FF2A
0037
0152
FE4A
0194
FD08
FEF0
0253
FF31
04F9
003A
0076
0420
FDCE
02A0
FD01
FA9A
FA29
02B5
FDFD
04A2
0182
FF12
058B
07AA
0204
FDDE
002F
FFC3
FC15
FE8D
0461
01E3
FBC9
FAF9
00BE
F866
0390
FD91
FDEE
02D5
017F
FDF2
FDDD
F4EB
F7F8
FC79
F8DC
FDD7
03B6
04E9
FEDE
02C1
0056
FFF5
00CE
0398
03CC
03F2
01C3
FD17
FD58
003C
F973
FE4C
FCDF
FF41
04BD
045F
019F
01CA
FCD0
FD7E
F357
F3DC
FA8C
F99F
FF17
FFA6
FD6E
00FF
0136
FFEA
01F2
FDD7
005A
FE85
FEEE
FFBF
00CE
FCB4
FD53
0452
FC07
0010
0571
0179
0852
0276
01AB
0581
FA7A
FD19
F63F
F9EA
F57E
FE07
FB89
FF54
0177
FC2F
FC02
FEB7
01BD
01EF
02F6
0097
0014
FAF0
025F
02B3
035F
FDF4
0155
016A
013A
FEB4
FE57
FC13
FDF8
0189
FAF0
F922
FAAB
F9E8
FCF9
FD1D
FBE8
02FA
01DC
FE7E
0004
0004
FC29
FEFF
FE47
FD46
0080
FE0C
FF6C
02D2
01D2
0193
079D
035B
0101
01B7
02D1
F9C3
00C3
FC33
F8B0
00BC
FA22
FA9B
0074
FFE9
FD57
0012
FF34
007F
FF33
FB8B
FF62
FB13
FB47
FA49
0191
012B
FD54
064E
017F
00D9
FE0C
FAB5
FF4A
002A
FE9C
FA33
FB97
FBA3
F9F0
FE0F
FF5E
01F5
FF11
03CB
FF6C
FE9D
FF80
0697
008A
FC67
00A1
FD0D
017D
FD4D
0199
02B2
01E4
029B
0190
FBE6
0088
FFEF
FE2E
0011
FEFD
FF05
FC06
FB22
0108
FFDF
FCF0
FC45
FF67
0162
0042
0150
05A5
06F2
0671
FC4F
0453
FEA1
03F5
FCAC
0705
FCC4
FBED
FE20
0041
FEF9
0090
FB75
FBDD
F9F4
01CD
00FF
03B9
0326
FE97
FF81
FD00
FBD2
FE9F
FDDA
FCC3
FFCD
012C
FF08
FE1E
FFE3
FF95
034B
FD12
FE96
FFF3
FD4B
FBF1
FEF3
FB52
F770
FD58
FD9F
FE43
02EA
02AB
0059
017F
FE9F
0000
0085
FCBB
0112
01F6
FD0E
FF2E
00F0
FF4D
000E
FFC6
000B
00BE
FC45
FEDE
0007
FF23
033A
FCBB
FE4B
FA2C
FC90
0272
FEBB
0389
FF69
009B
018A
0238
0304
FCA3
FC15
023B
003B
FD4F
01FF
0061
0332
02B0
FFBE
FDC6
0259
FD0D
FFAD
FBEC
FBA8
FD0A
FD1C
F92F
0170
0145
FC68
0267
FDC8
FC20
FEF4
FCBA
00E4
FFEA
FD4E
006D
028A
FCA5
FFBF
0312
FDC9
033E
FDFD
037B
FF6C
FC58
FFC8
FDBA
FF27
FF9B
FCE1
FF85
04B1
FCCE
036C
FE32
02A0
FF83
FF62
FDEF
FC7F
FE60
046B
FFBF
00E8
00B0
0447
01EB
0406
0046
FE52
FC96
FC86
FB3D
FC43
FA1B
0049
FE03
FD14
00EA
FD6F
01FC
010A
FE7C
034F
0387
0046
0337
FEBD
FEE0
FDE1
F8CC
FD45
F9A0
FE35
FF1F
00E6
01D7
FD40
0108
005B
FBDA
FE54
FD08
FE30
FE5E
FE54
0201
00CA
033D
01BA
02BC
FD32
FE8D
0110
03FB
0170
FD07
FE8B
FFCC
FB38
FF15
FDB6
FE61
FDB8
FA7A
0296
FE3D
006D
0084
0176
00A4
0016
028E
01A0
FF1E
01C5
FDDD
0230
03D3
FE14
0371
01FC
FC23
0393
01C8
03A6
FD57
02EC
0229
00EC
01B4
0113
0326
0199
006C
051A
FEBE
001C
FFC4
038D
015F
FC8C
FCA1
FE8D
0103
FDD3
020F
FFCD
015E
0114
FCA7
FD94
0156
FFC1
02EC
FE9B
FE69
FC11
034A
0122
FFB3
0171
FE10
FEF4
FD2E
02FC
FD54
0022
FD15
FE29
FFDA
FD3A
FC42
02D5
0124
0045
