10A
F8A
08E
022
F73
081
0E3
FCC
029
FA5
06A
009
F22
01A
F5D
FF2
FC2
09A
032
0C3
F89
0F9
030
F84
FDA
FDA
F8D
FF3
FED
F8F
0A0
0C4
FFD
09C
EF3
FE9
FA4
F23
EF8
F28
F1B
FB8
FBB
F23
FC9
FA0
EFD
0B3
F5A
02B
09D
FC1
099
03E
070
027
F8F
F38
091
F68
0EF
0E3
09D
F27
02E
F59
F52
0B0
FF0
F96
022
0D0
003
05F
F63
035
064
F56
0E3
F45
F09
F4E
0FF
FF0
FE8
F6F
0BD
00F
05C
068
F54
FD0
FFC
F94
F77
FBE
F0B
05E
F89
015
FB7
FB7
0DF
F02
091
FE4
016
0E2
03A
F5E
091
009
F39
FD9
F44
F32
F83
014
019
0FB
101
FF5
FAC
084
F55
F71
F51
0A5
F70
10C
F97
F5C
FF5
F7B
F6F
040
013
F6C
088
FB4
F87
04B
F44
0DE
0D0
F64
FDF
0C9
032
0E5
FD7
FCA
015
FFB
029
04B
F85
012
007
F20
0A5
0AE
0F0
0CC
F22
EFE
087
F96
05A
089
F53
002
077
F51
091
FD3
FBB
FFC
FBC
046
0B9
0D2
0ED
0C9
F16
F71
0E0
094
F10
F76
FD8
0B7
F72
0A0
F36
FCE
0A3
F50
FC5
F70
019
052
FF1
0D9
FFB
016
012
FD3
088
F10
FE0
FD2
0CF
FD4
FD7
F9E
06E
08B
05A
FF2
0E9
0AD
F54
034
066
F37
002
F6C
FC3
F6A
F41
FF1
FE8
FD5
F44
0F0
081
062
03B
F9C
F74
098
F34
FE0
0A6
F64
0C1
FFE
FAB
FF8
102
037
061
F6F
F5E
FE5
FCE
FB4
000
F24
FEC
F83
FD6
F43
0D0
064
065
040
F90
F93
070
F4D
0FB
037
F28
F94
FA8
FF3
F24
101
082
063
0B5
F5A
0E3
03F
060
F2A
063
F1A
017
FFD
060
050
F48
0B9
F5B
01B
F04
F7B
F7B
008
076
0CC
0D2
FC6
03B
F6D
0B2
010
FB0
FAF
F0B
016
FBB
FD3
F17
0F2
025
02B
03E
FD5
0C0
F9E
FAA
F2D
0A9
054
FDC
F5B
0EF
0E1
04D
F3D
F35
0B4
FBB
F1C
0B1
0DD
01E
F1A
027
0D5
F92
03B
031
FA0
FD6
F0E
01E
068
F63
F32
F88
FDF
051
0BE
009
FED
FCB
03F
0B3
F36
F38
070
F08
041
F96
0C6
F2E
06A
FA6
F31
0D3
F85
F78
01C
0EC
0E8
F5A
00A
0A2
F62
03E
01A
F34
08B
00D
08E
0FF
00E
0AB
FAF
0CE
F5E
F96
F89
F6E
0B2
F26
FA5
F32
F40
0C6
0F1
0D7
F8F
FA0
0D1
FC4
0A8
F40
0AF
F12
09A
F1A
023
0B4
038
F93
F70
F55
FE6
F11
F4A
00A
F68
FEF
01F
F35
F6A
04E
F35
FBC
055
F0D
080
0A0
F64
F6D
F97
FFA
F65
0A0
07F
0A7
FB0
0F5
FA9
097
0C1
FE6
F6C
F3C
F38
05C
F70
019
F67
05A
F7F
059
F43
F43
02B
F94
FD5
FF0
0B6
0A9
F97
0A0
F66
0F9
F12
06D
08D
FAD
063
01C
F4E
F30
0B5
0D3
014
F9C
FC2
0ED
0D9
0F1
FFD
FEF
0DA
0DE
F24
FE4
FD3
057
F02
F5F
07C
F62
09F
FFF
F5E
F98
074
056
077
F3B
02B
FA3
05D
F51
FC8
F66
FBD
036
F18
F43
081
F5F
08E
028
FAE
FEA
09E
FFB
090
03E
0B2
07D
FA4
F95
FC2
FFF
0EB
000
FF6
F4A
F68
FEB
031
F7E
F84
FF6
FF6
0EC
0EF
0DE
F58
F6B
FB8
0AF
08D
06C
F93
FF8
FE5
F9B
FB5
055
FAA
FA5
070
08A
FF6
FFB
03C
066
0AB
015
085
FC6
F9F
F17
047
FFE
06F
01A
009
105
FC2
0AE
055
020
FCD
FC2
0DF
016
024
094
103
F6D
0AC
FCC
038
029
F67
F59
F12
083
F20
04A
FBC
0DE
006
F34
FA4
0F6
F5C
FDA
FFE
078
F2E
0B0
F12
07D
F25
FC8
FF4
FC0
082
FC1
08C
F44
03F
027
0C7
01F
01D
072
04C
F97
F24
FB9
026
0CA
F91
F42
F59
006
0C0
0FE
0F7
F6E
F78
0E1
0DB
FD0
F8C
F43
F99
06C
059
065
F20
FAE
0FB
F7C
081
FB3
0F8
052
F08
F5E
F87
060
FAD
04A
F85
035
015
FF6
093
FDD
FD7
0BA
F9A
063
091
F97
FD6
FB6
044
052
08E
F47
F7A
0E2
00D
F2C
F61
F86
0E4
FD5
0F6
0F9
0D7
089
FBD
04F
FC3
FF8
0D3
F4F
F31
00C
0A8
FA7
F8D
02B
0CA
0E4
0AB
F7C
045
033
FC9
01C
F27
06F
F7D
F1F
FCB
FA6
F69
0A4
0D1
FEB
FCA
0E5
F1E
F63
09E
035
F27
FD2
F47
02F
001
FFE
F82
0A0
0C6
FCF
005
F30
FD5
F9B
F00
045
FEF
FD6
F9E
023
F6B
FB0
F5D
F3A
FBF
F76
F62
F61
FAA
05E
F68
0E3
F22
F72
08B
F36
01E
F0A
F98
0BB
FD2
F04
EFD
069
0B7
F89
07B
F32
FCC
F2D
F03
F6A
F19
0E3
047
F0F
087
F28
F69
F8C
FA3
0A8
0C9
F52
0BB
0EB
FB5
F7F
0D2
FE0
FF4
030
F2F
0FB
083
0B5
F16
062
04F
F91
FE7
055
F08
0A3
0F3
074
088
FAE
0EF
FC1
F6F
F05
0DE
FF5
F1C
FB5
0B1
017
F03
0A7
F6B
0E3
F3A
031
F24
FA5
02D
F1B
01B
0D3
F0E
F67
0EA
FEE
FBE
FFA
F1D
041
0B7
FE0
F78
FCB
FF9
FC9
F7E
F1A
F5C
F20
F5B
FF9
F41
037
0C9
FEF
037
F33
02E
060
0EE
050
FFB
F40
FF1
0D9
0AF
064
FA0
F3B
0D8
F5F
027
0E5
0B4
043
073
013
FD6
0CA
F50
F14
F1B
075
0E5
F13
FD0
FB0
0F7
F11
0AF
0A4
FEB
F8F
F5A
017
F74
072
FC5
0D5
FA7
007
078
F83
0F1
F58
0A1
0BC
064
F3C
0C0
FC9
FF7
00D
031
066
FA2
0A0
FB0
F62
F47
067
046
00A
FB2
FAF
F9B
FF7
FF6
F6D
F11
F98
F54
F8B
0DC
F18
F8A
EFE
F1D
0A3
F4D
0BF
0A6
03F
04F
F95
F99
04B
001
0A5
F98
FBC
F3B
097
F2F
F1E
04A
0C9
FE6
FA4
FD6
0F5
F67
0D4
0C2
F67
031
02E
F6B
084
F1B
F2F
04D
0FE
F5F
024
F33
FC8
0DB
0CA
FC7
05C
FE7
05C
01D
FBA
0E5
088
073
029
FE4
F77
F20
FF3
F71
03C
FA0
F9C
04C
FC1
01A
077
F45
FC8
F6C
F4F
FD3
066
F68
09C
FC4
F9C
0C7
FDB
07D
F84
0D4
0DF
0A6
083
0B1
055
071
01F
0BC
009
009
013
FCA
053
F4D
F14
0F4
F66
F61
FA4
0D7
F5F
F86
FF4
07C
FFA
FFA
F6B
FB4
F9B
F81
0FC
07B
FFA
095
039
03C
024
F7D
06F
F2D
F17
09A
FD4
0E1
F7E
02F
01F
F5F
088
FB2
00D
F5A
F4B
037
014
F62
FF8
0DE
FD9
019
022
0B4
030
F8C
016
FD3
F4A
FA8
FD1
0AE
EFD
050
0B5
F91
F5C
F38
076
FE0
F27
0A2
0E9
0F3
FC8
061
FEE
FE0
01F
0F2
F2F
0AC
05A
F7C
F3A
FCF
10C
02F
FE4
094
012
F5E
043
101
033
F3D
F2D
0AD
FB2
EFB
003
FA5
0C9
04E
05C
06A
FE4
0CA
FEE
EFB
02D
033
F4B
00C
F67
094
0D4
089
F22
F83
029
F76
07D
063
045
015
FD7
F0F
027
F97
FA4
FBF
FD8
FD5
106
F4D
FC6
077
05F
0A3
F79
0E0
095
07A
05D
0D9
F88
105
F22
07F
0E3
0EB
F1A
086
053
064
F6F
0EF
F11
FE1
F72
0A6
059
FFC
07E
041
F2D
04F
052
FBE
F3F
02F
FC6
0D0
08C
F1D
F20
09C
FE7
07D
0F0
0DA
084
022
FEA
0BD
FB7
03C
F6A
FB5
0FB
05F
FB3
0DE
F14
F45
FBB
F74
F9D
F8B
F26
08D
0E7
01F
007
078
F5E
F7D
F91
0F5
FDD
069
0D4
0AF
0C9
0BF
060
027
03E
FE7
0CD
07E
FC4
FBD
075
004
056
046
0D2
061
F00
FEF
041
F58
FA1
F62
F85
F9E
07B
0C4
04E
059
001
07C
096
F1A
F9A
FB6
F0F
F9C
F89
09A
F1A
0FC
061
05A
0FE
F46
FFF
02E
08D
F74
FDF
F8F
029
0B5
F22
F48
0CB
10D
FAD
079
07A
FBC
FB2
FE6
F2F
0E3
068
0B8
094
F8E
F49
019
094
FC9
0D8
075
048
0FD
0AD
069
01B
F18
FEE
F08
FD5
F2D
FF5
F41
F4F
012
FBF
F59
0F7
01B
FCD
F1F
F43
01B
FE0
0DA
064
F11
020
054
03B
FFE
F35
FBF
05B
FA3
07C
EFF
0F9
01A
0B6
FEA
051
042
007
01B
0DE
021
036
0AC
0CF
101
F2A
033
F72
0D3
10D
0F7
F45
08D
00B
0D4
0E8
F9E
002
FBF
05D
F38
FA1
008
05E
006
012
EFD
EF4
F58
F4F
FE6
F94
077
076
08F
F95
F75
073
F19
FE6
02C
FBC
FD8
0EB
05B
02B
0C6
F8B
F70
06D
079
F5F
F55
009
028
FFB
0B9
F2B
04A
F45
FD6
FF7
F72
079
FB4
FED
00D
02D
FAC
0A3
0FD
FB6
F4A
075
F77
F5A
F90
0E4
007
03D
F3E
F02
FBB
03E
0C6
F0C
0CD
0A1
F9B
01E
F98
09C
FA8
F0D
0AF
F3D
091
F1B
009
FCC
0FB
FE7
F08
F66
054
016
087
0CF
0C0
07C
F27
049
F91
01E
F50
F8E
FFF
F30
FE2
FAD
F57
F89
FAC
0B5
FCE
0FC
FD6
0B5
098
080
F76
F35
087
0CF
F96
07D
089
0B1
030
F5D
0E3
F43
F0C
016
0E5
F1E
01C
F10
F54
FC3
F5E
F6B
065
059
04D
05D
034
F8E
F47
F4E
020
02E
EE7
F25
FD3
0EC
F20
097
098
074
F65
F51
0F4
0A1
F7A
FE9
FC8
FD2
0CD
031
003
FFF
F18
F57
059
F0A
F8B
06F
F84
FCC
056
08C
108
067
07B
02A
0F3
030
09D
FC9
063
FCD
FA0
025
00A
002
0A3
0D7
F29
F09
FDA
06A
0E1
053
088
FCD
F15
F0B
F13
F96
FA3
03F
025
F58
003
F4C
FE0
F93
005
0DD
F70
085
FC9
FC0
02D
0E1
F18
FDD
0C1
0C2
0EF
F9D
09F
FB7
0DB
F7F
FB3
0E4
02C
074
FC0
0A8
050
0C1
F38
F63
FD4
02C
0C7
0B2
F15
FF8
0A0
F38
F15
F46
F01
F1D
F21
010
066
F9A
0D0
0C5
FA2
022
FFB
F8C
0E2
F26
0D9
054
F68
FFC
0CD
076
037
029
010
F16
061
07E
FE3
086
F5F
060
005
03F
0A9
0F2
F66
FD0
FF8
F49
00B
0AF
F3D
FCB
FFA
071
0D6
0C6
01E
F27
FB2
07B
0D7
FFF
04F
F22
F01
FC6
006
FB7
0D6
009
F4F
FC8
FFC
044
F20
FEB
FE3
F49
F6E
F01
09D
FCC
0A0
F9D
086
006
07B
FFF
07C
080
092
F27
0AA
F76
F9C
081
096
FB3
028
0EA
0C5
FBE
0CE
054
F4A
0C7
F44
053
082
0B0
02C
0C3
09D
FC8
06A
EFF
F67
FBE
EF6
003
F1E
FF8
0E9
01F
F91
EDB
09E
0A1
F24
0A6
FCF
09B
EF8
F90
FE1
097
F82
052
FA5
058
080
079
040
0C1
00F
FF4
EFD
0A2
0C5
030
056
066
FD5
F61
0AF
F17
099
F18
0AC
046
0C0
0DA
EEE
F7E
08B
0D7
0D9
F95
FE4
052
051
F87
F26
04C
F60
0B3
F4D
09E
FD1
FF6
0E1
F3F
FFF
FC4
F05
FD9
F2A
FDD
0B4
044
091
0C1
087
F9C
FF6
0F4
07B
0B5
02F
F35
FC7
F2B
FDC
F04
FFF
0BF
F4E
0C9
F78
0F0
F89
0C6
F49
0C8
03D
F7E
F81
F97
033
F29
06C
FB9
0BB
FF9
0D4
F25
FDB
F8F
0C7
F7D
091
FC5
F4D
F60
075
05F
FEC
083
F22
F66
F8F
F86
0FE
0C7
F7F
00F
049
0A7
027
FF6
F89
F8A
FB9
0B8
FB1
F66
0DE
0D8
FC4
050
F28
FC9
F97
F5B
FB9
020
01E
FCC
0AF
F1E
FEA
096
F4C
074
0B1
070
F87
F65
0EE
073
0B3
FC9
F08
076
FA5
F06
F48
0A1
F35
041
086
068
039
F98
04E
FF8
F4A
FB1
F09
F24
038
FE9
FF6
FFF
017
F8E
08A
F3F
FD7
FB0
0A5
004
FB8
FD2
F78
05E
0A9
00F
F19
FBF
FC6
0B9
018
05A
F4C
FFB
0C2
0A1
028
F31
025
09B
F6A
FF6
100
0E3
05D
F85
F48
FB1
0D1
FF9
F21
0D4
F65
F75
FDC
05F
055
046
0B8
F6A
04B
FE4
04D
FE9
FCA
021
F83
096
026
F32
064
FB8
FDC
F8D
063
05A
F67
F8C
F45
F85
F4C
00B
F28
029
F1D
0BA
023
080
F92
098
F43
F47
F24
105
10F
0F9
FC0
F89
0D1
0F6
0AE
F9C
03E
F79
0F6
08D
F68
01F
105
06C
FE2
F6A
F2F
F56
092
047
FF6
06B
FF5
04E
FEA
FEC
FD2
057
F13
032
F09
032
F63
0B4
038
0D7
F8A
FE8
F79
03E
FD1
F74
07B
F9A
060
002
F55
035
103
F4B
001
0DC
08F
0AC
05C
F92
F7E
01D
053
04C
087
FD3
090
01E
075
FBF
077
F6B
F5B
FD0
115
F61
070
10D
03F
077
FFC
04A
F66
095
F10
FA5
F1C
0FF
F32
F70
FE9
FBB
087
FD1
F57
F65
0C1
08A
0B7
F50
06E
F14
04A
FB2
06F
003
FC0
07F
F78
FE5
077
092
0E4
06D
F1E
FFE
F14
060
054
F9C
F77
0AA
F75
FC0
F73
F4E
FC3
033
F12
F05
02E
09B
0D9
0A4
054
09D
07D
003
0A4
095
F8B
FB9
FFE
FAB
FB3
0A1
FF3
F3F
0A3
0F3
091
F80
089
F7E
F47
F9D
F66
0CC
0E9
EF6
F15
082
F16
017
F93
09D
EFC
0DB
F63
F3D
F79
0E2
F1D
048
F3C
FD6
0DA
FEE
05F
037
F24
0B7
041
FEA
081
FB6
092
F4E
000
FDF
0A2
F04
F28
F29
00B
050
FE1
FA3
08E
05C
FE5
F31
FCD
FB5
079
FB3
F67
06C
0F4
073
00B
0F9
FA1
FB6
012
F7A
0D8
F37
FC6
04E
FA8
069
048
056
FD5
FE9
FD2
033
F75
F77
070
0CA
051
084
08F
FCB
F55
048
FB8
F5B
F8E
074
F80
F1B
F19
03B
F73
F21
037
F18
07D
F0E
F08
029
F10
089
07B
062
F4E
F9D
015
FC1
081
020
FA1
0E2
02B
F93
F66
FEB
038
0C5
F5E
F50
04D
F82
FFB
035
FB3
0C7
F04
0CF
FDB
0CF
0B6
FDF
0A2
04D
085
F8E
F6F
08C
0C4
0A4
042
0AE
F31
029
077
0DF
F9C
0B1
0E2
0BF
01A
F0F
100
F9D
0FE
0DB
F09
02B
079
05F
000
FFB
0D3
F57
F1A
FA6
F3B
FBB
0B8
F8A
F34
FA6
053
074
06E
0AD
041
02F
FCF
0EE
F9A
033
03C
F16
0BB
F68
F6E
00A
FDF
022
F6B
FA3
0A2
F60
F94
F81
FE0
06F
F14
011
0AD
F85
F8C
07A
06B
FB7
0AE
F75
0AF
0D1
F6A
093
006
03E
09B
016
F6F
F0C
0AF
0E2
083
05F
FAF
08E
02B
0D1
F1D
0A2
F8A
0F2
F09
FB7
032
039
F84
F54
062
F30
069
06C
0BC
028
F2C
0A8
FF3
F56
FC9
FCF
0CC
07F
086
019
08D
F45
F96
F19
F57
F3A
FE3
F63
F5B
077
01C
FE5
046
F4E
FDC
F19
08A
F80
FC0
067
F07
F38
051
03E
F2E
025
F3C
F5D
FC6
F47
F91
F3A
060
02C
F11
F7C
053
F88
F23
FB5
07F
04D
FE0
F34
FCA
FE8
F21
08D
FA3
F72
F79
F94
FF7
088
FA7
FDE
04C
0D5
F9B
F5C
F03
04E
FE7
08F
01E
07C
F77
055
0D9
047
079
FE7
079
0AF
FD6
050
087
068
F99
023
05A
0CA
F24
F44
0ED
FF3
F80
089
F43
F7A
0A4
080
FE1
088
F94
07F
F9A
F36
098
F17
F47
F3C
0A1
09E
0D6
076
F3F
F2C
101
FEA
F8F
F89
F3D
F4F
F53
097
FD9
F6E
0AE
01C
073
056
092
06F
028
010
F3E
075
075
F04
0F6
0F3
F34
F9F
021
079
F81
083
03B
F7B
FCB
060
F2F
054
082
024
09E
FE3
F3D
03E
04D
FBC
0D8
013
F44
FCB
F43
0E1
F17
F99
033
0D5
085
0A7
0B2
002
0F2
0A9
F9A
F3A
F7D
F51
0AC
024
F26
031
032
061
053
F27
F1E
F1D
F52
F0E
F86
FAA
0E7
077
0E2
02F
0BA
00B
F0A
F65
09F
F60
03E
026
01D
F67
041
041
FE2
0BC
F6E
F5F
0F9
096
F3F
04F
F91
07F
F4D
F6C
F76
08C
F9B
02F
FA9
FAB
002
F6A
FBE
F6A
0CB
F04
0E0
01B
EFF
F80
0CF
F29
FCC
F72
019
FA1
09F
0F4
FAB
FDE
0B3
098
0DA
039
FB9
FA2
F83
FFE
07C
F72
076
FEE
F3B
0AE
F27
F6E
07E
092
027
006
FC4
FC1
F0D
F54
034
00A
081
09D
F15
009
0BF
F2B
FA1
07E
067
FEA
FB4
FC8
F30
080
092
06D
05F
06B
07E
0D1
FD6
FD5
0D9
FF2
069
F60
FD3
004
F74
F45
F19
FAC
0A5
0FA
F67
FA4
F21
F29
0B8
01C
087
F07
FC4
F1B
FD0
F97
089
01D
064
070
074
001
0B6
FAF
04C
FC8
023
0AF
FC4
016
F67
FEC
04B
F11
F7C
F53
F5F
100
F3B
04F
0DC
0A9
F98
0A2
038
FBC
FC9
082
F78
F24
F22
0D3
F91
057
02D
05B
F75
090
F85
F70
076
008
09B
F7C
F75
026
0EA
018
FE1
F27
01E
F63
0A5
02E
0BE
06C
053
F3F
06E
EED
F67
FFC
FE0
068
FD9
F3D
01D
F2B
04A
FEA
F8B
FB7
F7B
F42
F3F
F7D
029
FD9
06C
F8A
024
FE7
0DD
030
08D
0DC
FF6
FFD
F59
FF6
0AF
FEF
F32
F82
F0F
F99
0AA
029
0AD
088
FB7
F4A
F5C
FE2
060
FFB
F54
FEC
F02
0F2
F26
FBD
017
0FE
FD5
07C
FC1
078
FAD
032
F9D
0D5
0DD
01A
063
07E
02B
003
073
F0F
FC8
FC8
007
F45
019
FEF
0D7
F23
FA9
01F
F4F
FD4
0CA
F7D
FF8
0DB
059
FAE
032
03D
FBF
01F
08B
072
049
F6F
0A9
F1E
09F
044
F6B
F3E
07A
F4E
063
F2D
F9B
05F
0D5
070
F1A
0D9
FA9
F85
082
FBB
071
0B1
FCB
073
0E3
F51
0AF
F77
F43
FA2
057
02D
FF6
019
04A
0A8
FED
09C
0E3
F18
F2E
F93
F95
FB4
FDA
F90
F8E
0DF
058
0B1
F2B
F89
093
F81
115
0A2
F48
F6E
05D
0B7
F87
0D9
FF0
054
03F
03B
09B
04A
FD2
F75
00B
080
049
F38
094
FBE
F68
F9C
FAF
FE9
0AB
005
013
098
010
F63
F58
09D
FBE
F4B
049
04D
0E2
07D
088
067
005
FB7
0AC
FBA
09C
0DE
F97
FEC
F68
FD3
0AE
F52
F52
0B1
F99
055
FC7
054
F9F
03D
F1F
094
F0F
0E7
0C5
FCF
F33
0B8
07A
039
F8A
011
05D
034
02E
0EA
039
0DB
F8B
F2E
0A9
F59
05A
F3F
012
03F
001
00E
FA5
02D
0B7
FBC
F49
0A5
09D
0E2
FCC
FB9
004
FC8
FFD
FBA
FC3
FD0
FB8
0C1
F9B
F5D
F90
FFF
0AB
F64
075
F32
037
0B3
0B0
0E9
0E6
F08
F61
FE9
FEF
F88
066
FF9
FA1
F4E
049
05E
0E4
0E7
F07
07A
0D0
05D
F18
FA4
F06
0EA
FE4
0CF
0E7
FD6
02D
09A
F53
08E
02A
063
FAE
F8E
F6F
F91
0F7
F66
007
0D6
0F0
FCA
F44
006
F96
EF5
0F2
F51
07F
086
F6E
07C
F25
EFC
087
F81
06D
FD3
F58
061
F3C
08D
0F7
FD6
FCA
F79
FDB
0B9
F55
075
0D1
079
FA5
F6E
0E0
FAE
FFC
F88
078
F0C
023
F1E
001
FE6
0DB
052
FDA
04E
F45
0E2
094
F33
0BD
FF2
045
0C8
FE6
092
F06
056
FAB
F10
0CB
0B7
0D9
F76
F78
037
FD4
019
FEC
F35
082
F0F
05A
013
F01
0CF
FB4
F9A
09E
F84
FF6
00B
05C
10E
109
04C
FCD
0C3
00E
069
077
0CA
018
0EE
007
0C8
FFC
0EE
F6D
FE9
F31
049
F6C
076
0DF
FB0
FAE
FDE
01D
F8E
F78
09E
03A
F67
FCF
F9A
0BC
079
F6E
0A1
02C
FDE
06F
FF4
FD7
FA0
045
FB1
FA4
F57
0E0
FF3
030
0BE
F93
0E9
0D6
FD7
0AD
F45
FBF
FC1
0B5
FE6
09D
021
FC6
FEF
071
100
084
FC6
FB0
F84
014
F3E
FC2
F58
0BE
043
F33
F48
F8F
0AE
0F2
018
F7E
04D
FAA
0D4
F4A
0BD
F4C
0A9
FE6
FAD
01A
079
F33
FFC
FF6
083
F2E
F5E
FA3
FEB
F5F
FFB
F76
0A3
08A
FB2
048
0AB
000
0A9
0E8
08A
F02
0C9
FA6
092
F8A
FE9
0BB
FC4
003
FBE
0CD
FED
024
033
F19
F2B
F8D
028
073
08A
FB0
F74
099
F14
FB6
F2D
F53
F45
F3F
FD1
030
061
089
FBD
FE8
09F
05A
F12
FCA
0AD
FAF
0A3
029
F60
011
FDD
F71
0FB
0DA
F9A
07E
F82
014
0F5
F3A
F8C
F31
F51
FBD
0F1
F53
FAE
FFA
FCA
017
079
FE9
019
07C
02F
003
077
0E3
093
F2C
02D
FB1
FDC
FF6
011
0F8
F33
FE1
0C8
F94
FA7
FE7
F4E
FF6
072
05A
F87
0EB
FA4
FD8
077
F37
01B
0B5
F64
FEB
037
FC0
F2F
08F
053
F76
012
089
F22
080
00D
F53
051
F43
06C
003
F87
F99
F1A
02C
F2A
FF9
061
070
059
F50
09D
FA7
08A
0BC
0D7
044
054
F11
078
02B
028
0DB
FE3
09E
0A0
0B6
F78
F0E
0CC
F0D
FAF
F1B
F09
0A2
F98
01D
FDC
F6C
103
05C
F6C
06D
F57
0AA
0BB
0DC
FE9
0E7
04E
065
0D7
FCF
FDF
085
FAE
F46
F95
F6B
F38
F2B
107
07C
0E4
F68
F24
F1E
F8B
F8D
0A0
0E9
0A4
F9D
064
0CA
FD8
03C
0E1
FB9
0D2
07A
F80
016
F6F
05B
0B8
0F2
0CB
016
054
00D
0CB
0B1
FA5
02F
F7B
FB0
08C
FAC
02C
0B7
069
0D0
FF9
F18
FE3
02C
F47
107
F3E
0FA
F26
037
048
08D
F82
FD2
F41
FFF
0F5
FC0
03A
0AF
0DF
0DA
F6E
0B4
F07
06F
0E2
F69
084
01A
061
F6A
0F1
F27
FC6
044
F3A
FFF
04D
022
032
FD7
F57
002
09C
F32
0ED
093
097
F60
0C2
F79
F5C
101
0D8
F60
0C3
069
F01
FEC
FD4
F30
F0F
105
FC1
F4B
10C
F35
F3E
F9A
FF5
F6C
08B
F3F
FC7
F52
027
0A3
F25
064
005
FAD
F5C
043
034
F6D
0FC
048
FC6
F0C
FF8
F58
087
FB1
FC3
F48
0F0
F61
00A
069
0A9
FAF
F7B
0AB
F92
058
0B2
FBE
F16
F9D
044
0D0
F7B
026
08F
08F
F76
F19
020
F24
FF7
05D
00A
088
10A
F92
0F2
F22
FE9
02B
0C1
069
09A
091
F0D
0F3
F7E
F2D
0DE
0C3
FAF
05F
0AE
FD3
0C7
F9A
FBA
0F9
F58
F7F
F5E
F4A
005
F59
013
0FB
F99
030
079
093
F42
F6B
051
F36
023
F4A
0BD
F1D
F17
0B9
05F
F32
06E
0B0
08F
018
076
05D
F9F
F68
02B
F34
FCB
F10
015
08A
05B
F0F
11A
056
081
F3B
FED
FC1
F49
F21
0A3
FA2
F84
024
FA7
0CD
0C1
F9A
F29
FB5
FE3
024
F00
F45
063
0CD
0E1
009
F45
FE9
01F
040
FC1
054
F10
0A3
04D
FA4
054
F5A
F69
0D1
F95
068
052
F6F
F34
049
F46
FEE
F39
001
080
024
FD4
F81
F54
FC0
0D2
F49
0AF
007
F42
0F2
055
F00
F7A
037
FB7
0D4
04C
F18
04F
F31
060
F1C
0F4
FD9
06D
F93
0A9
F39
FF2
0BD
FBD
037
F25
029
089
0DB
083
F74
086
FD9
09D
F05
018
054
FB2
FDB
FF5
FC4
0AB
F80
05B
F8A
067
FCE
0BA
050
F36
034
FBA
048
0F5
F95
006
0A0
099
006
03D
0A1
0B4
FE2
0A6
009
0B7
FE6
F64
090
0EE
F50
F53
0C2
05F
0A3
004
0AE
0B2
011
009
F5C
097
FEC
F64
077
0AA
088
0C0
0DD
F60
FC5
0A6
FAB
064
0E4
FAD
0DF
F23
0D9
054
0B3
05B
FC9
081
F35
032
0AE
FB2
014
051
F3A
FC8
054
040
F0D
07D
F6B
05D
013
F20
F8D
F25
F4E
F64
017
079
F1A
FE6
0BA
042
001
030
0B2
F9B
F90
030
0A8
01E
FA9
0C1
F37
087
F20
075
F87
FC3
F76
098
0EA
033
0E1
F9F
0A0
007
0C7
F89
0DB
053
F9D
F70
F90
0EB
F55
050
F42
0F0
F2B
F49
F22
FEE
0B3
FE6
0CC
FEE
049
F5D
002
092
F5D
060
044
0B7
F7C
0B8
F34
06E
0C0
083
028
077
05B
FDC
F59
FA3
074
087
0CA
00B
FBC
FDB
09C
F29
F4C
F3A
FFC
F61
FA4
F38
015
F75
0B6
EEE
F7B
070
0AF
EF7
F5C
FD5
FB7
F5A
F78
FA8
FFC
041
0A8
06F
FA7
FDF
082
017
0C7
094
F51
F57
F3E
F8A
F1D
F37
0D0
F87
F31
0DB
0CD
F4B
00A
07A
071
019
F90
088
F33
FBA
0CF
013
001
0C0
0CC
FD1
F9E
0A4
0EC
FC3
FC5
F5A
F68
0A2
FE5
05E
F74
03F
F4F
F6E
EFF
074
031
0B4
FC6
FA6
04B
087
F87
052
094
F61
EED
0BE
091
FF9
F61
FE7
F3D
FB8
023
F27
0CD
FF8
F43
06C
FD1
F0D
FE7
005
018
F1A
FE1
04B
016
F8D
FA1
F48
101
04E
FBF
FBF
0C5
F6A
F65
07E
FB0
0C2
F63
F4C
F9E
0C3
0ED
