FAF
F79
F5B
FF2
076
F34
0F4
0AA
0BD
F62
011
FFB
F9C
061
FC4
0EB
0F3
FBD
F5C
08C
069
0DB
05C
04A
F0E
003
F08
F8C
086
000
FF7
0C8
025
FB1
000
04F
0DA
F3D
F1B
F8E
F3E
0D5
FA7
075
F9F
06B
FB1
F5B
FF9
F0F
0D9
010
FF2
02C
F32
0B8
010
FC2
06B
F07
092
F0E
FA2
060
0E1
0CD
FA2
F90
015
00D
042
049
F33
F9D
F49
F29
0BF
0A7
0F1
0E4
F1D
FD2
061
F22
F4D
F30
09C
077
0D6
015
F17
FD4
F81
F14
066
FF3
F56
094
FCF
FF0
FA3
FBF
0AF
F7F
FD5
FC8
FC6
F6B
F56
03D
041
F0B
094
0F0
012
F86
FDA
FF8
06C
056
04B
F82
05D
061
F03
FAE
F22
04B
0C5
04C
022
0F3
FA3
0CF
F0C
FEA
0FC
04A
FE3
F47
017
061
026
009
08C
F73
F8E
04A
F37
0FC
0B9
095
0B8
0D3
F05
FC4
09E
F38
FAD
05A
FEC
F00
02A
FA9
F40
010
0EA
00F
FEA
F7C
02A
0F2
069
F51
F13
010
0DF
F65
FAF
0D1
FC7
0B8
0FE
F89
0A9
FCC
F87
FBE
F7A
F34
F22
F71
FCA
0B1
FBA
0BA
076
FF1
FA3
FBC
076
037
F8B
086
089
09E
F74
FF5
03D
F2B
00E
052
0C7
FBB
F05
FCB
FDD
F80
F7D
F3A
FF1
F29
F90
FDC
08A
F38
F56
FD9
F3A
F70
FCB
F1B
F7D
F8F
F0F
04D
06D
F12
0D4
051
0A4
0E3
FA2
0FB
0B8
FE5
F05
090
FCF
0D4
0E3
F83
F49
00D
FA8
08B
F0A
049
0B6
0E1
FFB
01F
09D
0D2
F70
FDD
F50
FB8
031
F01
071
FE2
F38
04A
F25
FBD
091
FFC
F1D
09B
F64
018
F74
F7F
07C
0EE
00A
F1C
0A7
FB8
095
FC7
F3A
F21
F90
093
0D8
061
FC4
077
F85
F0A
08B
086
FF2
01F
0FE
0D9
F9C
002
F8E
FD3
0A5
0BB
043
FA0
001
042
F36
001
0A6
0BC
049
0D1
F60
F9A
FCE
03E
F29
F9E
FAA
F7F
FB1
F47
F2B
F10
F1B
098
FFB
0D4
0DE
03D
002
066
0D5
F8F
05F
F1D
F17
FCC
0CF
0C0
F34
038
F81
FE2
093
FB9
012
095
087
FEA
05F
F27
F74
FF8
09A
FE2
F16
FC2
039
0B5
07A
F2E
0F0
0D7
0A4
FDA
044
003
0A9
F2E
0DD
F7A
F3C
FCC
041
F62
FD3
031
F69
069
F0C
0A7
FCF
F79
F6D
F3F
0F1
07F
068
09F
F0E
03A
F8D
095
F43
F00
09C
0A0
00B
F22
0C8
077
0D8
F8C
F1A
0F9
0D3
FD4
F09
FEF
025
047
09D
F31
098
0D4
FC5
0D8
019
0D3
FBC
F1A
FB6
F49
FCF
F2A
061
FE8
020
08D
F5D
023
009
FC0
F5F
061
02F
F6C
F0C
F82
0A6
031
F0D
F1E
02E
F0E
0A3
010
F82
0A1
019
F77
FF0
0AF
F0E
F8A
F3D
0B2
F72
05F
FF4
F39
F9C
FE0
05B
075
0D7
FE8
FA0
0F5
0B7
042
F69
FA9
F28
F37
F21
F20
FB4
FCF
0C5
F27
073
060
032
FDC
FF4
037
F42
FE8
080
0B7
0B1
F7E
F61
062
026
022
07E
01E
053
F2D
F62
F44
FE4
F3A
F0C
03F
091
08D
02C
FF7
0DC
000
F7A
FDA
093
FD1
F2D
014
05D
F48
F47
F15
F21
0E4
F97
0A1
F67
F11
01D
F84
038
F7B
F58
F0C
048
F68
FDB
F09
03B
06B
02D
085
F6B
F9D
F4E
F96
078
F8A
FCE
0DC
FD7
0DC
071
FFB
F3C
0E6
FFD
0D3
F65
091
F1A
FEA
FDA
02A
FFC
0D6
0C1
FEC
FDC
F93
FFF
FAB
0B2
F8A
01D
006
FF4
F24
FD6
F3D
F66
F84
067
0C4
03F
050
02E
F45
F5D
F0D
0EE
0E3
0EA
032
063
029
F03
0A6
0C5
F44
0F8
F88
0A5
FAB
FBB
016
F23
F43
F5A
067
050
F4D
F46
029
FB4
038
F10
F0A
F4A
094
0C2
F53
0AD
F38
0F1
01A
F0A
FE0
F2C
FD2
F32
095
FE8
01C
044
FC9
FDF
045
FEB
F29
FBE
08C
08A
0DC
07C
FCA
FD4
028
F06
F59
030
F0A
F4C
019
031
027
F05
0B0
010
0F8
049
0B2
018
042
0D4
020
0C7
101
F79
F3D
007
FC3
0C1
0BA
0A2
F4F
025
023
F0E
0F7
F80
009
F28
057
065
F41
0DF
FA4
080
F9D
F97
0C1
FAA
F04
023
090
061
F22
FC6
03F
09D
089
F9D
FD3
02B
000
0C7
F51
FD6
04B
FCD
0B8
FAE
04D
FB6
F05
0B7
073
0A1
053
069
01E
FF9
FBD
FB0
F74
0FD
032
0FC
02F
020
0B6
0CD
F63
058
0A6
0D6
095
F6D
0A4
044
0C3
F0A
FAA
F7F
F3D
F9B
042
06F
086
F93
F32
FC1
049
0D0
F36
F48
FBE
F80
0D0
0D6
0AD
F8F
F2B
07A
021
FFE
FFF
F8D
F3D
007
06D
005
057
038
FD6
092
F0C
0DC
F98
012
FFB
08B
F0F
F44
F0D
006
FB8
059
FA8
FF9
FCE
0AB
F15
FC7
F51
F10
FD5
F15
007
046
F29
FD0
FF8
FA9
00A
F18
086
F6B
0BC
083
FEE
F48
0E8
0C9
09A
F16
F69
FCB
F40
F15
FC8
001
FE7
0A4
F86
03E
034
F37
0AF
0C2
FB8
F12
09A
0A7
069
09F
F58
F24
017
F26
FE1
F57
F2D
0B0
009
FBD
025
06E
09B
009
F2B
0A1
EFE
06E
04E
0C8
F91
03F
F88
F17
F6A
F6F
052
F47
050
F2F
F02
091
097
FF5
F1F
026
09C
F71
047
F89
0FF
FDD
FE2
FE4
FCD
FA3
F0D
00A
05D
07D
038
F97
F99
F6B
04D
F8A
FB8
0F1
0E0
FA2
FE4
FB1
F4A
F01
F8E
0D4
01D
FEE
07A
F97
FD4
003
0E6
F29
F1E
FB2
F6A
F8B
FC8
F3A
F4F
F3A
063
FF4
FC2
07B
003
03F
0AE
0AF
F99
034
078
F71
0FB
090
062
FA3
01E
F35
FA8
05E
FC5
03D
F9A
FB0
03E
F65
098
F94
FAA
078
FAC
F06
01D
F91
094
FAC
FCA
046
011
0C7
F14
0C5
0B7
F50
0DA
FB8
065
079
F23
016
0E7
F2D
F07
081
F4C
03C
008
03F
F60
0A6
F87
043
F2A
F46
F91
019
02A
F69
FAA
065
064
0BB
F21
01D
0FE
079
0A6
F81
048
FB0
FEC
F8B
0C2
073
016
FFF
06C
F06
04E
0A4
F99
075
FBD
F55
098
01B
081
099
0C1
F2C
FA8
F1A
0C8
F28
0F7
F6A
069
F0B
02E
FDB
FCA
F15
F4E
FB1
FFC
0FB
F80
F79
068
F2E
F84
F79
05E
0BB
FF6
F97
0DD
F72
F73
0C4
026
F63
070
079
0C5
052
04D
032
0D9
F12
F72
FF4
F63
04D
FA1
F47
0C4
0E4
F88
F8C
08E
FD3
02D
0E9
FB8
F64
FD6
FFD
FC1
FF2
F3F
089
F76
F66
F34
F7D
08E
0D8
FF9
0AF
0F7
F92
F23
FD1
04F
0CB
03C
061
078
0CD
FB8
FB5
067
0F6
0E5
020
089
062
FF6
047
08E
084
FD4
052
FBF
0D4
FE6
F3C
FA1
0F5
F8F
FF3
05F
F75
01D
08F
0A7
065
03A
0CF
04A
F3B
06A
FEA
05D
0E6
0FC
F44
046
0B7
0A0
05D
0EE
F94
F87
0A1
F57
086
0EF
FAC
001
F6C
FE6
001
FC7
013
F68
0E4
F1F
F7B
074
0C0
F76
005
F60
F75
0F7
09C
FBD
09E
FAE
FE4
090
0F0
FC3
F28
F89
F00
00C
F7A
F69
0CC
027
05F
FD7
0C5
0BC
0A3
0BF
F1A
02E
026
F5C
04B
082
F36
044
F6B
0B6
04B
FF7
02A
0AC
F51
0BE
0CC
F4E
FB1
F37
FFB
FE4
F27
057
07B
F87
F12
0D9
0D6
04F
FF6
F0C
08B
F4B
051
F58
F44
FB7
044
FAE
0CB
F0B
F40
022
0E5
0D9
08A
062
F8F
045
02A
081
F8A
031
029
F22
042
0C5
032
061
09C
F28
F56
F0D
FEB
F25
02E
F51
F84
0CD
0BD
04F
FBE
F7A
07F
F1A
FFD
F82
FCD
0F6
067
027
07B
FBA
F9C
0C1
F82
0F9
FCC
0A4
057
F2A
0F8
0F4
FFA
F98
F32
0E2
F19
03F
05E
0F5
072
075
F99
044
FAF
FB2
0DE
FAB
F4F
F28
0D2
F08
FB3
F0D
FA5
0EE
048
F8E
00B
FBE
F43
033
082
F98
F56
F6F
F53
0C1
FB5
0C1
0F0
FF1
FC7
0FD
F9D
FBB
F7F
047
0AF
0EB
FD8
F69
0B4
F8D
FA6
F47
F39
012
FC1
0E4
017
033
07D
F23
01A
08C
0D2
F64
0A0
F0C
0C8
0D6
0F0
08C
F56
FE7
F08
023
069
0E1
F7E
007
F35
F73
028
F8F
000
02D
036
021
059
FB7
F1B
F7F
0BB
02E
F4C
01F
FC4
F02
0E7
F0F
F48
F4A
FF4
0DF
0E9
F0F
011
F7A
F03
F78
04F
F0A
01A
F81
054
F1E
006
0CF
F18
F6D
0D9
065
00C
F36
03C
09B
FBF
F65
F56
064
068
022
F67
0E7
F17
09C
F7E
041
F59
03B
06A
0E3
04C
F75
035
F35
0D3
00A
020
066
096
F55
0FD
0B8
F20
0E8
02D
FBA
08E
057
F53
010
F9D
F5D
049
03C
FDF
F83
0C3
F7D
0E6
023
079
FB8
FB5
F61
FA6
0B1
FD2
FE3
0B5
FC9
F30
037
0DF
033
056
04D
FB2
F96
F3B
FF0
FC3
00D
F99
0EC
FB3
F9B
FE9
F46
0EA
FC4
F50
F63
0A3
FBC
06B
F8B
0F2
F8C
0D3
0CC
022
F34
FA3
F12
01E
085
FD3
056
0C5
F21
031
0C5
0CA
F3B
F7B
FDA
F89
F12
F57
061
F35
FD7
02E
F3D
F71
F57
08E
0B0
FEA
F60
F51
F56
009
01F
FC3
F77
F0C
FA8
0DF
F0C
0FC
FA0
0EC
FE8
01E
F31
F7D
0B6
F74
FEF
FE1
0B8
015
0E0
FEB
FE5
FCE
FF5
FE3
F67
F7F
F0E
0BD
FB3
FFD
08A
029
0DC
F8D
FBC
FC2
0CE
F71
F66
F56
FD6
F5A
FA6
001
024
F06
FA3
FDF
F1B
096
009
100
0CF
037
087
F4E
F7C
FCF
067
FE1
F9E
FA5
005
F19
00B
0F2
F39
FF9
F90
080
070
FBA
019
F1B
F85
FF6
F35
06C
F58
0B8
FCA
F9D
0F6
FE5
F63
F61
F98
F84
F34
FC4
0EF
0E4
F29
F96
FD8
019
03A
017
FA6
0D9
054
F60
0EC
09E
F26
FA5
0BE
F59
0F8
0E4
04E
0A5
018
04D
0ED
FA3
092
F78
F08
010
F4D
0F1
0ED
042
01D
FE8
F5F
F4F
FD7
FDC
FB3
076
FF8
F62
FBB
F3E
FFE
F68
0AC
F0C
FF3
F15
01A
035
F08
F5D
F1B
FF7
0DD
FE6
F17
003
0A9
06F
FEB
F21
FA1
0E4
0CD
F72
FF2
F4E
083
F64
F59
FC1
FB7
007
FB8
0A9
FFA
FE0
F83
F8F
F14
FF2
066
0BB
FCA
FC9
01E
063
04E
0FE
FDB
0D0
F83
0E1
FF0
0D1
F25
0F8
F72
028
088
03F
093
F79
FC7
0B6
F3E
0A7
063
0DB
F95
FB5
FF3
F83
074
F4D
0B3
025
FE2
016
0EE
F05
FED
F3B
000
FD7
0C1
05F
0F8
FEF
FFB
FB5
01D
0EB
F30
F99
F8E
06A
F8C
F11
F8A
F1A
043
043
FB0
060
F32
F97
055
007
03A
F01
06B
019
F6D
F45
05C
FF8
F05
FAE
FB9
F7C
F9B
020
084
F7C
F93
F6E
0B2
0C9
0B1
0E9
F7C
0D6
FA6
099
048
019
0D8
094
F0D
0AB
004
058
F5C
F9E
00D
0C2
08C
F46
F0D
F0B
054
F5F
F04
0DE
FF1
F64
F4B
F91
0BE
F71
0A0
004
0F7
0EA
F3D
F39
0FC
0DD
0AD
01C
F12
0E8
F5A
FAA
0DF
FDC
05B
FB6
F85
F0F
F46
024
0ED
F74
F22
0BD
F06
FFE
0D2
07B
F8A
080
F2A
01E
FD5
FD3
09B
F86
F47
FFE
03A
094
FD0
F54
F3B
F05
00D
F33
F2B
039
F7B
0B7
F20
F8D
F80
FD8
000
091
FAD
FA2
FDA
FA4
0E0
FB5
0EB
027
0F6
F62
F25
FC2
F80
FF1
0AE
FF2
F28
0B8
00B
F6D
F56
06A
F10
F09
F24
F72
F3E
FCC
FC1
F51
014
0FF
0D6
FE7
F0A
FFF
F4B
03F
0B1
F0E
0B1
F10
077
FE8
F05
FB4
FF1
0AE
F23
F84
0AC
06C
FF0
00C
FBD
FE9
FA3
0A6
F93
FA2
083
04E
FD7
F44
F9D
07A
F6A
01F
042
083
F3A
FDB
F0B
03C
02D
F8A
F56
05E
015
0B4
FEC
FE5
0C1
F7D
FD2
001
F61
FC3
023
F15
0AA
F1C
FE9
0CE
008
0F9
05A
08B
FFC
050
F07
F7B
009
F37
F80
094
00D
05B
FE3
F22
FAE
FED
F2A
F52
F84
FC0
F36
F56
076
0D0
0E6
F7A
F81
03D
09C
06C
FF5
06F
04D
0EC
FD7
FD9
FCC
F88
032
FA6
011
F1D
020
085
0CE
0F0
00D
FFD
F17
FAA
FCA
0C5
F09
05C
055
05A
F50
0E6
F67
F0B
FA7
011
0C3
040
04E
0C8
FB6
0D9
0A3
0A9
0F4
FDB
FAD
FD4
029
023
F45
018
0E9
081
051
F71
0C0
F19
054
F8C
FEC
FBA
FDC
0CD
0A3
FD2
FB6
F32
074
018
052
F13
F81
F02
01D
F67
FD2
FE4
F10
FCA
017
0B5
F6F
F50
0EA
F43
F3A
F0F
01D
00A
0EB
0B2
096
067
F13
F62
0DC
067
021
F14
F03
0CD
0F5
065
FE8
0C9
F68
0F9
0D4
F33
0DB
054
05B
F01
0A7
F8F
F80
0CD
FC1
037
072
F05
047
F86
0E6
F41
0F2
047
0DC
FEC
F7B
0F1
F40
F06
FA8
03A
F02
F4B
054
0CD
F43
051
FB5
060
FA9
F58
00E
F8D
058
044
FB4
F43
FFF
036
011
062
067
F58
F33
F8D
0E8
093
036
0BD
017
07E
070
060
0E1
07B
0F5
F56
032
FD4
00F
FDF
0C6
F2E
F39
F10
042
FB4
FCD
0D6
0DE
F98
F12
FB1
0D8
F46
05E
F57
080
042
064
F63
001
F31
FBB
F79
F11
0A4
F4D
0CA
0DC
FC9
087
029
070
F95
008
089
FF4
0BB
FB1
FB0
041
FD0
F84
0E1
F3F
F5F
06D
FAE
F70
F9B
FF5
F78
005
0F6
F60
0B9
002
FB5
043
030
036
053
F0D
097
FA1
FAB
0C3
F72
00D
0A2
005
05A
0EC
0E9
F45
057
064
F2D
087
FBC
F6E
F63
F21
0F6
F9B
077
F28
0C9
FCD
F14
FD2
08A
FF3
083
F70
07C
F2D
FF0
007
065
0A8
FB0
0BA
0EA
F27
FE9
FE7
0C9
0FF
FE3
0DA
FFA
0F7
F9A
F79
090
0FD
03E
0A7
0D1
F43
FAC
FDB
FD0
F77
0FB
00B
F29
0E3
077
F49
F50
034
FFF
09B
0B2
013
019
F00
036
F17
F6C
F12
0F2
F48
F23
0E2
0E3
F96
0EB
FD6
048
FEB
068
FB4
FF2
FE2
00B
066
0EE
047
07E
F2B
0C3
F44
090
F8F
0FA
09D
F2E
F8D
F6D
025
0A6
03C
01A
F06
FEA
01E
FE6
08C
F54
F27
0AC
FB0
FE2
0AD
F31
0DB
07B
00B
F8C
F92
FDD
0AC
00C
0C7
F0F
02D
FC4
0C9
0EA
FF9
0A9
011
057
085
F53
F6A
0A4
0EC
F4A
FCD
FCA
FA3
09E
F26
F5F
0AE
FF2
FFD
0C9
0D8
002
03D
04D
0F3
045
FDB
066
F60
08C
0B7
FF1
FC8
F8C
F68
0FF
06F
0D0
09D
0D7
0F4
0B2
098
FA0
FA4
F9F
FD8
F08
FFF
FA2
095
FE5
FAE
F78
F49
F4E
FF4
015
F6F
0E7
01B
09C
FAD
0F0
0EE
0FA
088
012
0DE
F19
0B3
065
FCB
0CC
05C
018
FDA
FAB
FF7
FBC
04E
FB8
FC9
00B
F96
09A
F21
FC0
07B
0E8
065
FB5
0FE
00C
F1C
FDD
09D
06B
04F
FB5
06B
00B
07F
041
0A2
FD8
F19
09B
0BF
F81
F81
0FC
046
FCA
F68
F86
F3D
FC7
F33
07A
0CE
F7C
0CC
0F8
FAF
F5B
F33
0FD
0F4
0BE
FEB
078
F9C
F16
F28
0D9
0DF
FEB
FDF
0A9
016
F05
F63
04B
FC0
F9E
FAC
0A9
0C4
FF3
0A7
051
082
F93
F64
0AC
F4E
0C7
0FD
F75
F71
06B
054
0B5
013
FE9
F21
FB5
F34
F41
05D
073
FB8
F22
01F
FD1
F6D
0FC
F47
FDF
FD5
F48
F99
029
F03
F0D
0FA
F9A
FD1
F3F
009
F07
0E0
0D3
0B1
F87
0C4
0A1
F37
07C
F46
F42
018
0FC
0E6
0C2
03A
F79
00B
0E7
F12
FEE
FFE
F4B
0F9
F67
050
F2E
0BB
F43
00F
008
F3F
F95
048
00B
F65
03D
03E
F0B
074
0F1
F42
0FB
061
01B
017
05F
F4B
F89
056
0E3
F64
077
083
F6A
06F
066
F1A
0B4
0D9
F04
0D1
060
0DF
FAC
F97
010
004
F2D
F5B
F69
FAA
008
066
F78
0CE
F45
F20
01B
057
F49
008
F55
033
FA7
FDB
013
021
025
071
F8D
F0E
004
01F
05D
FEC
0FA
087
088
F88
050
0DB
0E5
F7F
09D
083
04F
0B2
0F9
015
0DD
064
F1D
FA4
F00
F19
082
01A
F9D
081
FB8
02B
FB3
F40
0B4
094
FA4
F83
09F
F85
F18
FCF
0F2
031
F34
0AF
FAA
F32
0F6
00F
FCA
FE5
FE6
F68
F0A
F6A
FFE
066
FEF
0B9
FA6
F97
F56
05A
F2B
F0C
FAC
FCF
043
07F
FEE
08B
01F
F9C
0DC
0C1
076
052
FFA
036
FE0
FE0
0B1
F6A
0AC
0D7
0CA
F02
F93
F85
053
F6D
0B5
F05
07C
F8A
F9A
07A
F35
F79
0D9
FD4
F17
F74
FCF
F07
02E
0E1
FE9
0D1
0F7
F5B
087
FA2
FE0
F12
05D
F01
059
0CF
0C1
060
0E4
F09
F36
0E3
F6D
03F
014
0D6
FA1
0D2
08D
02E
029
F2E
F4D
089
0B0
FAD
F95
FE4
0E4
F12
F86
03E
FDB
051
FC4
F3D
FE3
064
F99
F6F
FE3
F42
0C1
F2E
0DD
016
FDC
0E4
F25
0C8
0A0
0C4
F3A
0DA
043
0B6
0C8
0B1
FFA
F3F
068
F86
F84
069
F5D
F15
F6E
061
093
FE8
F2A
022
068
098
07A
FAA
F7C
08C
F52
0CD
F0B
F03
0E6
062
098
F27
074
F42
F2D
F74
F72
F2C
F96
036
0F4
0A8
0BF
0D6
014
FA2
F30
006
03C
019
07B
F6D
F7C
0F1
08A
FDA
08C
FFD
0AC
F1B
0C8
F50
F45
03A
0F9
F4D
F03
009
0B7
F89
063
0A8
034
0A3
FEB
0D2
04B
FEE
F9E
F36
0C5
F08
04E
F50
FB1
F49
0EB
066
F39
F5A
0D2
F7D
FBC
F77
F43
F3B
F66
F4B
035
036
F52
0F7
073
F30
028
F4B
FEB
0DC
FE1
030
00C
F59
01A
F0D
036
F78
050
F0F
01A
09B
FFA
FB1
F40
00B
F2A
071
0DF
07D
FB0
04B
04A
084
0B5
FCF
FE1
0DE
0A0
F34
0A3
FCB
FBD
0CB
06B
F4F
027
FD7
078
035
0D0
F5C
063
052
0C9
080
03A
FDD
F34
FC2
061
042
F57
0AB
F8C
FEA
066
0FB
F26
FB4
F90
F00
0E8
053
0E3
014
FFC
F0B
076
0C3
0E6
FF2
0B5
F9C
FDF
083
0C4
071
F91
0B6
07B
F20
046
F4E
F75
0D4
09D
072
FDF
0D5
FC8
0C7
F31
F17
F69
068
F7A
F5B
043
0A9
F73
F7E
0FB
026
F1C
01E
FC2
002
FFE
0B3
00B
F45
054
F29
FA6
02D
06A
F5F
F71
062
FD2
0BE
0F5
FFF
F32
FB6
F14
F9B
FF6
0AD
059
F82
070
0A3
F7C
F69
F99
F7B
F42
FA7
F4B
FB6
F05
07E
0F0
004
0DC
F50
F46
0AD
0BE
0D4
0E8
0A2
0F4
08E
014
F94
03A
0EA
027
015
F1A
F45
081
FD8
0B8
00F
017
0D6
03A
FD8
FE5
048
0AA
FC1
FC5
091
F18
FCC
019
F82
02D
0E2
087
0EA
057
F12
F80
0A5
F6F
0B7
FF1
F31
08A
09C
F6A
F9E
FD9
048
F96
0A9
075
F19
03B
06D
F38
0D8
F58
FE2
04A
FAA
0E3
0AC
048
0C6
FD9
F40
013
0CE
F1A
00B
F4F
F88
09D
FFC
F24
FE4
F1D
F7C
F5F
04E
06B
06C
0D0
FC7
F76
FC8
084
FE3
F0A
00D
031
0C4
005
F2F
0B7
F5B
0F2
0C1
F1D
FDB
FAA
072
088
08A
F5D
F1D
FE1
FD3
FB1
F3F
FBC
09A
017
0B9
FBC
F22
FA0
FEF
09C
07C
0BF
F54
F10
097
0CB
012
FB9
FFD
047
F29
0DA
FB1
FA2
F60
0AD
F7B
F40
FF7
072
F91
F47
0AB
FB7
0B2
001
0EA
0A3
F00
0F2
F33
F82
083
FBC
FB4
F8C
0AA
0BE
037
0F3
F9D
F5A
FEA
F56
087
051
F9E
F38
F1C
FF5
FE6
0A8
F2F
095
FD6
05F
F87
058
F5E
085
F92
044
07E
0D9
FAB
057
F57
042
F9C
02E
0F9
FBC
F49
F11
0BF
FC5
054
FEC
0D9
FFA
05A
F35
041
0B3
00E
F64
04A
F7F
FE8
0E3
0AB
00A
02B
FAD
028
F2B
FCA
F9F
F29
F22
01A
F8F
FAA
FBC
FDB
03B
FC8
F1F
F2D
025
F42
043
03B
055
0BD
005
005
F24
010
FC9
0F6
FFE
037
042
F78
F66
FAC
028
078
F32
055
F7B
F7B
001
0A9
FAA
0B6
008
FF5
F8D
06E
08D
0B0
0AF
0DB
074
FE5
F84
F71
FA2
064
F22
000
00E
063
F0F
FD5
F9C
06C
061
F17
F1D
F82
F64
F41
056
F3D
014
F29
0C5
F85
F47
F4F
082
FB6
06F
F85
F1B
070
FD1
F48
F4D
0AF
F42
077
0C5
0F6
F96
FE3
F08
0BB
050
02E
F26
F34
FBF
F40
FB3
FF3
F8C
F72
0D6
FF8
095
03D
014
FA6
034
F0B
F5A
0B1
FD6
0DF
FFE
F03
F04
014
F84
068
F7E
F40
04C
010
06B
065
0CC
F23
081
F83
F7E
FDC
0D3
0B6
FCB
FE7
03A
FE0
F4F
0EF
066
F7B
F2A
FDF
0F7
0E7
F10
F77
F06
0DD
F15
FFD
0A3
055
0D1
FD0
084
F7F
0C9
F1D
087
061
F98
F53
FA8
F44
048
F2E
F9B
F06
F79
F42
F3F
08D
FCC
FFD
0A3
078
037
F3F
023
062
FAE
F2A
F16
03B
05A
059
FD7
0D6
0B6
08C
07D
F21
FEC
039
098
F26
FF5
F8B
0C9
049
030
FEE
018
F11
0B8
F6F
0A2
00B
F10
0DA
FA6
F35
F47
0E2
043
056
00F
F3B
F7F
011
F26
F51
060
06F
F57
F56
05D
FC3
06C
F7A
07E
056
016
FBC
FBE
F86
F78
F78
021
039
FF6
F3D
FAC
F53
082
F32
084
0B3
F6F
0E8
00A
000
08A
0C7
0A6
0F3
075
092
FD9
FDC
FAA
FFD
072
F4E
01A
07E
073
F2B
FBC
F33
F5E
F02
088
F26
0F1
FF0
FBA
03F
F46
075
F19
F86
FD8
F55
F56
0A4
FA9
0AD
FF2
078
FB7
074
08A
F38
FAF
F5C
05F
0D1
020
0DC
FCA
FA4
F25
045
F7F
00B
0AD
0F6
016
F29
FFC
F40
F97
FA4
0F3
03B
028
FD1
F79
F15
0E4
F4D
08D
077
FE3
004
F2D
FEE
F7C
F88
03F
F69
F24
F93
064
FCA
04E
0CE
076
0CC
F73
F20
F6A
08B
0B8
F26
059
01F
F3D
0C2
F2E
F6C
FA9
FA4
092
060
074
FAD
0DA
043
08B
FBF
FCE
F42
0AC
0A2
F28
074
FE7
015
022
FB5
F37
F98
FAF
0F1
0FC
016
0AD
FD0
03A
F40
0AF
0BC
F0D
FF7
FC9
0FD
0A2
FD1
0C4
0B5
FB7
045
0B0
FDD
052
F0A
023
F35
05B
FD3
F08
F78
01D
0D4
046
061
096
F6F
0ED
F9D
FE7
F67
075
0BB
FB6
FD5
0E7
059
0A5
F87
06C
F53
FED
092
0DF
03C
0B4
FF8
085
0A3
091
F85
FE9
F2C
F28
FDD
0BC
FB0
055
09B
0A7
0DF
F94
F51
0E2
061
F15
F1D
0F2
F46
F50
FD0
03B
0D7
F5D
F39
038
0DB
0D2
F4A
F11
FC8
FEC
039
0BD
0E9
FCD
F6B
F02
018
F81
02E
FFB
F01
0D9
037
09D
016
F1E
03D
F6B
02D
F3E
F02
0B0
F2F
F24
0CF
FC7
04C
F98
055
028
0EC
F3A
FEB
074
FD7
04A
F37
F51
029
F04
080
00F
016
FB8
071
0C3
FCF
F61
F01
03F
F0C
036
FBD
02F
F6C
0DA
FF1
021
02A
0F3
F62
F44
04E
F02
F47
0A7
F72
0CF
F2F
FFD
090
F7F
0C0
F60
0CB
F92
0EB
F36
F4B
028
0C2
FA6
036
FAC
064
F04
FCE
F30
FA9
040
FC2
09D
0D4
F7B
060
FAC
F1E
FCE
F8A
FC2
FD7
00A
0D9
FF7
F24
FE5
F15
FC5
07D
09D
F64
FCA
007
0C5
F9E
003
0A6
04E
05E
F17
043
F55
0C6
F1D
F3C
03E
0E5
F9D
F20
052
F47
064
085
FBD
073
F0C
F09
F64
FF3
F31
FE5
FBC
006
FD2
025
0B5
F8B
FE2
08E
FCF
F2B
F1C
04D
0C7
F0E
0B6
0D1
03F
F3E
FB4
F70
FC4
0AA
0BB
08F
0AC
0B7
FA3
FB9
03E
0A5
F9D
08B
0CA
0BE
FD0
0C2
0D8
FD1
0C2
F70
0A7
F14
F59
FF4
F38
054
0D7
03B
FF0
F9D
01A
FA5
0A7
08D
F96
0A3
FE7
0B5
098
F98
0F2
015
065
F36
043
06E
F97
086
07B
000
F39
0DC
07B
092
059
04C
F35
00A
F02
FED
0E5
FA9
FBB
011
F52
084
F81
0EF
072
079
FD5
F3B
005
F56
F46
F93
08F
F47
F47
09E
048
032
FF8
FEE
F95
FAB
00F
F25
F6B
091
F91
F9B
F03
0D4
03A
0B5
0AC
094
F44
028
F1A
F10
00B
FE8
F93
02C
06F
079
F37
FE3
004
FEE
06F
F33
0F9
F52
F6D
0AB
F74
F6D
F57
FE6
094
FB6
0E8
086
F35
FB7
0CD
FC3
011
FF4
F29
04C
0DC
F6A
F44
05B
066
04C
F36
068
FFA
0A2
