F80
FF7
FC1
FF4
F3F
EFD
F3A
FD2
0D1
FDC
F7E
0AF
F57
011
F4B
02C
F89
FB4
FF3
FE7
06D
00C
016
069
FD2
013
F5C
FA2
FDA
031
024
F33
018
F70
FAA
08B
F77
03F
05B
0EC
01A
FEC
0B8
FA8
016
F5F
FCD
0A5
015
00E
F11
FB9
FDB
FDE
FFB
F00
F54
0DB
F1E
F08
044
FD8
F36
055
FDC
F46
FD6
043
FB1
050
F2F
F09
0DC
096
091
0CF
0C5
F1E
FC4
FD5
07F
F0F
F13
0DA
F41
0F3
F86
FD3
F78
085
F5F
00D
075
0EC
F86
FA8
083
002
F97
0A2
06F
0ED
F96
FE1
01C
F8E
F8B
F06
0D0
F3F
F37
F3E
017
F90
09B
0B5
F55
09A
006
00A
0EB
FA5
038
012
FFD
04E
F8B
F4B
F4F
010
070
098
008
FE7
EFA
FD0
0D4
07C
F0F
0C2
0A2
FCC
05F
072
F5A
020
0F4
0BD
02F
0EE
0B1
0CE
F25
F5F
F5B
0DF
055
01D
0F3
FE0
FB8
03D
05D
048
02B
0C5
F0D
F2D
FE0
F34
F95
F8C
F57
F57
0C3
011
EFF
F36
F9E
F0D
02A
066
09A
F16
080
F5E
F3F
063
FE3
F32
FA5
FD2
05D
039
0C9
FA8
0E3
FD9
008
017
F9D
F80
F7D
FF4
043
066
F05
0A1
0FA
099
FDB
024
03D
F07
F67
057
06C
031
070
04E
078
05E
060
087
F7C
F96
FA8
F7F
057
F75
077
F7E
FE1
F6C
09D
F32
0B5
FD0
0AD
F12
014
FE9
FB7
0F1
0BD
FC6
F31
F25
F42
FD8
F77
F9A
0CF
F95
F67
0EF
FBF
021
FBA
080
012
FF6
046
F31
02C
00E
0D0
F1B
F9B
FB2
EFE
0CF
0C4
F8B
FE2
F99
FBB
F95
F30
F93
0F4
08E
0F8
FA5
0BC
03E
0A1
FA5
06B
FB7
FA6
0C6
009
F26
F70
FCA
01E
FC9
092
F6F
00A
FE5
095
FE9
FF3
0F5
FB8
004
F03
0AD
086
05B
0E8
FAF
FB4
024
F5E
FCB
FA7
0BB
036
FDB
09E
F60
F5D
09B
FDC
FFA
FA3
EFE
027
FE0
F8F
F5C
0B3
FEB
016
F0F
0FE
F6D
F13
035
F38
0F8
FD7
0E3
084
056
00C
0CC
FEF
0DB
0E0
FE5
FDF
0AF
015
023
FD5
08C
052
0B2
03A
F73
F20
FBD
FDB
F4A
FB9
F94
FD8
0DF
080
005
0AB
FB3
0F4
F91
078
F08
04C
F50
0F2
02C
FD9
0E0
0F0
F78
021
F09
0F4
04F
F74
09C
09B
003
07E
F53
091
FB0
040
FE9
F3D
0BE
F13
014
09B
007
FEF
F7D
F30
066
F2B
0E5
069
0B3
094
039
0A0
FE8
FF3
030
01F
042
016
0DA
091
F4F
052
FC2
FB0
061
FB8
0B1
08F
F60
060
0F9
027
0B5
04B
F5C
048
081
F88
000
09B
0BD
F2B
F8A
078
FD6
EFC
066
F19
0F4
F1C
080
0CF
05B
032
F22
094
084
FE5
0A6
085
F28
0C2
02E
047
FB7
FDB
042
0B6
F40
0C4
FC7
08C
0DC
057
F32
0DD
0BC
F6D
F40
F96
F0C
056
FF1
F93
F6F
F61
0F1
0B5
063
F0F
F03
F55
F82
F45
EFE
F6A
FE1
F5C
F9C
F1A
F1A
F07
0BE
084
FD3
FAE
FE4
086
F17
F62
FD4
048
F68
09D
F6B
FD5
0AC
F88
00E
043
0CE
0DE
F39
078
0F5
0BE
F2D
FD8
F2E
022
FCD
FFD
02F
0EC
F64
077
00B
FA1
07C
0B2
0B8
FEC
056
F11
06D
0AB
063
002
FA8
F60
064
F58
F28
FEA
FF7
F3E
069
04F
0D3
FDF
F88
01D
02E
030
012
F8E
F79
051
04A
F51
F72
08C
F5C
FA9
F20
0DE
02C
F7C
026
0A9
FB4
084
073
070
F29
0D4
060
F6E
F70
F4C
F8D
0D1
0D3
069
F96
F82
F48
FD4
F3F
FB6
0A6
0C9
0A0
07E
0EE
F0B
08B
066
04E
F00
FCB
F61
FE8
F30
F32
079
08F
07D
0B9
0C5
FC0
F0D
FAA
0A8
04D
054
0E4
F8E
0BE
0B6
058
FFA
028
0B3
F42
082
FC7
EFE
0CC
066
FE6
FE2
F6F
069
017
075
FDA
FA5
053
FA1
0C7
FBE
F2D
01B
FF9
F27
082
FD4
F2A
F19
024
0C8
F95
FCD
0BA
F78
024
FEA
032
FC7
05D
004
F4B
F7F
F95
0F4
F07
F2D
F6B
0A0
FE2
04A
08D
00C
0CC
02A
F8D
FC6
05E
F95
033
090
022
05D
EFF
0D7
F8E
EFB
060
0AB
F0A
049
F9C
030
05C
FB4
053
04E
FDF
F6B
01E
FB4
05C
FBD
FF2
04B
FA5
04B
0E8
FB6
00A
021
F27
0C0
042
035
FF1
F5D
FD0
021
0F7
FBA
0FB
F69
FE8
FF1
F36
0B9
0B4
FB9
F9E
FEA
01E
F38
01C
F32
043
061
FE6
077
074
FF7
FA7
FD9
072
FD3
F3E
F59
F6B
EFA
0E2
F42
055
FF5
0E3
000
00E
FC5
023
036
FF8
F10
F3C
0BD
017
023
0D8
00F
F87
0E4
F3C
FF9
0E5
0D2
07D
01A
F7B
05E
FCE
089
028
FAF
F98
00F
EF9
FE1
052
039
F43
073
F53
014
F78
FE8
028
FF3
FF9
0B7
0A3
FCB
F98
04C
FA4
056
F5F
FF8
0E4
F40
F43
0B7
F9E
F47
F40
037
0E0
EF9
0AD
0E0
FF1
F92
059
FA7
F75
F75
FD1
07E
F55
00E
F07
F64
FBF
0E5
FBD
088
F44
013
F17
F2D
F45
F09
FCA
0F9
071
090
0D0
090
F3F
094
03D
FF0
FDB
07B
F51
085
04B
F09
0BA
F99
EFB
065
019
FF7
084
061
FE6
0F9
048
09E
0B2
FF8
F92
F17
064
F7D
0E5
095
FDF
F7D
0D0
F84
FBD
F4E
0C2
FB4
07E
0A6
F2D
0D1
099
FF9
0E0
0B7
F1B
0E5
FFF
0A0
FDF
F28
FE1
03E
F73
F81
06A
F97
F23
FD6
FE5
0E6
0A8
F5E
F99
0B1
0E3
EFE
075
F08
08B
F0A
FF3
F42
09A
F1A
0F6
09E
FE4
095
FCC
067
0E2
072
F24
F0B
F73
F1A
0A6
F3C
FDE
070
FFC
F54
072
086
05E
03D
FD5
F8F
017
05B
FDD
09A
0BD
FAE
0CE
F7C
0A7
F91
02F
FE0
089
08A
F97
0C6
F81
09B
F5F
0EF
01E
FE8
091
FF8
F06
FDE
073
0D4
FD8
F06
F56
0CC
092
F78
F87
0F6
FC3
08D
070
054
02B
0B8
F59
F59
F7A
0C8
FAE
033
F76
037
08A
083
04A
F59
F8A
061
FDD
0F0
006
057
01E
019
0A2
FF8
F18
071
04E
F02
0D1
09E
04D
0F5
086
F16
F20
F45
F96
F74
F15
071
084
082
F20
07A
F18
F9C
F93
F5C
01D
F4D
F6D
F5B
090
FCF
F41
001
F7C
FC9
FE5
F9F
FFA
F6C
F6A
0A4
0DD
F53
033
F61
07A
01C
083
0C4
0AF
065
F5C
07F
FE2
F19
0DE
0B5
05C
FF6
0E8
088
0BF
0B4
06A
F83
0CB
FD7
F6A
07C
045
FB5
FCD
F09
F3D
09D
01D
0C9
0C0
FE8
0B6
F8B
FA4
02A
F63
0C4
FD0
F94
F1B
F21
0A0
040
F6C
0E6
09D
007
007
F8E
FD1
F18
03C
043
005
F6B
F39
0DC
0C2
F37
F14
060
F28
F90
F22
09B
F8D
F99
F26
FC2
034
FFE
051
FF9
EFD
FBD
074
FF9
F55
F3D
F3A
06C
02C
098
0E2
04B
0B9
0CF
09D
0A4
F8B
0E6
096
FB3
0B2
036
F06
FCD
012
F7F
040
FEB
FF1
012
0D1
0AD
FAD
F69
0A3
056
0E9
F6B
F65
F57
02A
038
F6B
F0F
F9D
076
F82
063
F10
096
02D
F04
003
FD5
F76
F75
0A8
FA9
08A
F6F
F29
05B
FD8
062
027
0F7
FF8
F6C
00E
08D
F40
F51
077
0C9
F17
F12
F92
0F3
FBB
0E3
0CA
0F9
0ED
0A7
006
F12
035
FF6
0CB
F3D
F9E
000
07B
05D
0FA
0A2
F6C
076
008
005
08B
F69
F48
0AA
086
03A
F68
FFC
FEC
F3D
F4A
F46
F75
041
098
FC7
FF7
03D
031
F4A
09A
0D7
0E3
F7E
0CD
F5A
0A1
077
085
0BC
F8A
0AA
FF4
0A1
083
F4B
F6B
0E1
F83
F87
F2C
023
FC9
0D4
F4E
061
093
0EE
FA6
F39
0A2
F9D
F3B
0B0
F21
0C0
06D
0CC
FC7
077
083
08F
0AE
0F7
F1A
05F
FB6
0EC
0AB
FAB
F9C
F0E
05E
F62
0D1
016
F0A
F06
060
FC7
050
F77
09F
00B
F47
F60
F86
03B
00C
049
045
F26
003
F94
00B
060
076
0C0
03B
077
09E
F04
FFF
001
F66
032
0AF
F00
F8F
005
0A5
F67
F47
048
090
04F
041
047
01B
08C
06F
FE4
F35
F3D
F50
00C
F7B
FD9
0A3
0E1
F2B
F42
F5D
0B0
FE6
F0E
F38
064
050
02C
07C
F0B
0BE
F0F
F4B
FC1
FCB
F40
053
0B0
016
0D8
0B9
096
098
F25
FA9
0F7
FD3
044
F31
001
FF2
009
FDD
FB1
F60
09B
FB1
F14
07F
FD7
0A7
FED
F58
FCA
043
02C
F1D
081
F71
00A
FE7
01C
FF1
052
F4A
048
0D3
FA8
F26
061
FC0
06B
0CB
F28
FC7
F6E
FFA
FFB
F48
063
03B
019
F5E
FDB
01C
086
FF8
066
F08
09D
083
05B
0A7
004
FB5
F75
097
0D3
FC8
F5A
0BC
F06
FA0
03A
04F
F30
FF4
FA8
FC8
FD6
073
00D
0AF
FC6
F24
0F5
095
F14
F8D
0DC
F93
F06
FCC
F40
F72
056
F8C
024
FC1
06E
012
F97
F3B
0CB
00F
02A
02C
052
067
F9F
F3C
0B3
FAD
F29
FA6
01C
061
0BE
FF2
0F2
F15
F5D
079
08C
0BB
FC9
F68
053
0DA
04F
074
FD4
074
F3C
FC0
0A4
F91
010
054
0BC
08F
0A7
032
F3D
06F
03B
009
01D
036
062
FFE
024
F8B
0D6
061
F1F
FCF
F0F
030
054
F2D
F84
F82
F54
0E2
F27
F82
04D
F0F
063
FAD
039
F6E
F5C
038
0EA
F11
043
FCE
F10
F18
FBF
F2A
F85
032
0D6
F7A
FBA
0C4
010
083
0D9
0EE
049
00C
0F4
FCE
061
0D4
F0A
FA9
0CA
079
F39
FED
0EB
F95
0D0
F15
09B
FC9
027
0B0
FB9
095
03A
00A
FE4
F1C
F2C
090
034
059
0B5
043
014
020
06A
F51
F9E
FF9
F5A
079
FA0
08A
0F8
F87
089
0C6
08C
05B
00D
FB1
094
0AF
F5A
02F
09C
FDF
F82
095
F05
F13
F79
F4F
FFE
F43
F54
00C
F73
025
FD4
EFE
06D
F0E
F95
012
0CB
FB3
F2B
F30
004
0B0
F2D
F62
079
0A5
0F0
F75
0B4
F53
0F3
06D
00D
0DB
087
059
00E
00B
08B
F21
FF2
038
F7F
098
08A
075
05D
F4D
09D
0DB
FEB
003
FA4
FB3
F60
FBD
FFD
0B3
FEC
F08
FAE
FAB
F50
F55
FB7
FD1
0A2
07C
07B
FE3
FE3
FBC
F1B
0AD
077
068
F19
094
FAE
067
F2A
089
F16
FB8
0D7
057
025
F03
F49
03D
0DF
FBD
FB7
033
FA6
0C4
FE3
F08
F07
F9A
05E
F1E
067
0A0
0B2
027
FA5
F79
05E
06C
FD3
0BD
F3D
050
F3D
FD8
F05
0F8
FE0
F5C
FF9
022
F5C
EFD
F0D
045
F23
0F4
FEE
F71
050
0AB
0EC
019
0EC
F53
08B
FB6
083
F2D
F99
F6E
FE6
FD2
F97
04E
0E7
05B
0B0
FC7
020
F59
F67
0AD
0E0
02B
F60
FA4
067
F5E
F90
F48
067
F35
0B2
053
0A4
081
FEF
F44
065
0B7
00A
0D3
062
F88
06E
F4E
051
F2D
0F4
01A
065
F2B
F48
00B
FEB
FB4
069
054
EFA
FC5
FEC
FFB
FAD
FB9
F72
FC6
F4A
0BA
F3B
F72
050
0AD
07B
FF3
039
FAF
F21
F4E
0EE
F87
F60
079
F0D
0C1
075
FF3
FAA
08D
0C3
015
00C
056
0F3
016
0BD
FA0
043
F58
00B
F94
01B
F4B
F82
0A8
FBD
087
095
F48
04F
F0A
FCB
F73
027
05A
F9B
0E5
F47
F31
F0F
03E
035
06D
F10
F25
FE1
FC6
F01
046
F3D
081
0E9
046
030
023
FD0
03B
08A
0B9
022
00B
FF1
055
09A
F2A
F96
0FB
F84
F0A
FC1
01A
06D
F31
00D
03F
FCA
01F
05D
F9B
0E6
0ED
08E
FAB
0B9
FD4
0B3
F6F
F99
F26
082
071
03D
F6C
037
FB8
F02
FB1
015
F07
FA5
05F
F2D
F5F
F1B
FA7
F0E
0DF
FF0
0D4
0A5
F2A
0B4
0EC
015
09B
057
FA7
FFE
0B2
080
F0E
031
F35
0EE
0E3
079
08A
F2F
FC2
FDC
0E4
082
085
02D
0BD
033
002
F2C
07F
0F8
0DD
F9A
033
F9C
F4A
0D4
0D3
0CC
F18
0AD
035
0AD
04E
F54
FA8
FCB
011
F40
FCB
02A
085
F72
FCF
08A
F55
F73
0C4
0C2
0AE
F42
0FC
09F
03F
0E7
016
0C6
028
023
0B2
FB9
098
F68
FBD
FF5
0B5
0B1
0BF
F9B
0AF
FD3
05F
034
0C3
0B2
FD0
02A
F09
FAE
F24
05D
FE6
0D3
F0D
F79
055
018
F23
05D
027
06B
00C
016
F64
F2E
09C
F50
089
0B2
FB9
F27
FC3
061
09A
049
024
0A7
0FC
001
F0D
06B
F5E
F53
07A
022
040
0BE
0BB
FCE
03D
07F
F3E
007
0E8
016
F5D
F60
007
004
019
03B
F49
0C5
084
F13
039
F20
F61
08D
049
06A
0DC
F60
F4F
F5D
06D
F03
0A1
F26
05C
FE2
054
0BB
F97
F8C
09B
02C
FA2
F23
F84
F3A
F7E
0B7
F1E
03E
F4E
0F3
F21
04E
F7D
FE1
F47
034
FBE
01F
0A9
F2A
F9E
FBE
F4C
0ED
FAF
F24
F80
086
F36
F97
055
F2B
FF5
067
F63
07A
051
FDF
F3A
F36
F44
01C
025
0A6
097
FB2
F30
F39
F81
0EA
056
0BA
F87
0D5
F75
FCA
010
0D0
003
FF6
0B6
F94
0B6
018
F34
F3F
0B7
FC8
FEE
F42
F7D
0CF
FC9
0C8
FD2
0A2
FE2
FD3
F8E
FE9
047
FDA
003
094
F21
FCD
050
004
F7B
F44
F96
FC4
F06
0C3
F47
F3D
0B3
F28
FD8
FB6
F09
F4F
001
F7D
F98
FAA
F8F
033
01B
0DF
093
F90
FF9
0A9
074
F26
FD9
00D
F48
0F6
0A2
0F0
F32
F02
0E9
F26
074
FA4
0BB
F0B
01D
F6E
016
EFD
078
006
0ED
006
FF4
F85
039
09B
EFD
07B
032
F61
02C
0D8
F96
0DF
036
EFD
F35
F2C
F2A
0AF
FC5
F35
F0D
002
F83
F1C
FB4
F6A
084
F9D
062
F2B
F94
FBB
F6E
01D
FFA
F03
FF3
031
F51
FBD
01F
F96
0D3
F3C
0D1
0A7
0A8
F63
FE1
FD1
F68
F75
F43
F85
F47
0F8
078
FDA
0CF
0EC
030
052
023
EFD
F58
F91
000
040
F44
069
0C8
085
08C
F33
054
F29
F9C
F96
FC6
F48
0E7
007
FA8
FD1
0B1
F65
F4D
F38
FF8
F4C
F1B
0ED
045
0AA
FCE
033
F61
F30
F7D
013
F69
0A5
011
0A1
FAE
FD3
F3D
0AB
F0F
057
08A
02F
033
041
F95
FD3
027
FDA
F01
056
F85
FB1
048
04F
F09
F0C
F6E
F03
043
05C
029
F26
F6F
FF7
0B1
F6F
021
0FB
F9A
0E9
FB2
06A
0EC
06B
FE4
FEE
082
00C
088
092
FF7
F09
F07
F9D
F43
0A6
F9C
09A
FA7
081
F80
0F7
F06
FD9
0DA
0BE
0A7
0CE
033
F33
00B
0E0
F90
FCD
012
F54
01D
04F
020
FB2
FDE
0A4
FAD
05D
F17
F1C
F87
0C0
01F
096
080
092
08C
0F7
067
018
F61
FC3
03B
0BB
F05
0A1
010
F79
0D7
FDA
045
093
F64
00D
0D9
F8D
F1F
F95
F84
08A
F03
0EA
F35
FE3
F01
F90
F1F
060
FA8
FEC
052
004
0F9
002
086
0E8
0FD
020
F89
035
FF7
F63
F66
F66
011
0A6
075
FEE
0B5
0CA
017
F48
F4C
00F
F62
F52
072
F5C
F1E
FD1
05E
033
0F3
F72
F79
F2A
087
FD6
0D6
F55
F19
F2B
FE2
F5C
048
FE0
FEF
097
F56
F51
01F
0A4
06B
0DD
0DF
F5B
FAD
027
082
F38
0A1
008
FA3
F4C
0DD
FDE
097
FE4
0AE
F15
F79
0B1
059
FAA
FD1
F24
011
0E4
F68
FC7
F4B
049
094
073
F43
06A
033
0A1
0F9
F53
0C8
F5C
F8F
F25
070
FB8
F55
0F2
FCF
F5A
F3E
F08
FCB
F9B
0BB
0A0
043
F0A
09C
F01
F2C
051
090
F60
017
0CD
0D7
076
0CB
0D7
06E
003
FC2
096
019
078
095
FC2
FD3
09B
FBE
F1A
F77
FD1
045
F9D
F2C
F0F
F05
F62
F2B
F27
009
F53
FBF
FFE
F15
06E
F27
F3D
0AC
0B2
008
F54
0A4
0A7
085
FCE
F97
FC4
F6A
09C
071
0F2
FD2
F6D
F90
0B0
004
F5D
F61
06C
043
08E
039
079
FB3
FB4
0E1
037
F47
F47
077
F21
043
EFF
05C
F99
F21
F3A
F2B
03E
099
0C2
FEB
F65
07A
076
F45
FE3
EFF
0F7
F63
03A
08D
0CE
049
F60
02A
FD1
F70
012
FDD
039
07E
086
0D6
FD0
F86
F2A
FE4
F46
F87
F3C
095
F80
F01
07D
F30
03A
01B
FBA
F25
0E6
041
0F2
093
0E8
F0F
086
0B3
075
F16
093
FD8
F8C
F25
0AB
010
0C0
0B3
F68
034
069
081
FAB
0EE
F52
004
F50
0B8
027
FA5
F5A
076
06D
F37
FBF
F96
087
039
002
FBD
01D
0A5
0EC
FA0
FAB
074
F8A
0E8
F67
0D2
0AE
F5E
FB0
F52
0E1
009
F29
F8E
F53
F15
0A9
0F5
FE9
F9C
F3B
F8B
082
F3C
F4B
F14
0EC
0FB
0E0
F63
F7C
F25
05A
F17
027
06C
F6A
F38
FF8
F0A
F15
F1C
0CF
F3D
08F
FC7
F9F
038
064
F5A
0DC
F25
F75
0A4
046
06C
0C3
0F0
F12
0A7
016
FCF
0EF
F02
038
066
04B
099
F3E
05D
007
0D0
FB8
F00
012
F05
0CA
02B
072
00F
091
F85
FB7
F85
F5E
0EA
FFA
0A6
FB1
F58
FC3
059
F10
FD1
063
061
09F
0DF
01A
063
FC8
F27
FEB
0D0
02B
02F
FFF
FAD
F8A
028
FF8
008
0F2
0B0
FFA
F81
0BB
01D
07D
F67
002
00D
088
09D
F2C
012
F2B
04B
F61
068
FC8
04A
F1A
FC7
FE3
0C9
F2D
F9F
025
0E6
FCD
057
FF8
FFF
F1D
F7F
0EE
FDC
F84
F53
0C3
026
F0A
0CC
F56
0F3
F8A
0B8
FCD
FD6
09F
F96
08F
FA4
00D
08B
FE9
F69
0D9
F48
0E2
0C6
057
F87
F33
FDC
08A
F04
F98
09F
005
FED
07A
0DA
0A8
00F
0DD
0DE
027
F3D
F9D
F3F
044
F17
03A
0A9
F45
FD9
F7E
01B
0A2
04B
09F
F11
011
F73
0F1
FBE
FBC
F5F
011
F74
F21
0B7
07A
FC3
FDF
F29
0D3
058
08A
FD0
FC8
FF5
F12
0AB
01B
F3D
F76
0F2
0F3
FB9
F04
FF5
0F1
F3F
04A
0BB
01D
027
0C2
FB2
0DE
F85
FB8
F8C
0F2
069
0E4
03A
06E
FC9
066
0F6
046
00B
091
052
04C
F2E
088
FA4
FE4
063
F2C
041
046
FF3
0D1
0A3
F8B
054
FB3
FAA
0D1
F0D
08F
F3C
F15
FFD
FD7
093
0B3
0D8
FFB
FBD
FD6
FCA
00C
FBB
072
F3C
F6C
04E
022
F38
0C2
07D
FC1
03A
091
04C
F01
FBF
047
02A
0F5
F10
F12
F34
0FC
0CA
F5E
044
077
0EC
0F5
0D9
FC1
F28
0BF
012
FDC
F76
EFC
099
0E2
025
F53
FAE
007
FB1
F5A
FEE
F59
F81
F71
088
F14
FBA
089
F8E
031
0F6
F13
028
074
F3E
FED
FC9
06D
FDA
03A
0EA
02D
012
0B5
018
F3F
0DF
F4F
F6A
FCC
F5A
F44
F39
FE3
F15
0CC
03E
FCC
056
FB4
0F7
FE1
F3B
05B
05E
F8A
FAA
08C
F4C
02B
FEC
06E
FFA
0D0
F65
F25
F4B
FDA
0C6
F4A
03B
078
00F
00A
04E
075
049
0A8
FC9
099
F39
FF9
EFE
F5A
F61
F1A
000
04D
022
0DC
FAB
F76
0AA
F3B
07E
006
F97
0C0
FFE
FDC
021
F5A
F91
091
F30
FC7
FD5
064
FB5
F2B
099
F76
F52
054
01E
0A8
085
F2E
F9B
074
048
063
F38
04A
0AB
F28
08F
FFD
FE4
FB2
FCD
01D
FD0
F94
F33
FD2
F78
082
022
09C
098
067
FAA
F9F
EFD
0F2
0B3
051
FAB
043
FC3
F60
F08
F3C
FEF
F15
098
093
0A4
F12
F1B
F72
02C
0DA
F7C
0D4
098
FD9
F2C
F95
F6D
02C
F9F
FD0
0E5
F9D
FC2
F31
F6D
F06
FAA
01A
053
033
04B
038
FE2
0CF
F35
F43
FD1
0A1
0C2
008
0C6
F2A
FE9
F99
F66
026
00B
FFB
0DF
01D
FE8
0D3
F98
0A5
0BD
F69
038
088
F03
091
FF2
FE8
0B7
F3C
FA4
02F
F17
F61
FAF
0BD
014
0CB
02A
FBE
0D9
09A
FA8
01C
F3D
FCA
F87
FEC
FD6
06E
F08
0B4
0C8
F46
0DD
0A7
FA1
F36
012
05A
012
F04
FD9
F24
09B
0AC
FF3
03C
F6A
034
083
F31
0F7
075
FE1
060
0BB
072
F4E
F58
FDD
F0B
0E6
F8F
095
F2C
056
0BD
F8B
012
0B7
017
F85
098
002
FBA
F63
091
0BE
08D
FC2
FC1
F2E
0B8
FF2
068
FE0
0A3
F73
00F
FB6
07E
0ED
018
0DA
0EE
004
0ED
064
005
07C
F96
FC9
F2B
023
0C5
09D
FF5
079
0A4
0D9
FED
00F
0E1
F8A
0CA
058
F58
F61
F4D
FB1
05B
F0A
08E
06E
0FB
0A7
FAA
F3C
018
059
FD6
F23
FFF
065
0F6
F0B
0AE
F26
F9F
F73
004
0AD
0D4
FDB
F37
FBB
0B0
03B
FF2
072
F26
F6B
0C3
0DB
FC3
FBB
0D0
F22
019
0DC
FC0
0A8
0D1
04F
0C7
04E
FE4
F0B
F86
FA0
F64
02E
FAD
055
084
06B
065
F40
FFF
FFD
FAD
0DD
06E
050
024
F56
048
FAC
022
093
055
F1A
05A
023
FD9
021
F3D
083
019
0F4
081
0C8
FFD
F2E
062
0FB
FCC
07E
099
FD4
F50
F7B
FD9
08E
F10
FB8
0DD
FED
06F
F9D
0F9
02E
FB3
FE8
F47
FE5
0EF
0A4
F2C
F80
F97
005
0C3
FB9
F42
FB8
097
05B
F41
04A
0A9
FD3
F61
0FC
00E
F11
03D
FB2
0D7
045
0E9
F56
F3F
060
FA5
F0B
F61
034
020
FB3
F01
F5C
F98
0AF
017
F77
0D2
08D
0BC
F49
071
F73
F1C
FD1
078
0D1
F36
F08
014
F5F
098
F64
08B
0A7
0F0
067
0FD
F59
040
047
03D
FEB
077
FBE
0A1
F0A
0FC
F3C
09B
FDE
F6F
FB1
F43
F54
037
FB0
F03
F68
F08
013
F9C
FD8
FE6
09A
F4D
084
0A9
F59
04A
089
0FB
F00
0C8
03A
F1C
F00
F03
0AC
0CF
073
080
F83
F51
F9B
094
F4F
F18
F77
F8F
F00
F21
0C4
F78
FAD
FB4
F69
048
0BD
F73
0CA
FA5
005
07E
052
F58
08B
043
F5A
04A
F06
045
F33
F1F
F4E
F32
0F2
0A6
F7B
F85
FFD
0E6
FA5
081
F4C
FA9
FDB
01E
FC5
F0B
F54
F36
04E
FFC
FB4
F36
09F
FCD
024
FE1
04A
0BC
F7F
0B8
FF5
06F
FE2
F5A
062
069
004
067
0CD
F4A
FE9
029
F53
FF9
033
0A0
FF0
F33
06E
081
0EC
065
0E8
FAC
0AD
FFC
07E
F44
F8E
F5E
F08
06A
F13
FE6
F3A
0C9
0DD
04F
053
FE9
F42
F8F
07B
FD0
F9E
FF0
F6E
07A
097
F77
F52
0BF
F13
FA9
0B1
0A2
F2A
08A
0CB
FF7
0B4
02F
0B3
FAE
042
03F
FD9
05D
FC5
06E
0C6
FDE
054
FA3
03E
F9B
0D3
F40
FAE
F0C
055
FCF
07A
0FE
0CC
F69
FD0
F01
FE5
F2C
0AA
0F6
FCA
F47
F3A
F74
F55
054
F70
FEB
09F
0E7
F43
00F
0A8
046
F8F
0C6
F93
0B0
FA4
0A5
06D
FBB
028
0F3
F4B
0F7
09A
FDD
017
028
F7E
F6C
FC1
0D0
F97
024
FD1
F53
078
047
08E
00B
022
058
F9C
031
0C0
F0A
01D
FAB
F7F
09F
0E1
090
0B4
FFA
FF6
F50
0EA
0EC
FE5
067
FF1
0D8
F0B
FEB
F34
0F0
088
F0D
FDB
FD6
FB4
070
087
F06
FDC
F23
F0A
001
034
F3F
027
F60
027
08D
0F9
092
094
F81
06A
FCE
EFE
F54
0E9
084
F91
0FC
F6B
0D8
F12
FA7
FAE
0E5
FE8
F62
FB1
FB4
F80
024
F84
096
F8C
FCF
FBB
046
0EE
076
F4E
FFA
F74
063
052
FFB
0E7
080
FD8
F7C
F14
FC4
F7B
012
0DB
057
F20
FB0
0C6
F40
018
022
039
F09
0C1
02B
FFE
F5B
045
0F3
F35
FF3
F84
F10
01E
0F0
F75
F5A
068
007
F2D
0A8
F54
F39
F81
F44
056
F3A
F12
0C4
F50
0B2
022
F31
021
0C9
F71
FD5
078
F2D
F5C
06D
F9E
F43
F2F
01F
03B
FDA
FBD
F4C
029
F23
0ED
F40
070
07F
F40
096
FF8
09B
F64
FB4
F99
F72
0BD
03D
049
F93
F7D
F7F
079
F9E
0ED
008
05D
083
FE4
FEA
F12
044
F38
FFA
00C
010
FED
F22
0BC
F63
06B
0E5
07E
0C5
0DF
FC2
066
FB5
04E
067
FA6
F69
099
049
0CE
FAF
006
FC2
FDB
F17
040
F85
F9C
FD8
FA3
00A
056
0E5
01A
05F
FE9
034
F8C
F56
F2C
F05
FC7
F76
00E
064
0CC
FDA
F4A
0B3
042
FE7
F06
087
F79
F0C
07D
FDC
0D4
F10
FE6
04B
F68
09D
F2F
0DF
03E
04F
F29
F83
092
0A5
063
0D0
FDD
099
FD5
F20
F35
056
FAC
