F67
FD8
F59
F5D
F18
0D3
00D
EFA
0D6
FA4
F9E
F3F
022
0E0
FB2
F1F
FE9
0B6
F68
0E0
F63
FD9
F46
F04
099
070
040
0EC
F96
033
0F5
070
F66
0D5
F89
0C7
058
0D3
071
F7E
083
0DC
093
F50
062
FFA
07A
EEC
FB1
F42
FAE
FFE
F76
F3D
FFE
F35
015
FB7
F3F
F8A
021
F5F
F83
055
FE1
02C
F26
EFB
FA5
F15
005
083
068
0C3
015
0C5
088
F8D
0C3
0AE
FCC
FF8
FC7
F6D
F43
0AF
045
062
089
FC2
FE6
030
0E6
0E8
F18
0F3
047
0A5
FA8
FF6
F03
F6F
0CF
F31
027
FF5
F94
0D1
0E7
081
079
063
04F
0C4
05C
F39
0D8
044
0A8
0E2
0E5
002
079
FD6
03F
F89
FAB
EF1
EE2
FD5
F2E
FF1
0E8
04D
FE1
FD9
072
0D4
04A
FD4
F55
09A
01F
051
0C6
04E
0D1
FB4
06E
FD1
052
FAE
038
FA8
F36
FC9
F6E
0ED
F19
0A0
F1A
F90
043
0B7
FC6
FC1
0A5
FAC
F9B
06F
03D
F77
F1C
04A
FEF
074
0E5
F75
0A3
F6A
F98
01A
F0C
F03
0DD
EF7
083
054
F81
0E3
0A3
04E
FFE
FDF
041
082
FCD
F5A
F16
FC3
063
F0C
0B3
01C
043
008
EF2
0BD
F46
F78
FAD
FE9
0D8
02D
03C
07B
048
F3F
0D3
F11
0A1
0F4
042
F6F
0F1
03D
FB6
097
F72
F2C
F98
0D9
FBB
007
018
F4D
F2F
F12
01C
F06
F72
095
F4B
054
FF5
086
0AB
0B2
FE0
FEF
F03
08E
0C2
004
F83
059
F9A
FD2
0A8
075
086
0BC
0C7
044
07E
045
08A
FE6
061
07A
FDF
0D0
F76
F47
0B4
030
072
F11
012
FC6
089
F99
030
F83
00A
086
09A
F2F
096
F44
093
0BA
F90
04D
F18
066
F16
09F
F8E
05C
0B0
097
F2D
0C4
FD0
0E1
F0B
058
004
0C4
05E
0D6
F04
044
0CE
F0D
F25
F13
F87
F8F
0C3
096
F66
F0A
084
FEB
F80
FCB
F2F
012
EFC
F3C
FFE
EFD
EFA
0CA
0E6
051
F70
FB7
F3E
000
EFF
091
FB4
0A2
FEF
0F5
FC7
F8D
F56
071
F3A
F8F
FE1
060
FB8
F8F
FC5
F7C
F56
F40
04C
0A1
F37
FAE
F05
033
F53
0E0
093
FE8
FE8
FC3
EF1
F98
EFD
F52
F92
0BB
0CB
0B4
FE4
F5C
F2E
F39
013
0D7
065
F53
FFE
F5C
02B
0AD
FA6
F79
0DC
F4B
052
F87
FC0
F73
F8B
023
095
F04
022
041
025
F56
0D1
0F2
F19
F88
04C
F27
F52
FEF
0E1
03D
0AE
049
FB7
FFA
076
0E8
0EB
F29
0E6
0FD
070
0C4
0C0
081
054
09B
F24
087
04F
034
0B8
F79
079
F87
077
F67
F93
03F
063
FB1
09A
012
FED
F9D
EF3
EF7
003
04D
08B
FF8
F41
F5A
016
F7A
F88
F65
084
F5C
F5E
FEE
02D
056
0AD
0CD
F9D
01F
F7F
FE9
0C5
FF3
0CE
FDE
03A
F84
F90
09D
FC2
068
FED
F64
0CA
F4C
FEA
FC8
F89
03A
01E
F2F
0A0
06C
01E
07F
F31
F49
07F
086
FE3
0A7
0CE
0E7
FC4
FAF
FA5
036
009
FBE
FF8
0CA
006
FEF
01F
F53
09D
F30
036
0E7
FF3
FB7
F93
FCD
0B0
F56
0A1
F71
F81
FD2
06B
FA1
FFC
FC6
039
0D0
FB3
034
0EC
062
0C6
0AC
FC6
F07
EFF
F7B
FB9
00D
FF4
08A
0A7
F53
018
0BB
FB6
FFF
F27
FA3
08B
061
096
0BE
F7C
051
0C1
0D6
F3B
012
F8D
058
0BF
042
F8A
0E0
00C
FAE
078
F2C
FDA
EF2
017
F85
F1A
0C7
F5C
0B9
082
FAC
060
0A4
FEE
F60
F9E
08A
FB1
FF6
F07
0ED
FE8
095
FBC
02A
F43
FFE
F98
F4A
F51
033
FB8
082
037
F3C
0C6
10E
039
F88
043
FE4
060
005
FF3
077
F72
04F
FAF
FE8
0DC
07C
0D7
F09
09F
F34
F6D
FEF
06F
0B7
0CA
F55
005
F2B
F53
FC2
FE0
F1C
FB0
0A4
041
0EC
00C
F6D
0E8
087
04F
F6C
0A2
F92
0D3
FD1
F3F
F91
054
05E
FB8
FAA
FD5
0DA
007
0B7
FE7
09D
024
06C
0D2
076
0D5
F07
052
FA3
F70
FE1
FA6
F6A
0A8
00A
01B
0B6
0A3
05A
FB5
025
FB7
FA2
0CA
F78
066
091
F60
EFE
FF1
045
02C
FF4
07F
0AA
FEA
050
0BB
0C6
F27
045
0A3
0A8
F55
F33
FFD
FA5
078
09F
F08
FF0
F06
054
F69
FC0
FE4
0B4
010
0A3
FBE
0C0
084
F52
F04
0F1
FF8
06B
08C
004
068
0A1
070
001
0A3
F54
F31
038
FB4
F4C
F9E
F05
F2B
F16
026
FC4
F67
FAC
FF7
015
F1B
FB3
09E
F9B
F69
00C
FC3
06C
095
0F3
02D
FCA
0AC
010
FAC
08E
091
F68
085
09F
F9E
046
080
F25
0A9
046
091
021
FC7
F10
F16
F7C
059
0D1
005
008
F1B
F38
0DE
008
095
0C9
F4A
0D2
00C
0B6
006
FF3
0A5
F3B
0B9
FF0
F4F
009
099
FE6
0D8
0AC
09B
FC9
FF9
FB3
0BE
02F
F4F
06F
F82
04E
007
04C
F6E
041
F2C
FAD
FA6
007
F08
FB7
F59
FF7
0FD
043
003
003
F40
0EC
FAE
087
FF0
008
F52
FF3
FA6
0C7
FFD
0E9
0B5
0DE
08B
FF0
FD5
F48
0BC
F50
00D
077
08A
F7A
F91
FA5
F30
FEA
00B
097
F9B
FAC
FDE
F68
027
009
F87
0A1
08F
093
FFD
F46
025
0BE
F26
FDB
F1D
F81
F24
F8D
09D
FA4
F39
FDD
0A0
038
0D3
FE7
09C
0B1
0A2
0BB
F0B
0D2
0AD
064
FAA
FFC
078
FC5
F54
010
F36
F65
016
0F1
EFB
04B
0AD
F7B
F38
08B
008
010
F25
F36
05F
EFD
036
031
F6B
001
08B
FEF
F25
FB6
F52
03A
F07
FD3
FF0
F05
F89
FA7
050
F9D
FD5
00B
F66
080
FDF
F57
01E
F53
064
03E
F72
FF5
0E1
F93
F7A
041
FE5
0C6
0C0
09E
F9C
065
FCB
F8B
F34
0ED
0C1
F04
0C4
014
02E
FC3
FDB
097
04B
F6B
061
F6B
076
F43
FB1
F87
0C4
028
0AD
F82
F59
FB5
01D
F42
0ED
031
053
0BD
0B0
0C5
099
085
015
0BB
F76
FF8
042
046
FF7
027
FCA
0DC
FA8
06A
0D3
00E
002
012
FDC
F06
054
F0D
040
F74
F33
06E
F77
010
01D
013
03B
0BB
0CA
014
026
0FE
07D
F19
0DC
F8C
EFD
F91
EF5
F8E
000
09B
081
FFF
FE0
0D9
F89
F9C
F3C
099
0CC
F48
FDC
FBA
F14
0E7
0D3
F4E
F15
012
F71
053
F0F
FA1
FBB
FC6
0CA
074
F15
F91
FF4
098
059
FC2
FBC
036
043
0B8
FEB
0B6
04C
002
F58
07E
05A
FC9
01A
058
F5D
04F
0D4
013
F84
0F5
F7F
F55
0F4
FB6
01D
F53
020
F93
0D8
017
044
F8F
FC8
F09
F52
FD8
F5B
FAB
066
0D8
005
0EF
F3A
0A1
F7B
0E0
061
F08
086
F1C
028
015
F46
00F
069
FCE
F2C
054
0BF
096
F1D
F0B
FA8
004
0D3
F70
088
09A
0FB
FA4
03A
FD4
003
01B
F5B
0B0
FD5
038
F3E
0DC
0A7
091
0F3
F63
FD1
F2A
F09
F1B
060
F21
019
EE9
025
F64
F18
F6F
00F
F22
F4E
06E
F6F
0A8
FB4
FA1
FFE
F51
0B1
09B
0E0
073
0E0
101
002
0BE
F87
092
F0E
0CB
035
F70
00A
0C8
F89
047
F18
019
F11
0B3
F41
F46
026
F3F
FC5
F6C
FAB
0CA
027
01E
05E
FF8
FE7
FB6
07A
F71
012
0B4
FA7
F64
0B4
F13
FE7
FB1
F80
0B8
0C8
F40
FA0
0DC
F1D
04B
0B5
F36
F45
FF7
EF7
0B2
FA0
082
0A7
022
F1C
FB9
FAF
F75
FCE
F2A
F85
F99
0C9
066
09E
094
F4F
0D4
0F1
FD2
074
F33
0A7
023
F1B
00E
FAB
02C
F9D
F1C
090
0FB
FF3
019
019
086
09A
F28
073
F1C
F5A
FC9
099
0EF
F29
FB1
046
0E6
021
FE9
050
F5D
06F
0CE
031
F1D
EE7
04E
076
F4F
F59
F9D
F37
EF1
F38
F05
F51
067
032
0D6
07D
07E
F55
F5E
FE2
FD4
01B
0CC
FD7
FE2
F16
F73
0CE
070
026
00F
00E
00C
FE1
094
F90
08B
051
F6E
037
F7A
F08
F87
FF3
F73
F9B
FED
F54
071
F5E
079
FBC
F40
0FD
0FE
005
0F0
F07
0F3
02A
F23
059
EFE
079
F82
FF6
0CE
060
0B0
031
FC0
016
010
080
F14
F20
05F
080
0A4
0F6
050
F26
F19
FAC
F49
F34
0BF
01D
0C8
FFF
071
0AF
0D2
FFF
002
024
F52
018
F04
FA0
0B5
021
FA9
FD8
FC5
07C
FEB
0DB
F5C
057
FAF
03D
FB1
F68
F47
034
FA4
05B
F67
0CF
0B2
F17
F7F
F2B
01F
0A4
F40
F05
0CF
02C
046
FFD
096
037
FAD
099
FBC
FD4
098
08D
07E
FEF
0CE
073
F9D
0D5
F55
052
F64
054
F0D
F07
F58
03A
0CB
F21
049
07B
FA2
00D
056
FEA
F21
0DF
F8F
0E0
067
038
F25
09A
08B
F65
0D8
057
093
0F6
0DE
09E
FEB
FD4
00B
075
00D
0BF
0C5
FCA
0B4
F8B
027
041
F9B
EFF
F15
068
FD5
0C6
07E
0BC
FB9
028
F83
04F
FBA
FC2
0EB
03A
022
F2F
F87
070
FD5
02C
100
FFD
091
FB0
0F4
F6C
F52
086
02F
0DB
0AB
0CE
F12
F7E
0AF
07E
0EE
079
F26
018
F9C
0D3
0F8
0C3
0F6
FCC
FFA
08F
FAE
F5B
F10
0B4
0EA
065
021
05C
F46
F29
F69
F84
083
0FA
FB6
069
04D
079
0E8
088
F48
F36
0D3
F19
003
042
F91
FA6
03A
F24
057
0FA
FB2
058
08F
F42
0E5
F03
08F
03B
0A0
02F
F04
F4C
04A
0CD
084
FE3
02A
051
022
088
07D
F94
02C
06A
082
FB6
073
F36
F0B
053
00A
04C
F60
08F
0DE
030
020
F5D
F45
F3F
005
F66
101
088
08B
F9C
082
FFD
F0C
041
F59
FFF
09F
0DB
0CC
0EE
08B
03C
090
FBC
08A
FF3
0AB
0B8
F88
046
FF6
F33
0E8
F36
FC6
056
FC8
FDA
06A
F5D
0CC
F49
0EA
F7E
F8D
0E9
030
FE6
058
04D
022
FB8
00C
0EB
0B2
EF7
FD3
F92
020
F87
F98
0E6
05B
0D3
F39
049
FF3
FE2
085
F5F
F6B
F86
07E
0FE
FC3
0F0
0CB
F8E
00B
098
07C
063
0EA
0D4
064
05B
076
F90
03B
F36
FF4
088
03C
044
00E
053
FB6
F60
097
F42
FA7
F7A
F2D
F17
FA6
F24
FC5
009
0F3
056
072
F65
F58
FCA
FF7
07C
0FC
FB2
04B
068
F54
FF3
016
FE4
F07
F59
04F
0EF
F35
014
FD3
F84
0FC
FAC
FBC
004
0C4
09F
00C
F59
0C6
FCD
099
081
0C8
04E
F72
0B4
FDE
080
0EE
F37
FE2
060
F2D
068
106
FEA
0FF
FA3
F52
0CD
01B
0B9
0F4
F05
081
FE4
0F1
FCF
F90
FFF
F0D
FA4
056
FDE
030
F4F
F93
FC4
FED
F86
0E0
F95
FA4
0F2
054
FAF
0D1
F0C
072
00E
074
047
0E2
FB2
091
F50
071
F3E
02B
076
FC3
F98
0C7
F9E
0D3
FD8
075
105
F26
02C
046
F49
0B7
F69
0A2
005
F63
0B2
F16
07B
F18
030
F73
F6C
0B0
FDD
0D5
F0E
06F
0AD
F32
09F
0AF
02B
092
F26
FE1
FF3
0F7
FFA
0A2
F1B
0B5
FEA
F4B
023
FE0
079
FB4
EFD
FCD
0D7
0E1
EEE
F48
067
02D
FB7
0CD
F19
0B2
F13
071
04B
F18
04A
01D
059
F09
EE3
F78
0A8
0FA
F3E
058
0FC
0CE
02F
0A4
041
07B
FC9
F20
077
0CD
077
F21
00D
F45
F13
029
0F2
F73
FC6
FB1
0D9
FEE
FE7
F6C
0D6
F5A
069
F44
05A
0F5
0C7
0A5
F93
047
0C9
0A2
0DE
FC8
01E
0A4
FE6
09F
087
053
FC6
FA1
0D3
079
0D4
FB5
040
0BE
06A
0F8
FA9
07A
F4C
F3D
F46
F1A
04F
F91
0E6
09F
0DE
F89
0F2
036
0DA
070
096
F53
0AC
02B
04A
F5F
F37
F29
0E8
F1F
F4B
061
09B
005
0A3
F1E
054
F98
F2D
09E
02A
09E
092
F5B
086
F7C
079
011
F43
FF5
F80
00E
016
007
0E4
033
0AA
F1D
F19
06A
0F1
016
F5D
0B4
060
F91
F75
03B
F3E
06B
F6A
09D
09A
F03
FDE
FA4
0E9
0E6
073
0E8
0D0
F52
F1C
00E
018
099
0FA
0BA
04B
025
099
F0A
FD7
074
000
071
06D
003
028
02C
028
F88
F2F
FC0
0EC
040
F98
048
F48
022
F04
01D
FE2
0AB
F3D
FFE
F30
FA9
F11
0A8
074
096
0B6
0CC
F12
EFF
F5D
F81
05F
FDE
F2F
0D6
033
0B6
02B
F58
F10
095
0DD
F8A
FD5
077
F02
0B1
FCE
F9D
0B5
093
FCD
F36
FD4
F4E
0E3
F24
FBE
022
00B
F7F
EFF
04F
F5F
0A8
012
01B
03A
09F
024
04A
FD6
F9D
F9A
F76
030
01A
0B1
0F9
F14
F87
FA2
FAF
F8D
F7C
EFD
054
FB1
014
F60
FB6
0B7
04F
0AE
029
0B3
029
EEE
0C1
F9A
017
FCE
F1D
EE6
05D
F6D
0D1
F52
FE8
FB3
048
FC7
F66
F13
F86
FAF
0DF
07E
107
FAF
082
F6A
023
078
FA6
FD1
F28
0B4
048
094
0B2
F5B
FD1
FAF
0F3
101
F1F
052
FA8
F64
F95
F9A
056
0E5
0C2
FDE
F25
F61
09C
EEC
0CD
022
F21
FEB
09C
F56
F9B
047
F62
09D
F40
F09
040
08A
0CA
F85
0BB
F7B
FA4
F7E
0E1
0DC
F83
00E
FB9
0D2
054
F64
FB3
099
0F9
028
F5C
FD1
068
FC9
0E0
FF8
026
0AB
0B2
F79
F46
068
0CC
070
034
07B
F35
083
058
01C
FCF
FE4
065
F61
06A
F76
FAA
046
F94
0C2
F18
F58
0A7
0AB
FF2
FC0
F8F
075
FD8
018
F1E
016
FDE
0D5
024
0D8
0AE
05E
FDC
FBF
04E
EFF
006
036
F70
F75
F8D
F86
EF6
097
FD0
07A
FAB
F80
028
088
0E0
003
067
087
085
F9D
0D5
01D
FE7
FAF
0CF
033
089
F52
0D2
0EB
03A
F51
FF7
F80
F66
025
F86
FF2
01F
0E7
025
F7D
F4C
F33
088
0EE
069
F76
FEB
FE7
FD5
086
020
F2C
F91
087
F38
F01
047
FC2
0AA
F76
FDC
FC9
02A
FAF
F8B
FAE
EEC
05D
053
F8F
F7A
F42
F89
047
022
02C
F43
FB0
029
F6B
FBC
FF5
08D
0B3
0B0
0C1
F59
073
025
FE2
F8B
0D8
07A
F59
006
0CC
0FE
FA5
0DB
0E1
EF2
0BA
0B6
F17
FFA
092
F1C
0B1
0C9
0AA
0CF
F1F
067
F53
0A8
FC4
00E
F81
FF9
F02
08E
EE3
000
0C7
014
068
FFF
081
0C8
F82
F6D
0D8
FB0
016
042
F4B
F92
0CA
017
FD1
FED
FA7
0DE
FAE
F51
007
00C
F55
044
0DF
FF7
F4F
F93
054
FD9
F58
F4F
036
FE2
F4C
045
F74
FB7
02A
F02
FC6
F3A
08D
092
F23
FE9
F9F
0A2
FDB
F04
F7B
FFF
F82
0A6
056
045
0CC
FA2
0E2
039
FC2
0C8
FD4
F27
0BE
078
FCA
09A
0CB
F24
0CD
08A
FB0
0D3
FEF
FBB
FAA
F17
094
0E2
095
FF3
008
102
FD8
092
FFC
0EF
0E1
07D
FD4
08F
0DF
F24
07F
073
093
F94
0D5
F0B
F33
F99
F79
087
0AE
051
F09
0C8
06F
06D
FA7
F93
FA6
032
F5B
FA0
F4F
0C1
F00
EE7
FF0
FBB
F2B
FA4
007
F30
FDA
F77
F50
FD4
FAF
008
F81
FD7
FEA
088
F31
053
F84
F07
075
FDD
F2A
0C1
045
FAC
F93
03E
057
0A6
F57
F2E
F22
04B
F17
F57
FEC
0F8
F1B
FC3
F5A
F64
F3F
09A
03F
071
0B4
FA1
F2F
0C3
F41
FBA
F58
026
04C
F22
081
0B7
06C
F8E
F69
098
02B
F69
FFB
06B
053
FBE
FAE
04A
FB0
F87
064
F8F
0D9
01A
015
F22
F27
056
049
0C5
F9E
05C
FB7
F52
00F
0D9
F1B
FFF
00F
086
0D8
F1A
00E
F49
F4D
01C
034
F58
F2B
03A
FBE
FA4
00C
F9C
04C
FFF
F92
07B
F82
04A
08A
0FC
F4E
04E
0B5
F43
F6F
F92
FAD
043
08E
F62
03C
FE0
FFD
EFC
014
099
F59
09D
FB1
F1C
FC9
071
EE6
FBC
013
038
0B2
F75
0E4
0B3
FB1
FE2
FC3
F8F
01B
F0F
F77
0BF
F99
055
040
0AC
031
FFC
F97
FCD
F96
FD4
04E
056
F73
FD0
05B
FAF
F00
FDE
08A
F70
070
0C7
08E
0C5
FD9
F51
FE0
0AC
FA8
0B7
F92
071
F99
040
018
F11
FDE
0BE
FB8
02D
F68
FBA
F6F
F27
0D4
F72
054
FDE
FA4
FDB
F3D
FA2
FFD
FB3
F9C
F62
0D6
092
04E
0A7
F1D
014
07D
FCF
0C0
05B
05B
069
F33
0C9
F3F
F9D
007
F7A
0A6
066
F00
FB8
03E
0A5
F7A
F85
0C4
077
F1F
F91
F88
05B
F3C
FA5
FF6
F06
01E
0A2
F4B
0F0
028
FC0
FAC
FD1
052
0D9
F21
F5D
F0A
071
08E
EF7
023
F61
EEE
007
0AF
EF8
058
EED
F44
F47
0BE
0BD
F0E
02A
0F3
FD8
0E1
F8C
05E
07E
F17
07D
F84
F54
F10
F5B
FA6
0EE
F54
F86
FD9
F04
FC7
0C5
FDE
FC7
F6C
01D
F5E
F1B
F9C
0F7
021
F81
FD8
0E3
FCC
FA7
04A
FD6
FE2
0B2
F75
001
0E4
041
F50
FE1
0C6
00E
05C
F52
07F
044
FD5
05E
076
F1A
08D
EF6
EFE
FF9
FD5
0AA
045
FD1
08A
F4E
F58
0D8
F8D
F4A
032
0CC
0B5
062
01E
F00
038
05E
F83
F4E
0B7
018
F0B
037
F33
0D5
016
F8B
07A
0C5
F78
0F8
FD7
FB0
0E0
0CD
FA1
0A1
02D
057
043
FD7
FD5
FFF
0F8
00A
05A
016
09F
03F
F51
077
F6C
F73
06A
092
045
EEC
F3C
025
F0B
008
032
0F3
F7E
0AA
F17
0A3
0A7
FE0
F16
FD4
F60
0A8
06B
075
00D
0B6
0D4
0C1
08C
FEF
F0B
F58
09E
04A
010
F19
048
FF8
F6E
F75
F8B
09F
FF9
079
056
038
104
00A
067
08D
F0E
FEA
09C
0E4
023
F14
089
FB6
FFA
0E3
0F4
0B3
F83
03B
0A8
089
FB5
EFE
F24
EF3
FD2
F13
F25
0E0
F14
F9D
050
FBD
060
0A9
FDA
F08
F79
FC6
016
FBB
F2F
FC3
EFF
F15
F41
05D
F28
023
003
040
100
F8B
F2C
FF3
0D9
0EF
011
062
FE5
08F
F8B
FD8
F7D
095
063
077
FE5
FD1
0C6
0CF
F9C
0AB
F68
0A6
066
0EA
F13
F8F
05D
05F
0C5
093
069
FCA
F34
F2D
F3E
051
0C5
F40
0D1
004
F87
EEA
FC7
085
0D1
05C
F46
F7E
FDD
FC4
FC9
0EC
0A1
FB3
FAD
F30
FDC
0D1
FB4
FAE
F9E
EFB
F86
F7B
07D
0E6
083
F62
FA3
FDB
FD5
FF1
096
09E
036
048
072
076
FC5
F67
F5B
F62
0B4
F29
07F
0B5
FC3
F43
049
0AB
F6D
044
0E1
03E
F0C
06B
006
FA5
03D
02F
F17
F81
03F
0AB
FD7
EEE
FB9
F2E
05E
F65
F61
FF4
0C8
FEC
F9E
0F2
0C1
FF0
0EE
0F5
F84
FEC
06A
038
0C5
009
0DE
FC0
FFB
03F
052
0A6
F24
FC2
FDB
012
F65
F9F
F36
035
0E9
0DE
F2D
034
FCB
FE2
F95
F77
F26
09D
074
F96
FC5
F3D
F90
0BF
F3F
0ED
08F
0DF
0CA
01A
FE7
063
FBD
F67
070
FFC
047
F42
F19
07D
F64
F42
013
FB2
FFD
F6F
F76
F6F
F84
FFC
F98
06E
FFF
FF9
F81
FDD
F57
FBF
0C1
FDE
03A
F3F
F6C
F5A
F1E
F70
FCA
0A4
F3D
0A7
021
FF1
FC2
000
F17
01E
FAC
F4B
0DC
0A5
F2F
FE7
028
F72
04A
F85
FEB
FE3
0B2
F44
F7E
0A5
EF4
028
090
F49
FC6
01B
080
F03
09B
FAA
FFB
023
F8C
F4E
0C0
EFC
0CF
07D
02A
F13
EFA
F1E
068
F13
03E
FEB
0C2
0D0
09C
095
F97
F0E
0D0
046
FDA
F1B
047
F30
F54
08D
035
029
F21
0C7
FFC
FD6
090
036
F47
FD9
01E
0BF
F24
FD3
F0A
F50
055
0E1
0DD
FBE
F05
FF0
0E4
079
FA5
043
F38
EFC
017
000
FD5
F70
FAC
F9E
FF0
02B
065
F33
FA7
F75
0F4
F5E
F28
0AE
F4A
071
0F2
097
FB6
02C
0E4
08F
FBA
F06
03D
FA2
0EC
0C1
FF2
09B
F12
0CD
FE7
056
059
FD5
FEB
F74
0E5
031
F83
05E
0B5
06D
037
F12
F33
F24
076
F4D
F65
00C
0C8
00E
FA2
F41
F1A
052
F25
F8E
FC1
0C8
F6C
061
FA4
F6C
F86
095
060
083
FA1
FD5
F33
0AD
0A3
043
032
F51
061
F54
0B1
003
FCE
039
07E
F3A
F43
05D
F64
FF3
EFA
FB4
F0A
07E
F24
0B3
F7A
03C
04E
F20
03C
063
02E
FE0
FA5
0D0
F16
00B
F87
031
F01
FD5
F79
F28
FAB
F8D
F39
046
F94
F21
05B
07A
FBE
056
0E6
F44
062
F5B
F60
FD0
016
02C
032
0BE
077
065
F68
0D0
F4F
074
FCB
F87
092
0EA
001
096
FBD
F28
F85
018
097
FF9
FC3
0B8
071
FA6
082
034
082
F48
FC5
FF2
FCB
022
F40
F16
03A
FEB
0BA
036
0C3
F8B
0BF
F0B
084
0DA
065
107
F6C
01D
0C9
F0F
0F9
051
F23
0CB
00D
058
FEE
F80
F43
F09
F06
F38
F53
0C0
F6A
077
F67
027
065
F78
FD2
0F3
F89
FB4
F28
0B5
FB7
F86
0EF
FED
FD3
F0A
03A
F09
EF5
F96
061
002
F60
070
F49
FAD
07A
FFF
055
F76
F46
F0C
EFF
00B
FAF
0A6
F42
0BC
0BA
00D
0B6
F58
0AC
07F
07F
0FD
0D2
F3A
0A4
038
0F7
F76
076
FA3
F63
FAD
0BE
0AF
08B
07E
09B
077
07E
0CD
01B
F08
FA8
F78
F12
0C6
F33
057
F77
032
F61
FC3
0B5
0C8
087
0D5
0AC
EF7
0DF
041
0D8
F3C
F6C
F60
087
F89
0CE
067
0BF
07B
0D6
FC4
0C3
012
F9E
F7B
FD8
0C6
0B8
F28
FDD
0AC
036
07C
FCA
073
007
0AE
0AE
051
F67
FB6
FE0
03E
0F9
043
F08
074
088
002
FC7
F00
F02
0AC
F22
027
084
09E
F95
0CB
F09
0E4
FA0
0A6
06A
061
046
FF6
04D
019
FC6
02B
050
F1B
F70
F09
F57
FB6
06F
F7B
F52
05E
0CF
029
06C
F96
FAB
F9C
058
FB9
0D7
FC1
F9C
01D
F52
011
0B8
06A
F0C
0BA
F2F
EFB
F35
F08
F57
0DB
099
FC3
F37
015
F95
0BC
F7D
F9E
FE8
F33
017
FE4
08B
F7E
F78
0F4
FCA
02F
FA8
020
FBD
0BA
F50
F2D
F01
F50
FFD
036
02B
FCA
022
0C2
06D
F00
FEF
F24
F94
0C6
FD1
06A
FD6
0B4
08C
09C
F9B
F34
FFB
F0C
040
F8B
0EC
0DD
00B
02F
0C1
015
F0A
015
050
08D
015
0CE
010
F44
043
014
F12
044
00B
0D3
F5A
0C1
FD6
F6A
029
0BF
0A2
09F
052
FD2
0B3
FBD
F41
04C
F9D
FEC
0B0
FC0
0D6
0D0
F0B
0D2
02F
04D
EE5
0BF
0AC
066
0A6
04E
F1E
F36
0C4
091
FC1
F77
FC5
FF2
0AC
F0F
FB9
008
0EC
01D
F8D
056
072
077
0A9
F37
041
02F
0E8
086
0A0
F6B
0CE
F36
F2D
FC8
FAD
F79
FE4
09F
010
06A
FA9
0E1
F45
F1B
F4D
F8A
F69
025
00D
FC1
0E9
045
0F9
05E
010
0EE
05F
023
0BC
FAA
0B9
FDE
0C7
055
042
F91
05B
F71
05F
0E9
073
F23
0F0
017
051
053
F3C
01A
F87
F82
0D0
081
00A
08B
08C
F54
FE2
F7C
0F6
04A
FFA
058
FCF
04E
F7B
F9A
04C
F04
027
007
FB6
F1E
04B
059
01C
FEB
FFB
084
0BC
017
020
F8C
FF5
05D
05C
039
FA4
F8B
F1D
F33
049
F23
0D6
FC7
F77
06B
0DE
F7B
095
FF5
094
F86
F4F
EF4
0E1
F87
0A6
F05
FBF
F14
F98
F76
F45
0D3
116
F20
023
F1A
024
0F3
0B0
F71
091
F3D
0C1
FA2
09B
F4B
EFD
FCF
0CE
063
02E
FF2
F2B
0F1
04E
082
F6E
0D3
F7C
F13
F28
FD9
F8F
06B
03F
F19
0EC
FB9
07C
091
FCD
045
F4D
F8F
FCE
003
079
EFD
FA2
FD8
031
03F
F2B
0AE
F80
09E
F52
F12
FBD
078
013
05E
090
EFE
F38
FE7
018
0F3
099
03A
FDE
01D
F81
085
F45
094
FC9
060
F86
032
F70
F0D
07C
0A4
0A1
008
FA6
017
068
FA3
0BF
042
027
F12
09F
F81
FFC
07B
085
07C
F8D
07D
FC3
067
F2F
F8D
FAC
FBA
F0B
F97
F05
0D3
014
01F
F59
F3B
0C9
08B
0D7
088
090
FE2
F56
FF5
097
F5E
0E9
FC6
09F
FDD
FD0
000
069
109
079
F39
FF8
0A9
FED
F2F
026
FA7
F16
F1F
F3D
FB7
068
0E4
F80
086
FE6
033
FBD
FF9
049
F31
F32
003
000
F67
02B
F0D
0E6
0CD
03E
09B
FDA
FB8
035
028
089
070
001
FBB
058
FA3
F57
014
09D
F36
085
F6D
