091
013
FE0
012
FC0
036
F86
F6A
F5D
F4A
FDA
FBD
FCA
0F5
064
0E4
078
FD5
0F2
F76
FD5
F93
F05
FAE
F70
05C
FC4
0C1
FBD
F84
FD8
F92
F3E
021
FDB
09F
F48
0DF
FF8
0CE
F1F
F8E
F08
F4C
0FE
F4E
F4B
092
F21
F5F
F3F
F64
F6D
FE3
F5C
0C4
FBE
F2B
097
064
FA9
09D
F4E
0A7
F48
F9F
0EA
F0B
FE9
FF9
FA0
FF0
062
F89
014
0AC
0DD
0C4
FDD
0B2
FCE
0FF
F22
F18
FB8
0EA
F1D
085
0E2
0D6
FE6
02A
010
F11
F18
0E4
F7A
F35
077
015
0C2
FA0
0C7
F71
F65
FB1
FF3
FF8
FD7
F35
032
0FB
F69
F51
F2A
040
F54
04A
0A8
0E1
051
F38
0B7
053
0C6
0D3
F83
05B
0AF
FC7
FC9
F28
072
08E
FBA
FFB
FF3
F82
FC8
049
FF5
FE5
0B1
FAD
F55
F28
FE0
0C6
F92
010
F60
09B
F25
08B
F09
F40
022
F7A
010
FCB
0AE
F86
FFC
F27
F33
FC9
F6C
FE5
03C
F2F
F84
009
064
0FA
FA6
0A7
08A
FD3
FC4
035
06F
02D
0AF
014
FFC
0A1
07B
0EA
F27
053
F15
F41
004
FFF
0D6
FBD
08D
03B
064
F57
0D2
F52
FB5
FC7
F9A
09B
04A
FF7
F53
0B3
086
09B
FE7
FDE
F68
0D3
F04
0F0
F83
F62
014
F11
04A
0A6
FF7
043
0E6
F5B
0D9
F7F
F8D
FA7
FB4
F83
0FA
FA7
0C3
0A0
F6B
018
00B
0FF
069
FA2
F54
095
09B
F5C
F45
FDE
FE2
0A5
FE4
04C
039
F35
F51
0E2
09F
08B
035
0BD
F79
FF9
FC0
F3D
054
FB1
FB7
FA3
094
F5C
028
F29
00A
0E2
025
0A0
FF3
086
050
F45
062
FDB
07D
0F5
FA1
FEF
052
F86
F40
F3B
F75
F25
F99
F80
070
0A1
F16
F5D
05E
041
F19
0C4
F9E
FDD
009
FD0
FD3
FB7
FAE
01D
0DF
0CB
056
0F1
0A3
0B4
FB8
02F
065
017
FB6
FBE
0FF
F1B
0C8
0AB
FC9
F82
F86
F82
F87
FA0
04D
F89
0A2
069
FBA
F8A
F2D
0AB
F38
044
FB4
010
F63
019
F77
F1B
F47
F0F
0F6
F42
FC0
FC6
0F6
F64
F9A
0F2
09F
F4E
037
F39
FA7
0D1
F42
0BD
FA8
FF8
F15
051
F13
012
FAC
09E
FE5
F71
02A
049
083
00A
F5E
F2F
09F
FB0
FAF
F71
031
029
FAD
0F3
F34
F25
F10
F1A
0B8
048
F45
031
0FC
F56
0EB
FBC
FE4
FEA
0D1
F8A
F8C
0C6
FBC
FAA
F7B
003
01D
0F0
FE2
F8D
F8E
F64
061
0FC
FF2
FC0
F15
0EE
F3E
F9B
09B
FF4
081
FE3
F0C
07D
F96
0B3
041
0AB
087
FA9
FD2
F62
09F
0C1
F80
05D
FB9
F4A
F9C
0DF
F48
071
03E
FE2
030
F81
021
F6A
018
F8F
F71
074
036
FBD
F75
FD6
097
01C
0F7
058
F68
FCA
0FE
041
053
02F
F83
06D
10B
F92
FFF
FAD
FA5
F37
F2B
018
F82
0FA
000
F62
061
0F7
082
089
0AA
F86
08A
F4D
072
0D7
095
0AE
F69
F43
F0C
0C4
FD6
098
FAB
0F6
05E
FFF
041
06E
053
0B0
F55
0E8
055
0A3
0F5
F71
FAA
F0B
046
003
0AE
F6D
0E0
F21
F84
0D7
F1A
0BE
0F0
F8E
F63
0F0
05A
0B0
F3E
067
055
036
09B
10A
F6E
106
F97
0A9
FDD
02A
057
F62
FBA
0B6
F37
F5B
0FE
0CB
F6E
0D7
F68
061
F6A
03A
F6B
FDF
FD2
FE1
F90
F3D
0AD
018
F62
FA0
FDC
FF0
03D
F34
0DB
10B
F9E
FD5
0F2
F1A
FC7
0C7
FBB
F1B
07D
FC2
F84
F82
0C7
02C
095
FEA
036
FF6
0C7
020
F62
FE3
F3B
06A
F3A
0E0
F31
F2D
FA9
0ED
F6D
092
F66
052
FDD
FEA
0C5
02F
F6C
002
063
F31
F2D
F57
FCD
0A7
F66
0AC
FC6
079
03A
FBD
090
003
FD6
F31
F32
FEC
08A
FBA
FFD
058
FB4
FA9
F95
0BD
F3F
00E
F66
0B4
FD4
0E0
F1F
0A9
00C
040
066
079
095
024
F5E
F91
024
09E
FA7
FA1
F5C
08C
FEA
029
F2B
082
089
F22
F92
F66
F96
FF3
038
038
051
00D
0B4
096
0A8
FB4
101
09C
090
08B
F43
F8C
0AE
049
F08
06A
0D4
014
080
FEB
0A7
F95
0C6
0B4
003
024
FD9
FCF
F40
047
F6D
F47
F3A
0E0
F3A
F69
F8A
FFC
00C
098
097
0E5
F4D
046
01C
05B
FB0
083
092
004
FA0
F0A
0B9
F8E
0EC
F13
008
010
FBE
01D
FD6
F5D
F37
068
FF0
F9C
008
FE8
0F8
06C
0EB
099
0FE
097
0C4
035
0B7
FA1
08A
F52
FAE
00F
F20
094
F17
F7D
0EF
0B9
FDE
F9F
0C8
F7E
064
0F0
059
003
F63
01A
0C2
06C
0B8
F07
068
FE7
F04
032
05C
FEA
FF1
08F
028
095
0CA
FFC
084
FF9
F2E
09B
015
027
03B
FDE
F2F
00B
0DF
F7D
0C6
011
F72
F88
FAD
FAD
FB2
F1D
102
10B
FC0
0A7
02F
F71
FB8
F84
FD2
077
F25
0D8
F5E
08A
F2A
F83
0F9
09B
0E9
065
F0F
0EA
F46
05F
FA2
F88
0D4
FB6
F59
FC9
0AD
F97
F2F
F2B
FE3
F81
FF5
F16
F90
FDA
F33
110
FCC
015
FF6
FFE
072
069
FDD
F6C
080
0F8
0B5
F27
049
059
0B8
F33
F37
FCB
FAA
F1B
0A2
00F
058
103
0B4
F49
F53
082
03B
F62
F36
F57
04D
FB1
0A2
0F5
074
01B
FC4
F78
F00
0CC
0CB
F6C
0F3
0CC
074
00E
FF1
F8C
0DD
01F
FDC
F09
FA9
05D
F35
04F
072
F0B
08E
FAC
0B0
FCE
02F
FFB
051
F14
016
F47
0BB
F7B
FE4
F7E
0B2
FA6
F2D
F6B
FF6
0A2
04C
0D9
0F3
03F
F3A
087
F69
10E
F5A
04D
0FD
F0F
F1A
0F3
0E2
060
0C1
F4B
08A
094
FB4
067
F06
F8B
F5E
001
052
09B
F65
FA2
FA8
01F
FA0
00F
0F6
F88
0A9
0B5
F76
05F
F96
068
0D0
F96
F96
F67
0F2
0CF
F4C
FA5
08B
F00
0D0
061
F9C
0AC
0A4
065
0D8
084
074
0A5
FFB
F92
095
08D
F63
03E
068
FF3
F56
050
F7A
05C
08B
0D6
01F
069
07C
F98
04F
0E6
078
0D6
F1A
011
F3F
F3B
078
F49
004
040
00C
0AA
0E0
F4F
058
020
F96
FF2
0E8
01F
04C
F1C
FE0
044
0CA
088
FEB
02C
F9C
0D0
074
0C3
0CB
074
F13
FEE
F5B
087
FB9
043
0A9
F7E
FE7
F20
FD1
F0C
08A
FE4
F3E
06A
0D7
019
F87
F8C
080
F24
F43
FC8
FC4
FB7
F0C
F67
004
F14
F9A
F6A
099
045
F39
F84
F1D
F33
0ED
F0C
0BA
0C3
FDD
F6A
053
F00
F4F
0AF
0C7
0B1
007
F35
0C3
0B3
F2E
F0A
0EE
0E6
0E9
0D1
FC8
F9D
FC3
FEF
02A
0B4
F33
0AF
0D0
072
F1E
F3D
FA0
028
023
F9B
08D
FA2
0D6
07F
006
02F
074
FD5
01F
01A
FBF
F55
F34
026
079
F06
033
0ED
F8D
F5A
F5B
F9F
F6C
023
F19
0DD
0AC
016
0E3
F3A
F84
F85
009
F52
01C
019
FDA
F24
F68
0A5
F4D
0B6
065
FC6
FF8
018
0C2
F9C
FFF
FD2
0FB
FB8
FC8
03B
00E
0EA
FB0
F79
FB6
F7D
09A
F22
042
0F6
F0A
0E3
FD6
00C
032
FA0
0AD
F93
06C
FAE
0AD
0C4
F77
081
06F
080
071
059
072
01D
F5F
032
045
F90
064
055
FBA
FFF
04F
041
F82
F10
0B7
0ED
056
FD8
00A
F0E
09C
F8F
0B4
F92
F95
031
105
FED
009
F0B
F1E
F84
F5B
F3A
01D
F80
0EF
F28
08F
F20
03F
041
F4A
0B2
0E0
0E9
024
005
F10
FF2
093
026
07B
F82
011
F4D
F68
F52
F03
F52
0D0
045
F9A
FAB
F86
019
0D8
04F
050
080
F61
0CC
F5F
F91
0E2
F33
F27
F87
FC2
F0B
0C6
FB4
FA4
F07
F26
FF3
F4E
0A8
FA8
F0E
095
048
FBD
071
F47
050
FEC
FB4
F73
01D
08D
0E7
F40
FA8
031
0D9
0B2
056
0F5
F2D
FAA
FA1
011
FE8
018
F99
F30
013
F80
FE9
089
F0B
F10
085
FEA
FAD
087
F63
F15
02C
F8D
FCB
FE3
FE2
F80
F51
0CC
014
F3C
FB9
0DC
F13
081
01B
FA0
0EE
F32
019
F9C
F0E
F8F
F22
011
04C
102
F6F
F6A
050
048
F0F
F0D
0C7
FF5
F48
05E
FAC
FC0
04B
006
037
039
029
F3C
F2C
F71
0AB
049
FE8
FF9
F89
F5C
03C
F56
FE7
048
01A
0D2
014
FB0
0DB
F93
0A8
0F3
034
FB2
F77
F07
0BF
FF0
FE1
0A1
F9A
0D8
045
097
F94
F2C
FA0
08A
F4A
04D
01F
0CD
0C5
FF6
005
FB2
F6C
02A
0F3
0E4
FF3
F52
052
0AC
FEC
F2F
049
F8F
049
FA4
FD0
FBA
FDA
FBA
F0D
0B4
F73
06F
0EF
03A
0C5
0E1
FEC
FB3
F92
FE6
F57
0CD
041
FED
F2F
0DE
FDB
FD4
FAC
F17
F97
0B8
0BB
062
F45
051
F4E
07F
0F1
087
F69
F98
044
FA0
F9C
FD9
FA5
04B
F23
F38
0F4
FEE
F83
FA9
0D4
F5D
FCA
F7B
0EB
0B7
F4E
0EA
FD3
EFE
F94
065
09E
0C5
080
009
F86
0EB
0F7
FEB
F28
001
F87
0B9
044
059
094
040
F19
F3C
F17
0AD
0F7
0DC
FB5
06C
FB3
07C
FDC
0AF
F14
F6B
F2E
0C5
F27
FD9
FC6
F29
F95
F96
F89
F5E
0D2
F71
F0F
F92
03E
036
F6C
FC4
019
F43
F8C
005
F11
0CB
0A7
0CD
FB3
F1C
076
039
0BB
FEA
FF8
FDF
EF8
F0B
099
08A
F7D
FFA
035
0B2
FC1
0EB
FE8
0EC
F88
F51
057
01E
F8B
FBA
0AF
F64
002
08C
08E
F23
FD5
F22
097
F52
F66
0E5
FB8
F1A
0AD
F67
F89
074
05D
02F
102
078
F28
010
0AA
095
05D
F8D
F5B
029
0FD
04C
FD8
0B7
F01
F7A
00B
0B8
016
F69
EFD
014
0B8
F54
F87
F67
F87
F80
055
011
F1B
04A
F6F
02C
083
073
0C1
FD8
036
F09
F2C
031
05D
046
F71
0BB
00A
054
0FC
F32
EF6
FF1
F21
089
0D8
F29
F23
FF1
0E6
013
0D0
FD0
FA1
02D
023
0EE
F2A
022
F60
08D
FFD
F23
099
F80
0C2
FA9
FB5
0B4
0D1
FF9
F1D
F71
0F5
02F
FFF
042
F1D
FCB
FAC
011
014
FA1
FFC
02D
044
0B1
060
FFE
F4B
F4B
007
088
F61
04A
015
07B
FA7
04F
0B9
F41
F75
0B6
04C
076
F81
F6D
088
006
FBE
0F0
F78
065
FFE
FF6
094
EFF
F61
F76
098
0B4
075
072
03C
040
FAD
FFD
055
FD6
06D
03F
F9A
FAB
F0B
099
F56
FF3
068
07D
09A
FA7
F3C
FCA
0C7
F67
037
0E7
03B
FF2
0CE
FB1
0C7
F48
099
054
023
F5D
057
065
0C1
FA5
023
F51
07C
F68
0CE
F74
097
FE7
FB6
065
012
F45
F71
F6C
F0F
FFF
0CA
07F
0F6
FF1
FB5
0AA
06A
FB1
F8D
092
0B2
027
FDD
020
F63
F74
FBD
009
FA6
F2D
F93
F58
F6A
F27
079
FAB
F8B
FEA
0D4
FAB
F73
08A
F3F
F2A
0EE
FB5
F40
011
FC0
0B6
0D0
F75
0DF
FD9
05F
05A
F90
09F
FA1
0F7
F09
0D1
0D9
06D
076
040
0A3
F58
F22
F3D
FBD
0E0
07F
F83
F69
F5A
08E
F21
F3B
017
FEA
028
F9B
069
072
FA9
F40
FB3
FFE
0DC
085
09A
F53
01D
FA0
08D
0C7
0DD
FDF
0D2
02E
F53
FC3
F42
081
087
081
FC2
EF2
0E3
033
FD9
F6C
FD8
F8A
FB7
F55
F95
F7D
F03
FE5
0CD
F81
FD6
094
F43
04B
07C
FED
08D
031
01B
0A6
F67
FDE
FD6
090
F18
FC6
F8B
FFE
F78
F84
FCF
09A
F3D
05B
0AF
F2B
053
FAD
0BB
0C7
F59
FFB
0C6
FBA
057
00B
FEF
FF7
05B
F17
082
098
EED
F31
F3D
032
0EB
F5A
00B
F7E
09B
0AA
0C9
0BA
072
088
F77
FCB
FD3
F38
FC9
FF9
FA1
F9E
FAC
062
FEB
F03
030
09C
093
F7D
EFC
0EC
F62
011
06F
F95
085
090
078
FD5
041
02A
0FF
F24
01B
0C4
FEC
03E
05C
F0D
047
0AA
070
F09
F99
03B
FDC
F4D
F64
031
F4C
FD6
069
EF6
F07
F1F
EF6
F81
0CA
004
0AE
FA9
F12
0E2
058
0A5
0E6
063
FCF
0AB
FA0
F5D
F21
01D
F06
FCF
FAA
F18
01E
061
079
F6C
FB5
F2B
098
EF8
019
F5D
FEA
01F
F72
F2B
F35
021
F13
F27
016
FF5
051
022
0A3
0E8
FF6
FE8
0D9
FC9
FED
F94
03B
0BE
F71
F5D
FDB
F86
F03
F35
028
FB0
085
051
06F
FD5
EF0
085
FF9
F5F
F7F
F88
041
039
015
F93
FFE
F61
F01
F8E
F9F
F4D
FED
0D4
0F4
077
064
FFF
F66
0D2
00F
0B5
0E0
079
041
08C
04A
026
F8D
0A0
0D5
0B5
F14
FC3
F54
FD6
F7F
FC7
F63
0CD
F4A
002
F70
FB6
F68
FEE
010
FCC
04A
063
00F
FE8
FD1
0B8
FB2
FB9
075
EEB
085
F73
F58
01B
F6E
F97
F12
025
FC6
070
F3A
0CA
037
F80
FC6
047
05C
07F
F3D
0B6
F43
F5E
0C2
06D
0D5
F62
00A
F52
F2B
FA0
0EF
F1D
083
064
0F7
0BF
094
F50
0DA
034
0CB
08E
F86
044
F61
F60
0DC
0B0
097
F47
0A5
0C9
0C3
063
0BD
036
FDD
082
08D
095
021
079
F91
F42
087
F7E
F68
086
0B8
0AC
F31
02B
07A
FFC
F02
042
044
FBC
0BA
04E
0C3
023
F60
F6B
F34
F32
F8C
079
FCA
F95
0CC
F31
09C
016
FF8
011
F99
0AA
091
098
EFB
0BD
F17
FE6
0CF
0A7
F89
F9F
0DF
FBC
067
0A8
050
078
0B7
091
F53
F77
F9F
01A
0CD
FCA
F3C
FA0
02E
FD4
F42
F0D
085
F12
08C
FE9
FA8
F1D
FBE
065
04B
F15
F95
059
F23
0A6
0C1
F8A
F09
0CD
06F
FC1
0B7
F1F
F58
F3E
098
FC8
F46
F26
030
0C7
F60
052
01F
0C3
0BE
F6E
0F7
FD8
079
085
F37
FF7
F1B
0EE
0F0
F8C
03C
FCC
001
FBE
F3F
FC9
05C
096
FBC
F01
0B3
FCD
0A8
07B
FBB
F12
025
F19
F0C
03F
FF7
F44
009
F53
F08
FEB
0A3
032
057
091
FEA
FC1
032
06C
07A
FB7
FB2
F06
FDB
049
F98
F85
017
FD1
090
099
F41
FB4
0DA
04E
099
FBF
FC2
F53
062
02C
F5E
F6F
090
0E4
05F
031
FC6
012
FFE
FB5
F19
F6B
F47
047
F10
FA3
F68
F4D
0CF
036
085
0D8
048
0C3
0A1
0CD
F98
EFC
F3B
F61
F29
F33
071
01A
FA7
FA4
07C
F40
0CE
FA9
0C3
F73
0E1
08C
FE0
01B
FD8
06B
086
EF9
02A
0B9
F84
055
FEB
F30
0AD
F3F
0A5
FF8
0B3
02C
0C8
02D
066
02E
0A0
F2D
002
F3E
FD2
102
0ED
0C7
092
00E
0D4
0D4
083
06A
00C
EF4
FFE
FE0
0DF
08F
0AB
F5E
EF0
F74
09F
0C8
FA5
FF3
08B
0A9
F60
EFF
F2E
F7B
FBC
049
0A4
EF2
09E
026
0B8
059
F85
F3E
093
0F6
FE8
09E
F3A
00F
0EB
F41
FB0
0A3
F6C
F86
FE8
EF9
0A4
FA5
FE9
F61
F9F
FC0
FFE
F1C
F8B
100
F5F
F2D
F62
017
08E
FE0
09B
F0F
F8E
099
F73
084
F69
F39
062
04B
000
0C6
046
FDD
064
F12
028
FE8
02B
0C0
047
081
0EE
F5A
F82
0C0
FDD
016
035
07E
05C
005
0EF
050
03E
F47
FBC
FA1
06B
FE7
F63
009
02B
082
0EE
031
FA6
0A0
F89
0CF
FB3
FA4
FDE
F3A
FD8
0B0
09B
08D
0BB
015
0D8
FE9
F5F
FF3
F48
F1A
0D7
FAA
07A
FBF
FA4
F38
0D8
033
FF5
FFF
0F0
FFE
055
04C
F6C
078
030
0B1
0B0
0EB
0C9
0C9
F81
066
04E
0EC
04F
05A
FA4
064
F57
055
037
0F4
085
0E7
F5E
0DF
02A
F9E
FB9
FA5
F07
0A0
06B
0DE
F83
09E
042
07E
09C
0C1
F0C
0AC
0DE
FC7
0AC
FA4
0B5
FA7
02D
065
0E9
F51
FA0
F66
0E6
F7F
F87
062
027
FAF
FD3
0CD
F48
03B
069
0C8
F37
00C
FC6
038
FB6
F85
F6F
FA5
F96
EF6
FBE
FB8
F07
095
035
093
F6A
F29
F63
0D6
00B
FFF
FE4
091
03E
0F0
064
F37
FF8
033
0BE
F33
F62
F4A
F8B
090
FAB
FB2
F7A
F15
FE1
F98
046
105
F6D
076
05B
F1D
F3F
F9E
FBC
F1D
F6F
09A
0DD
0E1
0D2
F45
F4E
F6D
FE1
F88
0E1
06E
0E2
072
04F
F34
F38
FA2
0C7
0A2
024
02D
029
09E
F1C
0D9
FDA
FE1
053
013
FC9
F24
08A
F8C
FCC
FC7
04C
FBB
014
FE2
017
F79
FF0
0CF
F5B
F90
FDD
0F4
FCB
F0F
F4D
FBC
F60
F1D
0AF
072
FD8
F7B
F82
F91
F5D
F5A
FFC
084
033
043
FC4
026
0AA
019
FFC
F43
026
F9A
F59
03C
F1D
FF3
FAE
0C6
050
0A8
F26
0B7
054
F6A
F21
0BC
F88
FBB
F52
0B3
083
093
F44
FF6
0B1
F3C
02E
0B1
0C4
F74
0E4
FFD
03B
0E4
F3A
F5B
F7E
0C6
0AC
009
0DD
F98
0C6
F30
F7A
009
FB7
F50
0A0
0BD
053
FEB
0F0
0F5
03E
F0F
04E
096
004
F61
FBC
02F
072
034
0AC
028
FC1
0C8
0F3
0F0
F3E
0F3
0B1
06B
05D
F4F
002
086
F10
0FF
FD8
082
F31
078
F41
01F
F90
FEE
070
070
0A7
F8E
017
F36
0E7
F7D
F29
F8C
FA9
FE4
043
019
FB1
053
F6E
FEA
F78
FB2
07C
090
F3A
0A7
05C
F33
FBE
030
021
F5D
087
05E
053
FA3
07B
097
FB6
049
021
FAF
F06
02D
F50
F60
0A8
F1D
F0F
019
004
079
011
F52
0CB
0C7
095
F25
0F1
0BB
FD3
00D
F70
FC7
036
F3E
FF2
086
090
0F3
F14
051
0F8
064
072
FF3
FFB
037
0C1
FFE
FA6
F8D
FD1
02D
FC5
033
FE5
019
021
F90
F36
0A3
087
FB4
08A
F0B
006
FA8
FE8
F17
FEE
FD3
F9E
09C
FD6
EEB
FEB
0C2
F73
FA5
08A
F2D
022
F6B
F6F
0C1
0CD
0E3
F26
F39
0C6
FE6
061
0ED
04E
0B3
FAB
FC0
FDE
FFA
F9A
08A
108
F36
0CD
09B
F6C
FDF
04F
FC4
F31
0DA
02A
013
F6B
FCF
F77
0BE
097
0CF
05D
F42
F37
0D3
FC4
F2F
FCB
070
FFD
082
017
FD8
072
FBE
0A3
072
F39
00D
FAA
FFA
F23
FDF
0BA
0D3
FE5
05B
0B7
038
FA5
F11
033
017
071
F0B
06A
F35
F2A
FDE
0C3
F84
FF7
0B1
F38
075
FDC
006
0A2
F94
F09
02F
0DA
023
FBC
FA1
0AE
F3A
FFF
F5B
0E5
0EA
F1D
002
F93
F5C
076
F69
03A
FBD
F9D
085
F80
FAE
FE6
F91
F8C
055
F1A
FB0
FB0
F92
FE6
F16
F95
00A
095
0D0
000
F4C
01E
07E
043
062
F1C
02B
FE9
F5B
FD3
FF8
046
0E5
F72
053
080
FE3
00D
F58
F44
F8D
F21
020
F71
036
FAA
004
0E0
FE3
F6A
06C
FA4
F73
022
0F2
F5A
092
0E3
FBD
061
F62
0A3
FF9
F48
083
F41
007
04B
F75
FE7
0EA
FB7
FBB
F08
F95
F5E
FAE
006
0EA
0C0
003
04F
0D8
075
07F
FF3
FE7
09E
FF9
0C4
F02
F1F
0C3
01D
F03
F1E
F1E
01B
028
0F5
F86
10C
FA4
F43
0EE
F20
F84
0BD
0C6
F91
0C6
057
0E5
0B0
048
01A
090
F7A
FB0
F18
077
FFE
F35
F06
020
FA9
06F
FE4
0C2
0D2
F85
02A
06F
F04
026
01F
F34
FA7
057
088
FD1
FB6
082
061
092
FAE
FC2
077
F33
070
0DB
00E
F1F
016
068
0B9
F26
FD4
0B8
F37
FE8
052
049
F79
F62
F63
F6F
FF3
03E
04E
0A2
01D
F40
F26
0A2
072
069
FD4
00C
0BD
04D
034
F25
0C3
F67
F2C
0DD
041
0C5
057
F27
F09
0F8
083
048
F9E
04E
FE2
0B6
F9C
F1E
F28
0E0
FCD
0BF
004
F51
09C
0C8
F41
050
07E
043
FEB
F1C
F33
083
FAF
F2C
0C2
099
F9B
F7F
084
0D3
0F4
052
FA5
FE8
FE6
F36
F0C
01A
043
0B1
09A
0AD
014
F0A
086
056
FC0
F62
F22
F77
FE6
F1E
0C0
0EE
06C
FA7
F84
01A
060
FA5
0A5
FFC
055
0CD
F51
0F7
0D3
04A
085
F86
098
F31
F06
F5E
0E3
0DD
FA3
0A2
0BF
FBA
FBB
02E
F38
F35
005
FFC
FB8
F1B
F1E
05A
01B
FAF
F9A
06C
F0B
FEA
FF0
F27
0DB
FD1
F33
103
0A1
067
105
FF2
026
F3A
FCC
079
F35
F54
00D
03E
010
FF0
0C3
FA0
F62
F25
F31
FEB
F84
F84
FDF
033
F44
F19
030
F9C
00F
04A
FB6
057
FEF
F45
01A
0A9
F0B
02E
065
091
08F
F9A
FA2
0F9
F75
0E1
FF9
035
F1E
FD0
FFD
FA8
F51
066
0B7
06D
FC7
04A
F26
F66
F13
F26
F62
F32
02A
0FE
F71
016
F41
F5B
070
F33
F18
F02
FAD
F38
F7F
F7E
FC8
007
008
09B
FFA
002
F8D
007
FBC
0EB
F12
FC8
F7E
03C
091
FEF
F5D
FA2
FAE
04A
0BD
02D
0BD
04E
0DD
0D8
03B
F0A
00E
F50
00B
FC1
FDA
015
FCF
09E
F52
FA4
F3A
F4A
024
F31
0BD
0B6
09A
FAF
09E
FE7
F55
FB6
FE8
06E
0F0
073
F5B
0CE
F17
F48
FE9
0C2
FA7
F2A
100
053
FD3
096
FA5
F7F
F6D
F1C
F71
F94
071
F3A
08F
06F
045
F39
F77
09F
F9E
F5E
F9B
07D
0B9
EFC
F08
06C
FC4
F10
F84
FDD
052
F20
0A8
FEE
0EC
FE1
FE3
FF3
0FE
0A9
072
F49
F25
091
FC9
F56
FA2
FA0
0E7
F6C
048
0E0
0D6
FB1
FD4
0ED
FFB
00E
FB9
0C2
099
F5B
0AA
FB4
05E
F24
0D9
03F
02D
0A9
005
0D1
0ED
F8C
05D
0A6
FCF
00C
01F
0DC
F4F
09F
03D
FDC
F4A
F32
EF7
F4B
06C
0D3
0ED
0E3
FE2
F8F
F7D
00D
F5D
F8A
F9C
091
060
103
05B
0AE
FCF
0F8
F25
049
FA2
053
F39
F6E
082
000
0A9
0CB
0C7
027
F0F
F5B
0FD
FC7
FDA
001
F9F
052
058
F1C
FCF
017
0E0
F18
0E4
0A3
084
055
050
F3E
0A3
F2B
0A0
031
048
098
FC1
F1B
0C7
001
0CF
0EF
F7A
FD6
061
F01
090
0B7
F4F
0EA
FAA
013
F90
F55
0C2
F7B
019
F0E
077
0BC
FE9
084
001
F1A
F43
0ED
0AC
04B
FE6
017
FF7
0C3
F20
0B9
FE8
F72
02D
001
FA8
001
03C
09A
F16
0D3
0E4
0A7
034
F1B
F6D
FDD
0CC
FFE
02A
030
FB9
F2A
022
EFB
FCF
F5F
004
0CB
0B0
FD9
F93
0B3
081
014
0C2
0B5
F23
0C1
0C7
06A
F3B
FFC
0E2
026
096
0E2
027
FF8
F10
0C1
F22
F9C
031
0A3
FFD
0BC
FA9
05A
0F6
0A8
FF0
0BC
FD5
088
FA0
066
FC8
FBC
FA3
F20
F0E
F0D
013
0C9
F1B
0FA
F33
060
F4D
040
040
F99
F6C
03D
FD7
F6D
071
0C8
051
F44
FFD
FEC
F05
082
F9D
0BF
FB9
FF8
F81
041
F8D
0CA
FB3
09A
F4C
0B4
F08
F3D
FEE
093
FCE
01E
F90
F92
0B0
018
FFD
009
052
0CA
FFE
FA6
F53
0EB
07A
F1F
FEE
F9A
0BB
05E
FE2
0C0
02B
062
F5D
025
04C
F39
104
077
038
0E9
05A
F8A
001
002
058
07C
07F
F94
052
F27
FD9
05F
0A2
0AA
01F
F01
0C0
045
051
07B
07A
074
F51
F07
0C8
FD1
01B
F85
F8A
F7C
F30
F77
0BD
FF7
0E3
F51
083
FB7
F81
FB9
F8D
F56
0AA
F4C
FA3
FC1
F82
F82
04D
06B
F86
0A8
0E3
F0C
FB5
063
F74
0E8
F84
FC8
FDE
003
FEE
0AB
0E6
0EA
EFD
04C
067
0B5
09F
098
09C
07A
04B
041
FD3
F02
0CB
05E
027
03B
EFD
EEB
F9A
04C
006
002
F3C
FB3
08D
065
FE7
F41
FDD
F28
F71
F07
0A5
F99
0ED
017
026
F3E
027
08A
0C1
FB7
F4A
073
07C
082
F81
09E
F89
F5B
F65
FA8
07C
F0F
043
FAB
035
FCA
F6C
F3B
010
0CE
FDD
FF7
F75
0B6
F9A
0B0
F51
0C2
F11
02E
086
08C
FEB
F01
FD0
092
0BD
029
047
F01
F1C
052
FC3
0E1
FF2
F99
F0B
F7A
F29
08E
076
03D
F22
FB1
0D6
0C7
FFF
F08
F67
F74
0D0
FC0
F74
02F
FF4
019
0E0
F13
F83
044
FB4
FEE
F4A
F71
FF2
087
FFF
0CB
04C
0EC
0D2
0A4
F3D
084
FA8
FF0
F7C
0AC
F51
F28
032
F91
021
0CC
F8E
0C5
EF4
EE3
01A
0CA
0AF
FE6
011
0E0
09C
F9F
05E
0A9
0EA
FF4
F59
038
F66
00D
F49
054
088
F21
068
010
0CE
02B
00B
F0B
F6A
F5B
F1F
099
FFC
FFF
019
06A
02F
04D
0C4
064
0A5
0DF
0C7
F33
FD2
F65
F05
F27
