0F6
097
02C
093
0A2
080
F1A
F67
FCF
059
F19
EE7
05B
F86
0B3
0D9
086
F6C
FDF
FD5
0A1
02B
F7D
FEF
FC8
09D
F66
FFA
F92
F65
F1E
061
0E6
0C8
0C3
043
F4B
05C
F3A
F91
0D8
FF7
EEA
FE1
F01
0DC
0CC
F60
08B
EED
042
FCB
0CF
FB0
FA2
FEF
08A
FCA
074
0D1
F25
FE4
02E
002
0E1
F9C
FC9
FAD
083
F3B
EFD
022
02D
F7F
046
F0B
0C8
FA9
F11
0D3
F0A
F4F
056
F93
F10
F2B
F78
FB2
F6F
FDC
096
0D6
FB2
043
0D8
FB9
F05
0A5
F12
0E0
045
0D8
091
0C9
FB3
FC7
EEA
048
F25
03B
04F
08F
0A9
043
098
FCF
0BD
00C
0C8
FA5
FCE
FB3
F2E
0A7
F0F
0EB
F4C
0D9
0E6
09E
0D3
0BC
F0F
050
094
05D
F8A
F03
FB2
FBE
F7E
F6C
045
F42
F9B
FF4
F81
EFB
0A0
017
FC7
000
F87
FD5
FE5
F45
F8A
0CE
0BD
00C
084
F37
F5C
F6D
0B8
013
F1A
0D8
037
FB7
F86
FD4
FC4
024
089
028
F0F
F1B
F7B
08D
018
08C
07F
FA2
F58
FCB
F89
0A3
03D
0BE
08F
F69
0EB
F7E
F10
FEF
001
0DA
FEC
0A3
094
F3A
06C
F81
049
053
0C1
F78
F39
F0E
01F
017
0D6
081
078
FA0
0CE
0C4
F50
02C
FA5
03F
03B
0ED
F3A
05A
F2B
0D9
0CF
FBE
000
0C7
F49
FDE
F41
0DB
0BB
0A0
060
FB4
038
033
0C2
07A
041
F0E
F93
013
FCE
0D5
021
FA0
FD8
067
009
F50
F55
0DB
FA0
083
F99
000
EFA
F2C
0CA
0E5
F20
FB4
FE7
EFF
EF5
079
F2C
0BC
06A
052
FC9
050
0B9
063
F1E
0E7
FD0
012
065
00F
0F8
F06
049
F62
F3C
032
F39
06A
048
084
F79
029
0F1
F96
F17
F45
FEC
0AF
006
FED
FD8
08D
F1C
F3B
EFD
0A7
0A1
04C
0C6
0B8
EF2
0B8
0BE
EF9
0AB
F2A
0C5
FEB
00C
FA6
052
FC5
F70
F51
09B
029
EFD
F19
F6C
F01
09C
FD9
0ED
040
FDC
F05
F1F
034
097
09F
0FC
F26
04B
037
00C
00F
F34
FB6
06A
FCB
05E
0CA
07B
F8D
F52
04F
00D
F05
FE1
F58
09A
013
F02
F5B
FA0
0DD
0D9
060
076
FEC
EED
04E
F4A
FFB
08E
01C
FA9
09E
06B
F5E
014
FED
F31
0E1
EF2
037
016
F24
FFB
FE1
027
008
0CF
F1B
F2A
FD2
041
F8E
062
047
FAF
F27
F4B
021
082
0E2
030
F51
0C9
06A
081
FAA
0D0
F06
06E
FC7
06B
F9C
F9C
F9B
F4A
F91
FC5
008
087
028
043
F7E
012
F35
F0A
F44
0CD
FE0
F98
F7E
F88
F55
06E
FB0
035
00B
FA6
FC4
F67
FF7
04D
061
F5E
085
042
F1F
0B5
016
F17
0C5
038
F21
09D
F36
08E
F88
039
08F
F45
099
02B
FF7
071
F74
F1C
FF1
007
07D
08C
0CF
013
0E0
FA1
FD1
FD5
008
09F
F82
F46
059
07E
FD9
037
FBA
065
02A
0D3
F60
0B3
F21
0C2
039
F15
FC0
0EC
074
F2F
FF2
F2B
085
009
F8F
0A0
F90
F4B
F4D
05B
F37
F13
09C
FB3
F93
0E1
FCC
01E
076
FA7
FBF
FDB
FD2
FCB
04F
091
F0B
FED
F1D
022
FF0
FF0
075
08F
F8D
024
F6B
0D9
F93
03B
FF9
0B4
FC0
FE5
F58
0DF
05D
F3A
FB4
F2A
FAE
F3C
020
07C
F14
096
FD1
034
04F
001
0BD
07C
FB7
FA2
0EC
F4D
011
F6C
FC8
073
F00
F60
F91
F65
007
059
06E
037
07E
F2B
EF3
0C6
055
F67
F7A
0F7
0F2
098
014
F51
FC7
084
009
FC6
F5B
FD1
FCB
FA7
FF2
07A
0C2
002
086
08B
0D5
FC2
F59
FE0
F9A
FC8
0F0
F6B
0C6
F44
EFB
09D
051
FD2
043
F2D
EE8
F66
FBC
025
FEA
FA0
FEF
033
09A
0DA
0EC
FE6
000
FA3
F4A
EF5
EF4
FEE
F86
09B
FFB
041
F39
F90
F20
0D6
07B
F31
F9A
01C
F3E
F18
FC1
F54
0A0
FE6
043
F1A
026
050
00A
0EA
035
03A
F91
F8C
FF1
03C
F68
014
FFE
F13
F78
03C
086
091
07A
F0E
034
063
F1C
F5F
F7E
F85
FFB
040
F77
FC1
0B2
FD5
F46
068
FF2
FDB
FDC
0BD
013
F5C
F0F
075
F2C
02D
FCD
022
F04
027
0C7
F5C
F6B
F00
FD5
F76
0C3
02F
0D2
023
05F
104
0C9
FCE
F8B
055
F7F
009
049
05D
0D5
043
F11
F5D
099
F84
F8E
013
F99
0BA
F0F
0EB
FBB
0DF
061
063
F32
FFA
F7E
FC4
0CB
0BE
FC4
EF5
EF0
F3F
00B
06D
08C
F6F
FE7
FD7
0B4
03E
0D9
0CB
006
F59
FFF
095
FA5
054
038
048
035
F82
F20
046
EFF
079
F5A
F15
091
F24
04F
F5F
FE4
0B8
FDB
F73
091
033
FD2
0E6
070
F38
F53
FEB
0CE
FB1
FA4
FD6
052
FAC
FC6
FD3
093
090
FDF
F3F
0A9
F48
FAB
FA3
F54
EFE
FBB
056
055
FBD
F73
FFE
069
EF6
FFB
EF0
0BA
EEB
0AE
0BD
FF7
F6F
0A2
F8A
02C
0BF
02E
F7E
0E7
093
FAF
070
0AE
05A
087
F9F
028
FE1
F3D
008
FF3
FD5
0FA
F09
F6B
0B0
0C4
0A9
F98
FF0
0DF
F8D
037
F25
04F
00E
0BE
03B
FF5
FF4
02D
070
F4F
FB1
03A
F3C
FF6
0A2
F74
011
07D
F29
FD9
FE0
F00
F56
049
04C
048
F43
004
F33
FE6
FEF
088
09F
FA6
0AC
0B2
F14
FC7
F9C
F31
0BE
0AB
041
098
00B
F73
FCE
06E
087
0FF
FBE
FB4
FDB
0BA
FE0
FCD
001
087
F31
FFC
0E2
08B
0B8
09C
0DD
0FA
076
00E
06C
00B
F36
005
F34
0EC
F74
0C7
0A4
FC2
06F
098
08F
01B
FE5
F9C
0C5
F02
085
F97
F66
0E4
EF7
0D4
03B
06E
F69
FBB
F43
030
F11
07D
034
FFC
FBD
08C
F7A
077
037
F26
FE5
F87
FC0
0F2
F8C
F1F
0B5
0BF
060
0EF
0E2
0A9
060
F3B
01F
F0C
030
FDE
092
0FB
069
05D
0A3
066
FD5
082
03F
016
F8A
F43
096
FFC
0C8
018
089
0DF
0C1
FEB
F25
092
02D
FBB
069
F7E
FE7
05C
09C
EF4
F2B
FA0
F42
00A
04B
F51
FCE
FF3
09A
F25
090
075
09F
066
F2D
02D
04B
F93
F8D
06D
08F
0E0
FAE
FA3
055
090
0C1
028
0A7
F60
013
0D3
F86
FB1
061
03D
F13
02C
014
F62
004
F64
0A8
FFC
F1A
F42
F25
F90
041
F72
0D4
09D
070
0AA
EF4
F11
0B5
F2A
FEF
F14
EF7
01A
F27
047
F93
F1D
F01
01C
0DF
F01
066
F12
072
FF9
0A2
0DF
F78
04D
F29
0BC
041
F36
FB4
FEF
F7D
092
000
07D
0B9
058
F78
0E2
0EA
F42
0AD
FEB
F13
FC7
061
0DF
0FF
0C2
08E
0B7
FB4
104
FE7
F24
0AC
F13
004
FA2
FA4
F9A
0BF
089
EF7
037
FA9
FDC
07D
F93
F77
007
F09
0EE
023
0CE
FC2
06D
0E7
090
F99
F6B
04A
0BB
F4B
090
0D3
F1D
0EC
094
067
0BF
F86
FD7
0B8
081
076
F81
F35
FD1
F8A
089
047
0D8
0E1
0A7
F49
FD5
FF4
F9A
F24
F79
093
01A
F85
F5E
0C4
FAC
083
0CC
075
FBF
FE8
064
FC7
F31
059
F88
0EE
FF3
F22
EF5
F63
F28
F4E
0A0
F49
001
F03
FC9
F25
FC7
FAB
0D6
FFC
F3B
024
094
038
07D
060
FBC
F04
F1B
FAA
00C
05F
FCF
06F
075
F2B
F58
FC4
0AE
050
08A
0A1
0E8
037
FF1
08C
F70
0CD
FB5
F5E
050
F0B
034
012
F40
0A2
09B
FC8
FAB
097
0B4
F18
084
F20
F0B
F5D
F59
0DF
F48
FAF
014
006
0AA
F11
FF1
FF2
000
FF2
FE0
F2A
FC2
F32
0CF
0DA
076
04F
EFF
FD4
0E5
FF6
0A8
0B1
035
013
066
F16
FB7
FA7
FEC
030
F80
F64
FFB
05D
026
011
F35
F19
0E2
F61
F96
022
F86
F1D
F78
F17
F10
F9F
F4C
00A
FAC
0DA
0AE
0C2
F88
00B
FF4
FB6
00B
056
090
061
F3F
FD9
028
0D0
F3B
FE0
FCF
056
F95
0C2
FD8
02A
F14
03F
0E5
0B6
F75
062
05D
0CD
06C
0AF
F3A
04B
F5D
FF4
EFF
00E
091
02D
FDA
FDD
FA3
FE5
038
F6C
FC6
0EF
F75
03B
FAB
01E
0E2
05C
F37
0D6
09A
0BA
F98
0F1
020
068
026
044
011
0F3
0B5
0C9
F1D
F5C
00F
05D
053
022
F3C
031
015
FFF
FBF
FE8
F55
080
F36
EFA
F66
06F
0C6
F52
FF5
F2D
02B
FF0
FC8
F38
F12
05A
FC8
F7B
F2A
FF2
04E
050
0B2
FDB
FDD
FE8
0C9
FF4
FE0
F45
F68
F5C
F57
F12
053
FE5
05B
F49
F99
F38
FDD
FC3
068
F0E
0F6
0C9
0C4
F88
FAD
FD9
F08
0DD
009
FC7
F87
07C
FA9
F54
F20
036
FE5
037
0E5
F8D
063
F3D
FB5
08C
0EB
0BA
01B
FC5
F54
F1D
051
F08
04E
091
F0F
0E7
094
F90
F97
F5D
0A1
F00
FF6
046
0D6
FB2
042
0D1
FA2
FA0
04F
F96
FA9
0E4
0BA
FCF
0F7
F93
0B7
01A
037
FBD
F64
0B3
080
094
019
FFD
0EC
FAE
091
01E
000
046
0AF
0F5
F17
06D
F3F
FC3
0E3
0A7
F70
F4B
F47
072
028
F96
03A
038
FAF
F3D
0C7
F90
F65
F62
F1F
FF1
08D
FBA
FB9
043
0F0
06F
00F
F83
F63
F32
038
FD2
06D
FFF
F94
026
FB3
051
09D
F06
FAB
083
058
03D
FA2
F0E
F10
FBA
FFD
064
0BA
0A1
F38
0BB
055
F1B
F32
FEA
F20
FF8
0F9
02B
056
FAD
FA8
FBC
F16
F6E
0C4
06A
FFA
05A
FBD
FB4
0E9
09F
F55
0B3
0B3
020
0DC
FDB
054
F79
F98
F7A
FBE
FFF
F58
068
F20
0C4
0C4
F2E
0DB
05A
0CD
FB7
0D6
FAD
04F
F1C
FA4
071
0C5
004
F09
091
0CC
F3F
FBC
F9C
0A5
F36
FB5
083
05B
00D
072
007
F2D
053
F80
FBA
053
F02
F76
EFE
F4E
F11
EFD
0CB
050
05F
076
05A
FD8
F1E
F41
073
0DD
095
F18
F57
06E
FC9
03D
F02
F9B
F79
0D1
0C0
0D8
0A4
FF2
F4E
FAD
02C
031
0D9
0A7
05D
F04
F32
072
051
F01
F9C
06A
0CD
FEE
F38
F2A
FA0
FCE
F2B
F05
0E1
0AD
F06
F6C
FC9
02B
0AD
0BF
009
FC0
FB8
F88
F0E
0C0
085
08D
096
0CE
FA6
F3F
010
090
0E0
059
FF8
F5A
011
F69
F36
FBC
F6C
0D0
03D
F90
EF9
01E
0CD
0A1
015
F44
07B
063
FE4
0E9
02B
060
039
024
FA1
FD5
0CE
F26
F02
FF3
0EB
F5F
F85
F8C
04B
0CC
003
F91
F6D
035
007
086
07F
FE5
059
0C9
F9D
F33
088
FFC
F47
015
F49
F5F
0C4
093
06E
F7E
02A
04C
001
F08
085
F41
063
FDF
04A
017
04F
FB7
F5D
FC8
F60
032
000
04D
055
FFA
EFC
0CA
F4B
089
F70
098
FDC
0ED
02B
F9E
FCB
0F8
024
015
088
F0D
F91
F60
0F9
015
034
03B
058
00A
F24
F16
FD5
05C
FA8
F5F
FBB
F3D
077
FCE
09E
F49
0F2
FAE
F8A
0CA
0EA
FAF
00F
F5D
F8C
F98
051
F59
039
F37
FB1
FD2
EED
07E
F15
FAC
FE8
F5C
F1A
FDD
F7B
053
036
0FB
0A7
092
FC9
F11
FD9
FA4
FE3
FE2
07D
FBF
FBB
0C6
FCF
F8A
0DC
FAA
FF2
040
093
0C7
025
0C7
0B8
F08
0CC
F13
044
F72
FBF
FAC
0D0
0AD
00A
F51
090
0FB
0EF
058
F19
FF4
F33
06A
08F
F65
0A9
F83
FE1
08A
0C6
FA0
EFF
FE7
FBD
0BA
FB0
F86
08D
081
062
F20
F43
F7F
FCD
EFF
F38
F2E
049
05E
03C
0B1
FA8
086
044
0FE
037
FF8
088
FD9
02E
F71
F8D
F82
F88
079
078
F21
F84
FD4
0EC
049
034
F4E
F21
083
00E
F5F
0BC
F13
FD9
068
090
F5A
F2E
076
030
F79
0AF
0C4
FE4
06D
EF7
035
F2A
0B5
F44
018
040
052
F2A
F74
F57
054
F40
F46
F01
F2E
FF3
064
0A7
0FB
F3D
081
FDB
F40
F09
057
FDD
FFD
096
FE8
0AE
FE6
F83
FD0
005
06F
F24
F61
032
FAC
03C
F8E
F10
F10
F2C
F7A
F55
F79
09D
06B
F21
F52
FE6
0E4
0F0
0BC
F99
FFC
F80
FE3
081
F64
F34
072
081
FF4
0C0
F5A
FFE
0CF
F37
09D
020
017
FE2
05E
FA0
F11
FDF
0B9
085
F4B
FE9
F91
F85
FE8
02B
075
F3A
086
FF6
0C1
019
F79
FBF
F20
056
FDF
0BA
FDC
000
F60
0E6
09E
015
0A5
07C
013
092
06C
0FA
F51
0A9
0FC
06A
FA0
03B
FBA
0CD
F9F
FDA
037
F7F
025
0C3
08B
0C5
09A
F9F
0D7
F8D
0B6
FDE
F7B
FED
FD0
090
0E3
004
F8A
F67
F24
062
0F2
F5F
FB3
F0B
065
F56
0B2
F12
0FB
F6D
F34
F12
F31
05C
F61
FA8
F61
0B2
05C
0A3
0BC
F25
F71
F61
FAB
FDB
078
F48
100
FCB
003
008
06B
0EB
055
06F
02E
019
05B
F1D
090
FC3
FD3
020
F1D
F7F
FA4
0C9
FF2
F21
F2C
047
FD7
058
001
0D4
F73
F48
05D
0E3
F11
F05
F67
093
FD8
051
06D
080
0D1
0BB
F22
F93
09B
05D
011
07A
F11
101
FEB
FEF
FD2
016
01F
095
0A1
FE6
083
04B
0A6
0AF
0AC
F5D
F72
F1F
0EA
029
085
FF4
026
03A
0DF
0C1
0BB
F2E
03C
04E
0CA
0E2
FCA
F89
0F2
F7C
F29
F7E
F7C
0CB
FC7
0AB
09E
F19
FF7
048
F30
F43
052
0D1
050
EFD
F0C
018
FC4
FF7
F8C
0CE
FB0
081
0E9
073
089
0AB
F87
F33
FEA
0E6
0B3
FB1
0BB
07E
F79
FF2
02C
0D1
0C7
030
0C8
FB3
F64
F9D
F3E
F73
F25
FF5
F43
058
FE4
F7E
08F
065
0EF
FA2
01C
0C8
FC6
051
058
0A9
F54
04A
088
0D7
027
FC2
092
FEA
F99
F53
0AF
06C
F6B
02C
FB8
FEE
040
FD8
F32
0ED
017
0AE
F3A
0BA
F94
F10
0B6
F2F
FA0
091
06E
FF0
083
04B
FFB
022
0ED
F44
080
F85
0B7
07D
F4F
048
08E
0EC
FA9
FEC
101
F36
05D
08E
06C
FFA
0CF
FBC
0C3
08A
037
09F
F29
FA4
02F
F32
F3E
F4A
FAD
FB9
019
FDD
FE8
058
09F
F2D
F10
F8F
FE3
066
0CC
04B
0AC
0EC
040
0FC
F17
062
F0F
05E
F8F
007
0F5
F0D
027
F2A
F9D
065
F4C
F5A
02E
F77
070
08B
098
0C9
F09
075
02D
0EB
0E2
FB3
09E
F64
F1D
FDC
0B6
F9E
F26
FBD
FD8
FA3
0C4
008
08D
FEF
0D9
F94
002
04C
FA4
F62
080
FCD
F68
FF1
FDF
079
045
030
F23
F6C
071
009
0FA
094
FA1
FC7
0D7
0DB
0D8
F88
046
F5E
FB7
F26
F8A
075
045
FE0
0F6
09B
02C
027
060
FE9
0A8
FF0
007
01C
0B7
0C7
05F
02C
F59
FB2
FBE
F30
072
0E0
0AC
F1B
F39
F42
004
0D8
0CA
F66
014
0EC
07E
F55
FD8
F0C
FC9
0EC
007
F6E
F8C
FC1
F2F
F84
FC8
FAB
F13
044
029
0E5
F32
F90
0C4
F1B
0A8
01C
0AE
FB2
0B0
F57
F70
F96
08C
F80
066
F0E
F2A
071
F01
061
F5C
08A
0C8
0F3
FA8
0E8
F0D
F40
0C8
05A
037
024
F61
075
01E
F52
F88
0D3
F49
059
F1C
F5B
F4A
0FE
0D8
FFB
0ED
06F
049
000
009
F79
009
061
F69
F58
0C5
081
F7D
FE9
FEF
F2A
F6C
04B
08C
F60
098
0A3
FA2
0E7
F0B
F49
0D1
0D3
0C0
014
FF8
0E4
F47
016
F66
041
062
026
FCB
001
0A9
0D8
FBB
FF1
0F4
F51
0CF
0CA
F16
F6F
F87
104
F57
089
032
0A3
0B7
F11
01B
079
F5C
F20
F0A
0AB
04E
0B6
F69
F04
F88
F04
FA2
068
F81
F95
0BF
093
098
F9E
03F
075
FEA
077
035
065
F6E
FD5
FD6
014
01F
07F
FB4
F5F
FB5
045
F53
EFF
F6F
F3D
F62
02B
07F
FEF
077
0AD
03C
F71
008
070
0E2
080
FEC
F61
F7B
F28
033
00C
06B
F0B
0E5
F4C
084
050
F5D
F4A
F27
0CF
06F
FD9
07B
0F0
FF0
01C
006
FDA
F19
038
072
FCB
012
F13
071
FF1
05D
FE9
F0A
0A0
F70
F17
F7D
039
FD6
039
FF8
F20
0F4
FD1
F53
051
075
0A0
0BB
0A9
FA7
FD4
088
073
042
FA1
FB4
FF3
F1C
F18
0D4
F52
FBD
F57
FB8
105
F22
FE0
F33
FAA
005
FD0
0C7
FE1
FEF
FD6
F71
012
075
FD3
FD7
F78
074
F69
FA2
FDE
FDB
FC6
FF4
0D3
F37
F89
0C1
015
F00
034
036
FC3
F99
F72
0FC
FF5
0A4
FF1
0AC
094
FA3
FD4
0C4
F74
07F
FAB
043
093
F81
F22
FFA
F7B
F6E
0AF
F39
FFC
01E
F5D
0EC
030
FE5
F2F
FE6
F77
F15
074
F68
0B3
08B
014
F45
F98
028
F88
0D5
042
F18
027
01D
072
FB3
0A2
056
F8E
0B4
0A7
FA4
06D
F3F
093
F69
0F4
072
F7E
FEC
F73
F70
018
0A5
FE6
0A3
0E8
050
FBA
030
08B
F9B
01B
039
0B5
F18
F91
012
FC8
F46
08F
F4B
FD4
030
F9A
02E
000
FA4
FB2
FFD
0CF
F65
0AF
FA0
FC3
0AF
F1E
F51
00E
F16
0C6
02A
0B5
06F
F67
021
0FD
F97
F2B
F1B
0C5
04E
031
06D
FE0
F4A
F00
FDF
F57
031
0F6
FC0
F50
09E
0E7
000
F65
037
FB7
0CB
FC8
F9B
082
F4E
0E7
01C
FD9
F1E
FB5
089
FDB
FD6
F43
03C
0D5
FAA
0E6
F2E
067
0E6
F63
F72
F39
FDD
F8D
0EA
0AF
FE5
FDE
05F
067
05C
FE1
FB1
023
FA6
0C2
FD9
FAF
022
F87
047
FFA
04C
F03
FFB
F29
FCC
FD3
09A
036
03E
0D2
062
0DE
03F
08A
090
0B9
0AA
FE6
F85
F4F
089
0DA
05A
FF9
FFE
F5E
F6C
F44
F81
FA9
095
05B
09F
FE5
04D
063
FC9
007
093
081
FB2
04B
0CE
000
010
0CA
093
FF1
04A
FFF
051
001
FE2
0E9
F41
F91
F14
F2E
FEA
F54
098
FA1
FB9
0E2
F1E
09E
034
0E9
023
F2C
F28
FE1
0B1
FC2
F0B
0CB
F00
FD5
FFE
F53
05E
F73
07F
F87
059
FAB
08B
02B
09A
06A
095
FBA
FD5
F69
F05
FA9
F53
FF8
F48
0DB
090
F65
F88
049
049
007
F82
F7F
F29
FAB
0C7
0F5
F36
0A1
084
F27
FA7
F12
FD4
FC8
071
078
0E9
F7C
FC1
091
F4E
025
016
F7F
0BC
080
0B7
F90
F43
03E
0CC
0D7
0F0
F23
0BF
F08
072
0F8
0CF
0C0
F30
01B
0C0
098
FAB
F57
F43
FB2
FD5
0BC
F01
F62
0CD
FB4
0A9
075
03B
038
F1E
059
F38
0BE
F36
FA5
069
034
01B
003
0C1
001
FB4
F34
0A6
FA5
084
061
F87
081
FB7
F85
FFA
F1C
044
F52
FAC
02E
FCE
066
F39
F99
026
0B0
F22
083
017
008
0E4
F7B
F49
048
FDF
0BE
F9D
F6E
0CC
F9A
095
060
044
F18
047
F75
F7A
01D
F53
F9E
09E
FBB
F79
FE5
F38
03F
0E6
0A0
F2A
051
076
FAC
04B
FA1
0AB
FFB
F5C
0FC
F50
070
FE1
F3B
FE2
03C
044
F7F
F3F
F22
025
F4A
004
06A
0BD
057
F15
047
F9C
F68
0DF
004
F4E
022
047
085
F8B
F57
090
F7D
FA7
F33
034
0A3
F2F
F7A
0CE
06C
F01
09A
06B
052
044
F7B
02F
F79
F46
FA1
050
092
077
F68
069
08E
F8A
F95
F13
F09
00E
F57
0FD
004
F65
081
002
0DB
0AB
01B
FEC
0D9
0A8
FBE
0D2
06F
F6A
0B1
F86
F25
01D
033
099
FA0
0F9
F1A
F6C
024
01F
F3C
0C4
0DA
0ED
0E6
FA8
047
023
F5F
F5A
0F6
FFB
027
091
017
062
008
F8E
085
0F9
F12
F6F
F69
0AF
0CA
064
0BF
0F0
0AD
03F
0E4
FB6
076
F49
0F6
0D0
005
0BA
FBF
090
F31
03D
045
034
F71
F44
00B
FF0
05B
088
F98
0FB
0CD
004
FFE
FE1
F09
F52
071
F68
F00
010
0B2
099
FD3
0FA
002
01C
F61
F0E
FF2
081
0E7
FE5
0DB
FB1
F3B
FC9
F2A
08A
F22
F8D
078
F00
07C
07F
0E7
06E
F96
FC9
FC5
F66
055
F52
063
F7A
FD3
018
028
0DF
FFF
0F6
F1B
019
0B6
F63
059
0FB
0EF
08A
FFD
FC6
FDC
F02
F9C
08C
F5F
F8B
0EB
F1B
F7B
01F
F28
F3C
FAF
062
F63
03A
FE8
0DE
0E3
F11
F3C
FC4
FCB
016
F23
FFC
01C
FF0
F43
00D
FDF
000
FE2
F4F
0A0
001
0EB
FAE
F06
0DB
F65
052
057
0E7
FA5
F62
0C1
091
F8C
0CC
F6A
07B
038
07A
FBE
032
01D
088
07E
047
F07
019
036
0A7
FD0
0C9
04A
0C2
F3F
F04
036
F0C
F0D
F22
FE1
07B
0A1
FFA
02B
F8C
FA9
09B
013
06B
006
065
F4F
F08
F3C
F7E
F09
FBE
F31
FA7
FF2
F46
056
0D4
FDF
0FA
F7B
0AF
F55
F8B
FC3
F9B
077
0B9
F17
0D5
FF2
F51
F3F
F33
0B9
037
F8A
0A3
016
0EC
F37
082
068
06A
FAB
05D
FB5
F3B
F5D
FB5
F2B
FB8
F5F
FF6
F58
FE8
0D6
FA2
09F
F75
04F
FD1
F42
0A5
09E
023
064
FD4
03D
08E
022
024
F0B
F4B
FE0
0FC
FD3
FED
003
FCC
041
F73
F1A
FFD
066
FC9
F4F
0BA
F45
F51
035
0A6
0A0
F59
F0A
FD7
FA4
F7D
F85
05F
078
0ED
F45
FB2
08C
078
F7D
F83
0D7
F27
FCD
FDE
0A5
F8D
FC5
FC3
F61
069
F0B
FDE
0C1
0E8
049
FAB
F70
093
F2C
0CD
F08
F44
FF3
0F6
08F
0EE
FCD
0B9
F80
01B
0E9
0CC
012
06C
0BA
07D
0D1
F8B
046
F8D
F48
058
F24
FF5
FF2
F8B
00C
07A
F20
0DC
0A8
F24
06E
0F9
F52
03B
F55
09C
F4A
0DC
F7E
0DA
F48
F71
F56
F7E
0D7
F38
043
097
F01
0DC
F0D
F96
03C
03B
F72
043
FFE
F6A
0BB
094
F5E
0D6
F61
015
F4E
F21
036
F76
0AC
02D
FC0
F11
0EA
014
01B
F37
FCB
FC0
FCC
F99
026
0F8
F73
F43
F59
F14
092
014
005
0B6
F45
F51
F7E
F55
F94
085
0EB
FBD
050
F78
07F
08C
063
FBC
0F7
077
011
02B
F72
0D7
F57
FD5
0A3
0B8
04B
0D3
042
FCE
0F4
FB2
04F
0B4
F31
F78
F5F
F3A
0D0
038
FB3
F78
04B
FA3
023
F17
F23
F2A
078
009
F11
001
0B3
F4C
066
FC9
F72
FF7
F05
0A8
0F5
035
08F
F0E
036
0A7
FC3
022
FCD
0D1
F56
F4C
FC5
FE4
F15
02A
F09
FD3
FAE
07A
FBE
F58
048
08B
0CE
058
0ED
0EC
F0C
0E7
F3B
0BC
F72
023
0E4
F61
F36
F72
0A0
FB7
010
F13
0EB
F4D
087
06C
034
F61
FD1
F15
FD2
032
0E0
02E
F36
097
070
09C
F54
058
FD9
FE5
099
F21
045
FDE
F2B
F03
FCB
FC8
F83
01B
F51
F9C
0CB
090
F66
FFF
FE7
0B7
08C
FDB
0AF
009
F6C
F46
F29
0FA
FEA
0EA
0C6
084
0E1
0E7
0B0
007
06D
05F
03D
FF9
F0A
FDE
088
098
F24
F1D
0E5
FB7
FEE
04A
F22
035
04D
0B2
FBA
FC0
FBC
0EF
075
F2D
FC8
033
FF6
F87
F7F
F58
F7A
FE8
0C0
02D
F27
F39
054
043
09F
FD8
03F
057
0B1
F68
0D4
0AB
07D
032
0F9
F33
F91
F92
FFC
F8A
F72
0D5
006
F36
043
F44
084
046
EFA
036
05E
057
FF0
041
009
0A0
04D
042
0AD
025
FFB
FA3
04F
0AE
0D7
046
FAC
F5A
F07
FDC
001
072
F2A
0D4
07A
F73
F7F
041
0BD
FFA
F44
0A3
F54
0AA
F86
F7B
FBB
056
F32
F36
0CF
F94
0DC
F45
FD1
F08
0DA
F0F
00C
0BC
07A
FF9
0D0
0C9
02C
F53
F37
089
F7B
06B
F1D
F1F
FD3
FEF
04E
F7B
0BA
054
0A5
FFC
008
072
08F
FB6
021
0BE
036
F75
0CC
F39
FC6
FFB
FD9
021
F35
05A
FBB
F6B
035
F65
040
FAA
FCA
F99
07E
0D0
04A
F64
09D
0E3
FED
FE7
030
0C5
074
0D3
0C4
FD3
F9E
06D
020
FC5
FFB
FBD
00F
F72
010
FF0
046
033
0CE
07D
0E8
01E
0F0
F5B
FBA
F10
04B
01D
075
EFC
0D3
FFF
03E
06D
F37
04A
0D6
06F
006
F93
F7C
FD0
F76
F51
068
061
003
F10
F94
F85
0C9
FEC
FA4
038
084
0BE
091
05E
FAC
0D6
034
FC9
000
04E
0A3
F35
0DB
F7C
004
FAA
FA8
065
F17
011
FDF
0FD
F66
013
048
00E
FF9
0A9
F45
F44
F0E
01E
F3A
0E8
0E6
FBA
FB3
EF7
F83
0EC
0C2
F6C
FEA
073
025
F68
0E7
F15
