FE7
042
00B
0C5
035
0B4
0DA
F32
FD4
067
F90
F63
047
059
FB7
F53
FF5
06C
FAB
F15
09C
F76
072
FDE
F3E
F31
09A
F45
050
FF0
0A5
F50
F30
0FD
F2C
FBE
073
F92
04B
F47
0BC
066
F8A
098
FC3
FB4
F9D
F33
F52
0CA
FDB
0FE
0C9
F58
F13
FEF
FB7
0E0
F9A
0F4
0A7
0F8
F82
030
06E
F07
09C
07A
F16
F35
081
F95
FE7
FFA
F0E
F2D
FFD
047
F39
06C
FD4
084
F4E
0C1
FB0
F22
0C4
0DA
081
FA4
0A8
F4B
0CE
0DC
073
F33
071
056
0A3
000
054
047
080
F4E
FB2
040
FF6
FC7
F7B
09B
0A9
FC2
F55
0B0
0B5
019
FC5
F23
F94
F88
0BF
01B
01E
08F
F31
F17
FAB
F71
F2E
FBD
F25
0C4
F47
05A
F7B
0FE
059
FE4
059
0EF
F4E
0E2
096
009
FCD
F0F
F22
FDE
FA6
FFE
F29
0D9
0B9
FDA
0C7
100
FD0
074
F39
05C
059
0A4
0BE
F0C
FA3
006
F62
F0B
FF7
04F
01F
FDF
05C
FDE
F1C
027
078
FEC
049
F8A
071
017
06A
0EB
F48
F50
004
04D
0A8
008
F5D
041
012
0C6
F18
F27
F9B
F4B
011
088
F5B
F4D
FF2
F37
F83
020
FE5
F94
0C3
02E
0E8
F20
FC8
FDD
FF5
FC2
08D
0A2
FA7
0E0
F48
016
07D
F46
0E5
F77
F4D
FD9
065
F2A
03B
0BB
F6C
FA8
04F
0E0
056
F3A
F73
08E
01E
0A3
055
0FF
014
FD9
05E
F25
F9B
005
F50
FF9
F9F
033
F23
080
068
FD6
076
F46
09E
02D
009
F2A
F49
FBF
0A5
0BE
018
030
0BE
F7F
06B
0B9
0A0
FD1
071
0BC
F85
092
FEF
F03
049
F3B
F67
0B9
088
F2C
F27
0EB
020
0B7
0BA
0C8
FBF
F0C
0D6
0F3
089
FD7
F8C
F0B
0AB
FD9
F54
039
05C
F58
0F2
0AA
02D
04D
F7D
FF5
0D1
060
0D6
FD1
04E
024
036
FD4
064
056
07B
F80
F90
F46
F5A
FBF
095
FCC
065
005
0E3
FA4
067
F1D
F62
F63
F5B
FA3
FF6
FA3
03E
FA1
03E
0CF
02C
F65
F23
08B
F10
044
FD8
096
07F
0D4
F37
0BD
053
00A
080
0E0
F9A
F26
F35
01D
FD9
F25
0E6
F84
FA0
03E
019
0B1
FE3
033
02C
F30
F04
F3B
0EC
FEC
F7E
F22
089
F5D
F48
F4C
087
046
094
FD0
026
FD4
F92
041
084
062
FEE
FA2
F20
007
F81
FAD
F9F
F8B
FD0
FB4
F75
04B
02E
06A
067
F63
096
FFD
090
FC4
F4F
FF5
FD3
FBA
030
F16
FAB
F9F
F8A
008
056
FBF
016
FEC
0BF
0AC
090
FA0
004
04B
F0E
08C
00A
089
F17
0B2
F1D
0D9
F97
F82
F65
00C
05C
F32
00B
04F
081
FF0
F98
FB2
087
F11
0B2
F6B
FFA
FCB
F83
060
0D3
F60
F21
F97
F43
016
F19
098
F5B
0BD
F09
F67
F3F
F7C
F18
067
076
098
F9A
F79
0E5
090
057
034
068
0D2
054
043
F83
F48
069
00E
FE3
04C
F81
F32
088
F15
F18
0D2
002
04B
FB7
F4C
0B1
F5F
F63
F18
FC8
F5D
F9D
0A3
F6E
084
F71
0E7
027
FBA
F34
08B
FD2
F3A
FBD
06A
0A3
0DB
F29
F7E
F97
F16
F5B
050
06F
F21
09E
FC7
09E
02F
F69
07B
0AE
F54
FB6
04B
FE7
0B0
033
F11
F35
F9F
0BC
F18
FCB
F63
082
033
07D
F16
F15
093
0A3
FDA
05D
0D7
06B
049
FE1
FE8
09C
EFE
0FC
09B
029
FD9
01A
06D
084
0EF
066
F81
0DF
F97
0C6
021
F04
F4F
09B
FC9
FD1
0D2
08E
06B
F19
FF5
F50
0E2
FE9
F1A
020
006
0EB
034
0D4
020
F37
FF5
0F6
FC3
FBE
008
0F4
F69
F66
0F5
FF2
0FE
F9E
022
FFE
FFC
0E7
01F
0AF
FD3
066
FBB
FF3
F28
F06
09A
F4F
FED
F46
F26
FE6
027
FB2
06C
0C6
09D
07D
083
0B7
003
F6C
F46
F59
02C
0AB
FE9
0E4
F01
FE8
071
FBE
F2D
F6B
F17
FE6
096
038
05C
FA4
F89
FB1
F1E
01D
018
FAF
000
FFE
FD9
F59
08F
FB4
F5D
FDF
F0A
F2B
0B8
0A2
05B
F3C
F73
0D0
002
00B
F99
07B
07B
0D1
098
F50
FE7
F5B
FF9
FDF
F4B
0D5
FA7
F8C
FA6
F10
F52
0F1
FEE
0B9
020
047
FDB
0B7
F67
F85
F33
013
03C
EFF
FEC
F94
F07
0C2
08C
F30
FCB
01E
073
09D
FE1
089
06D
0DF
F16
063
F9E
F7B
FFE
0B9
FEE
F11
096
F4D
F03
046
FF1
061
0E7
FF4
00F
0A0
045
F4D
0F4
07A
036
0C8
F7A
07E
F0D
FFE
F5D
F7B
067
0B4
F0C
F92
F1C
0C0
0A1
01C
FD2
055
F31
FD2
F50
F27
F20
038
FC8
F9D
FFC
0BF
0DF
0F1
03D
F18
FDE
09E
0E8
F20
00F
0C1
F8E
06F
FEA
F75
FE1
FD0
00C
099
F9D
096
F22
FFF
F65
F84
00C
FC5
FC7
03D
F07
F2B
F14
F16
02D
0C8
F9F
0BA
F34
079
F94
0FC
FE4
0CB
0BC
058
00A
FC2
F79
0CD
090
053
074
FEA
0C3
FC3
FF1
F67
F52
0D9
0C8
F22
0D8
F56
F7E
0D2
FBB
0D1
0FE
050
FAF
FA7
0BD
F68
F54
F14
0EF
037
0D7
0D3
F8F
042
050
F1A
F6C
F11
036
F41
014
FBB
0FC
FB0
07B
047
FF3
FED
0AA
FA6
093
083
F2D
0EE
057
0E2
027
02D
00A
05B
0DE
07B
F0A
F79
FF9
FCD
FAB
0B1
F3C
0E4
02C
F5E
F9A
F79
F23
085
F35
F75
0CE
F88
FE5
F9A
FF3
073
F4F
081
01B
F8D
0BA
FAC
F6F
FD8
F10
FCB
FC5
0DA
F5C
06C
F4F
F8D
F90
005
073
F41
09F
048
F44
068
FA2
FE9
0E1
020
F00
F11
0D6
0AD
F3A
FC2
F90
001
F19
F96
075
FF1
F06
F0E
0CA
F35
F83
03A
090
F98
FCB
FD2
F2D
06A
FE0
F7B
038
03B
01A
F24
FDF
0D7
F14
011
00A
009
FDD
0B5
08D
084
0D1
F2C
027
FAC
027
0C0
FA3
0B4
FA4
FA4
0A9
F7A
F8C
0F4
000
0AF
066
FF9
0CA
0BD
F46
01C
012
053
F9D
FED
F90
F79
068
0E6
0C3
F70
0A3
0D4
0E3
07B
050
0C8
FAB
04E
F6A
FF1
FB5
F87
005
097
099
08E
0ED
08D
069
003
F9B
072
FF9
FD3
F78
F13
077
F29
07A
F13
F47
F91
048
060
FCB
0FB
F30
063
F48
FB0
FB2
0F1
FF3
078
073
FD9
F6E
F60
FE2
F85
F89
00B
0EB
0B1
F49
03F
0D9
0B2
0EF
FDA
0C3
00A
0B0
FC4
0BE
FB9
096
0DB
06E
F8C
0C8
F50
F92
07E
047
06B
F4D
0BC
099
0A8
FB8
F46
F4A
003
FB1
03B
F8F
FC9
068
0A2
0A4
F3A
F4C
037
FB9
F40
F13
FC8
FC7
F2F
018
FB7
F7D
0F6
F82
0F4
F0D
0B8
F5C
03A
01D
F8F
F0A
FA0
040
032
0F9
F9B
071
FE6
052
FCF
0BF
02F
FE8
F42
F98
023
09B
F42
037
EFE
FC7
0D3
FD9
0B4
062
FF4
FB1
0F4
040
F9C
F86
FEF
06A
00E
FDB
FA9
0D5
F43
F0D
0E8
FDB
075
FF5
F91
FD4
001
048
0EA
0AF
F3E
0CD
F1D
0D4
024
036
F3F
F4F
086
053
0E1
F55
FF8
099
059
053
0FE
0BB
05E
FB4
056
066
0AD
0E6
FD6
FEC
FEF
FF5
F53
059
04F
F6E
0DD
FCD
0F5
FAF
03D
FF4
050
069
F36
0C1
F4A
F02
F1B
096
0A0
003
FD0
06D
012
F9F
FAE
F74
096
029
0A6
077
03C
FA9
0BB
FE9
FD7
0F8
FB3
072
FE6
F15
07A
FD3
0C9
0F8
F1C
057
F6A
004
F38
FAC
05B
0D9
013
FEA
F1C
FF2
029
F67
042
F27
02D
057
F49
011
FF4
0C0
F0E
FEB
F2D
FF5
FA0
FB8
F6C
0D2
060
0D2
04A
F6D
02D
F73
0A3
F53
01F
0A9
0F6
034
0CA
F63
F0E
FA3
081
09F
FE2
065
067
F31
F7D
025
F45
F61
F78
F5C
F61
F45
00A
F3F
FD0
0AA
027
061
FD0
01F
0C1
005
FEF
F36
FD6
F39
007
026
0F8
F8F
F77
0E7
F32
FF6
0DE
0C8
F5C
F43
FE9
F4C
FEF
F6C
03B
FFA
039
061
01B
F63
034
F2F
0C5
07F
05C
F97
F96
F1E
F74
053
0CD
08F
F6F
08D
F34
00A
F12
04F
FEC
F63
061
F93
0ED
031
F51
00A
017
FC3
000
F61
02C
FE2
013
0D7
023
0BB
0F9
FB9
FE0
F41
F38
F5E
FCB
FC0
F9B
0B9
F06
024
F10
0B1
0C3
F85
F0A
0BE
0BD
0A4
FF7
03A
FD0
F58
F71
FF1
08F
0C3
F48
08B
041
076
F26
FB3
01D
F6A
FAE
F50
F37
044
FBE
F11
0E6
FF5
02B
FBC
F17
056
F73
0D0
FC5
017
0B1
004
F17
F92
F9A
F0C
F93
F21
0AF
0FC
003
00C
F80
030
03A
02F
059
F56
059
FB2
F2F
04B
0C0
FA4
03C
FEA
001
F4F
026
FF4
F0F
01E
02C
0E7
0DC
FA2
005
F15
F7D
F84
F50
0EA
0BF
F64
EFD
FB9
F7E
0E5
070
084
FA7
0B6
095
F02
0AA
F4B
0AA
078
F6F
FF9
0E6
F99
F95
0B6
FF9
F46
090
030
F6C
0BB
FF6
0DE
F87
021
F4F
F78
096
F30
FD3
09C
001
F9C
094
0DF
F79
F91
03B
FD1
0BD
0CA
097
041
092
025
F24
0D6
FF8
082
F31
F67
068
0BE
0AE
01F
007
FEC
05B
058
08E
FBE
0B1
072
F7D
F3B
FF4
01F
F2B
058
0D4
075
077
F59
057
F35
FEE
F00
F3B
FD6
008
F2B
F25
0A5
FDD
F40
0A6
F0C
063
096
F25
014
097
FA7
F7F
0E0
0E5
070
F2E
069
0DC
01F
067
FC7
FEF
0DA
F96
FB9
09A
F44
0A8
047
F8B
01B
F2F
FCA
F1C
FA7
01A
FD5
FCE
0F2
050
FA4
FD0
0D4
F69
0E2
0BA
0E8
02D
0DE
087
FBC
F44
F3F
028
F01
0E8
FD1
FE5
F9A
063
03F
000
09C
00B
062
F68
05D
F8D
F86
F4F
FCA
02D
F37
F32
0D9
034
F65
0FA
F29
FB5
F0E
088
F93
FB2
F15
F25
F91
027
03E
0A2
012
0A3
F0D
F5E
F28
FDD
06D
0A7
0C4
F8F
F70
03B
FAE
F24
05B
0AD
FD5
FF7
F81
F80
FBB
07B
092
0ED
0EB
FFF
F7B
0CC
022
F90
0D3
F4B
F43
F69
0E5
F76
07F
027
F40
0ED
0EB
FDC
FB3
022
F79
0A2
0D2
F84
048
F41
F5C
0F3
035
FC9
F54
035
078
073
096
0DA
F5C
F0B
0CC
08E
F8A
FD8
07C
F28
F0C
051
0C8
F3E
03E
F17
066
F5E
F1E
FB3
FF8
FCA
041
F26
F13
F23
013
0FD
0E2
042
F11
F42
00D
FF4
FC7
F4D
F24
080
FAE
F3C
09D
0CB
F04
025
00C
088
FF1
FAF
F45
F2B
07A
052
02A
0D4
090
096
08A
0C4
05B
FF8
0A0
F9E
0BB
F33
04F
02B
0F2
090
098
054
FB8
062
06A
04A
0E6
005
FA1
049
FEE
F3A
06A
FF3
F9D
F41
0B0
09E
FB3
F07
F3B
0E7
F14
05A
FDF
F8D
F3C
F52
FC1
0B2
0EB
075
F33
F38
062
0C3
0D6
F93
FAB
01D
F6D
FA9
FFA
0ED
022
0D7
F6A
0D0
049
08E
F43
052
F11
FA4
F61
034
0D2
FBA
F4A
FDA
F88
0A1
F22
FF4
FF5
0AD
F02
F34
037
F56
F56
0B6
091
0E9
F78
0AF
060
05F
0BE
0CF
023
FF7
0C8
FDF
FD4
F27
FA7
0CD
F71
FDE
01D
0F8
0EE
022
F1A
F91
07B
F69
05B
F5E
F56
0F4
0CC
034
01E
01F
F8E
06A
FB2
F80
F83
F56
018
076
07C
F82
FE6
0FE
F02
F0B
034
02E
08B
FA4
F8A
FED
FD5
F99
F8F
093
FD6
FE9
FD5
085
F47
00E
F57
FB4
F2C
FEA
F11
0D3
FBF
F7D
063
F28
FAC
F56
FB1
F92
002
08A
0EF
077
F43
F62
0EC
01A
FE2
003
FE1
009
FBA
F89
F7D
F3C
FA1
F09
0A3
F28
0AF
F4B
06F
04E
007
0FB
001
041
0F7
077
FAE
0BC
F64
FA0
0F5
F74
0E8
F2E
08B
F05
F4A
027
0EF
F06
F30
096
03C
046
02C
00D
FF3
053
F41
0E2
03E
F75
09C
EFF
FED
FFF
090
F35
020
0CA
06D
F4A
F6C
03D
F92
016
FC9
016
F56
F09
F59
047
06C
0F1
003
FA3
F92
FC6
0A7
F4F
F43
F5E
0BC
F92
051
08D
0D1
02D
FE4
F0F
078
F86
F2A
06A
FBD
F91
01C
07B
FB1
043
0FF
0D3
012
FBB
FE9
00F
0BB
F0E
042
F29
F24
F16
F17
F1A
FCF
016
F5F
FF8
022
077
F74
0BC
0BB
F1E
FDA
018
FE4
0D2
06A
094
F49
FAC
FC3
F85
08D
F94
008
F9D
EFC
FC8
069
0F4
0FA
0B9
FB6
049
05E
0EF
0EA
0ED
FED
F7F
FBF
F7F
F70
001
F58
FBD
FB5
096
042
07D
FFC
F72
F36
06D
F75
0CA
040
F43
FA3
FD6
FDA
03E
0F9
FB9
FE0
0B1
FB3
F3A
07A
F7E
FC1
F78
FC3
046
F82
FD7
F26
09E
040
0DA
F71
065
0FB
F31
0FB
FC9
F89
FFB
015
FD5
00F
FE8
0C0
F13
005
004
F0E
02E
F12
F54
0C2
FA0
0D3
060
FFD
0DA
FDB
F50
F9A
FE8
F88
F65
03E
063
082
031
022
F64
0E4
FAF
FC5
F83
060
FF3
0B8
028
FC3
F4E
F7E
F46
083
0DA
F76
FAC
067
F58
06A
019
F80
F68
0D8
0D2
01A
03A
F85
F61
068
FF9
FAF
066
058
F32
FA1
09B
F37
0A7
0D5
06D
F33
048
FF4
06F
F58
080
093
F57
F54
FB8
024
FC5
0F7
05B
028
F61
F44
F92
F0D
026
FC9
F5B
F6A
F55
F40
0D3
0D7
FA2
F0F
0D2
04C
FD4
018
014
FA4
F1A
FDD
02B
FCD
0CE
F6D
058
062
00D
F81
006
013
032
002
EFE
0C7
0A5
0EC
0BA
F10
F03
F4E
081
F9D
F4B
F87
084
FA1
F38
F9E
FC6
FE6
0D1
0C9
02A
FE5
0F3
0B5
02E
FE7
F46
0B6
F16
FF7
05B
F47
F5B
F8F
F9C
FCA
F3B
F3C
F42
0FA
F04
0E6
088
0A3
0BB
F46
09F
0F2
F9B
F9A
007
F1B
FDA
F8F
086
02A
032
0A0
053
F2F
FC7
079
F21
FEE
FFB
F05
0A0
F10
0B4
F55
069
0B6
FA1
0CB
05E
F5B
F3A
FFE
F81
078
075
03B
080
0C0
0E2
02B
F82
F14
00E
06C
F40
FD6
070
0D6
0F0
F43
034
0CA
026
F19
0BD
F40
F19
FB7
FA7
0A4
F3B
FCB
FC2
F10
0BD
F71
F78
039
002
FC4
009
037
F24
05D
F73
0FD
F52
F7A
07D
080
FF2
0F4
FD2
095
FDC
F64
FC6
010
F35
F02
FDE
067
053
00C
F8C
FB4
F69
0F2
F95
0E1
03B
008
0D8
F45
F2D
F46
F13
023
078
FF4
0A5
0A9
0B1
F5F
F67
09D
F79
FAB
034
FE4
FEC
0D9
09F
0E0
054
FDB
042
0A8
F6E
F78
04E
04B
FDC
0CF
F85
0DD
048
FA8
0CD
F77
026
FC1
09B
FC0
FEF
072
024
F0A
FDA
F3F
FB9
0A8
0BA
FE5
0EF
FED
F02
F4E
0E4
FFC
0B3
F29
FBC
0D2
0ED
F7D
029
F4A
F37
0BE
FD9
F66
02C
066
FAB
0E4
0F7
F4C
092
F6F
08E
F2F
01F
F69
F03
0A4
078
033
F84
0D6
0EC
F1E
FF6
068
F58
07A
027
0DD
F42
032
FCE
F9A
069
F43
013
070
F45
F40
F6E
0CC
02D
FA5
0E3
FDC
FAC
0C9
FEA
F76
08E
F1F
F91
F06
0D3
099
018
F5B
F5B
004
0B9
F73
007
F01
F99
F4F
060
0BA
0BE
0EF
0FB
EFC
FB1
FA2
FC7
FC0
FCE
0CF
023
FDB
0EB
0DC
F4C
085
021
088
03A
FA8
FB7
FDF
FA9
0D2
0F9
FF2
FE2
FCE
FC4
0B1
02F
F5F
03E
F5A
02C
F75
F98
F07
024
082
0B9
076
FFB
0CC
F5E
FCE
0E5
0BB
FD6
07E
FFE
0D0
04F
F00
0E6
FF6
FE1
F7E
000
FD1
F4F
FFE
00D
09E
F9F
F7C
F1C
F1B
F13
FD0
F13
057
0CF
07B
0B5
0F1
0BB
077
0FA
F40
047
F91
00D
0D2
FC1
F21
F09
FEC
FB2
F6B
FEF
0E3
F3D
0B7
F75
063
0CA
FCF
0C1
01C
F84
0EB
FE1
F5B
FA9
0C3
070
F41
F15
F36
03E
07D
FE8
FDE
F22
F69
0BB
F09
048
06F
06B
FA0
F2B
FE5
F80
F84
008
F0C
044
F51
F1B
0AC
F64
000
EFE
F57
013
F23
FAA
FCA
F44
FA0
01B
FE5
F61
FDE
093
F13
0FE
0FD
06B
F99
08C
F72
0FB
07C
FE4
F72
0C8
029
0D3
FCD
0BC
FD1
FBA
055
0E7
FBF
FB4
0EB
FA2
FA8
0B3
F84
017
0AB
090
0BD
F9B
F03
0AF
067
0FA
FF1
019
FED
029
FFF
0EF
F94
FE0
089
0BF
F0A
0EF
FDB
02E
FD6
FD3
04C
F29
FA4
053
FFC
FDD
F3B
F5B
0EB
05A
098
085
F4C
F6E
F14
F14
002
FE3
F96
0DE
001
0B7
F96
F60
021
F08
FEA
0A7
0EE
F2D
FDE
05A
08A
01A
04C
067
000
065
04B
019
F70
F05
F11
0E8
F48
0C2
0D0
048
F38
F1D
F6D
00F
05A
070
032
F6C
F75
F56
F6E
07A
F7F
0B7
F6E
094
004
F1D
F13
05C
FBE
0F2
062
0A4
0B1
F09
F23
0D5
F5A
F17
09E
0B5
F6A
F72
F46
FEA
FB1
F0D
FD6
FA4
07B
FB9
0D3
F45
01F
F26
05B
05B
0D5
0FD
FE1
0DA
F54
F0C
FD4
FDC
0E3
F51
F35
06F
FCE
F78
FAC
03C
F88
F6D
FEB
F4D
F7D
099
F9E
FA7
060
0B3
084
FD1
07E
F79
0ED
035
FD9
F53
F2A
F85
0F7
F04
F08
FC8
066
FCE
FEE
03B
F80
F47
F9C
FD8
FFC
F0F
F7B
051
F80
0E1
077
050
0D7
F87
FC9
042
F09
00A
044
00A
037
0F9
EFD
07D
01F
F4E
F1C
F85
F86
FE3
F46
F57
0DA
049
0D0
F3D
0F6
0BC
041
09B
FBE
FC5
F5E
03B
01B
0AE
057
F44
FE6
F3C
FFD
F62
FA8
0D3
FEF
FDD
0B7
0F0
03B
0CE
0E7
F3D
F61
081
F82
039
095
0EC
021
FAB
081
F66
F05
006
035
F22
0FA
0A4
07C
F8B
0B9
0D8
F0C
014
FDB
049
FAB
FD7
0A7
F50
030
F33
F7A
045
007
0E1
083
FB2
F71
F8F
088
00F
FDF
0FA
055
F6A
F0E
026
020
FF7
FB0
F1A
F5F
05A
03E
FCA
FB7
0A5
0FB
01D
FAD
FA4
0F6
0A7
047
0A3
056
F4C
0CE
027
F91
F24
0E8
084
0C3
FE2
0F4
0C1
F23
F0A
03D
F9D
FB9
00D
F3F
FE1
FFF
FB1
08E
0F4
044
F09
FD9
F6C
F40
F24
0C7
051
FFF
F1C
FEE
F82
FCC
081
FE8
03E
F60
F18
F38
06F
FB1
033
0AA
F75
FD1
F3D
F53
05B
FD7
017
F33
FA4
FE1
FE2
01B
004
071
F26
0BE
036
0E7
016
0A5
F4C
F50
F23
0DC
FE4
06D
0E8
FF7
F99
04B
FEA
024
FA2
FF5
030
01C
F45
081
051
F51
FAE
F28
F5C
F06
0DC
FF0
0B6
F62
F89
F9A
055
075
FE3
090
0DE
F5F
0B3
F1E
010
0A9
FEC
0D8
F62
FE9
000
0D0
FFF
031
F28
FCC
055
093
F8B
F70
089
0BC
F62
0DC
F2E
FA9
009
F90
0CE
02E
0A0
F3E
F06
FD6
02B
FBC
005
058
F88
09F
F53
FD5
FAA
F34
F76
00D
03D
F99
F50
078
0BA
F30
F28
045
004
096
F1C
F94
098
FD2
FCE
F0A
F8B
041
F18
FE7
044
07A
004
F29
FDE
F33
FBC
FA8
FA1
094
0D8
FC1
08F
0FC
FA7
F06
087
0EE
0A5
FFB
018
0BA
084
0B0
FC7
FDB
FFE
013
08B
024
0C0
F3E
F29
0B4
F34
F5A
F04
FF4
0C9
FE3
05E
04F
07F
09D
006
F5C
FC5
F10
0D5
FCF
F4D
FE3
FDB
FC0
0DC
F3D
FFD
07A
F06
078
F76
F1D
F6A
0F4
026
F24
FA8
076
0C9
FC5
F5D
F44
F13
005
04C
0CE
057
0E8
047
FE9
0D2
F4A
003
FB8
02E
F7C
064
FA5
F74
FD7
FD5
0C0
F4F
FF9
FEE
FA6
03A
0B5
F5A
F20
031
0D0
F39
079
037
040
FDF
F0D
F3D
01B
067
F5E
0EA
F65
FCE
F25
07F
082
028
04F
F7B
F0D
026
069
F30
03A
F7E
0AD
07A
005
F2A
F42
090
0F7
FF2
0F9
05F
FA2
059
F74
0F3
035
0DD
066
0BC
08A
FF1
FBB
08A
F59
FE9
0DA
04A
F1D
0A8
0DC
034
F4B
F74
FF7
FF2
0CE
039
0F1
FF0
F26
F1B
03E
FEF
FC6
0F7
049
F7C
08F
FB1
096
F65
F81
F78
F9A
FA9
0F6
F54
F0B
F3E
F43
0EC
FA4
F1F
043
FE8
0DD
06C
F83
064
F28
011
FD0
FE5
FE1
0E3
0B9
FD7
F0B
04F
F82
F1C
090
F22
F45
F30
F86
F9F
F00
F45
FBF
F19
FAC
078
0C8
0FB
008
F02
043
FAF
0E5
F05
0AF
F54
091
077
FC1
0D7
00B
FEC
0C4
00A
093
F3C
FCF
0ED
F88
FBD
F25
F0C
05E
FFD
FEE
0E5
096
FA2
0F2
F97
060
0A8
01F
036
F7F
02F
050
FCF
0FA
06D
06E
F83
046
097
0DD
FED
028
035
023
0B2
F04
0B4
02A
0A2
F88
02A
0E3
0D6
FAB
00C
09F
F8C
07D
049
047
0DE
079
FF7
FBC
FF9
016
05C
0FC
F66
FA1
FDD
FF0
F0F
02A
F26
FB5
00E
0AE
F63
02C
F65
0E9
F73
F4C
01D
FD3
F05
F32
055
FE2
FED
06A
F78
F7F
070
F5C
07F
F65
0E0
09D
0FB
001
F3F
01C
052
F3A
FD1
0D7
0C9
0BD
F0D
F13
F58
02C
02B
F02
055
0E8
0F6
F61
0AB
0C9
F70
022
F3B
012
F2E
FBE
02E
F18
0E0
F00
FD6
0AA
0EC
011
07E
07A
FE1
FCE
FC1
0E4
F2C
FAA
FA4
FB6
092
0F4
0E4
0CD
F36
0E2
FF3
0C3
034
F61
05E
097
F69
081
045
095
0CC
0FD
F6B
F30
038
FF6
FC1
0F9
F59
FE7
F9F
0F7
FBA
FCC
F96
0B3
0F9
032
009
014
027
FA0
01B
0A0
FD7
F7A
FBA
086
069
049
F8D
F91
F60
0C2
0B8
F1D
FBB
F29
040
09F
0C2
08B
F84
03F
03B
0B2
FA5
098
0E5
00D
FAA
0DC
07D
0E9
FCB
09E
0C9
F33
05B
FFD
058
F48
F05
F3E
F8E
012
F72
F86
059
0D7
F72
F44
0E0
F65
060
044
06A
099
042
F4C
FCC
09D
093
017
068
F24
FE9
F16
0B4
0D8
FA2
F2C
FC9
F2B
FAB
F3B
07B
059
F8E
FBD
007
058
F09
FFD
00D
FB9
FC8
0FA
F8D
F87
F6A
F2E
F01
FD8
FDD
F7E
F92
0D4
FD5
012
FD9
0D4
003
042
0A9
0C2
F61
FAB
F1C
F6A
07B
F15
FE3
072
018
003
00C
F9D
063
044
F46
FED
076
FBF
075
04D
080
03C
F8C
F09
F0C
0D9
F71
FDD
028
0CB
F5C
079
F8E
0FD
FE7
FF7
F3B
F36
FD0
0CC
FF1
FCC
F8B
02B
0D8
021
05A
FC7
00F
FCE
0CA
03E
F6B
0CB
F90
F18
0B3
0C5
F4F
0D8
FBC
F32
009
08F
037
06B
F1A
003
010
054
FE9
FAB
F1C
0EF
FC5
FAB
FC2
0E9
0FD
F48
F41
08C
F18
F4C
F46
F7C
FBC
0C1
007
0BE
F97
0B1
0AC
FB9
F5F
073
FA4
FCD
0EC
F3B
050
F54
0E0
013
0F5
F66
01D
FD2
023
03F
083
0A1
0E1
F46
F5B
FAC
099
F8E
FE2
F5A
087
F21
089
050
F9B
09B
0D3
FF3
F42
099
06C
036
F1D
01B
055
02A
F3E
FA2
FF5
0AE
0A3
F1F
FF2
F19
FDA
FBA
055
085
F40
012
0A5
FDD
02F
08E
0D0
0BF
FAF
F57
FE5
F90
0D5
FC1
07C
00A
080
0E0
0C0
0B3
022
F78
F30
00B
FEB
F28
0DB
F09
074
050
F24
054
F0C
0DD
F6A
047
F50
F05
F8E
0F6
002
F7F
F17
006
F7E
025
FAC
003
FB1
0F8
F4F
017
F59
FCA
072
F2B
F05
06A
F09
FD3
FF1
0AE
04F
F6A
F5B
F3D
FB6
FF8
0EA
0C2
00C
085
035
054
F51
018
F69
01A
F1A
0A0
FB5
08E
FD2
0C4
031
F9B
F90
F6E
0C4
F84
0FF
084
028
0EB
FBA
060
FED
0E5
0D9
FEE
F23
0CB
FA3
006
F46
060
0AA
02F
026
0AF
071
F18
FCF
078
01E
02D
FFD
F57
101
F1C
073
FDA
FB0
FFF
0D2
F58
0E6
0D3
0FC
FBD
0FC
F4C
0F4
F29
FAF
FF6
F00
015
093
FD6
F7D
FC7
F42
05E
F12
05B
0FF
01E
FD4
023
F08
FCE
F80
0A6
F06
F46
F71
FDF
F52
FAB
05F
FF6
086
0BB
0AB
F4C
F95
0AD
FAA
F0D
FCD
FD7
FE2
032
082
F8C
F4D
0E9
021
010
F94
FA8
0FD
09D
FC1
FCA
0B1
F66
0D1
FFB
0D8
F10
0C2
F0C
F3A
02F
0A6
F20
049
F79
01C
F74
069
F56
F46
0E2
F74
09B
033
F3F
0D5
FA3
0E7
086
F6C
FC6
018
FE3
097
F76
F38
F03
FC9
F76
F8B
013
F93
03D
059
FE1
F65
0F2
04B
FE5
05E
F65
F59
061
FD4
05E
055
F0D
F10
06E
0F1
072
F46
077
097
01B
F6C
095
F00
F9D
F89
F07
FF5
F09
F9C
F74
02F
F49
