0CF
036
F79
03D
0CE
F5F
0CE
FEA
0E8
00C
F06
F01
0FC
F31
0E0
0F6
0AA
F01
FB2
07F
FE4
F39
FA6
FC2
0C5
F87
EFE
FBA
FAD
F05
FEB
F7E
0CD
F20
066
0DD
F71
FB1
03C
F38
0A9
0AD
0A0
09B
0CE
F9C
FC0
0C1
FFF
082
F7C
02A
040
0B3
07F
027
F9B
F95
039
0DF
F46
F5F
0A4
F79
FCE
00A
F81
0FB
03A
F72
FA4
0C1
01F
037
052
FB4
023
0F9
F76
FCC
F77
FDE
FE5
F95
08D
F1A
F0C
F26
0E6
FCB
0D7
F40
025
031
FA6
FCE
09D
F77
F23
FFB
F90
0D8
0EB
F64
F46
017
021
0A9
0A7
028
059
FCF
F87
F72
0B1
F6D
F51
FC9
0F3
05D
FBD
F92
FCF
FB9
0EC
F47
F8E
0C4
04C
077
F11
00F
F10
091
FE6
F42
F82
FC7
F7E
0A9
0D3
FF7
040
FA9
FA3
FE9
F74
F2A
077
F91
051
FBC
FC5
F3E
FB8
0BD
06D
0BE
F13
04C
F84
FFC
069
FD9
01F
04C
F1B
01E
F41
01E
F52
0B3
085
010
FFE
02B
F3A
F30
08F
F32
05C
062
F42
0B6
06A
FFF
00F
F87
F70
0A3
0A3
00E
008
F98
F10
F0B
FF4
FDC
FD3
FFF
F36
076
FA4
09F
EFE
F79
F88
089
F88
075
09E
FFD
02B
060
0EB
FBA
FB6
04C
072
079
0D4
0E2
052
F16
040
FA9
0F6
F9F
0A7
034
04E
F17
F7B
F40
F75
0A9
01A
066
027
F0E
F67
FFA
08A
056
FFA
0EF
F80
F12
F34
F4E
F18
FA0
0CA
033
009
F09
F82
F18
FA9
026
06D
F9F
0AB
0F2
029
FDF
F85
FB9
FD7
F6E
F60
FEE
0CA
09E
F0E
F33
F62
08D
FDE
FA7
025
FEA
03F
FF7
078
F23
0AE
087
F4A
084
FE9
064
0B2
F62
F74
F39
06E
FBF
FAF
07B
044
02B
FDC
0A4
0E0
0F7
0D3
F90
043
04E
F7C
FC2
F1C
F98
057
FAC
F92
F0F
001
FF9
01E
FE5
FC1
038
0AC
FAA
F21
FDA
FDB
0C7
07F
FB4
F66
0EB
048
0B3
0DD
09E
04E
FF1
0A9
059
F54
017
0C6
074
0C9
0AE
FF7
F06
0DB
F9D
FE2
F27
0A0
F8C
0F8
F03
025
040
0AB
0AE
FCC
F2F
062
F01
076
F34
054
F7B
013
04E
F9D
00A
075
F7E
F11
F8E
08F
0C6
F46
F5E
FFA
FBE
FE5
F8F
0CA
0ED
F68
04A
F06
F23
051
015
F54
0DE
FE6
0E6
056
017
02F
F2F
0CA
09D
FAE
F1A
FC7
FFF
F00
F76
0B6
0CE
F20
F65
F51
F09
F72
FB0
FA9
F07
FA4
080
FA7
0F7
0F0
F9B
0B0
FBB
081
04A
029
F73
016
F87
F8C
040
FD9
F12
F63
092
FE0
F15
004
F1A
FF8
06F
FBE
FEF
F86
F4A
0AD
029
048
023
FF8
F34
0DB
F6A
F8A
0A0
092
053
F29
087
0A2
05C
F13
F08
0C0
069
FAE
068
0F1
08A
0E3
FBB
FD6
F24
F39
F4E
095
070
084
FB1
0C2
F95
FEA
050
0A9
F60
0A3
0C1
F60
FA9
F5C
0DC
019
086
060
FFB
F29
062
06A
034
F64
0CF
01B
F16
F54
0D2
FD3
F1A
FAB
0ED
017
08D
0AE
F44
F93
019
FD6
F85
0D6
0A2
F3A
08A
09F
F9D
F41
FDF
FEB
088
F6B
019
F8F
F5D
F7E
08A
F8B
0E5
0AB
F61
077
FF3
0CA
033
F89
09E
FB2
09D
FA4
F01
030
FA0
F2F
03D
F2F
FF5
F10
F9A
0FC
F8D
FCC
F94
055
003
066
F76
089
F31
0EB
FDD
F3A
059
020
F8F
0FD
F13
08F
F9D
FF4
F12
01E
00E
F18
FF2
048
0BB
FCB
F22
0E8
F2D
F70
0C2
0BF
044
FA7
060
07B
00E
F85
008
098
01A
040
01F
FC6
FEB
08A
FFC
F47
0B4
F9A
0C0
039
F6E
F32
F77
02A
08E
0C2
FD4
F98
F20
F21
F1D
0FA
084
F71
02C
088
08B
084
FCB
F71
087
09C
0F6
F79
F04
FEC
F1C
F2F
F60
0F4
0CB
F26
008
0B1
F7F
F2E
F2A
F0B
F01
F8A
027
F1C
F9A
FC6
0F0
F21
08D
F63
F0E
03E
F52
0DE
FCD
FCE
003
017
02F
FC1
F10
0F4
0D1
F6C
F67
041
F13
F83
FE1
0F7
F80
FF5
058
F77
069
00A
FC4
08B
074
0D6
FF1
0D6
032
0E0
FD5
FBC
0CC
F02
F5C
056
F83
F02
0ED
04C
F1F
F4E
F6D
0A8
0D9
F9F
097
F84
F1C
05B
F21
FD9
F50
F60
06A
0E3
08C
05F
022
F09
00D
08F
F7E
0F6
050
F91
05F
052
F79
05B
0BC
029
FA0
FEA
FFB
093
F05
0E1
0FB
FC9
F94
F30
087
F36
0AE
F6A
F03
0D8
074
FC0
022
F22
0EC
F77
065
F42
0C1
03F
01D
FC8
FE6
0FD
013
FF0
062
017
F9E
FFB
FCC
F75
0ED
F21
FB5
02C
08B
043
F7A
0FE
080
F52
F9B
001
FB3
FF6
FEA
0E9
09B
FCC
0A1
F9F
FCC
038
004
0C9
FBA
0D2
FAF
092
01D
FB0
06A
016
02C
F27
00B
026
FD6
0BA
015
F6D
05C
07D
08A
071
0D6
0B4
096
FAC
EFF
F02
F6C
0A4
008
FB3
081
F74
FC9
04A
0C7
F8E
01B
F82
0C3
05B
FD7
F78
0D8
0C1
FAF
0BE
F2A
FE9
042
039
FFC
F6A
0D0
FF1
076
08D
F61
F78
050
F9E
F5A
F23
0A0
0E0
08F
071
F40
F43
068
FFA
0F3
02A
FD2
F41
00F
0BA
0B0
043
FB0
F22
F04
0C0
060
015
05F
0B9
F1A
0F3
0C9
092
FB2
044
FA7
FCC
0C3
F4B
04C
0C1
04E
F97
FE4
0CB
0BD
F6F
F66
F00
F8D
006
005
FA3
F2C
039
F62
0DA
016
0BC
F05
022
F39
F84
0AA
0BA
0B7
F36
0F0
07E
F99
F93
FEA
09F
F1E
084
F6D
F25
FB8
FC2
F2B
F8E
F72
FB3
F93
06A
0D7
FC0
0AA
099
FF1
FE4
034
FE1
07C
076
042
FBC
EFF
071
F8F
F8D
0EC
FCF
094
F0D
FA4
FFD
F2B
F3D
FF2
02C
011
004
F35
091
065
F01
0B3
FD1
FA9
F1E
06D
0A8
FEC
F19
FEF
036
F51
FC4
F3B
F71
003
08C
01F
FFC
F74
017
F2C
00A
FD4
F8F
FBE
F2C
028
F13
FD5
0A5
FA8
FB9
0BC
0C7
FD4
FFA
F66
F56
F19
FB9
F82
0A1
FF4
F6F
0AF
02C
FCB
F15
0BC
F73
F78
FFF
051
FB1
FC7
FDC
0B4
F17
FEB
F9C
06D
027
0D3
0D0
FFF
09C
0A0
077
097
F9E
FC0
F72
F18
F18
0D8
0B9
FAC
061
019
04A
038
0C5
F5E
05D
0D6
005
0B4
027
F59
F55
F2E
F75
084
095
F8A
03D
026
FF7
056
F5F
F97
05E
FD0
F25
F55
FA1
0CF
FC8
FBE
F22
0C3
F13
0E4
F7D
057
F76
057
FFC
004
FAF
0CA
02A
F1E
F55
F12
FBE
FE1
0D6
F5D
FF8
01A
F5D
F4E
0AC
04C
F43
08B
0E6
F6B
EFF
0EB
F2A
F3B
F69
043
073
0C4
0E8
FA0
0A6
0AF
092
F2E
F24
0B5
055
098
0CE
F22
F38
FB3
F8D
F63
0B5
F74
F19
042
F8D
F64
F99
FA0
0AC
019
020
F31
005
FDE
F35
F62
F95
059
F86
086
FE1
013
08C
FE3
055
045
07F
024
08F
0C4
0D0
0F8
015
FD7
0D3
FA8
022
0BD
058
FDB
F3A
F81
0AD
069
F8E
055
0B6
07D
0A5
F1E
FB0
090
0A0
058
F39
0DA
F28
FB0
090
0AB
0BB
F5E
F5B
F68
074
0DC
0C3
0AE
073
014
F6F
FB5
0E8
FC3
07B
F86
08B
F70
F80
088
013
077
F4D
FF3
FE0
FE5
F61
FAD
FFD
0FC
056
F6A
03A
FBF
FB9
092
FED
08C
0DF
F8F
077
078
F44
F59
02A
FA9
07E
05B
039
F03
067
032
022
043
F15
F67
F8E
093
F24
0C1
092
F2B
033
FF6
052
FC1
031
F87
FDC
F9E
0C5
074
F3B
043
F26
0DE
0B1
0E0
FCB
FBE
060
0F7
0A6
FB8
01D
0D7
05A
F76
F66
01D
0C0
F37
F64
042
F9B
07B
03E
070
F03
0B5
FCF
0C2
FB6
0D0
FE3
009
0FA
F86
FE5
FA2
F8F
F8E
FF6
055
F4E
068
0E9
0D4
025
F3C
F6E
0B7
0B3
FEC
FF8
05E
010
0A9
F76
FF6
F92
F56
0C0
0BD
044
F85
0DE
066
02D
FA6
049
F21
024
00D
091
08E
FDB
060
F5A
FCF
F4D
086
F24
F7E
0DA
011
0B5
F8E
F21
FB7
FD7
037
02C
035
0B9
0E3
F5C
F38
F58
0A8
0D5
FA7
003
04D
088
087
0DF
F06
0A7
F38
08C
002
F06
08C
FF8
FF9
F54
007
011
FFC
00B
F99
02A
0B6
FB9
0FA
073
000
FA9
027
092
0C6
F51
09C
04B
FE4
FEB
F39
02C
FEF
014
FB8
0D2
F51
056
F68
0CD
FD2
083
FAD
0E2
0D0
0FE
FF9
02E
0B4
032
001
F6F
F0C
018
011
009
FE3
0D2
F6B
FCE
FA0
058
FDF
082
F20
F70
012
F39
FBD
084
0CD
F83
FDF
055
FBF
03F
017
0F0
F1B
09E
FED
07F
08C
FFE
F12
011
FF8
F6A
054
FEF
0CD
F45
070
FA6
0B1
0D7
0D6
F8A
021
F69
FDD
F8D
0B9
F5D
05D
F9E
FA1
071
FDD
0E6
FCE
08E
FD5
F65
F06
01F
F7C
05B
F9D
F18
099
F4F
0C9
F54
066
FA3
07B
FFB
F04
FF7
F57
0AD
016
095
FB2
F8C
F0B
0BE
F69
03E
F81
0DC
042
FC2
0BC
F18
F96
F20
0A8
0B9
0CE
020
F48
FB2
F7A
0F2
FB9
089
F65
FD8
06E
069
FD5
025
023
FF7
012
0C4
F4C
FB5
F3D
07A
0AD
FF6
05F
F66
F9C
FA6
F5D
0B2
F34
FE6
FD2
F2C
01D
0D7
F51
0AF
F81
0E6
F09
F9D
FF7
F45
F4A
04E
F69
FE3
F8C
022
F56
06C
08E
0DC
FE3
03D
077
09D
048
032
05D
F7C
04D
0FC
02C
013
F21
03C
F4F
088
F34
0CA
F3C
09B
F09
045
F6B
F78
048
02F
070
F09
078
0C3
0A3
F3F
FAD
00C
0B2
FCD
F2A
F44
F58
F6F
0DD
04C
035
0D5
0E5
FB0
F82
0FC
F84
F19
0EA
03F
F8E
049
020
F4C
F2C
F12
01D
0B1
090
FA1
F56
01E
F39
F32
FD4
0C3
FCF
087
09E
FEA
02E
08B
F45
F40
034
F1B
FBB
F81
05D
FF0
02F
064
0F8
F1B
FA6
F84
FA1
FA1
011
FE3
001
FDE
0B4
F35
0C1
029
F00
090
FDA
046
FE5
01D
033
0A8
F59
FF5
041
F59
FDF
035
0F3
F57
F9D
010
FA5
F39
F34
FF2
F2D
F41
016
0B9
0C5
0BE
082
F9F
F85
FC5
FB4
FD3
F6B
007
014
F71
F73
FDF
F42
090
FEC
F5E
087
F7F
F4A
F63
006
F30
0BF
042
F3D
F04
018
030
F38
04A
FB2
0C4
05E
0CC
0B8
08C
F77
0A8
035
FBE
F3E
FFB
0D1
FC2
FDB
F1D
FEB
FD2
F1E
0ED
FA4
03A
04D
F9E
02A
066
FCF
072
F82
00A
0AB
F0D
F08
073
07B
083
F75
0C3
F0C
07F
01B
0BB
F30
04F
F43
FDC
095
F7C
F64
F93
F38
FEB
FEB
07E
03A
FF5
FC0
092
F43
FE3
FD8
FD4
FC4
0D2
F80
FC8
F5D
0F1
0E4
FC3
F3B
01D
FD9
029
FDC
02B
046
F77
048
0D0
F45
0A0
019
FF8
F2D
F56
0C7
F8C
FD1
F40
FC9
05B
030
091
F71
077
0C5
FDD
051
F60
FBF
F41
F53
F83
F40
066
FC3
03A
0A1
0E9
FB6
05F
0BA
FB7
F74
FBD
FE8
F80
00E
04A
05A
F6B
F98
FF1
FF4
F83
FA8
063
00F
FF3
F65
FDD
0AD
F5E
0AF
FDD
094
0A8
00D
F5C
F76
FD5
F09
078
F96
076
FB0
F77
09F
0EA
FF3
F54
FE9
FB1
030
FAE
F20
F86
FBD
0E0
05D
FEF
082
080
FFD
002
F2E
08D
0AC
F70
0E6
0F7
040
078
F44
076
F13
041
F3E
F37
021
F1E
F80
F01
FCB
FC9
FDD
FFB
F7A
048
EFF
F09
F63
F1C
071
F6E
F1B
FC2
0BB
F43
009
008
096
0B8
F97
0CF
F35
000
054
FC5
FE0
0D6
0EE
F22
F06
024
036
062
FD5
F2A
009
065
01D
F4D
EFC
0B8
FE6
FF4
F11
F80
00B
046
0C0
0EC
FB6
074
0A8
F9F
FF7
077
02B
06E
047
F16
F0C
0B5
F69
0C9
0AF
F6F
F4A
0E7
FA4
F6B
02A
03A
F2F
FDB
006
FED
F3F
0AE
087
F99
0D2
FBA
F9D
047
0BD
FB3
F69
098
F5A
0CE
EFE
F19
F9E
FC0
F86
FA2
0BE
F49
03F
F2E
F2D
04C
F23
097
04B
04E
099
0B5
0B6
007
039
F5A
F59
F02
F1A
012
FAD
0A4
037
F57
0AA
FBE
F3B
0A9
F95
0B4
0C0
0CA
FDC
0A8
080
F6A
F96
030
F6E
015
F8F
05E
086
FCF
0E8
F86
F63
FAA
0FB
0A3
F94
0B8
FEB
F35
070
00D
05B
094
F12
F92
026
FBD
0E5
FF8
F71
EFE
025
F9D
0A2
FEC
F0F
08B
085
0DD
F77
F8B
0D0
F81
FEB
F3B
FE7
040
0CD
FCB
0AE
0C3
0C8
0DD
0D1
F16
02E
FF2
F21
FC1
F4C
09D
F87
041
F76
F20
F73
F1D
0D9
FF6
F11
03D
0DC
0A8
F30
FC3
FD6
F31
010
0C0
095
F5A
FCF
06A
FF8
00C
FC1
F93
FD5
03D
0CD
FAE
045
0CC
001
FF3
FE5
0DE
F9F
0C6
085
0FA
0CE
0CC
F24
FCB
FEF
F1C
F5C
07E
F11
041
F73
06A
F83
F82
0C6
FC7
F00
0CB
FE2
086
FC0
F64
066
075
044
0BB
095
FA8
F1B
025
05A
F76
039
F37
F1A
F50
00C
03D
F90
FAC
051
FFB
050
0C8
039
F4C
F8D
0C7
040
FAD
F09
059
F18
00D
F3F
F8C
FA9
096
F97
045
F2F
0EC
F7E
FB0
FF5
084
FD7
046
FDA
0F2
0AA
060
057
02A
0EB
0ED
020
FB5
F44
F20
067
FF7
FDC
EFC
0C4
FB5
F94
F56
FED
004
05E
FD8
0DA
012
0CE
F8A
0B9
FC8
050
EFD
0D0
053
000
FCC
093
0BA
0C5
FED
F70
070
0DB
0B8
069
0BE
0AE
06E
F32
0C7
0FA
012
FFA
FD3
006
04B
0E1
000
02C
08B
FEE
031
090
F2B
0C2
F42
006
FB0
F8F
FF1
028
FEB
09D
FA3
012
F3B
04D
009
F8F
FD1
055
0E8
07A
F72
0B6
08A
FEE
0F9
056
069
F1A
0BE
FD7
025
FAD
FCA
FFD
06B
041
042
04D
035
F81
02A
F4F
00E
F2D
F50
F72
F06
0AA
F71
F74
F09
FAF
F9C
F5D
0D6
FE7
0D2
F65
F9F
F7C
F14
FAA
F35
F56
F50
F8B
006
015
FB9
0E5
F14
0B4
079
FC2
F8F
FE4
028
017
F54
03F
08D
F84
022
F31
F0C
FBA
FA7
00B
0AF
043
F7D
FC8
0C7
0F3
FEE
F8A
FB7
F58
00A
F3F
005
0F2
F46
F2A
0F1
0EC
0A6
0E4
F2F
F8B
07E
08F
0BF
0BA
FA2
FC5
FDC
FDE
FB3
FD7
FF4
FBF
004
FD3
07A
FD8
FAB
0F7
F9D
004
06C
0E8
F36
FEA
F5E
F5A
008
F48
F65
0A5
06C
F92
F9B
0B8
0B5
093
FCF
0A0
020
082
F42
00E
F8A
F63
06D
F0B
FA0
FEC
FBF
FAB
000
088
089
F19
0B0
00D
07F
FAB
F07
03C
FE8
FC7
056
EFF
F08
F9D
F6B
069
FB5
F54
F63
FEB
F16
03D
F9E
F56
F9F
F9A
FB1
FBA
004
F55
097
FC0
F95
FD5
FA0
FC8
05F
FD8
F2B
F3D
F20
0F3
F75
040
0F9
F2C
07C
0E7
FE2
0CD
F53
07E
F49
F3B
024
F3C
F21
F03
FDF
F8C
F9A
074
021
044
0CC
04B
F4E
081
F81
F22
038
FBF
F70
F4D
083
F09
0AB
0EC
0B5
01A
027
03F
0D2
0B1
FC0
FF1
F7B
09C
F53
0E8
0C2
04E
FC4
022
0B1
093
029
06A
FC5
01E
0EB
0C6
F9C
0A2
064
0A5
FCE
078
F92
F3F
F2B
015
FE4
0DB
0A1
0A7
07F
0CE
045
0A7
0C0
F5D
FF7
FAE
FEC
02F
0A3
F5F
038
FF1
F3A
FB7
F99
079
00E
092
F06
FF8
F93
F5A
F4B
FBA
F67
0AB
F1C
FF4
F84
F08
F00
04C
0C7
04E
0DA
01A
FCE
000
08B
FC2
FDB
01D
FBB
F9E
FB0
0E4
F42
F63
0BD
02A
07C
F8D
0C7
F44
048
FEC
F29
FF6
09B
F25
0AC
0A2
008
007
FC0
F6F
00B
012
045
F02
FD0
07D
FF5
0ED
0E8
069
F17
078
FD7
0F6
FC0
FAF
F34
094
F3A
079
086
FE8
FF7
0C0
031
FF8
FE5
F6B
FD3
0B3
01D
01D
FEA
03E
F4B
048
0F2
063
0B0
F2F
0AE
06E
027
FE1
0C9
0A2
FA4
0A8
0F5
0D8
F76
FEA
F92
00F
063
0F9
F5E
FA8
04F
05A
FD0
F3E
0E3
094
F3D
FAB
0AB
FD4
F34
FED
03A
0AF
FD6
F94
F38
F5D
F85
007
F34
F7F
0F1
0A4
F16
FDC
0D8
F03
F41
F17
FC8
07A
0AE
FEF
F3C
F95
F96
080
F58
0F3
06B
0BA
079
098
FAF
FA4
F52
FBB
040
FCE
095
090
FF0
078
F26
0BC
03E
06D
FF3
044
082
072
059
00F
0ED
FA0
09A
007
FEA
00C
F43
FF5
031
F91
016
0EB
05B
097
FB3
0EC
F0B
0A3
FC7
03A
F69
FCE
023
FFA
034
06D
0D0
0C7
F16
FDB
F82
F6A
04A
000
F75
021
03A
0E8
F91
F56
F1E
0AF
F96
F67
092
F1F
FDC
024
F52
039
078
F74
FEE
F93
FCB
FA0
0DF
03F
02D
F95
F68
F08
014
F91
0E1
F18
025
F47
FCA
F89
041
0EA
0BB
06E
026
067
F93
FCD
030
09E
F69
0E0
0C3
0EA
F9C
06E
F3E
FE8
076
0A6
F21
0A8
F2A
089
085
FF1
08B
02E
FE6
FD8
F24
F9D
04B
FD7
0CD
F23
F9B
FDE
047
0FA
0C3
FE0
068
003
F9F
F9C
06B
01E
00E
008
091
FE6
07F
037
06F
027
0BD
FA9
0B0
07B
04F
064
F60
F22
FB3
0A1
07F
0FC
075
F53
084
0C8
FCF
F26
06F
F1C
044
FD0
0C4
F83
098
01C
FA8
089
FAC
F15
F40
FB5
0EF
F41
09D
FB9
043
01F
F53
0F7
FCE
F29
03D
FA4
05E
0F2
FF1
FA1
F13
FA4
030
F60
FE1
00E
FD8
F15
F8B
03B
F18
041
FEB
F9C
0BA
0E3
FB0
F6F
FDB
F4D
F01
08E
055
F99
F54
00C
002
FFC
F2B
F35
FCF
FF0
FC2
F51
032
037
063
0CC
FB8
FDB
F4A
FC6
F6A
069
F2D
065
02D
05C
02A
F50
FAD
09C
FC9
F21
0F4
045
F9E
019
0C5
F0C
0FC
F6C
F2C
F63
FC6
FC9
01A
065
0D6
F19
F95
092
07D
074
F07
F61
04F
F54
0C6
0F4
0A2
F12
F6D
080
054
F06
05D
057
F65
027
0E7
FEB
0CB
067
07A
0D5
F18
016
045
0F1
FB0
F5B
EFF
0C3
FD0
F01
03C
0D2
F01
F3D
022
F43
F07
F54
F38
01B
0D5
FF7
056
05C
074
011
027
01E
FF1
FD9
0AB
0A9
FB6
0E5
FC2
F89
02B
0AD
FF6
09A
F91
0A9
059
0D2
057
097
F79
0BB
064
06E
F9E
0BC
00A
F79
044
F31
FFB
03D
F91
FF0
0CA
F19
F9F
044
F39
004
085
FDE
047
FEC
016
F11
011
0AB
FAC
F5E
0F6
0E5
F3A
0D1
024
085
F9A
F81
0C9
F55
0B7
FA7
040
F86
055
FA4
FED
007
F13
F7D
092
FB9
FB8
F1C
FC7
012
06F
01E
0AD
F26
F9B
F7C
0EA
F96
F96
FCA
099
02E
F01
F6C
FB5
049
031
0DE
0BC
0C1
F4D
FF5
F0C
0E3
F85
040
0A3
F36
FD4
F6F
08C
F9D
F2F
004
0BE
07F
07A
F05
F61
F11
F5C
F38
088
0D6
FE9
0E7
04A
F4C
F64
0FA
04C
FEF
F89
086
087
0B3
056
F4F
F36
F7E
FA1
F33
FBC
001
041
F0B
FA7
F59
0B1
0CD
095
0A8
F5D
F93
001
0F9
F34
F56
0EA
05C
089
051
F62
FE2
0C9
043
F4F
0CD
0B4
018
F11
0D3
FE1
F4D
0A5
005
0ED
05B
FC2
F56
004
03A
FDF
F62
F6C
0A9
F62
FF5
FE1
FFC
002
FD0
090
F02
045
049
06A
FB5
04A
0FA
F8C
04A
F33
FAB
F07
02B
F97
F1C
FB7
0F0
F40
054
07E
F92
0BE
03B
F3C
FAE
0EA
F2A
F09
06A
0C8
06E
0F5
029
F21
0C3
0E9
06F
F86
072
F8E
FEE
025
061
FCB
FA6
F71
F41
035
F63
FA0
F3D
0FB
FDD
F25
067
F8E
09B
F16
F9C
035
FC0
0FA
F2B
061
FC1
FE1
0C0
027
002
F23
046
052
0BE
034
0F5
F19
F6A
F46
097
038
F1B
F97
0EB
F55
F79
081
061
0B2
043
07B
01B
0BE
FAE
027
05A
FCD
0C5
F55
0D6
054
F4D
F00
07E
FD7
021
03D
F42
05E
F12
052
033
F91
F0B
094
F7C
0D6
0FE
FA1
FA1
0D3
F15
0A2
F1B
0D5
FE1
F5C
07D
04C
F7A
032
F2B
FD7
F44
F4B
09F
043
063
F17
FBB
F91
0B7
030
069
0BC
F94
F65
0E7
087
011
01E
F0C
0AA
FE8
073
0CB
FA7
FF2
0CB
FFA
F99
05D
02D
FC8
F83
F5F
FFC
FE3
083
FC1
F31
01B
07C
F9D
F48
016
0B8
08F
F11
FA3
FC7
0EE
095
067
060
0EF
0EF
0DB
F60
F84
0D5
FDB
F3A
F10
05B
0F9
F43
F98
FB2
057
058
0D6
F66
094
008
04D
0C7
0C2
0F1
F94
0F9
F46
02F
0D9
08A
F87
0CC
F49
F04
FDB
0AC
F6D
F51
FEE
011
FA6
FED
F62
00A
FA2
FDC
F8C
F8B
031
012
F5D
FF1
F9E
0EC
F1D
F34
071
FBB
072
F8F
0C9
EFE
FB2
F91
FF8
0C9
04A
0A3
071
FAD
011
F1C
FFB
024
0B2
F3E
06F
F40
F2D
F3E
053
F01
FFA
FFE
F9F
F4C
F30
F98
FE8
F8E
F2F
F4D
09C
060
0F7
F69
0E1
049
FD4
F89
F39
05C
00B
072
085
FBC
FB6
F2F
0F0
F3B
004
06C
F9B
F49
F87
F1B
F36
07E
FC8
F09
0A1
FA1
FDE
090
087
F20
078
0B5
060
F23
FCA
052
09F
F04
F1B
F17
FA0
0AC
EFF
F4A
021
FF5
072
0BC
0A6
095
F7B
FBB
020
F96
087
FDA
014
05B
F58
F79
0B2
087
FA2
F64
F87
08F
075
F05
0BA
045
F07
0DA
F16
FDB
0E6
FAF
F4E
04E
0FD
FEC
F46
FF0
F4F
F94
F10
051
FA5
0E4
02D
F37
0F7
0D4
F09
081
FD2
F16
F64
F50
FD1
F3A
056
095
097
0ED
F61
069
0D0
F21
F48
F52
FAA
F70
F8F
061
FFC
0C3
0F3
0E0
090
F17
F8B
F1C
F30
F33
03E
00A
038
03B
FB6
0CC
0E4
FC7
F47
FDB
F3F
0C5
FBC
FE5
FE3
F29
052
F69
0B8
006
F9E
072
F31
F12
0BC
0FA
F77
FB4
07E
FB9
FB7
FE1
0DD
06A
FD7
FF7
07B
043
054
07C
F33
07E
F76
092
F03
FBC
F5E
0BA
FBD
F39
01A
F6C
099
0B6
FD7
0D8
03B
F69
094
0F0
0DA
07E
F2C
F5C
03E
04F
FCF
0B3
F52
041
09A
065
0A0
F20
FA9
F6E
018
01D
FEA
FEE
09F
F6D
012
F33
F35
FED
FC4
FC6
0C5
0D9
F23
F07
0C3
0B7
0B9
F9E
050
010
FBF
F8E
FFC
0EA
029
F6F
085
F5D
0E9
F28
F61
0C3
02C
FB9
052
F35
FA9
FAA
053
0A6
0C8
0DB
F50
F03
03D
019
022
F94
F9D
F67
04D
074
FB8
F99
016
F4D
FD8
0A7
0B2
F44
F84
04B
032
FAB
FCC
F9D
074
028
F39
0DF
017
060
02B
08F
0E7
044
048
F95
F4D
FCB
FC8
004
031
053
054
078
01D
0EA
01C
F26
FF7
064
F47
F0D
F09
FE0
0BF
0E5
0E6
00A
FDF
F15
F10
062
063
08D
093
005
F35
016
06D
F4F
FB2
FE3
09E
F87
0C4
0B6
0E5
F1C
FE2
F11
FC6
017
FE1
00E
042
F82
F42
F21
F95
FAD
F1F
F3A
F24
F25
F32
F43
0E2
F6D
031
00F
0C7
045
03D
08E
0B6
F3D
08F
0AB
F7C
FD7
F03
0AA
0CD
05B
F07
F7B
02B
F09
092
FB2
F00
069
06C
F81
F4D
0E0
028
0AB
F6D
FEA
082
F8C
035
011
0A5
F11
044
F34
0E3
0AF
061
080
0F2
056
FE6
052
0D0
0DC
072
0AD
F32
0AE
F82
07E
FC1
015
0C4
FE2
F4E
0B5
F84
0C6
FE9
077
F31
F07
F24
FD2
F9F
0BC
F84
FCD
03D
F6F
028
FD8
FCF
035
046
013
F00
F5F
FC4
F78
098
001
FAF
FD4
0EE
043
F0E
0CE
0B7
030
02C
F79
F01
F3D
F3E
F45
F04
FFB
F3B
F6B
009
F08
F22
061
FE4
F21
F8F
FE3
FDB
008
0D6
001
0FA
F90
047
F1B
07F
0FC
0AD
FB1
FD8
FAD
041
071
054
001
021
F15
F7B
066
095
043
F9C
F81
F50
09E
FB9
F51
F46
0C7
04F
F27
07D
057
06B
00C
F9D
F19
F57
F74
F8F
F12
F10
F90
F20
071
07E
035
FD2
F30
F7F
08D
0DF
F07
FA7
0E5
0E9
03C
FD4
0EA
F5E
0B5
0C5
0C1
08D
F84
FC2
F9A
F8C
FF5
083
004
032
FF9
0B2
F8F
F86
082
F2E
04E
029
F46
09B
0B2
011
F55
0A8
FCC
FF5
EFF
05C
061
FA8
095
048
009
F5D
FF9
F4F
0EB
051
F0F
F5C
0A5
F7B
FC2
075
0A1
002
F8C
0ED
0C7
0E8
F6D
0F7
FB8
0AE
0D3
0AE
0B1
F4C
FE5
0DD
