F2F
F28
0E6
F62
F9E
FE1
F2F
068
089
05F
F69
FEB
FC8
F37
F3A
0B4
009
F42
F55
0C3
FC2
F62
0F5
FD1
008
0E3
021
FA5
04C
F80
F81
0BB
0F4
004
0D9
0FD
FC7
F1A
F83
F79
FDB
F0D
F46
09E
F84
F3D
FC6
0C5
06B
FB8
F1C
F84
F0C
083
02B
033
F3F
FC7
F6A
F0A
F0C
F24
0BB
023
063
028
049
F09
067
0CA
0D4
EFF
F12
FCB
095
08D
08A
F11
091
FA3
EFE
F54
FC4
FC7
0D2
F85
0C7
F7C
099
01B
005
FDA
F35
03A
0D0
F97
060
FE1
FF8
095
032
FD3
FDC
F25
FBB
F07
0E2
0CF
0FB
0FE
01A
F92
FA7
089
02D
016
FAD
F31
F03
FE5
FCE
08D
FA4
FC0
F1F
F96
0D4
087
FB2
FDE
FFC
F34
0E0
0F0
F32
FBC
09A
F6D
0CF
FE6
003
0F1
02E
FEB
07A
0CA
F63
FB4
0DE
FD3
0AB
F20
0F1
092
0E5
F62
F79
086
062
09F
F59
078
0B0
030
0B5
0F2
06E
0FA
FDD
0EC
0F4
007
0FB
F5C
F99
F09
0D3
08B
FEA
016
0BF
F67
FD5
07D
038
FE3
0A1
FAD
F23
00B
05D
FF8
F0A
F0D
07C
048
F27
05E
05B
028
F41
068
0BF
F57
FC6
052
F17
0BD
F5E
F4F
FAB
F18
06B
0AB
0BA
F40
0F5
F26
FBB
032
FCB
F71
FFD
0EB
09E
F0C
F0C
093
091
F92
08A
0EC
0C8
0C8
F38
F56
F5A
019
06D
051
012
F9C
F48
0BE
016
F99
076
01E
FDB
016
0A9
080
047
F61
025
036
F4C
FB1
FED
065
FF0
EFE
065
F26
F59
0ED
097
0B2
08C
04A
FFC
F96
F93
018
F7D
0F7
F27
F7B
089
068
F56
F94
F41
F49
083
F58
F5D
03F
0AC
0FA
FEE
005
01B
0C4
0F7
0F8
011
F1B
FDC
F21
0D3
F69
017
F04
085
F59
F64
FAD
F05
F39
F5F
096
F24
FF2
0B0
F44
004
FB5
0B5
F0A
07F
03D
FA5
F1F
F9B
006
F32
F34
FB5
049
0E9
0C4
FD1
096
096
F6E
00D
FB7
07B
F2E
025
F7E
0A6
FDD
F09
020
010
043
F24
004
09F
0E1
0AF
073
0EF
FF0
F9C
075
012
059
047
FDA
F2F
0F7
F27
0FC
07A
F92
038
077
F70
091
06A
F28
F11
F8C
FCB
F08
F85
0DA
0EF
F5E
071
F42
FC5
F50
075
0D4
052
F92
FC7
0B3
F55
F2B
F89
004
FDD
FF3
0E6
F61
0AA
09F
F17
07D
0A7
F8B
F8C
F37
F4C
064
F55
F79
016
FFF
04E
0F8
06A
F02
0A4
03E
087
0FB
094
F35
F46
FCD
F31
07C
079
001
F08
F14
072
038
0C2
062
0BA
024
FD9
F57
F89
02A
F44
04B
04F
087
FCA
06E
FDF
F8B
0BA
F0A
0F8
FB5
027
021
0C2
FE7
F47
063
0D5
0EE
FA7
0CD
01B
05B
0EB
F77
09D
05F
08F
F4B
06C
0D0
F53
024
FF3
0A0
FEB
FD5
F34
0F9
0C5
0F4
0DD
FF7
F23
0D4
006
FC0
03E
F6B
F07
0BD
09A
FA8
F27
02A
0C3
056
F0B
0AA
02D
FCD
0CD
084
01C
F0F
02B
045
053
F1D
058
086
FF8
0DB
FE5
033
FE9
082
FAD
075
F2A
0FA
FEC
F15
04D
0DA
F30
071
035
F8D
0C4
0F2
F09
0B6
F6D
FD0
F09
F33
F10
FE5
FE8
084
049
0BB
08E
0E1
094
0C8
F3B
FFE
095
F15
FCA
FEF
0B6
FBB
FFC
FBF
F3C
FE4
0BE
F48
0F6
FA5
08A
F9D
F86
009
F8B
031
EFF
FE1
0BA
FB7
0D6
F1F
F0B
08D
024
053
079
0EA
F89
0BC
F0E
0CD
FF0
EFF
F2B
067
038
F55
F6B
F73
F8B
F18
0E0
026
F1D
01A
FF2
0F9
003
F9C
F3A
037
F08
07E
F11
FED
FA6
F96
F73
0A9
F3F
0A0
FBE
0EC
F72
F67
0CB
FA2
FAE
FB4
FEC
0C2
0EB
FB6
F55
074
061
F1B
0BB
FE6
FB9
064
FB2
07B
FFD
050
FA9
0DE
0A4
FB5
0E5
017
013
03E
0D5
F29
05B
034
FEF
F38
FC8
FC8
F09
0C6
FBD
0A8
FF8
019
0F9
F07
0DD
FB2
FAB
0F3
010
09A
09A
F10
FC2
F2E
F14
F6A
FAC
FBE
F26
FC7
F60
0C9
FD3
04C
09F
027
0C2
0E9
06A
FFB
072
0B2
026
F60
FC6
F73
043
FB7
F44
F16
F34
029
0D6
0D9
FE1
FE5
F1D
FBA
03B
005
F01
FFE
0C3
064
0BA
095
F79
F09
088
FA7
0C1
FEF
F8F
0F8
056
F5B
0B0
FED
FF9
0D2
FAD
FFC
087
051
0EF
FA5
F43
FCE
0FC
0FD
0A1
F56
FDD
F29
FFE
F8A
016
FCC
035
0BC
FE5
05E
0C3
05B
01F
FC4
033
F8F
050
F0D
F31
F16
FEF
045
F36
07A
000
F44
0C7
0F1
F56
FB7
F88
F27
F4B
F0A
059
FA2
FE2
002
04A
F3C
F58
058
F12
019
0F9
069
065
03C
065
079
01D
FB4
F52
FBA
055
020
078
F8E
084
04A
026
0CA
093
F48
065
00C
F9A
F0F
FA8
051
F92
00A
0CC
0CD
01D
FC5
081
FEA
F91
0E3
049
0A1
001
F64
F45
017
0D0
F1F
FE7
F35
FA8
0D8
0FD
0AE
FBA
0C4
F15
034
FF6
04B
080
0D7
069
0EF
FD6
09E
07C
FCF
F6C
FD6
064
092
0B6
0CF
01A
F53
0CD
068
05C
F4D
087
004
068
0BC
F5E
FAA
0DA
F2B
05B
0E0
06E
F54
F65
0C6
026
FB6
05D
053
F56
F52
0B4
F72
036
FE4
FDD
0D0
054
00B
F73
0B6
091
018
09C
F55
F74
F2C
FD3
F65
040
07B
0C8
0B7
0C1
030
F66
014
066
05B
020
F77
F1A
087
0A6
085
FBA
F72
F05
039
0F6
FBE
FEA
F5B
02A
F9A
F18
02B
FCE
F4F
FBE
FC1
090
FD1
F7B
FA5
0AC
F3C
F53
0AA
FB6
0A2
F2C
F1C
099
069
F00
FF2
F65
03C
0B3
F7F
01F
F77
0EA
0BC
FD8
0A5
09A
F85
097
08A
FF1
04F
F04
F40
072
0C6
038
064
0F0
F74
F58
0DA
F38
F44
085
F7F
F4D
FA0
F29
0CD
F4F
F05
FF3
F89
F30
FBE
02C
F60
0E2
036
012
FC4
FBC
FD2
F60
FEC
095
0CC
084
0FE
058
F5E
0D2
FE4
F63
FF2
F09
F55
07F
FCC
FC3
F60
010
017
0B7
0F6
FCE
049
03E
F57
062
051
F28
F17
FBF
F2E
0A2
FEB
FDB
F9C
F5C
0EA
0A4
0D4
F3D
F2F
003
F8E
FE9
F06
0D3
F3B
F9E
096
0F4
FBA
FBE
0D8
F59
0CB
F8C
F92
078
0E8
070
07E
044
F81
F46
0F7
FEE
FE3
F91
025
F0B
F91
FF6
0BE
F72
0D7
F83
005
097
025
0C4
FEF
F3A
F28
063
FFB
086
F60
FAD
0BC
F1A
F72
FFE
F0C
01E
041
FD0
020
F91
06C
09C
0B5
F7C
F5A
F7C
0EA
0F9
F5A
053
FBF
F87
0AD
070
0CB
EFC
F54
00B
058
032
FAC
F53
F17
0F0
00F
0E2
044
011
0E1
FF1
0F9
FD3
02D
FDF
F2E
05F
F16
FD1
FB8
093
F3B
093
073
F96
F87
F45
01D
FE5
F59
071
F05
F9E
0C0
0FA
091
088
FCC
FD2
0F7
0BD
F98
F9A
F8E
F21
F42
F93
0FC
FBF
055
FD9
FF3
0B7
03B
035
F42
057
0B7
F27
052
F1C
01C
F4B
04F
F94
F04
083
090
F18
08C
F96
FC3
0EA
0E2
F20
08B
F78
F85
0B6
F10
054
033
0F1
0CE
016
050
FB9
0C6
079
F72
F6A
F08
042
0D1
07C
F6E
048
F6D
F5A
F98
0CC
F11
03E
F56
FDD
F1D
F61
02E
F37
FDA
042
06F
FE2
F34
F27
09B
F81
FD7
F6B
046
FF5
0BC
01E
017
0A2
01D
0CD
0CB
FAD
065
012
FD3
FAF
06D
F3E
F59
002
FEE
03B
08D
FFD
FD3
09C
FDF
F16
F7E
FF7
FFC
034
0C8
F44
0D4
F6E
0FB
FE2
F22
F1C
034
0B1
02E
010
0A3
F25
F2C
07D
F80
08B
033
0DC
F7C
0EF
F81
096
F41
FAE
05C
015
0F1
035
FD3
000
F85
0B7
081
F85
F7A
F77
FF6
F0A
0BE
0E3
F50
080
F75
0DA
0CB
F50
07D
FFD
0D7
FF4
099
F08
0AC
F5A
FA2
00A
010
06B
F24
074
F91
FAC
0A1
F41
F07
FD1
009
F80
F07
029
0DE
0D8
0AE
09B
0D0
03C
FCC
022
0D0
0B4
F95
0C6
05F
038
FAA
014
F3C
0AB
F85
F0F
F62
0F1
06F
F86
0D2
F8D
02D
0D7
0BF
066
FFB
F6D
FAF
05C
0FA
FCD
0BE
FD5
0CC
FE1
FDB
0E3
FDD
06E
FC6
FF4
081
FF1
0C9
FCF
000
058
0AF
F10
FEE
FF0
F6B
0E2
F6E
0B0
0AF
038
028
0B2
058
F06
0CC
0C9
F34
0DA
010
FC0
F17
F5F
094
0C1
F5A
FC3
085
0CD
032
020
FFC
FA7
07E
FA8
F58
F4D
F51
FF3
000
0E1
0E8
FBA
F32
0B0
05E
097
0BC
0C4
047
0FA
F2B
0CD
F08
F2D
F5F
F9D
008
F8C
F7D
06E
089
FCF
0B7
F38
FA2
035
0C2
F15
09A
09B
F44
0C6
F6E
F3C
F0C
FA9
F18
F52
096
0E6
002
075
FB3
03E
0C7
F41
049
F36
F2D
077
0BB
F77
087
060
FEE
F85
F33
093
FAB
03B
F9F
F2C
049
003
024
F48
F1A
F32
072
FD5
F82
F0B
04C
F5A
F00
078
05E
FC8
0D6
F4E
080
F7B
0EF
0A8
F3E
070
093
0F3
013
F98
F2B
0C3
0BC
FA3
03F
0C2
F05
FF6
0C9
038
0BE
0C6
0AE
0A8
FA2
071
F80
05D
F2A
057
07E
090
F40
F9D
FD6
F0A
031
0F1
0C6
04A
022
FDC
FE9
FC0
F4C
066
FAC
F99
F2D
083
01C
F52
F15
F91
F11
FEA
0EC
0AD
045
02B
FBD
F13
085
08C
FF1
0DC
003
0B8
F8F
F9F
03A
0BF
FF4
09B
FC0
059
F96
F54
0C4
F4A
0A9
06C
F39
F0E
F43
0B4
F42
FBB
02A
09A
03D
EFF
0C8
F4B
0AB
FE4
FBD
F52
F42
FDD
F92
F03
F99
010
0CD
0CF
F8B
F2C
F3E
0B7
0E3
078
052
075
081
042
00A
00A
F4C
080
0E7
FDB
F3C
F1B
F8A
F6E
FA0
FAA
F4D
FD7
F4F
098
F85
F0C
FC7
091
F14
053
FC2
F80
FAB
075
F4E
FD3
FB6
065
F21
F7A
FCD
02E
F8E
0E1
FD9
FB4
F31
010
057
063
0C4
084
090
0C7
0DC
FC5
012
029
036
F17
037
FE4
F4B
F34
0EE
F0A
F84
FE3
062
012
F90
FDC
07B
0AB
044
FB3
0ED
0DC
F44
F55
098
0C9
F2D
0A8
FC6
054
061
F9B
09B
FBE
0D2
098
0A1
F1F
F52
01A
F95
056
FBE
093
0C7
F33
079
0A9
F3E
FA9
F1F
F41
026
F61
F12
0AC
008
09A
F35
FA5
FFF
FCC
FE6
04C
0AA
F32
F21
009
F40
FBB
0F7
F1A
F25
F05
F6B
0CF
FC2
F06
007
F5F
028
F38
F64
F17
F93
F70
F0A
0EC
FB8
FE8
FCF
F12
F94
098
06D
0E6
010
087
F68
FE0
FA1
FB1
F13
022
F6D
F88
05C
FBD
F3C
F5B
0C1
079
F8B
058
F3B
FC1
FFA
FED
F9C
09C
037
0D3
F0D
098
00C
071
075
F0D
045
F97
F5D
0EC
F2A
0DC
00B
0F7
070
FFF
F8C
FB6
00C
FF8
075
F18
0F4
0EE
F2E
F41
007
FF6
F1E
03F
F22
0E7
04E
F79
0AD
F24
F5E
F2F
F00
044
090
F1A
F10
086
FAF
030
0CE
FD1
F4F
F00
09E
F21
F96
F6F
FEE
0C7
F5F
0E4
047
F1B
0D6
F6D
04B
FFC
F82
F5B
F4A
F31
F58
F09
046
FDF
F4B
0B8
F6F
F63
0EB
F1F
FD6
0EB
F0E
FD5
F41
04A
F70
FD7
03F
FC2
0B1
FC9
FED
FC4
FB9
F1D
080
0CC
039
0D3
08F
02C
03F
015
0C3
0B4
0E2
0B0
067
F8A
FA0
0CE
06F
001
03D
0EC
F81
00A
F14
F07
FC0
018
024
01C
F31
06B
FDF
06A
F0A
F5B
FC2
FA6
F18
FCA
FB4
05C
023
F09
F6E
099
F6B
FCB
FE2
0E9
F9C
04D
0AD
05B
0EC
F91
03E
0F1
F31
F63
F80
FB4
0CE
F7E
0D3
F59
FA6
F73
025
04A
0F9
064
F14
01D
FEC
0AB
0AB
FFD
00C
F39
FE9
046
0DA
008
0AF
F63
F03
078
F8C
083
019
F78
FC1
FD5
059
FA5
0C8
F4C
0A6
0E6
0D9
0BC
04E
0DB
039
F44
043
036
066
FB2
F68
F8E
F41
F10
F10
06F
0EC
F0A
0C9
F4E
008
08A
F31
020
FB0
0A3
0E8
008
067
06F
063
03C
F52
02D
F19
F68
077
04B
FAE
044
F93
F7B
FCC
0B9
FF6
F58
09E
098
F70
0E2
066
0F0
0AD
066
F48
0DE
F61
F01
FA5
019
065
F33
FA6
F09
0B0
0ED
F5D
F67
F64
0F5
F8E
FE0
FDA
0D4
03D
0A2
FC6
F20
FEE
F6E
F8F
091
F0A
F84
08C
FD0
077
F1B
05A
FB0
F9E
FB7
0E2
051
F57
F94
F63
F9D
08B
092
F83
09F
FAF
F1B
F32
F63
F34
F07
037
F5D
FE2
FFD
094
03A
F2A
0FE
F8A
0E7
EFF
FF4
00B
FFF
F76
F6C
04A
FDF
F89
016
F7A
F83
071
F5E
F3A
035
091
068
F06
F16
0F0
F35
FE5
F64
F5B
FE3
F9E
0F7
0E2
072
F63
F4D
FD3
04B
010
0AE
0DE
F61
0F7
F64
06D
F77
F8B
F97
03C
037
FE1
02C
0E1
FE5
FE8
095
076
F61
F3F
08D
078
073
032
049
F7F
F4F
F16
F8D
F3A
075
F22
F27
FAE
F62
022
005
0E7
0DD
FF3
F48
FD2
0AF
0E7
04A
001
FC1
FBD
05D
041
0FA
086
0F8
FF4
F7B
085
F57
041
F28
F81
F88
043
F5F
0FE
FAF
FA4
F29
FFE
F96
F26
F67
057
F14
F11
0BF
008
05A
F74
025
031
0B0
059
F27
0E9
F98
F4A
0A4
FD9
02B
F1C
0D2
F33
0BE
034
07B
001
FF0
08C
041
FAF
F66
0C5
F73
F9E
F08
F0D
F03
08C
01A
0BC
0B9
FE3
FA1
001
036
0B6
FF8
0B3
0A2
05E
0B0
FCA
0F5
0F0
F52
FAE
F2F
FC1
08A
F08
FDB
FAA
F3C
F3D
F39
FC2
063
0E9
FC6
0D2
F4F
FF2
F65
F9D
0B8
FAB
098
024
0A5
0F6
09C
F57
0D7
F7C
049
F04
024
FBD
02C
07C
0CA
F75
F16
F0D
057
0ED
000
F16
F5D
FD6
0E8
0D4
09E
0E2
01D
07D
F1E
F35
F90
02D
FFF
056
07B
FF0
08C
F97
028
FDE
F48
F82
00D
F0B
0AF
0DA
F56
F05
071
0EF
0E5
07B
F05
07A
029
012
F41
0B6
0C8
F2A
008
FD7
F71
0C1
F62
FDA
071
07B
F21
F5F
FB1
032
FD1
01F
018
FD2
0DC
01F
F05
0F7
069
F99
FBB
040
015
02A
F07
F0E
F00
FDE
034
F07
FAC
F01
060
029
FF8
FF1
F03
015
05B
FFC
09F
011
0AC
F68
FB3
029
F6F
0F8
0ED
026
0A8
00B
0CA
F71
00D
F6F
FB0
062
077
F53
FFA
0E6
F84
01D
0C4
FD2
F7D
0EC
F8F
0B0
065
F00
0F8
FF8
0E3
0D8
0C2
0D9
FBF
065
070
FF0
FE5
0BD
06E
F0C
0F5
FA8
FE4
FA6
F47
034
089
01E
0F0
FE3
060
F9A
055
FA5
F0B
090
022
062
03B
FEE
038
F4C
0A4
027
F31
FC6
F9B
086
FE8
0E0
04F
F76
FDA
00D
0CE
F78
07A
065
0EC
061
047
02D
090
014
F42
097
F95
06B
060
03C
FD2
0CE
0C0
F27
07D
098
04D
FDA
FD5
FF5
00D
FEA
F6D
052
05E
F9A
F86
0B9
0F6
FBD
FD1
F25
F65
F57
F11
049
00D
0E2
F42
0D1
008
029
FC6
F4A
0F9
F2B
0CF
0B2
0D8
033
096
F78
0CE
FD0
F90
FE2
05C
FA9
FCE
F93
F2B
FA6
F13
051
09B
056
F70
0A0
FF7
F73
023
FCA
04D
FE6
081
067
033
F20
0A2
086
0DB
0E7
EFA
051
0FD
F54
FDB
F0E
FDD
008
F9B
F5D
FD6
008
F29
0AF
01C
F6C
0E3
0B5
FE5
F6C
0A1
F3C
0A8
F0C
012
0C3
F54
081
F84
046
088
006
F16
F8E
0F2
F2A
FAF
0F2
F65
F05
F11
05E
060
036
F9B
FA8
0C2
F2F
097
04C
097
0B3
FD0
0C1
F99
F11
FC4
F1F
003
034
F56
F59
0B9
08C
08E
F2E
FB0
011
F19
08B
085
FE8
0C9
F39
F23
F02
FA6
074
F9E
F26
FD9
047
0D2
F36
F00
0CB
FA3
F05
0FC
FCD
FA6
F0E
FF6
F35
032
F5D
080
FA9
F91
090
F51
F13
F48
F5B
0EA
FA1
FC3
0C3
0AC
FE6
0A8
09E
024
0CB
0D3
FDC
052
086
054
02A
065
F87
0C1
F0E
0CE
FE4
051
023
012
F58
F75
036
02A
F37
F60
0E1
05F
FEC
F0B
F69
FE1
07E
F85
06D
F51
0CD
EFE
014
095
F5E
02C
FE3
FE5
025
024
0AC
F94
0B3
096
FAF
FB3
048
FE3
FB1
FE0
0BB
0C4
F61
F97
0C9
FE3
04B
0E2
044
F0E
F68
080
0BA
0A1
FA1
F56
0AD
099
0A1
F29
F00
0D7
F4B
075
0E2
F56
F08
04C
F69
0D3
FE5
03E
0A0
01F
012
090
0A3
00E
0CF
048
0C1
F83
09B
FA9
053
084
0AF
FB7
035
FF7
069
045
F66
07B
F0F
F39
0D2
066
0FA
F41
08B
09D
F0D
FE1
FCB
07E
068
028
0B1
F53
021
08E
00A
097
073
FB1
FDD
06F
049
0C8
F6F
05B
F03
0CC
044
071
FC4
FDB
01E
08B
EFF
F1C
FC8
004
F6E
F6C
F66
FEB
FE0
FB5
F0D
020
07D
019
EFE
F03
F77
F88
050
F8C
08C
F66
07A
FEA
07C
04C
FF1
019
F99
0A4
F4B
F8C
02D
0A1
058
F3B
F9A
039
07B
F46
F55
0CD
0AD
0E4
FAE
0D6
023
FAC
F67
F3C
F6B
05C
0FF
0DF
068
F86
035
F5C
0FB
FD6
F43
F58
F06
FE5
FCA
0A0
04D
06C
FF8
F46
F6C
051
0E7
F7A
FDD
06C
015
0FA
03A
F05
F72
004
013
FFC
018
0A5
F2A
07E
01F
064
FF9
FCB
FBD
F32
F4E
09F
F46
01E
055
FBB
F56
F31
08C
0D7
003
0C0
0A5
03C
F2F
FC9
FBA
00F
0ED
013
F9E
09F
F40
FD9
FD3
FDC
F73
FD6
FCB
FAF
00D
0DF
003
0D8
06C
F43
FF2
0D4
0F5
F47
0DF
F11
FC5
0EB
0A1
0B2
029
FBA
F5F
0F0
FE2
0A0
019
002
F5A
07D
F19
F87
0BB
F29
050
F22
F36
008
01D
FCC
FAE
075
F36
EFE
0A7
0B3
03B
0CA
F52
F06
FEF
F26
FC2
04A
FDE
096
01B
F6A
F56
04B
018
0BF
F25
08F
FBE
021
0D2
0AB
063
076
FDD
FBD
FE9
008
F17
F98
F35
F77
FA2
F8F
09E
F17
F65
F41
FC3
087
FE7
F68
07D
09E
01D
08F
F39
FC5
088
0AA
FC4
FF2
FE9
02D
FDD
FD3
089
0E9
F4E
F9E
07F
F40
0AF
F0F
F61
0DA
FAA
FB1
F14
FFB
033
0F0
F65
FA5
082
F7A
097
0D9
F3C
F6D
0DF
FAB
0FA
04A
0DC
FD7
0F0
FC0
082
0DF
043
0DA
F79
029
0CC
096
068
FFC
F7A
062
FAE
F46
FAC
FC8
0AC
042
00E
FD4
FA8
0DA
0A2
FC2
F5D
F4C
FEE
F47
045
EFC
082
025
0C5
02F
FBC
FF7
F09
F2F
F4A
F63
023
F00
F37
F9D
0F6
F13
002
FA4
FAA
009
FAC
F96
F67
F20
F72
010
F60
011
0A1
0B5
F63
063
F93
05D
0E6
F88
FE4
08F
003
F7B
F82
F55
F6A
F72
F34
08A
0E8
051
0B8
F37
F4D
FE1
072
028
FF8
F26
FC5
0A2
FAB
F04
F07
063
FA3
F69
FAC
067
0F2
092
03D
F6B
F1D
F85
098
F82
077
0DC
F6F
FFD
0E5
0F7
F88
F48
FD1
F66
FD8
FF9
F63
0F3
0BC
0C2
FA3
035
0EE
F27
07A
FF2
076
F91
FE0
015
F19
09D
015
FBA
0BA
F6A
02A
0DE
F54
05E
F78
018
02A
0D0
FD9
0A7
0EB
001
0F9
04C
F1C
09B
058
FBB
F7D
01B
F32
0C6
0F0
F06
FBD
071
07F
031
08B
01D
F07
F4E
F2B
090
0AD
0F6
F69
F11
FA8
021
F46
0C4
FA0
F6D
011
FB6
029
F19
0CE
FD4
F6B
FEF
0BE
081
057
FF3
F07
074
0BF
F24
FA9
0EA
033
F73
F63
028
FA1
03C
03D
FA6
038
F51
FE6
FDA
0D7
0A9
01B
0DE
F34
FF4
F87
06E
08A
F94
0F4
0E6
F21
03D
FC1
0DB
028
FEB
095
FCA
0FD
03A
014
020
0C9
F00
F39
0E4
F7D
F9E
FA6
086
F8F
F25
02C
026
09D
F63
003
F8A
022
058
F99
FD7
0B8
096
024
FFB
F30
0B4
09A
F9C
0C7
03F
0EB
022
0F5
0BB
F4C
00F
F82
043
074
F74
FA7
F74
095
0BF
FF5
F4F
01A
0A9
FBB
F62
FEA
0B8
FAC
FC5
F7E
0E6
0D3
00E
FE0
0E6
0DC
07F
F99
0BD
00F
F91
051
F84
F02
F28
0E2
0A0
0C2
F16
F31
F5B
F99
F17
FA2
F89
FBA
0BD
F81
EFF
FBC
FC6
FC1
082
00F
0A1
073
0AB
F2B
089
F18
F5B
FCB
0F0
06F
0A0
F9E
F89
010
06B
FEA
F13
0BB
0AD
F04
03F
0F7
F90
065
FA5
FC0
F9E
FD8
063
0D7
F14
0DC
FCC
01F
F5A
F4F
0DA
065
0A7
F39
FAB
0D9
F26
F96
0E8
F77
F4B
F97
F9C
F6A
033
071
FCF
F25
035
F7F
030
096
F5A
FB1
0CF
FBF
EFE
F0A
F2C
FE4
0A7
03A
06B
F6E
0EF
F94
0B1
0C8
F93
02F
F07
0D1
F50
F19
F88
030
FDF
03F
FE7
FF4
F5C
F06
F1A
05E
05B
FBF
0CE
002
F95
0EF
F0C
065
FC6
0C3
069
0E0
04A
F47
F7C
FDE
0A3
F81
0B0
FFC
0E4
FC7
08C
FFC
F20
002
FA1
F48
0B2
FD6
F7C
04D
F82
0A9
06D
F33
FB9
FA8
F09
033
FED
FA5
FB3
005
F22
08B
F9F
08F
F1C
FA4
092
F67
FAB
F33
00E
FF8
FEE
05E
046
052
06C
F68
06B
FDC
F57
F87
FA9
FFF
0FA
FD0
FC4
06B
0BF
F22
051
F10
FED
0A3
F97
F47
FD7
F9B
F35
018
009
011
0E7
FD4
FDF
F3E
09E
024
F31
0B2
0DC
060
0BF
F5B
F28
0C2
00B
073
FBF
FE6
092
FB3
F35
FB7
F28
045
0C8
FA4
FEA
FB4
091
F7C
FE4
0FB
018
F1A
FE2
F6A
080
0C8
FBB
0EA
0D5
03D
02C
F81
F0C
FDF
099
05B
FAD
FE4
066
024
06B
F18
FFC
0C3
086
FD6
017
04E
FFE
0A4
067
F54
0DD
0A0
FFE
F7C
0FA
07F
0EB
071
F3D
FBF
0E1
0C7
F63
FB4
FA3
0A3
F0F
F2C
F8D
F22
FA0
07D
071
05D
F78
029
04F
F29
F0A
0E8
F3E
F88
F58
0CA
FD3
04C
F11
F8A
F5D
FAE
030
0B7
055
038
0D1
F5D
F43
FCE
F43
06A
0DC
F19
F45
094
01F
09C
07E
047
F5B
F2B
F36
F6E
0EA
01B
093
043
F6D
022
F3A
FF0
FFF
0D9
FE2
07C
01E
F12
077
FDB
0E0
F3E
053
F6B
F3C
FAC
F87
0F5
0D9
F76
013
0EE
F71
076
F23
FA8
FF1
0AB
F08
0AE
FF3
F74
0B1
02E
0E5
02F
EFE
F53
F7A
F3A
080
FA6
F8D
07D
FC2
031
0AB
00B
05A
07B
FEB
07A
00F
0D2
05D
0D6
0D0
0BC
0A1
FF7
FF3
F21
0E4
04E
0FD
F48
F48
077
0F8
05C
F51
F92
FE6
F93
002
FBB
F93
0D4
F49
05C
FED
F00
088
0B5
0EF
0DC
F69
F5D
047
01E
F4D
F6F
099
FCC
FE0
F47
F03
0BB
F7F
0DA
033
FE1
059
F1F
060
020
067
089
001
04B
F8E
F58
0C7
F79
0B3
073
04F
019
F22
FA2
02E
F2D
F44
02E
FC6
F7F
F50
0F7
FC3
FF4
F90
F56
FC9
071
FA1
FB1
F6E
F51
F55
0C3
F38
F3F
F91
097
F4B
F69
FBF
F1D
F65
0DC
0E0
021
F1D
FDC
F2E
F79
FDC
036
FFF
FF5
F9F
0A1
F8E
015
FA0
034
07D
0B7
FD3
0C7
FEB
01B
F6D
F2F
F5A
01C
097
046
0A9
F66
0D2
FB9
087
F7D
F4B
0A9
0FC
0BA
F7A
FCE
F1A
00B
FA3
09A
F01
064
F74
F7E
FF8
F12
F4D
FC6
019
F1A
F2A
0C8
02A
FA0
F11
FA9
FD8
F10
F5B
F76
F2A
FD4
030
F9F
F4C
060
F85
081
0DD
FCD
0E1
F04
083
F6B
F1A
049
F8C
006
F02
FCB
FE3
FEF
F70
0B1
04D
F1F
F6C
017
FCC
F53
05A
017
040
05A
06D
F6F
F50
009
0A7
04C
F37
F81
FB3
FF3
F50
F30
01C
FAE
F61
071
084
F39
F75
0D6
042
097
028
041
F04
F12
FBB
040
014
F74
07F
F04
F21
08B
F50
F15
0F5
F03
F50
F83
09D
F0F
0FB
005
FA3
F50
0BE
F01
046
022
F94
0B3
F9D
F0D
048
04C
F2F
F4A
FD1
F25
FBF
0FC
0D8
F87
0A7
F8A
FA1
001
FC6
F31
F62
00C
F7F
F02
025
0CB
02F
072
0EA
01C
0A8
0BF
F71
FAB
0EB
070
050
FE4
F65
F3F
0B8
0E6
F0C
FAB
0A6
F51
085
00A
07B
F14
0EE
F31
F1F
0A7
FA6
FF6
0FA
067
0C2
05E
F70
F56
00D
F76
07F
FD6
FF6
08A
042
F0B
F81
F7D
F56
09A
04C
017
065
FCB
038
F81
06A
FDE
0EA
F9E
090
F3F
F4E
F8F
F95
FF1
0C9
0E7
FD6
F4B
FC8
044
0CE
FDA
F21
F17
