035
F80
08A
F2B
059
F8E
007
F62
F87
0BF
027
04A
0BE
FCA
0DD
082
0C8
F20
0B0
033
025
FC2
050
009
F99
FB7
F0C
FD7
F76
F79
023
054
F7E
0F4
F56
0C2
F32
F45
08F
07A
F45
FB9
0AA
0FE
FC3
03B
F95
F12
FB4
F96
F6B
011
F42
04B
00A
F02
FF4
F4F
05C
0BA
0C8
FDB
03F
F34
FB7
096
05B
F21
047
050
037
05E
FDB
F8F
02B
0CC
03B
019
0CC
084
0A7
FB7
F91
FD5
FFB
F36
0A3
0D6
04E
0B1
FBA
092
0C2
F5E
FA3
F51
0BC
F2F
067
0E3
0B6
0B2
FCA
021
04F
01B
F5D
064
050
0E3
F47
F9A
049
08E
007
06C
0B4
F0B
0DB
F67
F24
F86
0F3
FBF
0A2
F3F
F7B
055
090
0A0
F2B
F47
F6A
099
03B
018
004
015
0CA
019
FF3
069
0AE
071
0EA
062
06F
026
F16
F99
F7B
FF9
FBE
058
077
F7C
F62
F32
FD5
093
0D8
FE8
F61
0C7
F15
0E2
F7B
F75
005
FC8
F2D
0CF
0F6
058
F10
064
F48
05B
040
07A
046
03D
0D8
036
F2C
F4A
FFA
F3E
FB7
0AB
F48
04E
04B
FA4
022
091
F9B
F1E
002
FE3
F5D
0DD
056
070
FD3
0C2
042
FF6
03E
03C
F93
058
010
F26
F1C
0A2
F5F
059
0B3
066
F70
0DA
0DB
0D0
068
084
F33
F47
082
0CA
FF9
FE2
043
F12
05B
F88
FD4
05F
07D
043
FC7
07A
079
0CA
F58
F87
048
0E5
09A
F47
09E
059
FC6
FA4
0DB
F12
FDB
033
0A4
FF1
0FD
083
048
FED
009
0F5
F5C
093
06F
070
FE1
F1A
FDC
FE2
058
0CA
0CF
097
F84
06C
054
FD8
0B2
F14
F30
F9A
FFF
F67
F70
005
FF5
F9A
FD8
F4F
0D3
F1F
FA2
0A0
FC8
F62
F32
FA0
F86
F06
07D
F74
0A0
F35
FFE
09D
F05
F32
F8F
02E
F6D
F93
FB4
015
0B2
F08
FDC
F52
087
07B
0AC
010
06C
FD7
FDC
073
F5D
008
09E
F9E
FA6
FA2
FF7
09A
074
040
FFD
F93
072
042
FD1
0B5
FFC
F39
0AF
EFF
F8B
05A
FB5
0E2
08B
F30
082
F0A
FC4
0D9
072
F50
0F2
FE3
FC7
F01
F44
F56
FB5
FF7
F5B
FA5
033
04E
F00
F7E
F57
F6B
018
FB3
090
FA4
06F
F49
016
04C
01B
094
FE0
067
079
0B0
FA4
FD6
F81
F75
FE3
F20
06C
089
F8A
01B
04F
066
F43
0B0
F4D
0FA
04A
F3E
FA8
FB9
F46
086
015
F7C
FAD
09D
0AF
FD6
F1D
F1B
F5E
F7C
FC2
FA3
F85
0E7
089
008
062
0B9
06B
FE8
F0A
F3B
0E0
019
0BC
05C
F31
033
F82
066
0A1
F4B
F8C
02D
F4D
F5A
0E1
0A1
F86
F8F
0C5
013
F15
F22
F77
0D9
F51
F09
FC1
F75
04A
F32
088
020
FB8
F13
039
FF4
0E7
0AA
F4E
FB0
FD9
078
0DC
0B1
0E7
F9A
0CA
06D
FA4
FF3
09A
FC5
0D0
F2A
02A
0F6
00C
FEB
FED
021
F32
093
0B2
0EE
F11
FD3
077
FAC
F82
07E
F37
091
04D
F9F
0A1
F59
0EC
FB6
F00
017
001
0A9
F55
F46
F4E
FAC
09B
F12
0D1
069
F61
070
0F9
0E9
FDD
FB1
F7A
FEF
FAE
094
FB4
F3D
03E
F6F
FBF
FD6
F42
009
FA9
09C
0ED
F5B
FEF
F96
FFD
002
0AB
F07
FE9
075
078
F01
0C2
051
09B
FF5
FFA
FF9
041
0EC
F12
F4C
F4A
FE7
051
F04
0C9
0FC
01A
FDC
FCC
F6E
FCE
FC0
FE0
FB6
010
FC3
FA5
05A
009
05C
0D2
044
FD8
07C
0DC
F8E
F20
F70
FDE
009
070
F4C
F3D
F6A
F53
007
04F
047
F44
0DD
0F0
04B
059
F3A
FB8
0AA
04C
03B
0FB
F0E
F4C
F0D
FAE
FAF
FB1
F87
02D
09A
0CF
FFD
09E
FAE
FC8
F83
F7C
058
F73
FF4
08B
FD9
FA3
FD3
FE5
F4E
F19
F99
04D
05A
FCD
031
FE5
004
F5A
F28
FBC
F2D
091
FE1
0BA
F11
033
014
F37
081
F8D
057
FCA
F27
0C8
093
01C
08A
09A
FEE
FE6
074
FC5
0BB
039
073
FB1
015
FA6
0FC
F04
000
F2E
F2C
FB2
FDF
F5B
0BB
FCB
F16
077
0D5
0CE
0C5
0B4
FAF
0D2
F1B
FD4
F7B
F83
F1F
001
F34
F6D
F59
085
F6A
0F9
F11
083
0DE
0F3
F2B
008
054
F88
055
F46
007
FAA
079
F8C
0A4
FEF
F05
F80
FCF
03C
FB4
F3F
FE3
041
F9B
015
F06
F9D
FA2
03D
F0A
F4C
010
FB8
FAB
089
0AB
F82
FDA
F85
FDC
02D
F8F
074
F5F
09C
FF5
F2E
096
0F5
094
055
FD0
F6E
EFF
F6A
F09
F07
0D0
032
FBB
0FC
FE3
F43
01C
056
092
069
FA1
F33
F77
FBD
02E
F04
F1F
008
F73
F90
075
F3E
F37
041
F6A
F91
FDA
F8F
F6E
014
F3E
038
F1F
FE8
F2E
0BD
F96
013
047
F8A
01F
031
074
F91
FFB
026
FD0
F5E
F2C
00B
0B0
FDB
011
FD3
0E9
FD8
FD3
FB6
FC5
001
04F
FE8
EFE
00A
F15
008
F2A
F26
FCC
FA4
03C
FDD
00E
FE2
056
086
03A
FEF
F0B
0AC
F93
023
F14
0C6
0D9
FFF
062
07D
02A
0AC
049
0E5
FFB
070
085
F68
040
0A9
090
014
0ED
FA9
F6C
FF9
FF5
F33
F88
0C6
05D
FEF
0A4
027
091
0EA
F6E
FB6
02A
FCF
01F
F5C
F1A
080
FF1
0F2
097
008
074
09B
F8D
094
0A0
FF9
00D
FB0
03E
055
F75
0AE
FDB
FA5
022
FA8
023
F7F
005
F18
059
05A
028
F66
0B0
F5A
038
FD3
F68
071
0A6
FD2
FE7
0E8
0B9
F08
F88
F26
0E8
090
0CE
07E
F6A
F6D
F9A
00A
0C7
F3A
FE5
FEE
0B1
FD3
F31
FA3
0F6
0E9
04B
F7D
0AB
01E
0C7
0E5
F65
FF9
FD9
0D2
F7F
0D5
0C8
0BB
02C
FA9
FC4
FAF
FA9
0BF
F4D
F53
F73
FF9
0BC
00A
050
FC8
026
0CB
0B1
095
FF2
03A
F7C
0E2
F10
FAB
079
064
F12
F0E
034
0DE
FFD
F69
0ED
F5C
01B
F69
000
0FB
F51
0B2
F09
0A9
F77
0D0
02B
F52
0AA
F4C
FB7
0C2
F38
0BE
056
0BC
FF7
070
F60
FEC
F89
074
03C
F34
021
09D
019
F84
F6C
001
F91
FB8
0B6
07E
FD0
F41
F2C
FFE
0EE
F7E
03D
F5E
F0C
01F
00C
0DA
F33
F29
F1B
02F
F42
0CF
0A9
FF5
001
053
F82
F69
F9F
057
0DB
088
0CF
025
FCE
FDC
085
FE0
FF9
F14
057
05D
FA6
F2A
0D3
0C0
04B
012
08C
07A
FF6
0AB
F1A
F81
F35
FBF
048
F7F
0C2
09D
F86
067
08E
FFB
0A0
0EC
F23
0A3
0C6
F62
097
F0E
F1D
0B1
0CF
04B
05A
F2C
051
0C7
FDA
0EB
00D
F3E
FDC
01F
FAB
F32
0F4
0A9
03F
0F2
F48
01D
031
F4E
0D2
0B8
F99
FA5
F0F
046
06D
071
0B2
024
F61
FCD
FCA
F6F
0B9
082
088
095
F5A
F23
0A9
F74
096
02B
F5A
052
F33
FF0
F04
FF3
0B5
F24
0FD
F08
0E8
07A
FC0
F0C
0AC
036
F69
04E
016
F97
09D
098
0D3
0EB
0B0
001
F93
0BD
019
F26
014
048
0F9
090
023
FBD
FD6
04C
F3D
F7D
0FB
F4D
FF7
059
0A9
07E
FAA
0DC
F5B
FF7
FD3
F13
012
F10
007
F32
049
066
02A
0E4
07F
041
042
FA1
F1E
066
F0F
FE6
06A
F6C
F8D
F02
F27
F45
FDA
0E8
0B4
F1A
0CA
079
016
FDC
F2B
F6A
054
0F1
F34
013
FA9
0F6
007
017
F51
0D2
056
0A5
0D7
FCF
024
0C1
FA8
F18
00F
FF5
FE5
FC6
F21
F42
F48
07A
FDE
FBA
07F
079
048
F2A
FCB
F52
FE9
0BA
FBC
F4D
0F4
005
099
FB5
F4F
F12
00D
FAF
02C
F4E
F6D
F85
F0F
0E0
0C5
F83
003
011
F6E
F4D
0A4
F6B
FED
07D
F81
F21
F7B
F3D
03B
F31
F52
085
0A4
004
083
068
F48
FF2
02A
0A5
01B
FED
06C
066
F90
FAA
0F2
FEE
0F6
FF3
069
F6B
F8E
FE9
F54
F1D
F1A
052
FF9
FC4
0B8
059
F06
F2B
F41
091
053
0F4
F59
F4D
0C2
F99
0B1
F08
FD3
097
032
F36
0E1
F1A
FCB
0C4
003
0D1
070
0DC
06C
048
087
F5F
F60
F49
F38
058
074
0F6
009
081
0AD
F7E
FA4
F18
EFD
00C
F4F
00A
043
0CA
01F
017
071
008
01B
0C7
FDF
F9A
0ED
FC3
F5E
F41
FF9
0EC
0AE
0E1
F3C
F66
053
0D1
0CD
0DA
0F3
F80
070
F69
0E6
FD4
FC6
F6A
F6A
004
F3F
FF9
070
FF3
F5F
0DA
F19
031
02F
F14
082
093
FE2
FFC
081
F24
FA1
013
FDF
00F
0B4
048
F7F
EFD
05C
0A9
FC2
0C3
F8F
F27
F24
F5C
044
047
05B
F57
F37
F8C
084
FB8
06C
0A6
0AC
039
F3A
000
073
F4B
0DC
FB5
079
038
0B8
0BD
036
FCA
F84
FC2
03A
F0A
F10
027
F76
006
044
0B8
0D2
F0B
0D0
002
F74
FA3
02B
0A5
045
00E
083
FDD
002
F3A
0F2
093
065
070
00A
077
0E2
0F6
06A
0EB
02A
08C
F6C
04B
FDE
FAE
F22
077
FB8
0A1
F04
F75
FEB
000
083
FCD
05C
087
019
02B
F7B
092
0AA
F60
0C2
F60
F6D
0CD
044
0E3
09C
0F3
0C5
0FD
0B1
01B
050
F55
F60
F74
F89
F20
FCD
FDF
0AA
015
0B9
0E6
077
0B1
FD9
08B
03A
F6D
EFE
0C2
FAA
FF8
F64
009
07E
03F
FF2
F39
F07
021
F73
FF8
F8B
EFC
01F
001
074
08E
092
02C
035
0CD
041
F85
F80
0AD
07F
FAE
F70
F51
029
01C
F49
004
FE8
0A9
F39
FB5
F15
0B4
00E
F92
F00
F4F
001
087
F77
FFB
FC7
FB5
F2E
F09
08F
F7F
FFC
0A7
01D
07A
04C
055
F4F
F10
055
068
F0A
05C
061
F06
F61
FFF
FCE
FD1
021
FAC
F57
F41
0B0
006
03F
002
070
0EE
F7F
F92
FB8
0BE
F4C
00B
F70
FF2
080
F41
F46
FF8
03E
FDE
F97
024
03B
F25
0D2
0AD
F77
FD4
FF8
074
01D
F47
F60
F88
0A0
0D1
FF0
F15
021
F06
0F9
FEA
020
0FB
FD2
F08
0AA
0AA
F0F
FC1
F0A
0B6
F90
041
F77
F3C
02E
F15
F03
FF2
085
F55
FA6
F76
0EB
08E
091
0C5
009
FA2
0F0
016
F68
07D
F49
03C
F9E
047
020
F21
0CC
FC7
F48
095
0A5
FB1
F01
F41
FC5
0E2
0D6
F2F
0A5
F57
0CB
F5A
F3D
F83
006
F67
FDE
F20
F6A
0FA
F19
F15
013
0B0
FC2
FD0
FF0
03A
F9D
071
FCA
01D
FF4
F7D
007
F60
0E1
026
FAA
FC0
FB2
03C
0AC
F37
FE3
FCB
F0F
0BA
F21
029
F05
0E9
0D5
0DC
F1A
0BF
0A0
F67
FF1
0B6
F8C
FD8
085
027
FB6
FEC
FC5
0E6
0FC
F85
014
0E2
FC2
F94
0E6
F6A
0F2
06D
FF7
FCB
F05
F42
FC3
0C3
077
019
077
008
FD7
FF3
045
F3D
FFC
08C
F41
09A
FF7
F21
F22
F2A
F00
F1E
0E8
FF9
FF2
05D
FEE
0EB
FDC
FC0
014
0C0
024
0C2
02D
F9F
F09
0B5
F1E
078
F7F
F1E
0BC
F90
00E
0C8
08C
0BF
F3E
FA9
F70
F7A
FE9
068
FC2
036
0A8
F9B
036
032
012
001
023
FCD
FE9
F87
0D5
00B
FD8
0DF
FCD
F92
F6F
F97
07E
FFF
0CC
06C
F55
089
027
F5A
04F
F38
F21
01C
049
05A
F98
F03
F75
F58
F97
0B9
F3F
F30
FC2
048
F1A
024
F47
FC8
F43
FEB
F0F
F2C
FF0
01F
06C
FF0
04A
F06
028
018
0A5
F42
FF9
F94
FF2
0A7
0CB
FA9
F76
F4A
EFE
F43
F32
019
F3A
0A7
FB3
033
0BB
026
080
0DC
02E
F15
F07
F61
F25
049
07A
F2B
FA6
027
F39
04E
F6A
FEB
06D
FA2
0D4
F8B
F2D
095
009
FA3
F98
0EE
092
0B6
F30
0A8
04C
058
0C7
0D3
F0C
F3D
0C6
0A5
0A7
F3C
F9A
0D0
F19
F9C
070
0EF
0C3
F6E
F40
FB3
07C
F0B
06B
FAC
FC7
F09
0A2
060
0DE
087
04A
029
F60
045
042
056
015
FB3
080
07F
0B4
F15
F2A
0F9
07C
F92
FF5
FAA
0B2
FEC
08E
F0E
F78
0C8
0AE
F52
0A6
F0B
EFA
FAF
0A0
FAF
FE0
FE8
00B
FE8
F6F
F92
F96
F2A
F51
F89
017
058
F12
064
08D
F55
0FA
FF2
0EB
060
FDD
034
004
FE3
F40
04E
FFA
F0E
F7C
061
FCC
F60
FDA
F28
F7E
083
F07
F9F
FD0
01D
006
F28
051
F61
0C7
F0F
F22
082
F73
062
FEB
0DB
048
F8B
F55
F66
0CA
048
0C5
0E6
0C9
FBB
FF9
0A8
03B
F18
08D
F8A
F7A
F6A
F9C
096
04F
F4F
FEC
095
017
0EF
F4E
FB1
02D
057
040
03A
F6E
FA5
075
F6F
F14
F78
F96
03A
F3F
0B1
F27
FEF
F9D
FC6
F96
057
018
013
05A
F44
F80
FD6
F0E
FF0
06E
00A
F6B
F04
F2F
0F1
069
021
0B0
F60
FB0
0EA
027
04C
FFE
F48
029
FDF
F2C
02C
FB9
03B
061
FFE
FCB
F3E
F35
F62
0AE
F96
05D
FC0
062
08E
F2F
093
054
055
FE6
F28
06C
01A
02B
001
F3C
0FB
FBD
F06
FE3
FEA
F59
FC5
098
018
07C
F80
0C1
0A8
0E7
068
FAB
0AB
FCD
F6F
095
F8F
EF9
F28
0E7
024
021
F97
F66
098
029
F6A
F70
F9E
0E4
FCD
0A9
F0A
027
08C
0A4
088
FE8
F36
0A0
F2B
049
FCA
F72
02D
F05
088
FC4
0C6
0AB
F7D
F58
FD7
F51
FA2
0A8
F96
F31
F4E
0C2
FD9
0F5
00F
0D2
F44
FBE
F5C
F22
FD9
F5A
086
F98
089
0E5
FEA
FDB
017
05B
093
FFC
053
F72
F05
08E
059
F84
F9A
F12
F15
FA4
062
FE7
F87
F79
090
F2F
064
03D
022
FBC
046
F9E
F0D
042
0E5
FCE
F98
FEA
FD6
F26
F42
053
0C9
0AB
F4B
F9E
0D6
059
0FA
FE0
0D5
0C4
008
083
088
0E3
FD4
09A
F11
02A
FDA
F08
0C1
019
028
FF0
F16
FC6
08B
01E
01F
062
02D
0E5
FF4
FEB
033
08C
0C4
FB9
FF4
078
F09
0ED
FFD
FB6
FCB
028
0D9
FA9
FCB
F4C
05D
F10
0BC
F69
F11
09C
0A7
FBE
0D5
F8A
083
F24
07D
000
018
068
F87
0A5
FC1
FAC
FDB
0D6
0B8
0A5
FCC
00F
003
015
F4F
03F
0A2
FD7
FAA
064
048
014
0CE
0C9
05D
F54
FC4
FD0
031
FE9
FA8
076
0A1
FA7
FAC
F78
058
09C
F28
028
FA9
FF0
EF8
F4E
016
EFB
06D
F05
FFC
0DC
FEF
03F
F13
077
F92
F9B
00C
0D9
FE5
F9B
FB9
F62
062
059
0EC
036
F9C
093
F06
0CF
F24
06E
F63
F84
F8D
F0F
F11
F8B
083
F60
F0B
FC6
0E5
FF2
F04
0E3
04B
FFA
0B4
F31
0E3
FBD
073
047
F66
FAA
EFF
0EE
01F
076
0EA
05E
07A
F5D
04F
006
F70
0EE
04E
FA7
06E
F38
05B
FDD
FA7
0A4
FD5
041
FF8
0EB
F97
F52
077
0C4
00A
F7C
0EB
FD9
F7F
0B0
0A9
057
F39
0C7
F9E
F61
0BB
070
05D
F83
052
073
03C
0A2
F65
F3C
F84
0CC
0A0
F04
F24
040
F15
019
F0A
0CA
FB3
F67
F5F
FF8
0AD
F9B
007
FCB
FD2
034
0CD
0A1
F02
FB3
029
057
F99
0F2
FA4
0B7
F09
05A
FFD
02B
091
0A2
0F6
0CC
05C
0AB
0D2
F74
0A0
FBF
F48
040
FAA
FEB
F75
F08
0E2
057
F5C
F08
07F
FBE
FC8
FE5
F16
F00
095
023
022
0BF
0CA
F29
0C1
F3D
06E
F45
06A
FA6
007
F2C
F75
06C
02A
008
FC9
0AB
05E
F0B
F57
FE6
FD6
0AD
F6D
FF0
F04
FED
0D7
F81
F37
F53
F8C
F25
F1E
009
F88
0CA
F99
F33
02C
FFD
FCA
F36
0CD
F4C
037
0CE
FF6
F01
FA1
F20
09D
0BB
FEE
F8E
FE8
FEE
04B
081
FD7
FE4
088
0E7
094
00B
060
058
F23
FA0
0FA
F6C
F7F
FCF
F36
0D3
06B
0B8
F52
F15
053
001
036
056
008
F2A
FD9
F82
091
F12
F11
050
01F
09F
01B
0D7
F22
01B
031
036
F41
082
FE1
FFC
063
FAA
F9B
F0B
FB0
0E1
FD5
F60
0E3
FEE
0EE
025
087
F0C
FFC
075
FF8
FC7
0B2
F3B
070
FF1
F76
F14
F9C
F2B
065
00D
01A
01D
0B8
F02
083
046
075
FE7
07F
FA4
F95
F29
FD5
FB3
016
F92
032
FA8
02F
02E
F8A
053
F61
03A
F6F
043
0D4
FF1
0B9
0BF
F2B
FB6
FB7
017
F68
039
FDE
F60
066
F71
002
0F3
F4F
037
0A7
0FD
FB3
FE9
0A8
F79
F2F
FD5
F4F
0B6
084
FC0
01A
FE2
047
092
0A5
0A3
051
04E
F39
033
024
0AE
FCD
F21
00C
FA1
F58
F32
02A
0A7
F34
05B
0BC
0C3
00E
FD3
F7A
0E1
086
F73
F77
076
F53
F0A
FC2
0CA
054
0D9
F56
FE2
EFA
F86
028
07A
0D0
F28
F46
041
FF7
F32
F7C
005
FCD
00F
081
0CF
0DB
F93
F68
EFE
0C9
007
02B
F53
F50
00B
060
F2C
0A5
06C
057
045
0A9
06E
05D
04E
0C7
FE6
014
F1E
062
F06
04E
FEC
042
FDD
FFD
0E5
F0F
0E6
0B0
003
F76
FC6
F84
0B5
FB6
F44
0DF
F08
05E
091
03B
FD1
0D8
FBA
F83
F8F
0C0
FC8
024
F75
F10
F46
F7C
0EA
FE9
F46
FF8
FF1
05F
0C4
FFA
F35
F4B
08F
0E2
01E
0B0
0E2
0A9
01E
F81
003
F7B
FDE
FB5
F73
F46
02A
FDB
003
F01
FD7
001
F28
F28
F4E
F8F
035
F81
01E
020
F7C
F2D
06D
F44
06E
FE9
FB4
F0A
0CA
F98
08C
F9D
044
06F
0A7
FDB
06D
0E6
0CC
FD7
F8A
F7C
08F
0EB
F49
F90
029
067
0FD
09E
0B9
FFA
053
F18
06F
05C
011
FB2
0CD
F3C
F42
051
F22
F1C
FF6
003
F5D
F27
F0F
05F
FA8
068
FC5
F1E
F4C
F3A
F63
FCF
011
0C6
01D
F9D
F68
F90
F94
0CD
0AA
F74
F20
08E
F48
043
03D
F5B
09F
048
061
0DD
F96
0C5
FAB
00F
016
046
F82
0BC
04C
058
0FB
02A
060
08A
0DD
F1E
0EC
025
F18
F23
F58
0D2
078
051
0EE
0B2
F06
F68
022
F52
FFA
0D8
F08
01E
004
F73
F38
01E
FA7
07A
FBC
098
FDB
F1D
FB7
F08
0CD
F0D
05F
01A
055
F2E
F45
FF1
021
0A6
FFE
FA2
04E
FFC
F1F
080
0DE
FEA
FA3
037
0AB
071
FCD
F7A
F0F
08A
072
F9B
089
061
0A3
0D9
085
F26
012
08D
F48
0C1
F53
08B
05B
F01
0AB
FF2
F0D
EFE
F17
F10
EFE
F55
091
0B3
FF2
005
022
F70
0E0
FD0
0F3
01E
058
08F
FAB
F69
092
F99
F77
08C
08E
FD4
F61
F6A
FBC
001
068
0E4
F86
0C6
EF9
F65
F69
F30
F28
0BE
F83
006
0CE
02F
061
FEC
FA6
F44
051
0CD
F26
F33
05E
F88
F59
F3C
F3D
017
F7D
FC8
F20
0F3
024
F44
00B
F76
F14
FA1
08B
FD7
F5B
0A7
F3B
F04
F6B
F0D
FED
F80
F14
028
0A1
01F
032
00A
016
F5A
047
FB9
F4A
033
F5A
097
0E1
FC5
006
0EB
024
028
F3D
FF4
0CB
F4B
0A9
084
FB2
F75
F50
00F
F6E
EFC
053
05C
FC2
FB6
00C
069
09C
099
F0B
09E
FDA
F1E
034
F64
FA9
FBA
F5B
FB4
0B7
F4C
F46
057
0E6
F1C
032
FF9
024
F3D
07E
0AE
F20
F39
F9B
011
080
0E3
05E
F9F
0A5
F09
021
0C3
05E
08C
04B
0A2
0C1
0F9
EFE
0DC
01E
0A2
FCE
FB5
0CC
091
04B
047
F73
F44
FA7
052
093
09B
011
F84
099
F3B
F28
F71
0F8
0E1
0AD
F25
F21
F5D
04C
0DA
FA4
0E8
05A
08B
FDC
FD4
F70
066
0FB
065
F35
0C3
FE1
0B4
F9C
F10
0EA
F3E
07F
F28
04C
09C
F52
FFA
0F9
FE9
0F8
04A
0AE
F1F
F6D
051
F69
07F
F56
0BC
004
F93
F95
0C1
055
FEF
027
F0F
04A
F31
FB5
0D2
06F
FE1
06D
F08
F33
FF4
FA1
FB1
0B7
F15
02B
001
01D
097
FAC
001
F47
045
F18
01B
F9E
F56
049
F8D
FF1
F2B
03D
01C
FE8
09F
038
0D6
EFC
FB2
FF7
09C
FAF
04C
066
05A
FFC
F80
011
FC5
FD2
08F
004
09E
F5C
FFA
00E
F7B
FCB
F45
03B
088
007
F26
087
0AC
0D3
078
01F
07A
F72
014
FB2
06F
F14
F3A
0A3
F0C
FB3
0CD
F87
062
024
FD5
077
F8A
FC7
F01
091
F36
023
FF4
FEA
FF4
099
09A
0E9
057
FC3
063
F98
FEE
F70
0E2
0D0
0EA
FC9
F0E
02E
02C
057
03A
F7E
FE5
EFA
060
0E1
F9F
08E
07F
0AE
0C5
F2C
09E
FA0
0DB
063
FBC
004
082
04F
F8F
0B2
FC4
FD8
01B
FDC
F8F
0A2
FED
F35
083
013
040
F66
F14
09D
0C6
05E
F17
FE6
06B
020
FB3
0C1
0AE
01A
FEC
05C
0A1
F11
07D
F36
09A
053
F6A
FFE
FD4
00C
FE4
061
0E0
FB2
063
F13
F40
F7D
F28
0CD
076
098
F24
F56
F21
0E5
08F
086
067
065
037
057
F71
01D
09A
F4B
035
001
F30
0F9
F67
04C
077
0C7
FF2
098
04F
093
000
0EB
018
077
04B
0F3
FF6
F76
F5C
F1C
07D
021
F11
09E
012
F39
092
FC3
079
00B
03D
04C
F1F
FB7
F0A
F0A
F3B
F88
F5D
0CF
F6E
FAD
009
F19
F5A
018
052
F1F
075
0BF
F43
F64
0B6
F32
F1B
018
0CF
FD3
FCA
090
04A
FA5
F18
042
02F
034
05B
022
0C7
08F
093
0A3
F15
064
081
029
F06
FA0
064
F15
037
073
F94
F0E
F96
049
F3E
0C3
F53
05D
0BB
FD7
F6D
FB7
F42
03C
FCA
FC5
0C2
0B6
0DE
01B
F94
005
0EF
03D
FE9
0BE
0C3
F41
FAC
F0A
F7F
F7B
F37
F9A
035
F9E
0DE
010
F6E
06C
00A
0CE
012
077
F0F
FA8
F1F
018
054
092
F7C
F59
007
FB4
024
F8A
F77
FFD
F25
FED
000
FF9
072
F54
0BE
FD7
FF3
0A9
07D
04C
0E9
FB1
027
094
F01
F31
029
0EC
0D8
FB7
EFC
FE2
F25
0CD
0CB
F71
051
F0D
014
F26
000
FD3
07C
FDF
01D
FCC
00D
FDA
F8D
F40
F98
F78
F20
0FA
FAC
0AB
06B
F88
FF9
F82
FAA
0C7
008
0B0
0EE
FC0
0E8
076
F57
F2D
0DB
024
F87
046
F5A
EFC
F4A
0B0
F90
F9B
F6B
FC3
0B4
0C6
F57
FC7
FAF
FA8
FF4
043
01C
F35
FB3
0B7
F30
F3C
08A
0D0
FDE
02E
FFD
00C
01C
0E6
065
099
F5C
078
083
037
F8D
030
F56
0A8
FE6
018
00B
081
056
FB4
0BF
04F
F14
FAB
FF2
0CA
05C
FB4
FD6
F25
04E
0D2
FBC
0C2
F0F
0D0
010
F99
FB1
FF5
F7F
0AB
F51
F3B
F79
F44
0BC
F5C
FE0
0D5
F41
0C1
F75
05F
FC9
0BA
0AC
05F
FD5
F21
F9A
076
F7D
01E
04C
03B
FE5
F18
03A
FF8
055
FBA
0B0
FC7
F87
F44
0A9
F74
0A3
0C4
F27
017
F33
0F7
0BA
054
0F0
0EE
09B
0DD
0B2
F42
FB7
037
07E
FC4
F48
0DB
0E0
F64
0A5
07F
FCB
06F
0F0
F5C
FC5
0A0
FA3
FD4
0D6
084
07E
F17
06A
004
FAC
F86
08A
061
0B9
FE5
FF8
02F
FE4
093
014
FA4
F48
FA0
F59
0F4
F08
FD8
F08
03B
041
0CF
051
071
033
FB7
FA4
01A
035
02F
03B
FFF
099
0D8
FB5
F5C
F5B
F80
FD1
EFC
FBA
08F
F8E
F36
0AC
0A7
F84
00D
FF6
032
0F5
F22
F3F
022
FE6
013
F4D
F29
0F7
F62
FCB
0B9
FCF
056
01B
F91
01D
FEA
08B
068
055
0EA
008
F1E
FE6
057
F1B
FBB
F74
0C0
FC9
079
0DB
005
004
03B
F56
054
0A5
04D
F9D
036
0B9
F52
F12
F1A
0AC
0DD
F4D
F66
060
084
F21
09E
030
F1E
0BC
F69
FA7
FE0
F6F
095
FD4
098
F39
FE6
EFD
FC4
0DB
FE4
FCA
F60
F1B
076
088
FAE
05C
00B
FF3
F5C
020
FCB
000
FCA
068
F91
FC7
0AF
FBF
F84
0F1
FC2
F66
018
0F7
F35
060
0C0
F4C
0DD
08D
07B
F03
026
072
04A
00E
F17
0D7
035
0F1
071
0D2
049
F0A
F8E
030
FF5
FBB
F08
0E4
07F
01F
0E9
08D
03B
017
F23
05E
FEA
04D
F77
F14
0AC
0C9
074
FBC
FE5
EFF
FD5
00F
F4D
0F4
FDA
F46
04D
0F6
02D
F51
063
FC3
06F
03E
FE7
072
F42
FEC
F80
F4E
FA2
0E8
04C
0EB
FB0
082
044
0D9
F15
F1E
FB5
0B0
032
096
0E2
F6E
01A
0D4
FB4
F46
F27
F7B
FA2
F19
0A0
F73
F2E
071
0B2
F87
FDE
065
F06
0C6
097
