WIDTH=16;
DEPTH=20;
ADDRESS_RADIX=UNS;
DATA_RADIX=HEX;
CONTENT BEGIN
	0 : FF37;
	1 : FDED;
	2 : FEA9;
	3 : 0557;
	4 : 0154;
	5 : 05B0;
	6 : 0291;
	7 : 025B;
	8 : 0498;
	9 : 0001;
	10 : 0762;
	11 : 00FC;
	12 : FF82;
	13 : FEAD;
	14 : 0384;
	15 : 0963;
	16 : 03B2;
	17 : 03F2;
	18 : FE7C;
	19 : 0596;
END;
