WIDTH=16;
DEPTH=200;
ADDRESS_RADIX=UNS;
DATA_RADIX=HEX;
CONTENT BEGIN
	0 : FFB2;
	1 : 025A;
	2 : 00E1;
	3 : 012C;
	4 : 0081;
	5 : FE2D;
	6 : FDE4;
	7 : 00D1;
	8 : 00B1;
	9 : FEE2;
	10 : 029A;
	11 : 04A8;
	12 : 00D0;
	13 : 00C8;
	14 : FED6;
	15 : 0199;
	16 : 0178;
	17 : FD3D;
	18 : FAF0;
	19 : FD6F;
	20 : 0084;
	21 : FD79;
	22 : 0223;
	23 : FEA1;
	24 : 0333;
	25 : FD29;
	26 : FD67;
	27 : FD5E;
	28 : FFD9;
	29 : FDA2;
	30 : 00CF;
	31 : FDC6;
	32 : 00A9;
	33 : FF2C;
	34 : 03BB;
	35 : 034D;
	36 : FCB5;
	37 : FDA9;
	38 : 0326;
	39 : FF29;
	40 : 040A;
	41 : 0235;
	42 : 02BA;
	43 : FEBD;
	44 : 0003;
	45 : 00AA;
	46 : FC98;
	47 : 000C;
	48 : FE3A;
	49 : FEE7;
	50 : 022E;
	51 : FF92;
	52 : FECA;
	53 : 02E9;
	54 : FE75;
	55 : FEE3;
	56 : 023E;
	57 : FE8A;
	58 : 0099;
	59 : FD41;
	60 : 0082;
	61 : 00BC;
	62 : 0032;
	63 : 02B7;
	64 : 00A3;
	65 : 03BF;
	66 : 0229;
	67 : FD92;
	68 : FCD4;
	69 : FBC7;
	70 : 0235;
	71 : FEBF;
	72 : FE9D;
	73 : 01B1;
	74 : FE9D;
	75 : FF60;
	76 : FF12;
	77 : 0484;
	78 : 01F4;
	79 : F9D9;
	80 : FE7D;
	81 : 0015;
	82 : FF3B;
	83 : FACB;
	84 : 02B5;
	85 : FDAD;
	86 : 0100;
	87 : FE82;
	88 : FDD8;
	89 : FCD8;
	90 : 00C8;
	91 : FFFE;
	92 : 020B;
	93 : 021C;
	94 : FE7A;
	95 : 018A;
	96 : 020A;
	97 : FF0B;
	98 : FEB4;
	99 : 0609;
	100 : FD67;
	101 : 01F8;
	102 : FE09;
	103 : 030B;
	104 : FD5C;
	105 : 029E;
	106 : 0548;
	107 : 0079;
	108 : FDD1;
	109 : 0166;
	110 : FF29;
	111 : FFD5;
	112 : 0308;
	113 : 0038;
	114 : FF00;
	115 : 040A;
	116 : 037A;
	117 : 00CE;
	118 : 000A;
	119 : FD8E;
	120 : FE40;
	121 : FF73;
	122 : FD2E;
	123 : 00AE;
	124 : F909;
	125 : 0396;
	126 : 013E;
	127 : FB3A;
	128 : 0119;
	129 : FEC3;
	130 : FD74;
	131 : 01D7;
	132 : FEC0;
	133 : FFFF;
	134 : 006B;
	135 : 0389;
	136 : 05A0;
	137 : F647;
	138 : FBD5;
	139 : FFAD;
	140 : FFE3;
	141 : 0460;
	142 : FD51;
	143 : FB68;
	144 : 0403;
	145 : 0107;
	146 : FF47;
	147 : FF86;
	148 : FEF8;
	149 : FE5B;
	150 : FC5D;
	151 : FC9F;
	152 : 0581;
	153 : 01B8;
	154 : FDA9;
	155 : FF51;
	156 : FDCD;
	157 : 0013;
	158 : 03C3;
	159 : FF17;
	160 : FED8;
	161 : FDF0;
	162 : 0061;
	163 : FD2B;
	164 : 0072;
	165 : 0345;
	166 : 0119;
	167 : FEE4;
	168 : 0135;
	169 : FDB4;
	170 : 0556;
	171 : FF81;
	172 : FEAE;
	173 : 000D;
	174 : FDFE;
	175 : 058C;
	176 : FEAF;
	177 : FFD9;
	178 : 003A;
	179 : FD11;
	180 : FC61;
	181 : 0230;
	182 : 00AA;
	183 : FD8C;
	184 : 031D;
	185 : 0062;
	186 : 047A;
	187 : 032B;
	188 : FE1E;
	189 : FD85;
	190 : 0106;
	191 : FF04;
	192 : 03BF;
	193 : FD6F;
	194 : FC84;
	195 : 004D;
	196 : FC0F;
	197 : 026F;
	198 : FDEE;
	199 : 034F;
END;
