WIDTH=16;
DEPTH=400;
ADDRESS_RADIX=UNS;
DATA_RADIX=HEX;
CONTENT BEGIN
	0 : 01F2;
	1 : 0659;
	2 : 015F;
	3 : FE00;
	4 : 02CC;
	5 : FFCF;
	6 : 06B7;
	7 : FDEE;
	8 : 01DA;
	9 : F578;
	10 : 07CD;
	11 : FB42;
	12 : 041E;
	13 : FC56;
	14 : FDFC;
	15 : F6BD;
	16 : FA96;
	17 : FFE5;
	18 : 0266;
	19 : FA93;
	20 : FAA1;
	21 : FACF;
	22 : FEFA;
	23 : 03E9;
	24 : 0339;
	25 : F372;
	26 : 0745;
	27 : F9F7;
	28 : 0023;
	29 : FDB9;
	30 : 073C;
	31 : FF2A;
	32 : FF24;
	33 : 0409;
	34 : 056A;
	35 : 003A;
	36 : F6F0;
	37 : FEBA;
	38 : FE35;
	39 : 01F5;
	40 : FA81;
	41 : FDFB;
	42 : FE0B;
	43 : 05F3;
	44 : F7DE;
	45 : 01B6;
	46 : FC56;
	47 : 055F;
	48 : 0422;
	49 : FD81;
	50 : FF2B;
	51 : FC6E;
	52 : 0825;
	53 : FB29;
	54 : 0399;
	55 : FE09;
	56 : FCE9;
	57 : 0049;
	58 : F521;
	59 : 02E0;
	60 : FA13;
	61 : F90E;
	62 : 02F8;
	63 : 0322;
	64 : F878;
	65 : F7D5;
	66 : FB8B;
	67 : 0371;
	68 : F85D;
	69 : FCC7;
	70 : FB12;
	71 : 0227;
	72 : 086E;
	73 : F791;
	74 : FA5B;
	75 : FCAB;
	76 : F599;
	77 : FF88;
	78 : FF41;
	79 : 0C96;
	80 : F93E;
	81 : F6B0;
	82 : FE31;
	83 : FAAD;
	84 : F6E4;
	85 : F994;
	86 : FBED;
	87 : FFBB;
	88 : F210;
	89 : FDD0;
	90 : 0089;
	91 : FD5C;
	92 : 07C3;
	93 : 09CB;
	94 : F682;
	95 : FA62;
	96 : 08AA;
	97 : 034D;
	98 : FD9D;
	99 : FE42;
	100 : F24A;
	101 : FA85;
	102 : 00EF;
	103 : FE1D;
	104 : 026A;
	105 : 0134;
	106 : FD7A;
	107 : 0053;
	108 : 0833;
	109 : F533;
	110 : F5AE;
	111 : 09F9;
	112 : FDE1;
	113 : 08C1;
	114 : 060A;
	115 : 03B4;
	116 : F7CB;
	117 : 0374;
	118 : FD30;
	119 : 0307;
	120 : 070F;
	121 : 0970;
	122 : F885;
	123 : FF40;
	124 : 00F4;
	125 : FAC2;
	126 : FFBB;
	127 : 02D2;
	128 : FECC;
	129 : FCBE;
	130 : FE01;
	131 : 00E2;
	132 : FC4D;
	133 : F961;
	134 : FBC7;
	135 : FCBF;
	136 : 021A;
	137 : FFB6;
	138 : 0099;
	139 : 040D;
	140 : 01E2;
	141 : FB7A;
	142 : FAF8;
	143 : FCB3;
	144 : F6AB;
	145 : FAE1;
	146 : 010C;
	147 : 03B6;
	148 : FD64;
	149 : 05D3;
	150 : 01A4;
	151 : F98F;
	152 : 0557;
	153 : FEDB;
	154 : FB22;
	155 : FEF3;
	156 : 0619;
	157 : 026E;
	158 : F5A9;
	159 : FF1C;
	160 : 0103;
	161 : FE58;
	162 : FF97;
	163 : 0103;
	164 : FC41;
	165 : FE84;
	166 : FD6C;
	167 : FF4E;
	168 : FDC6;
	169 : FD99;
	170 : FD8A;
	171 : 02D2;
	172 : FD02;
	173 : FF71;
	174 : 00C6;
	175 : FC31;
	176 : FF5A;
	177 : 01C3;
	178 : FCE8;
	179 : FD75;
	180 : FC46;
	181 : FCBE;
	182 : F6F0;
	183 : 0233;
	184 : FC0E;
	185 : 0255;
	186 : FF81;
	187 : 0637;
	188 : F5E2;
	189 : 058B;
	190 : 02A8;
	191 : 0307;
	192 : FF02;
	193 : FB98;
	194 : 02F5;
	195 : 05C0;
	196 : 0122;
	197 : 0197;
	198 : 0138;
	199 : 00B1;
	200 : 0830;
	201 : F762;
	202 : FC61;
	203 : 0469;
	204 : 01E9;
	205 : FD21;
	206 : 0C3B;
	207 : FFAB;
	208 : 072C;
	209 : FA8B;
	210 : 054E;
	211 : F84D;
	212 : 02DA;
	213 : F82F;
	214 : 0258;
	215 : FB62;
	216 : F28F;
	217 : FF48;
	218 : FB48;
	219 : FCDA;
	220 : FD72;
	221 : 05BA;
	222 : 0062;
	223 : FFFA;
	224 : F662;
	225 : F753;
	226 : FD52;
	227 : 024D;
	228 : F7AB;
	229 : FA29;
	230 : FA41;
	231 : 025A;
	232 : FE66;
	233 : 06CB;
	234 : F72E;
	235 : F6BD;
	236 : FDA9;
	237 : FCB4;
	238 : 0A1E;
	239 : FF87;
	240 : FD39;
	241 : FDF1;
	242 : 07EB;
	243 : FF86;
	244 : 01BD;
	245 : FAC4;
	246 : 0138;
	247 : F9CE;
	248 : 0194;
	249 : 06FC;
	250 : FE69;
	251 : 0154;
	252 : F625;
	253 : F831;
	254 : FEA2;
	255 : 00A9;
	256 : FF97;
	257 : FCC7;
	258 : F970;
	259 : F4F9;
	260 : 0263;
	261 : 0A22;
	262 : 01DA;
	263 : 03CB;
	264 : FF9B;
	265 : 0835;
	266 : 06D7;
	267 : FBC2;
	268 : F6C9;
	269 : FCC4;
	270 : 0186;
	271 : FB64;
	272 : FC30;
	273 : FD59;
	274 : FBDB;
	275 : F160;
	276 : 0303;
	277 : FDD7;
	278 : FCA9;
	279 : 003B;
	280 : FC0A;
	281 : 0195;
	282 : 0B30;
	283 : FFF1;
	284 : FB0D;
	285 : F9F7;
	286 : FBF1;
	287 : FA46;
	288 : FD28;
	289 : FEEE;
	290 : F99A;
	291 : 039E;
	292 : FC41;
	293 : FBBA;
	294 : FDA9;
	295 : 0211;
	296 : FAF5;
	297 : FE15;
	298 : FDC9;
	299 : FEA4;
	300 : FD30;
	301 : FB7F;
	302 : F903;
	303 : FFBA;
	304 : 0008;
	305 : 020A;
	306 : FCC6;
	307 : 042F;
	308 : FE7B;
	309 : FC34;
	310 : F9CD;
	311 : 033E;
	312 : FC0B;
	313 : FB83;
	314 : 07FD;
	315 : 064D;
	316 : 0393;
	317 : FFFA;
	318 : 046A;
	319 : 0631;
	320 : FDB7;
	321 : FF9D;
	322 : 0374;
	323 : 0353;
	324 : FD0C;
	325 : FF81;
	326 : FFC7;
	327 : 09E8;
	328 : 015B;
	329 : FBAB;
	330 : FE16;
	331 : FF9E;
	332 : F9F9;
	333 : F3F1;
	334 : 03F4;
	335 : FF64;
	336 : 0315;
	337 : 03C4;
	338 : FB26;
	339 : 00C2;
	340 : 0023;
	341 : 0612;
	342 : F5AD;
	343 : 00B2;
	344 : FE08;
	345 : FDF0;
	346 : FD0C;
	347 : 01CF;
	348 : 023E;
	349 : 046F;
	350 : 014E;
	351 : FAD3;
	352 : 05D3;
	353 : F917;
	354 : F893;
	355 : FBE5;
	356 : FB8B;
	357 : FDB1;
	358 : FE1B;
	359 : FD6D;
	360 : 005E;
	361 : FACB;
	362 : F663;
	363 : 0A34;
	364 : FBA3;
	365 : 031D;
	366 : FAD7;
	367 : 06F0;
	368 : FF4F;
	369 : F830;
	370 : FD08;
	371 : FBE5;
	372 : 0238;
	373 : F6F4;
	374 : FBA6;
	375 : 0008;
	376 : 082D;
	377 : 00E8;
	378 : F60E;
	379 : FC68;
	380 : FFED;
	381 : FCC9;
	382 : F56A;
	383 : FF48;
	384 : FAA4;
	385 : FEDE;
	386 : 0071;
	387 : FEE3;
	388 : 04B7;
	389 : FD4D;
	390 : FA30;
	391 : 0172;
	392 : 0341;
	393 : FE60;
	394 : 0261;
	395 : 0493;
	396 : 06B6;
	397 : FC88;
	398 : FEAB;
	399 : 00F5;
END;
