WIDTH=16;
DEPTH=15680;
ADDRESS_RADIX=UNS;
DATA_RADIX=HEX;
CONTENT BEGIN
	0 : FCF0;
	1 : FEA0;
	2 : FFF9;
	3 : 03BB;
	4 : FDCD;
	5 : 024B;
	6 : FF0C;
	7 : 03F2;
	8 : 0353;
	9 : FC4E;
	10 : 0385;
	11 : FF79;
	12 : FF9E;
	13 : FDD0;
	14 : 0289;
	15 : FFE1;
	16 : 00DE;
	17 : 031D;
	18 : FC09;
	19 : FE95;
	20 : 0377;
	21 : FEB7;
	22 : 02CD;
	23 : 008F;
	24 : FD8E;
	25 : FD4E;
	26 : 013B;
	27 : 02DB;
	28 : 033C;
	29 : FE9A;
	30 : 0076;
	31 : 0181;
	32 : FF06;
	33 : FF60;
	34 : FC63;
	35 : FF4A;
	36 : 0167;
	37 : 0402;
	38 : FC7F;
	39 : 008F;
	40 : 01AB;
	41 : 003F;
	42 : FD2E;
	43 : 01E7;
	44 : 01B7;
	45 : FED1;
	46 : 0113;
	47 : 027C;
	48 : 0136;
	49 : FD8B;
	50 : 0068;
	51 : 00FD;
	52 : FC85;
	53 : 008A;
	54 : FFFE;
	55 : 0334;
	56 : 0247;
	57 : FEFC;
	58 : FFD0;
	59 : 0232;
	60 : FDD5;
	61 : 0366;
	62 : FDBA;
	63 : FC61;
	64 : 00A4;
	65 : 0183;
	66 : FD2F;
	67 : 01D2;
	68 : 01C0;
	69 : 0367;
	70 : FD6C;
	71 : FF24;
	72 : 0253;
	73 : FD7D;
	74 : FF57;
	75 : 0050;
	76 : FEBD;
	77 : FEA0;
	78 : 020C;
	79 : FD5B;
	80 : 0121;
	81 : FF94;
	82 : FF38;
	83 : FF25;
	84 : 02EF;
	85 : 0094;
	86 : FDB3;
	87 : 0030;
	88 : FEA0;
	89 : FD9F;
	90 : 02DC;
	91 : FC68;
	92 : 01E3;
	93 : FC8C;
	94 : FE8C;
	95 : 042F;
	96 : 022C;
	97 : 027C;
	98 : 00B6;
	99 : 006A;
	100 : 024A;
	101 : 00E0;
	102 : FED0;
	103 : 0180;
	104 : FF88;
	105 : FDAF;
	106 : FCD9;
	107 : FDF8;
	108 : 0300;
	109 : 0285;
	110 : 039B;
	111 : 02FE;
	112 : 02AB;
	113 : 03C9;
	114 : FED1;
	115 : FCED;
	116 : FC7D;
	117 : FDF4;
	118 : 01C7;
	119 : 0213;
	120 : 033D;
	121 : 0185;
	122 : FD97;
	123 : 032D;
	124 : FF46;
	125 : FD79;
	126 : 018D;
	127 : 0457;
	128 : 02C0;
	129 : FCDB;
	130 : 030E;
	131 : 043D;
	132 : 02B9;
	133 : FEDC;
	134 : 01E2;
	135 : 0347;
	136 : 01FC;
	137 : FE53;
	138 : 0209;
	139 : FF01;
	140 : FC73;
	141 : 0083;
	142 : 0217;
	143 : 025A;
	144 : FD21;
	145 : 0265;
	146 : 02B6;
	147 : FF52;
	148 : 00C8;
	149 : 0011;
	150 : FD11;
	151 : 025D;
	152 : FFC6;
	153 : 004A;
	154 : FDED;
	155 : 040F;
	156 : FD0E;
	157 : 0389;
	158 : 01FE;
	159 : FF52;
	160 : FD84;
	161 : 02FD;
	162 : 0017;
	163 : 0143;
	164 : FCD0;
	165 : 00A6;
	166 : 02EF;
	167 : FE60;
	168 : 028B;
	169 : 0285;
	170 : FE80;
	171 : FDAD;
	172 : 0133;
	173 : FED0;
	174 : 00AF;
	175 : 0294;
	176 : 034B;
	177 : FDD8;
	178 : 0288;
	179 : 035F;
	180 : 0214;
	181 : 04E1;
	182 : 02F7;
	183 : 01D0;
	184 : 053D;
	185 : FCED;
	186 : 017C;
	187 : 007A;
	188 : 00D7;
	189 : FAC2;
	190 : 0034;
	191 : FE3E;
	192 : FDF4;
	193 : FC52;
	194 : 03C2;
	195 : 015F;
	196 : 0136;
	197 : FD80;
	198 : FF87;
	199 : FF87;
	200 : FE12;
	201 : FF0D;
	202 : 006A;
	203 : FF6B;
	204 : FF0F;
	205 : 041D;
	206 : 0162;
	207 : 0518;
	208 : 036C;
	209 : 007B;
	210 : 0702;
	211 : 0163;
	212 : 0537;
	213 : 02DD;
	214 : 0028;
	215 : FFA0;
	216 : FD90;
	217 : FFF9;
	218 : FEC7;
	219 : FEF8;
	220 : FFD9;
	221 : FE5A;
	222 : FF73;
	223 : 0195;
	224 : 014F;
	225 : FDBA;
	226 : FEE0;
	227 : 01B3;
	228 : FBB4;
	229 : 000F;
	230 : 0240;
	231 : 013D;
	232 : FE60;
	233 : 019B;
	234 : FF56;
	235 : 0069;
	236 : 011D;
	237 : 03D3;
	238 : 02C6;
	239 : FEA7;
	240 : FCFC;
	241 : FC57;
	242 : FCAD;
	243 : FF1A;
	244 : FB7F;
	245 : FC90;
	246 : FD8E;
	247 : FCA6;
	248 : FB8B;
	249 : 0010;
	250 : FEB3;
	251 : 01C2;
	252 : 033E;
	253 : FF19;
	254 : FCE2;
	255 : FE37;
	256 : 0181;
	257 : 0230;
	258 : FBEE;
	259 : FD1F;
	260 : 0177;
	261 : 014C;
	262 : 0284;
	263 : 0223;
	264 : 0052;
	265 : 0335;
	266 : FD53;
	267 : FDB1;
	268 : FFB1;
	269 : 00AF;
	270 : F9B2;
	271 : FC18;
	272 : 0052;
	273 : FF0C;
	274 : FECA;
	275 : FB24;
	276 : FE79;
	277 : FF3E;
	278 : FCD0;
	279 : 03A6;
	280 : FD0F;
	281 : 0238;
	282 : 02F0;
	283 : 01C2;
	284 : FC4C;
	285 : 02E0;
	286 : 0188;
	287 : 0377;
	288 : 02FA;
	289 : FDE3;
	290 : FFEB;
	291 : 04D8;
	292 : FDFE;
	293 : FE16;
	294 : FFAB;
	295 : FD06;
	296 : FA3A;
	297 : FB35;
	298 : FB09;
	299 : FA81;
	300 : FE19;
	301 : FD05;
	302 : FB26;
	303 : FE3C;
	304 : 0259;
	305 : 012D;
	306 : FF25;
	307 : 00C7;
	308 : 0287;
	309 : 0042;
	310 : FFBD;
	311 : 0092;
	312 : 0190;
	313 : 007C;
	314 : 04C2;
	315 : 01BC;
	316 : 03E4;
	317 : 0254;
	318 : FF46;
	319 : 0233;
	320 : 0342;
	321 : 0045;
	322 : 02A3;
	323 : FF23;
	324 : 01B8;
	325 : 03DB;
	326 : FE6D;
	327 : FFEF;
	328 : FF04;
	329 : FD2A;
	330 : FC43;
	331 : FEE2;
	332 : FC49;
	333 : 0164;
	334 : 020F;
	335 : 0139;
	336 : FFAA;
	337 : 029B;
	338 : 00EF;
	339 : 0409;
	340 : 033D;
	341 : 0010;
	342 : FF77;
	343 : FDAB;
	344 : FD2C;
	345 : 0162;
	346 : FF91;
	347 : FF18;
	348 : FFDB;
	349 : FF8C;
	350 : 00D4;
	351 : FFFB;
	352 : 0281;
	353 : 0118;
	354 : 0445;
	355 : 0035;
	356 : 01F7;
	357 : 01D1;
	358 : FFB6;
	359 : FDF6;
	360 : FC21;
	361 : FD49;
	362 : 0363;
	363 : 0052;
	364 : 0035;
	365 : 034C;
	366 : FC13;
	367 : FCDA;
	368 : 01CA;
	369 : 01CC;
	370 : FFA7;
	371 : FEA1;
	372 : 029F;
	373 : FDBC;
	374 : 0095;
	375 : 0253;
	376 : FF70;
	377 : 013C;
	378 : 00DD;
	379 : 004C;
	380 : FD3C;
	381 : 0146;
	382 : 056D;
	383 : 0012;
	384 : 032F;
	385 : 030A;
	386 : 02DA;
	387 : 0221;
	388 : 0019;
	389 : FC5F;
	390 : FC9D;
	391 : 00A3;
	392 : FD2C;
	393 : 021F;
	394 : FE00;
	395 : 00B0;
	396 : 02C4;
	397 : 0143;
	398 : 042D;
	399 : FC91;
	400 : FFCB;
	401 : FC85;
	402 : 010D;
	403 : 00CE;
	404 : FD7E;
	405 : 0142;
	406 : 00FD;
	407 : 008E;
	408 : 0284;
	409 : 02CA;
	410 : 04BB;
	411 : 017A;
	412 : 0108;
	413 : 039E;
	414 : 04A0;
	415 : FEEA;
	416 : FE5D;
	417 : FFD4;
	418 : FCC5;
	419 : FC9F;
	420 : 002B;
	421 : FEC8;
	422 : 01B6;
	423 : 0174;
	424 : 00F3;
	425 : FE68;
	426 : 02F7;
	427 : FD3D;
	428 : FEF3;
	429 : FE31;
	430 : 01F0;
	431 : 0136;
	432 : 03CD;
	433 : FE76;
	434 : FFE0;
	435 : FEFC;
	436 : 019F;
	437 : FE65;
	438 : 00EB;
	439 : 018E;
	440 : FDAD;
	441 : 0415;
	442 : 03A4;
	443 : FF45;
	444 : FE8D;
	445 : 02B7;
	446 : 02BC;
	447 : 038F;
	448 : FD82;
	449 : FE38;
	450 : 01E8;
	451 : 00D9;
	452 : FC79;
	453 : 0000;
	454 : FF25;
	455 : FE1A;
	456 : FB59;
	457 : FDD9;
	458 : 0073;
	459 : FD58;
	460 : 01A5;
	461 : FE82;
	462 : FCAF;
	463 : FE86;
	464 : FCF0;
	465 : 0234;
	466 : 014D;
	467 : 0149;
	468 : 0331;
	469 : 0432;
	470 : 04DD;
	471 : 0270;
	472 : FD76;
	473 : FE40;
	474 : FC3F;
	475 : 0146;
	476 : FCF5;
	477 : FEF2;
	478 : 022F;
	479 : FCFC;
	480 : 0145;
	481 : FDEA;
	482 : FFC7;
	483 : FF94;
	484 : FEC6;
	485 : FBF8;
	486 : FB0D;
	487 : FD44;
	488 : FA7A;
	489 : FDAB;
	490 : FC1B;
	491 : FCB3;
	492 : FCAD;
	493 : FBCF;
	494 : 02FC;
	495 : 02AE;
	496 : 044E;
	497 : 0137;
	498 : 04B0;
	499 : FE85;
	500 : FE28;
	501 : 0093;
	502 : 035B;
	503 : 02FD;
	504 : 02F7;
	505 : 03EF;
	506 : 0456;
	507 : 040F;
	508 : 0333;
	509 : FD4B;
	510 : 0120;
	511 : FFC6;
	512 : FDA6;
	513 : 02AC;
	514 : FC5C;
	515 : FCAA;
	516 : F8FD;
	517 : FDE7;
	518 : F910;
	519 : FB72;
	520 : FEDF;
	521 : FF12;
	522 : 01CB;
	523 : 0559;
	524 : 04E5;
	525 : FF29;
	526 : 027C;
	527 : 033B;
	528 : FEEA;
	529 : FD30;
	530 : 03AE;
	531 : FDF7;
	532 : FC4C;
	533 : FDF6;
	534 : 01A0;
	535 : FD90;
	536 : FE59;
	537 : 021B;
	538 : FD29;
	539 : FC28;
	540 : 0007;
	541 : FF8A;
	542 : FEEC;
	543 : FFFA;
	544 : F96C;
	545 : FC24;
	546 : FB88;
	547 : F9B8;
	548 : FC92;
	549 : FCC4;
	550 : 0044;
	551 : 028E;
	552 : 0035;
	553 : 044F;
	554 : 0575;
	555 : 0538;
	556 : FC89;
	557 : FCC3;
	558 : FEBF;
	559 : 0166;
	560 : FCEF;
	561 : 03B1;
	562 : FCF8;
	563 : 022E;
	564 : FDB7;
	565 : 00A3;
	566 : FD52;
	567 : FEBC;
	568 : 02D3;
	569 : 0155;
	570 : FEA8;
	571 : FF72;
	572 : 0117;
	573 : FB3E;
	574 : FE81;
	575 : FD41;
	576 : FD81;
	577 : 01DF;
	578 : 007C;
	579 : 028C;
	580 : 0246;
	581 : 0200;
	582 : FEC2;
	583 : FE14;
	584 : 004E;
	585 : 0216;
	586 : 038E;
	587 : 0324;
	588 : FEFF;
	589 : 026F;
	590 : 0228;
	591 : 0182;
	592 : FED3;
	593 : 0243;
	594 : FD0D;
	595 : FE89;
	596 : 0223;
	597 : FCCC;
	598 : 0052;
	599 : FE2A;
	600 : FBCD;
	601 : FF3E;
	602 : FE17;
	603 : 0034;
	604 : 03C2;
	605 : 0085;
	606 : 0392;
	607 : 0380;
	608 : 0413;
	609 : 0299;
	610 : FEF2;
	611 : FE06;
	612 : FC8F;
	613 : 01CA;
	614 : 026F;
	615 : FE8F;
	616 : 03B4;
	617 : 0051;
	618 : FE42;
	619 : 0393;
	620 : 03EB;
	621 : FCAF;
	622 : 01DF;
	623 : 00B1;
	624 : FB2C;
	625 : 0004;
	626 : 01A0;
	627 : 001B;
	628 : FF6A;
	629 : FE8F;
	630 : 01E3;
	631 : 01FF;
	632 : FEF1;
	633 : FED9;
	634 : 003E;
	635 : 00CA;
	636 : 0139;
	637 : 0271;
	638 : FF01;
	639 : FF1A;
	640 : 017D;
	641 : FDE5;
	642 : 01B0;
	643 : 01E3;
	644 : 031E;
	645 : 01CD;
	646 : 0084;
	647 : 0220;
	648 : 01EB;
	649 : FE54;
	650 : 033E;
	651 : FC4B;
	652 : 00F8;
	653 : 01E1;
	654 : FE34;
	655 : FF1D;
	656 : 004E;
	657 : 0085;
	658 : 01EB;
	659 : FD8E;
	660 : FEDA;
	661 : FE81;
	662 : 004B;
	663 : 0400;
	664 : 0161;
	665 : 0014;
	666 : 0263;
	667 : 02D7;
	668 : FCD5;
	669 : FE0A;
	670 : FF9A;
	671 : FE3E;
	672 : FFBD;
	673 : FD3B;
	674 : FF38;
	675 : 00DC;
	676 : 03D2;
	677 : 005F;
	678 : FF2D;
	679 : 0223;
	680 : FFDA;
	681 : 045B;
	682 : 0229;
	683 : 0480;
	684 : 019F;
	685 : FFED;
	686 : 0429;
	687 : 0012;
	688 : 031D;
	689 : 0041;
	690 : FC0D;
	691 : FD9D;
	692 : 01D6;
	693 : 0494;
	694 : 00D2;
	695 : 027D;
	696 : 00CA;
	697 : FDBC;
	698 : 003F;
	699 : 01D0;
	700 : 0019;
	701 : 013D;
	702 : FD90;
	703 : FE3C;
	704 : 0004;
	705 : 003E;
	706 : 01FF;
	707 : 03A8;
	708 : 016D;
	709 : 014B;
	710 : 061B;
	711 : 001C;
	712 : 03D4;
	713 : FF57;
	714 : 017C;
	715 : FC69;
	716 : 006C;
	717 : 01D0;
	718 : FE1F;
	719 : 0343;
	720 : 023E;
	721 : FED6;
	722 : FE89;
	723 : FCE0;
	724 : 0200;
	725 : 01AB;
	726 : 00B0;
	727 : 0314;
	728 : 034C;
	729 : 0172;
	730 : 032E;
	731 : FDAD;
	732 : 01CD;
	733 : FF09;
	734 : FF8D;
	735 : 0286;
	736 : 02FD;
	737 : 0354;
	738 : 016A;
	739 : FDF2;
	740 : 0172;
	741 : 0065;
	742 : 02F8;
	743 : 0007;
	744 : FF54;
	745 : 0258;
	746 : 006E;
	747 : 012C;
	748 : 03C5;
	749 : 0401;
	750 : FE8B;
	751 : 0278;
	752 : FCB3;
	753 : FDCC;
	754 : FDFB;
	755 : FE28;
	756 : 01EA;
	757 : 0330;
	758 : 02D6;
	759 : 0201;
	760 : FE4F;
	761 : 019D;
	762 : 00FB;
	763 : 001C;
	764 : 00F0;
	765 : FF3F;
	766 : FCE7;
	767 : 0393;
	768 : FEA3;
	769 : FDAA;
	770 : 0336;
	771 : 02F9;
	772 : FEF0;
	773 : 009F;
	774 : 012A;
	775 : FE3C;
	776 : 0335;
	777 : 02AC;
	778 : 00C8;
	779 : 0321;
	780 : FC0A;
	781 : 0112;
	782 : 0108;
	783 : 0029;
	784 : FDEB;
	785 : FCB1;
	786 : FCE0;
	787 : 0269;
	788 : FDB6;
	789 : FEA9;
	790 : FC24;
	791 : 00B0;
	792 : FFE4;
	793 : FF72;
	794 : FC38;
	795 : 0108;
	796 : FD9E;
	797 : FEC1;
	798 : 0185;
	799 : FECC;
	800 : 0380;
	801 : FCB2;
	802 : FC68;
	803 : FE1C;
	804 : FCC1;
	805 : FDEF;
	806 : 0098;
	807 : FFD2;
	808 : 00A2;
	809 : FE5F;
	810 : 00FB;
	811 : 00B0;
	812 : FFF8;
	813 : FD5E;
	814 : FE78;
	815 : 011F;
	816 : 03CE;
	817 : 0308;
	818 : 0073;
	819 : 0232;
	820 : FC79;
	821 : FD5A;
	822 : FDF4;
	823 : 01F5;
	824 : 0131;
	825 : FF3C;
	826 : FDFC;
	827 : FFBB;
	828 : FF15;
	829 : FF85;
	830 : FD83;
	831 : 02D4;
	832 : 01B1;
	833 : 01B4;
	834 : FF2C;
	835 : FD18;
	836 : 01A9;
	837 : 0083;
	838 : FE54;
	839 : 0128;
	840 : FD06;
	841 : 03AC;
	842 : FD65;
	843 : 03D3;
	844 : FE20;
	845 : 02D2;
	846 : 02C5;
	847 : 00F2;
	848 : FDED;
	849 : FF38;
	850 : FF22;
	851 : 018C;
	852 : 036B;
	853 : FD89;
	854 : 030A;
	855 : FD7F;
	856 : FCBE;
	857 : 03F6;
	858 : 0485;
	859 : FCF2;
	860 : 0263;
	861 : 0037;
	862 : 024C;
	863 : FDC9;
	864 : 030F;
	865 : 0339;
	866 : FD40;
	867 : 0296;
	868 : 02A0;
	869 : 0356;
	870 : FEE9;
	871 : FDF9;
	872 : FF3A;
	873 : FE26;
	874 : FC6F;
	875 : 01F5;
	876 : FE4B;
	877 : FBA3;
	878 : 0091;
	879 : FE56;
	880 : FF26;
	881 : FB8A;
	882 : FDA3;
	883 : 0196;
	884 : FC2F;
	885 : FEEB;
	886 : FEF6;
	887 : 0261;
	888 : FF3F;
	889 : FFEE;
	890 : 0015;
	891 : 02FF;
	892 : FD07;
	893 : 026E;
	894 : FC75;
	895 : 0136;
	896 : 02FA;
	897 : 034F;
	898 : 018C;
	899 : FF79;
	900 : FD79;
	901 : FCC8;
	902 : FDA3;
	903 : FCFF;
	904 : FEB0;
	905 : FAF6;
	906 : 002C;
	907 : FEE8;
	908 : FBD2;
	909 : FF25;
	910 : FFBB;
	911 : FD21;
	912 : 003A;
	913 : 035E;
	914 : 00DE;
	915 : 020E;
	916 : 00D9;
	917 : FF38;
	918 : 009B;
	919 : 0394;
	920 : 010B;
	921 : 0402;
	922 : FE72;
	923 : 0171;
	924 : FC56;
	925 : 0126;
	926 : FC14;
	927 : 02FF;
	928 : FC8E;
	929 : FEC5;
	930 : FD85;
	931 : FC3F;
	932 : 0070;
	933 : FD6A;
	934 : FD9A;
	935 : FF66;
	936 : 0340;
	937 : FD03;
	938 : 00AE;
	939 : FBBB;
	940 : FE1D;
	941 : 032E;
	942 : 007E;
	943 : FF08;
	944 : 03C0;
	945 : 0178;
	946 : 044B;
	947 : 006B;
	948 : 05D8;
	949 : 019E;
	950 : 0377;
	951 : FD2A;
	952 : FEA6;
	953 : FDF2;
	954 : 03EA;
	955 : 010D;
	956 : FD38;
	957 : FC8D;
	958 : FAB6;
	959 : FA2C;
	960 : FEEA;
	961 : FEFC;
	962 : 003D;
	963 : FDCE;
	964 : 0028;
	965 : FFD6;
	966 : 02EF;
	967 : 011D;
	968 : FFAF;
	969 : 01CA;
	970 : FF1A;
	971 : 0511;
	972 : 0339;
	973 : 03C7;
	974 : 038A;
	975 : 0456;
	976 : 0713;
	977 : 04BE;
	978 : 03F8;
	979 : 0422;
	980 : FDCC;
	981 : FDD9;
	982 : FD72;
	983 : 0210;
	984 : FF19;
	985 : FDC0;
	986 : FF8E;
	987 : FD8D;
	988 : 0061;
	989 : 01C8;
	990 : 02BE;
	991 : FF9F;
	992 : FED8;
	993 : FD39;
	994 : 0126;
	995 : 01CF;
	996 : 01C3;
	997 : 04A7;
	998 : 0589;
	999 : 0101;
	1000 : 007E;
	1001 : 0394;
	1002 : 02F4;
	1003 : 063B;
	1004 : 0756;
	1005 : 05FA;
	1006 : FE65;
	1007 : FC65;
	1008 : FCD2;
	1009 : FC55;
	1010 : FC07;
	1011 : 005F;
	1012 : FC26;
	1013 : FF7D;
	1014 : FC40;
	1015 : FD9F;
	1016 : 013F;
	1017 : FEE1;
	1018 : 0111;
	1019 : FF96;
	1020 : 0375;
	1021 : 0010;
	1022 : 0027;
	1023 : 002A;
	1024 : 0116;
	1025 : 00B4;
	1026 : 0546;
	1027 : 0609;
	1028 : 0522;
	1029 : 030F;
	1030 : 05A3;
	1031 : 03E4;
	1032 : 092D;
	1033 : 0498;
	1034 : 0455;
	1035 : 0337;
	1036 : FEBB;
	1037 : FD5C;
	1038 : 03CD;
	1039 : FD5E;
	1040 : FD0B;
	1041 : FEF9;
	1042 : FA3D;
	1043 : 0097;
	1044 : FE1F;
	1045 : 024E;
	1046 : FF27;
	1047 : 0243;
	1048 : 0011;
	1049 : FBCE;
	1050 : FCB3;
	1051 : F87E;
	1052 : FDD5;
	1053 : FC90;
	1054 : FDBD;
	1055 : FDCF;
	1056 : 0121;
	1057 : FE79;
	1058 : 0538;
	1059 : 021D;
	1060 : 06E1;
	1061 : 06ED;
	1062 : 019F;
	1063 : 01DD;
	1064 : FCC1;
	1065 : 024C;
	1066 : FFAB;
	1067 : FC42;
	1068 : 0093;
	1069 : FB38;
	1070 : FCEC;
	1071 : 0279;
	1072 : 00D4;
	1073 : 0498;
	1074 : 011C;
	1075 : 0326;
	1076 : 02EC;
	1077 : FC67;
	1078 : F98A;
	1079 : FAC1;
	1080 : F611;
	1081 : F734;
	1082 : F4D1;
	1083 : F54C;
	1084 : F6C5;
	1085 : FB46;
	1086 : F9FE;
	1087 : 020F;
	1088 : FD3D;
	1089 : FE3F;
	1090 : FCF0;
	1091 : 030E;
	1092 : 0213;
	1093 : FCD3;
	1094 : FE13;
	1095 : FCB0;
	1096 : 004B;
	1097 : 01CC;
	1098 : 017A;
	1099 : 0052;
	1100 : FE66;
	1101 : FDF0;
	1102 : FE6B;
	1103 : 0144;
	1104 : 00B3;
	1105 : 016F;
	1106 : FCFC;
	1107 : FECE;
	1108 : FAAF;
	1109 : F731;
	1110 : F38A;
	1111 : F1BA;
	1112 : F4A3;
	1113 : F6EC;
	1114 : F8C6;
	1115 : FFE1;
	1116 : FBA2;
	1117 : 02CE;
	1118 : FFB1;
	1119 : FE4A;
	1120 : 02A9;
	1121 : FF32;
	1122 : 03C6;
	1123 : 02B7;
	1124 : 00FB;
	1125 : FCDE;
	1126 : 0000;
	1127 : 00DE;
	1128 : 0285;
	1129 : FE2A;
	1130 : 019C;
	1131 : 0253;
	1132 : FF8D;
	1133 : 0107;
	1134 : 006B;
	1135 : FC4F;
	1136 : FEE9;
	1137 : 0111;
	1138 : FDED;
	1139 : F9E8;
	1140 : F7C9;
	1141 : FB18;
	1142 : F9D0;
	1143 : FD95;
	1144 : FF5F;
	1145 : FE65;
	1146 : 02FF;
	1147 : FF65;
	1148 : 0267;
	1149 : FC98;
	1150 : 027D;
	1151 : 0113;
	1152 : 0077;
	1153 : 02BB;
	1154 : FE66;
	1155 : 0139;
	1156 : FDCC;
	1157 : 039A;
	1158 : 0227;
	1159 : 012F;
	1160 : 054A;
	1161 : 0525;
	1162 : FF4F;
	1163 : FC8C;
	1164 : FE5A;
	1165 : FD6B;
	1166 : 01BC;
	1167 : 004C;
	1168 : 006C;
	1169 : FA43;
	1170 : FEBA;
	1171 : FB29;
	1172 : FAFC;
	1173 : FF9C;
	1174 : 0198;
	1175 : 004F;
	1176 : 03CC;
	1177 : FEA9;
	1178 : FC04;
	1179 : 0346;
	1180 : FFE0;
	1181 : 009C;
	1182 : 039A;
	1183 : FEAC;
	1184 : FF44;
	1185 : 0016;
	1186 : 03B6;
	1187 : FF8F;
	1188 : 00DD;
	1189 : 0022;
	1190 : 00E4;
	1191 : FE8B;
	1192 : FFCD;
	1193 : FF32;
	1194 : FC62;
	1195 : FD97;
	1196 : FCCA;
	1197 : FF15;
	1198 : FC6B;
	1199 : FE58;
	1200 : 00D8;
	1201 : FF77;
	1202 : 0232;
	1203 : FC7A;
	1204 : FCC6;
	1205 : FC37;
	1206 : 0145;
	1207 : 0365;
	1208 : FBB2;
	1209 : FFBA;
	1210 : FB44;
	1211 : FDB9;
	1212 : 01D2;
	1213 : 0072;
	1214 : FF97;
	1215 : 02C9;
	1216 : 00E0;
	1217 : 00C9;
	1218 : FE58;
	1219 : FF6A;
	1220 : FC4F;
	1221 : FF01;
	1222 : 027B;
	1223 : 001D;
	1224 : 024D;
	1225 : 02D6;
	1226 : FA97;
	1227 : 0203;
	1228 : 0255;
	1229 : 00D4;
	1230 : FE10;
	1231 : FD25;
	1232 : 00AF;
	1233 : 00B0;
	1234 : 0058;
	1235 : 008C;
	1236 : FBD9;
	1237 : 0091;
	1238 : FB24;
	1239 : FC29;
	1240 : FE77;
	1241 : 0089;
	1242 : 0112;
	1243 : 0363;
	1244 : 0256;
	1245 : FCFB;
	1246 : 014E;
	1247 : FF62;
	1248 : 00B7;
	1249 : 0091;
	1250 : FC0A;
	1251 : FD5F;
	1252 : FB49;
	1253 : FBC3;
	1254 : FA65;
	1255 : 0087;
	1256 : FF38;
	1257 : FB9C;
	1258 : 0069;
	1259 : FCC9;
	1260 : 0319;
	1261 : FECD;
	1262 : 0173;
	1263 : 01F0;
	1264 : FDEE;
	1265 : 00DB;
	1266 : 0130;
	1267 : FCC1;
	1268 : FF52;
	1269 : FE86;
	1270 : 03A2;
	1271 : 0458;
	1272 : FCD1;
	1273 : FECF;
	1274 : 025B;
	1275 : FE3F;
	1276 : FE47;
	1277 : FF2B;
	1278 : 030A;
	1279 : FE68;
	1280 : 00A8;
	1281 : FFD9;
	1282 : FDB5;
	1283 : 0073;
	1284 : 010D;
	1285 : FD6A;
	1286 : FF42;
	1287 : 0369;
	1288 : 00B7;
	1289 : 0309;
	1290 : 037D;
	1291 : FD1B;
	1292 : FE16;
	1293 : FFD1;
	1294 : FF54;
	1295 : 040F;
	1296 : FE96;
	1297 : FB56;
	1298 : FBA3;
	1299 : FCEB;
	1300 : FE35;
	1301 : FD92;
	1302 : FBD0;
	1303 : FF6E;
	1304 : 00EB;
	1305 : FEEB;
	1306 : FE8D;
	1307 : FE79;
	1308 : 00DB;
	1309 : FE82;
	1310 : FD6A;
	1311 : 024C;
	1312 : FDFD;
	1313 : 02C4;
	1314 : 00EB;
	1315 : 00AA;
	1316 : 02F1;
	1317 : 0323;
	1318 : 01E1;
	1319 : FEEC;
	1320 : 00F3;
	1321 : 0527;
	1322 : 03BC;
	1323 : 0179;
	1324 : 03EB;
	1325 : 0272;
	1326 : 023E;
	1327 : FDBD;
	1328 : 0045;
	1329 : FCFC;
	1330 : 016F;
	1331 : 010F;
	1332 : FF26;
	1333 : 0171;
	1334 : 0054;
	1335 : FD55;
	1336 : 0031;
	1337 : FDA9;
	1338 : 036F;
	1339 : 0064;
	1340 : 0063;
	1341 : 0175;
	1342 : FDC0;
	1343 : 0098;
	1344 : FED2;
	1345 : FC6B;
	1346 : FDF2;
	1347 : FF47;
	1348 : FFE8;
	1349 : 0359;
	1350 : 0055;
	1351 : 0116;
	1352 : FFAD;
	1353 : 0390;
	1354 : 00A7;
	1355 : 010B;
	1356 : 0266;
	1357 : 0282;
	1358 : FF25;
	1359 : FFAE;
	1360 : FFD3;
	1361 : 02F8;
	1362 : FD6E;
	1363 : 035C;
	1364 : FEED;
	1365 : FF66;
	1366 : FF95;
	1367 : 0316;
	1368 : FDB1;
	1369 : 0332;
	1370 : FF39;
	1371 : FED7;
	1372 : FCEB;
	1373 : FD9F;
	1374 : FFD5;
	1375 : 045A;
	1376 : FF9E;
	1377 : 025D;
	1378 : 0177;
	1379 : 019E;
	1380 : 0450;
	1381 : 0149;
	1382 : FF12;
	1383 : 0537;
	1384 : 013E;
	1385 : 01BB;
	1386 : 00F3;
	1387 : FF97;
	1388 : 007C;
	1389 : FEA3;
	1390 : 01A1;
	1391 : FE35;
	1392 : 047C;
	1393 : 00EB;
	1394 : 02FD;
	1395 : FF0D;
	1396 : FEFD;
	1397 : 02AC;
	1398 : 01B2;
	1399 : FE40;
	1400 : 036B;
	1401 : 00DA;
	1402 : 01AC;
	1403 : FD74;
	1404 : 00EF;
	1405 : 00CF;
	1406 : 003A;
	1407 : FC82;
	1408 : 012A;
	1409 : 0259;
	1410 : 027C;
	1411 : 00A2;
	1412 : 017A;
	1413 : 028D;
	1414 : FF4E;
	1415 : 0166;
	1416 : 00F8;
	1417 : 0295;
	1418 : 0061;
	1419 : 00A5;
	1420 : 015E;
	1421 : 0125;
	1422 : FDE3;
	1423 : 0039;
	1424 : FCED;
	1425 : FE97;
	1426 : 03B0;
	1427 : FE65;
	1428 : 0342;
	1429 : 0340;
	1430 : 01CC;
	1431 : FD92;
	1432 : 0296;
	1433 : FE2E;
	1434 : 01D2;
	1435 : 0023;
	1436 : 01CA;
	1437 : 0034;
	1438 : 021A;
	1439 : 0310;
	1440 : FFAE;
	1441 : FFFE;
	1442 : 0027;
	1443 : 0193;
	1444 : FF8D;
	1445 : 002C;
	1446 : 00B8;
	1447 : FBBE;
	1448 : 0054;
	1449 : 01EF;
	1450 : FFDA;
	1451 : FCE7;
	1452 : 0400;
	1453 : 0359;
	1454 : 02DF;
	1455 : FC1F;
	1456 : FD37;
	1457 : FEFC;
	1458 : FD3B;
	1459 : FCCA;
	1460 : 0008;
	1461 : 0345;
	1462 : FD71;
	1463 : 0258;
	1464 : FEDA;
	1465 : 00F9;
	1466 : FE8B;
	1467 : FF8C;
	1468 : 00FA;
	1469 : 01D6;
	1470 : 005C;
	1471 : 00DF;
	1472 : FFCA;
	1473 : 0019;
	1474 : 0281;
	1475 : 02FE;
	1476 : 040C;
	1477 : 0163;
	1478 : FE52;
	1479 : FEC6;
	1480 : FDEF;
	1481 : 0256;
	1482 : 00D3;
	1483 : FD97;
	1484 : FFB5;
	1485 : 0113;
	1486 : 01EA;
	1487 : FE01;
	1488 : FD63;
	1489 : FEF7;
	1490 : 021D;
	1491 : 0249;
	1492 : 0003;
	1493 : FDB3;
	1494 : FF3C;
	1495 : FFC5;
	1496 : 019C;
	1497 : 0195;
	1498 : 022B;
	1499 : 0382;
	1500 : 00AD;
	1501 : 022A;
	1502 : 00E4;
	1503 : FFFF;
	1504 : FE1B;
	1505 : FFD0;
	1506 : 02F0;
	1507 : FF34;
	1508 : FF73;
	1509 : FC35;
	1510 : 0208;
	1511 : FE9A;
	1512 : 03F3;
	1513 : FF10;
	1514 : 0393;
	1515 : 0189;
	1516 : 003F;
	1517 : 01AB;
	1518 : FEEE;
	1519 : FE1C;
	1520 : 02FC;
	1521 : FE36;
	1522 : FFAC;
	1523 : 00CD;
	1524 : FF6A;
	1525 : FFA5;
	1526 : FEEB;
	1527 : 0280;
	1528 : 004E;
	1529 : FEAD;
	1530 : 00B2;
	1531 : 0467;
	1532 : FD0F;
	1533 : 03A1;
	1534 : 03E5;
	1535 : FD6B;
	1536 : 0009;
	1537 : 03A1;
	1538 : FE9D;
	1539 : FCBC;
	1540 : FEC2;
	1541 : 0027;
	1542 : FE66;
	1543 : 0330;
	1544 : FD73;
	1545 : FDBB;
	1546 : 01CB;
	1547 : 033C;
	1548 : FF94;
	1549 : 0216;
	1550 : FD60;
	1551 : 03A3;
	1552 : FFD2;
	1553 : 0165;
	1554 : 0152;
	1555 : 0214;
	1556 : FE92;
	1557 : FC3D;
	1558 : FDDF;
	1559 : FCEE;
	1560 : FE38;
	1561 : 01FF;
	1562 : FECB;
	1563 : 022C;
	1564 : 0349;
	1565 : 0094;
	1566 : FE15;
	1567 : FDFF;
	1568 : FFD8;
	1569 : 024A;
	1570 : 0135;
	1571 : 00D8;
	1572 : 0307;
	1573 : 0002;
	1574 : 0250;
	1575 : FC43;
	1576 : 028E;
	1577 : 026A;
	1578 : 036B;
	1579 : 01CC;
	1580 : FD94;
	1581 : FFFB;
	1582 : FD2A;
	1583 : 0214;
	1584 : FD6B;
	1585 : FED6;
	1586 : 00AD;
	1587 : FF20;
	1588 : 009C;
	1589 : FE7F;
	1590 : 01F8;
	1591 : FFCF;
	1592 : FF0E;
	1593 : FC6E;
	1594 : 0141;
	1595 : FDA8;
	1596 : FFC7;
	1597 : 01A2;
	1598 : 03CF;
	1599 : 02EE;
	1600 : 003E;
	1601 : 020F;
	1602 : 03A7;
	1603 : FFC8;
	1604 : FD0D;
	1605 : 0364;
	1606 : FDFA;
	1607 : 00F8;
	1608 : 010F;
	1609 : 03B2;
	1610 : 031B;
	1611 : 0195;
	1612 : FCAB;
	1613 : 016F;
	1614 : FED8;
	1615 : 02BE;
	1616 : FE72;
	1617 : FF26;
	1618 : 0186;
	1619 : 0194;
	1620 : FE1C;
	1621 : FD76;
	1622 : FCC9;
	1623 : 0129;
	1624 : 00F0;
	1625 : 02D3;
	1626 : FE8C;
	1627 : 03D9;
	1628 : 0272;
	1629 : FC28;
	1630 : 0152;
	1631 : 0236;
	1632 : FF02;
	1633 : 0117;
	1634 : 01D9;
	1635 : 0415;
	1636 : FF5E;
	1637 : 00D8;
	1638 : 041D;
	1639 : 01F1;
	1640 : FF1C;
	1641 : 01D4;
	1642 : 01BF;
	1643 : FDC4;
	1644 : FE44;
	1645 : FC28;
	1646 : 021E;
	1647 : 03A9;
	1648 : 0262;
	1649 : FD85;
	1650 : FFF4;
	1651 : FDCA;
	1652 : FDF4;
	1653 : FE22;
	1654 : 033F;
	1655 : FF13;
	1656 : FC8B;
	1657 : FD71;
	1658 : FEC5;
	1659 : FE4C;
	1660 : 0117;
	1661 : 039C;
	1662 : FE05;
	1663 : 0279;
	1664 : 0141;
	1665 : 00B2;
	1666 : 01F5;
	1667 : FED1;
	1668 : 02EA;
	1669 : 0133;
	1670 : FE5A;
	1671 : 0012;
	1672 : FB7E;
	1673 : FD2B;
	1674 : 01D0;
	1675 : FEA0;
	1676 : 03B7;
	1677 : FF31;
	1678 : FDB9;
	1679 : FE0E;
	1680 : FD41;
	1681 : FD30;
	1682 : FDC2;
	1683 : 0353;
	1684 : 0113;
	1685 : FC79;
	1686 : FF6C;
	1687 : 02E5;
	1688 : 00D3;
	1689 : FDDB;
	1690 : 02C5;
	1691 : FFF5;
	1692 : 05BF;
	1693 : 031A;
	1694 : FFDA;
	1695 : 03D0;
	1696 : 0192;
	1697 : FF22;
	1698 : 0148;
	1699 : FEE6;
	1700 : 02D8;
	1701 : 0263;
	1702 : 0107;
	1703 : FBF7;
	1704 : FE48;
	1705 : FC02;
	1706 : FFC9;
	1707 : 02C1;
	1708 : FCB3;
	1709 : FF5E;
	1710 : FC2D;
	1711 : FDF7;
	1712 : FCD8;
	1713 : FCFE;
	1714 : 014A;
	1715 : 01B1;
	1716 : 01D9;
	1717 : FD79;
	1718 : 012C;
	1719 : 00C7;
	1720 : FEA9;
	1721 : 015C;
	1722 : 026C;
	1723 : 0116;
	1724 : 0333;
	1725 : FDD3;
	1726 : FBC6;
	1727 : 00FC;
	1728 : FE8C;
	1729 : FFDE;
	1730 : FF0F;
	1731 : 012A;
	1732 : FFB0;
	1733 : 0318;
	1734 : 0111;
	1735 : 024D;
	1736 : 010A;
	1737 : FFEF;
	1738 : FF43;
	1739 : FCB9;
	1740 : 014A;
	1741 : FDB7;
	1742 : FED4;
	1743 : 0130;
	1744 : 00A8;
	1745 : 013D;
	1746 : 01E7;
	1747 : 0052;
	1748 : 0317;
	1749 : FFA6;
	1750 : FE34;
	1751 : FF8C;
	1752 : FBC7;
	1753 : FF7F;
	1754 : FFAD;
	1755 : FDEC;
	1756 : 01E1;
	1757 : FBD7;
	1758 : FFF5;
	1759 : FF3F;
	1760 : FC65;
	1761 : FE2A;
	1762 : 00FF;
	1763 : FD6E;
	1764 : 0207;
	1765 : FD25;
	1766 : 00EA;
	1767 : FD24;
	1768 : FC90;
	1769 : FCB4;
	1770 : 01C2;
	1771 : FE9E;
	1772 : 00F3;
	1773 : FEB2;
	1774 : 0090;
	1775 : FF87;
	1776 : 01D9;
	1777 : FA80;
	1778 : FF8A;
	1779 : FE6F;
	1780 : FF97;
	1781 : FDCB;
	1782 : FD4E;
	1783 : FD8E;
	1784 : FCEC;
	1785 : 03BB;
	1786 : FED0;
	1787 : 040C;
	1788 : 011F;
	1789 : 019B;
	1790 : 0193;
	1791 : 002B;
	1792 : 021F;
	1793 : FC4E;
	1794 : FD1E;
	1795 : FD7B;
	1796 : FE85;
	1797 : 01C3;
	1798 : 0630;
	1799 : 0278;
	1800 : FF43;
	1801 : 01BF;
	1802 : 01BB;
	1803 : 0090;
	1804 : 0048;
	1805 : 030D;
	1806 : FDE7;
	1807 : FBA4;
	1808 : FB63;
	1809 : FC7A;
	1810 : FD37;
	1811 : 0077;
	1812 : FE46;
	1813 : FE3B;
	1814 : 016F;
	1815 : 02EB;
	1816 : 012B;
	1817 : 0030;
	1818 : 00A8;
	1819 : 03C1;
	1820 : 00F1;
	1821 : 0217;
	1822 : FE80;
	1823 : 00ED;
	1824 : 01C1;
	1825 : FE25;
	1826 : 01DE;
	1827 : FECE;
	1828 : 02C9;
	1829 : 01EC;
	1830 : FF9F;
	1831 : FE8D;
	1832 : FF37;
	1833 : FEA1;
	1834 : 03BD;
	1835 : FEB1;
	1836 : FD79;
	1837 : FF5D;
	1838 : FDBB;
	1839 : FD27;
	1840 : 0410;
	1841 : 0139;
	1842 : 035B;
	1843 : 04E5;
	1844 : 0704;
	1845 : FF29;
	1846 : 01A1;
	1847 : 02B9;
	1848 : FF8A;
	1849 : 0378;
	1850 : 013C;
	1851 : FE19;
	1852 : FCD2;
	1853 : 0014;
	1854 : 04EA;
	1855 : 0017;
	1856 : 014F;
	1857 : FF89;
	1858 : 00BC;
	1859 : 0007;
	1860 : FBB7;
	1861 : FFCD;
	1862 : 015F;
	1863 : 01FD;
	1864 : 01E4;
	1865 : 00B1;
	1866 : 0270;
	1867 : 00A2;
	1868 : FD09;
	1869 : 0080;
	1870 : 02A5;
	1871 : 06B5;
	1872 : 008F;
	1873 : FE17;
	1874 : 025E;
	1875 : FEB5;
	1876 : FD34;
	1877 : 00B0;
	1878 : 026E;
	1879 : FB84;
	1880 : 019F;
	1881 : 01FE;
	1882 : 0326;
	1883 : 03CB;
	1884 : 01EF;
	1885 : FFEC;
	1886 : FF92;
	1887 : 010C;
	1888 : FF16;
	1889 : 0103;
	1890 : 0367;
	1891 : FD73;
	1892 : FBDB;
	1893 : 005B;
	1894 : FCD0;
	1895 : FCE9;
	1896 : FF7C;
	1897 : 0004;
	1898 : 01BD;
	1899 : 00F8;
	1900 : 04F9;
	1901 : FE00;
	1902 : 003E;
	1903 : FD5E;
	1904 : FC8C;
	1905 : FF0A;
	1906 : 0059;
	1907 : 0204;
	1908 : 02D0;
	1909 : 0000;
	1910 : FDC0;
	1911 : FFD0;
	1912 : FE97;
	1913 : 00B5;
	1914 : 007F;
	1915 : 000D;
	1916 : FF6A;
	1917 : 008A;
	1918 : 046A;
	1919 : FF98;
	1920 : FF86;
	1921 : FE35;
	1922 : FE58;
	1923 : 0161;
	1924 : FCD4;
	1925 : 01CC;
	1926 : FEB5;
	1927 : FFAE;
	1928 : FFC8;
	1929 : 011B;
	1930 : FDAD;
	1931 : 03F9;
	1932 : FF64;
	1933 : 009D;
	1934 : FCB9;
	1935 : FC42;
	1936 : FD91;
	1937 : FA5A;
	1938 : 010F;
	1939 : FCF5;
	1940 : 0239;
	1941 : 0011;
	1942 : FDEF;
	1943 : FEDD;
	1944 : FF74;
	1945 : 02F7;
	1946 : 065D;
	1947 : 0495;
	1948 : 004C;
	1949 : 015C;
	1950 : FF27;
	1951 : 0011;
	1952 : 03AC;
	1953 : FE68;
	1954 : 01E9;
	1955 : FC9E;
	1956 : FEF4;
	1957 : FD1E;
	1958 : 013A;
	1959 : 00F9;
	1960 : FCBB;
	1961 : 00FE;
	1962 : 03F4;
	1963 : 0182;
	1964 : FFC4;
	1965 : FC8E;
	1966 : FC57;
	1967 : F9B4;
	1968 : FBB7;
	1969 : FC8A;
	1970 : FDDA;
	1971 : 01CF;
	1972 : 01FF;
	1973 : 02CA;
	1974 : 04D2;
	1975 : 012D;
	1976 : 00F4;
	1977 : FECB;
	1978 : 0177;
	1979 : FDCB;
	1980 : FF92;
	1981 : 01BF;
	1982 : FB53;
	1983 : FD09;
	1984 : FFDB;
	1985 : 0388;
	1986 : 038C;
	1987 : FDD6;
	1988 : 00B6;
	1989 : FE9A;
	1990 : FD3F;
	1991 : 000C;
	1992 : 010C;
	1993 : FD59;
	1994 : FD83;
	1995 : 0025;
	1996 : FBDD;
	1997 : FEC3;
	1998 : FFBC;
	1999 : 009F;
	2000 : 0229;
	2001 : 0771;
	2002 : 0B2C;
	2003 : 004F;
	2004 : 0221;
	2005 : FC35;
	2006 : FECF;
	2007 : FE7C;
	2008 : FD34;
	2009 : FD59;
	2010 : FF05;
	2011 : F8EF;
	2012 : 00E1;
	2013 : 00FE;
	2014 : FF8B;
	2015 : 03ED;
	2016 : 0076;
	2017 : 03CA;
	2018 : FE51;
	2019 : 01B5;
	2020 : 0022;
	2021 : F9FF;
	2022 : F995;
	2023 : FE27;
	2024 : FDA2;
	2025 : 02AE;
	2026 : 039B;
	2027 : 003F;
	2028 : 029F;
	2029 : 0354;
	2030 : 0390;
	2031 : 02E3;
	2032 : FD88;
	2033 : FC19;
	2034 : FE4B;
	2035 : FFCD;
	2036 : F943;
	2037 : FEE9;
	2038 : F9A1;
	2039 : FFFA;
	2040 : 013C;
	2041 : FEE3;
	2042 : FCD9;
	2043 : FFF7;
	2044 : FF22;
	2045 : 0229;
	2046 : 036D;
	2047 : 0426;
	2048 : FD48;
	2049 : FF01;
	2050 : FF5D;
	2051 : FD5F;
	2052 : FD32;
	2053 : FF8A;
	2054 : 016F;
	2055 : FF51;
	2056 : 01E2;
	2057 : 05CA;
	2058 : 0506;
	2059 : FDC6;
	2060 : FFA2;
	2061 : FCC4;
	2062 : FAAA;
	2063 : FC63;
	2064 : FC09;
	2065 : FE09;
	2066 : 01B8;
	2067 : 026B;
	2068 : 028F;
	2069 : 03EF;
	2070 : FFB1;
	2071 : FC24;
	2072 : FEF0;
	2073 : 0286;
	2074 : FFB9;
	2075 : FEAD;
	2076 : FE4C;
	2077 : FC78;
	2078 : 00EF;
	2079 : 0094;
	2080 : 028D;
	2081 : 0161;
	2082 : 00EF;
	2083 : 0192;
	2084 : 0460;
	2085 : 035A;
	2086 : FF85;
	2087 : 02EC;
	2088 : FB77;
	2089 : FD21;
	2090 : FEE1;
	2091 : FE18;
	2092 : 01C8;
	2093 : FD2B;
	2094 : 0060;
	2095 : FEEB;
	2096 : FF8A;
	2097 : 02E5;
	2098 : 01E7;
	2099 : FD4D;
	2100 : 0174;
	2101 : 03C7;
	2102 : FE56;
	2103 : FCFD;
	2104 : FE5F;
	2105 : 01C1;
	2106 : 013B;
	2107 : FC1B;
	2108 : 016C;
	2109 : 042B;
	2110 : 060A;
	2111 : 0268;
	2112 : 029A;
	2113 : 04C6;
	2114 : 02CB;
	2115 : FFCA;
	2116 : 0242;
	2117 : FF2B;
	2118 : 0122;
	2119 : 01B6;
	2120 : FF99;
	2121 : FE39;
	2122 : 0394;
	2123 : FF7A;
	2124 : 0042;
	2125 : FD05;
	2126 : 0313;
	2127 : 01E3;
	2128 : FD64;
	2129 : 02D7;
	2130 : FC3E;
	2131 : 03A5;
	2132 : FF05;
	2133 : FE44;
	2134 : 055A;
	2135 : 0433;
	2136 : 01B4;
	2137 : 0162;
	2138 : 02D9;
	2139 : 0492;
	2140 : 0404;
	2141 : 014D;
	2142 : 013F;
	2143 : 02B7;
	2144 : FFA1;
	2145 : 0095;
	2146 : FF1F;
	2147 : 0298;
	2148 : FFE3;
	2149 : 03B2;
	2150 : 02D2;
	2151 : 02A3;
	2152 : FE67;
	2153 : FD99;
	2154 : 02E4;
	2155 : FDBD;
	2156 : FFAD;
	2157 : FCC5;
	2158 : 012C;
	2159 : 0107;
	2160 : 0315;
	2161 : FEA2;
	2162 : 0444;
	2163 : 01AD;
	2164 : 01E6;
	2165 : 06B0;
	2166 : 018D;
	2167 : 002F;
	2168 : 00BF;
	2169 : FE1E;
	2170 : 012F;
	2171 : 00F7;
	2172 : 00F4;
	2173 : 02A5;
	2174 : 00FD;
	2175 : 0213;
	2176 : 0179;
	2177 : 0340;
	2178 : FE31;
	2179 : 03FB;
	2180 : 010C;
	2181 : FEBF;
	2182 : FE45;
	2183 : 010F;
	2184 : FCEF;
	2185 : FE36;
	2186 : FF52;
	2187 : FDD7;
	2188 : 0215;
	2189 : 047A;
	2190 : FF04;
	2191 : 03BE;
	2192 : 0299;
	2193 : 0089;
	2194 : FEED;
	2195 : FFC2;
	2196 : FFE4;
	2197 : 011A;
	2198 : FFCD;
	2199 : 01D5;
	2200 : 00EF;
	2201 : 0071;
	2202 : 0136;
	2203 : 0367;
	2204 : FF27;
	2205 : 058D;
	2206 : 009A;
	2207 : FD2B;
	2208 : FC8F;
	2209 : 0372;
	2210 : FD78;
	2211 : 00D1;
	2212 : FD98;
	2213 : 035E;
	2214 : 01D6;
	2215 : FD0B;
	2216 : FEC6;
	2217 : FBFE;
	2218 : FEAB;
	2219 : FEEF;
	2220 : FFEF;
	2221 : FFF8;
	2222 : FF78;
	2223 : FE71;
	2224 : FEE8;
	2225 : 021C;
	2226 : FF88;
	2227 : FFBE;
	2228 : 02C1;
	2229 : 0028;
	2230 : 0403;
	2231 : 0081;
	2232 : 0110;
	2233 : FDAE;
	2234 : 008E;
	2235 : 01D6;
	2236 : FF31;
	2237 : 0087;
	2238 : FD3A;
	2239 : 0323;
	2240 : FCF3;
	2241 : FD81;
	2242 : 003F;
	2243 : FC0D;
	2244 : FE5E;
	2245 : FBF8;
	2246 : FDFD;
	2247 : 0016;
	2248 : FB7C;
	2249 : 002B;
	2250 : FFD4;
	2251 : 01AE;
	2252 : 01DB;
	2253 : 0077;
	2254 : FFAA;
	2255 : 01FD;
	2256 : FD1D;
	2257 : 0010;
	2258 : 0131;
	2259 : FFC1;
	2260 : 041B;
	2261 : 02BA;
	2262 : 01D7;
	2263 : FF01;
	2264 : FFA0;
	2265 : 00B9;
	2266 : 0324;
	2267 : FE86;
	2268 : FCBA;
	2269 : 03F3;
	2270 : 03D5;
	2271 : 0249;
	2272 : FF0A;
	2273 : FEEC;
	2274 : 00D8;
	2275 : FC56;
	2276 : FE82;
	2277 : 010D;
	2278 : 005E;
	2279 : FDD9;
	2280 : FD46;
	2281 : 000D;
	2282 : 014A;
	2283 : FAE6;
	2284 : 0155;
	2285 : FDAF;
	2286 : FDAF;
	2287 : FC79;
	2288 : 00AA;
	2289 : 0236;
	2290 : 013A;
	2291 : FEF0;
	2292 : FEC1;
	2293 : FCDF;
	2294 : FE7E;
	2295 : 01ED;
	2296 : 026F;
	2297 : FE1E;
	2298 : FFF0;
	2299 : FDF4;
	2300 : 038E;
	2301 : FCF9;
	2302 : 009B;
	2303 : 01A3;
	2304 : FC0F;
	2305 : 026A;
	2306 : FCF1;
	2307 : FD76;
	2308 : FF13;
	2309 : FC6E;
	2310 : FE18;
	2311 : FE48;
	2312 : FC10;
	2313 : 0221;
	2314 : 0058;
	2315 : FF4C;
	2316 : 0117;
	2317 : 0066;
	2318 : FD47;
	2319 : FF6F;
	2320 : 025B;
	2321 : FFC3;
	2322 : 0226;
	2323 : FC19;
	2324 : 023A;
	2325 : FEB2;
	2326 : 00AB;
	2327 : FD89;
	2328 : 0175;
	2329 : 0369;
	2330 : FF78;
	2331 : 005F;
	2332 : FE76;
	2333 : 01CB;
	2334 : FFAE;
	2335 : 023C;
	2336 : 0138;
	2337 : 01EE;
	2338 : FD4A;
	2339 : FFC7;
	2340 : 0217;
	2341 : FDDA;
	2342 : FEBF;
	2343 : FD48;
	2344 : 005B;
	2345 : 0075;
	2346 : FCB4;
	2347 : FDE2;
	2348 : 0294;
	2349 : 0396;
	2350 : 01B2;
	2351 : 006F;
	2352 : 03A7;
	2353 : FFE3;
	2354 : 0197;
	2355 : FFB2;
	2356 : 0008;
	2357 : 018C;
	2358 : 036A;
	2359 : 018E;
	2360 : FECB;
	2361 : 037F;
	2362 : 026E;
	2363 : 03D0;
	2364 : FF9A;
	2365 : FD98;
	2366 : 030B;
	2367 : 033A;
	2368 : FF6B;
	2369 : FDD7;
	2370 : 0137;
	2371 : 030C;
	2372 : FDD3;
	2373 : FF0E;
	2374 : FD06;
	2375 : FD41;
	2376 : FE9E;
	2377 : FD5C;
	2378 : 0304;
	2379 : FD53;
	2380 : FE29;
	2381 : FD75;
	2382 : FDF1;
	2383 : 0084;
	2384 : 0099;
	2385 : 031F;
	2386 : FE99;
	2387 : FF0C;
	2388 : 03A7;
	2389 : FD4E;
	2390 : 03A6;
	2391 : 0358;
	2392 : FFEB;
	2393 : 02A6;
	2394 : FD30;
	2395 : FFC0;
	2396 : FF6D;
	2397 : FD48;
	2398 : FDFB;
	2399 : 020E;
	2400 : 03F9;
	2401 : 03FE;
	2402 : FD3E;
	2403 : FC57;
	2404 : FF4C;
	2405 : 00EA;
	2406 : FC14;
	2407 : FC13;
	2408 : 03DC;
	2409 : FE4F;
	2410 : FCC1;
	2411 : FD9D;
	2412 : FD29;
	2413 : 00CB;
	2414 : FD05;
	2415 : FE9C;
	2416 : FD74;
	2417 : FCCA;
	2418 : 0364;
	2419 : 01EF;
	2420 : FD87;
	2421 : FC62;
	2422 : FEFD;
	2423 : FCD9;
	2424 : FE80;
	2425 : 0101;
	2426 : FCBF;
	2427 : 03E6;
	2428 : FF86;
	2429 : 00AD;
	2430 : 0364;
	2431 : 03ED;
	2432 : 02E6;
	2433 : 0017;
	2434 : FF19;
	2435 : 02C9;
	2436 : FFAC;
	2437 : 0382;
	2438 : 0231;
	2439 : FF9F;
	2440 : 024C;
	2441 : 00A1;
	2442 : FC3A;
	2443 : 03A3;
	2444 : FC71;
	2445 : FFA8;
	2446 : FE55;
	2447 : 01B3;
	2448 : 0313;
	2449 : FEFB;
	2450 : 0034;
	2451 : 0046;
	2452 : 027A;
	2453 : 0236;
	2454 : 0379;
	2455 : FC25;
	2456 : 01E2;
	2457 : FC26;
	2458 : FCCE;
	2459 : 0174;
	2460 : FC68;
	2461 : 03D1;
	2462 : 00A4;
	2463 : 0212;
	2464 : 00B5;
	2465 : 0055;
	2466 : 0079;
	2467 : 017E;
	2468 : FD9D;
	2469 : 0100;
	2470 : FF54;
	2471 : 0150;
	2472 : FC41;
	2473 : FD62;
	2474 : 0086;
	2475 : FF33;
	2476 : 000F;
	2477 : 0168;
	2478 : FD93;
	2479 : 00BC;
	2480 : 0168;
	2481 : FE89;
	2482 : FCD1;
	2483 : 023A;
	2484 : FE64;
	2485 : FC34;
	2486 : FBF8;
	2487 : 0056;
	2488 : FF89;
	2489 : FEE5;
	2490 : 0219;
	2491 : FD24;
	2492 : 00B4;
	2493 : 01D6;
	2494 : 036E;
	2495 : 034B;
	2496 : FC1C;
	2497 : FE98;
	2498 : FEED;
	2499 : FC35;
	2500 : FFEB;
	2501 : 0032;
	2502 : FF41;
	2503 : 032C;
	2504 : 023C;
	2505 : 0078;
	2506 : 007D;
	2507 : 014C;
	2508 : FE3E;
	2509 : FCB9;
	2510 : 011A;
	2511 : FDE9;
	2512 : 036F;
	2513 : 00AB;
	2514 : 015D;
	2515 : FBFE;
	2516 : FF7B;
	2517 : FC04;
	2518 : 0216;
	2519 : 03B3;
	2520 : 01FC;
	2521 : FDF5;
	2522 : FD5B;
	2523 : FFF7;
	2524 : 00DF;
	2525 : 0332;
	2526 : FC1B;
	2527 : 0296;
	2528 : 012C;
	2529 : 014E;
	2530 : FB50;
	2531 : FD18;
	2532 : FEBB;
	2533 : FD6E;
	2534 : FC91;
	2535 : FCCB;
	2536 : 0285;
	2537 : FC92;
	2538 : FBD4;
	2539 : 0001;
	2540 : FEEA;
	2541 : FDD9;
	2542 : FE72;
	2543 : 01D0;
	2544 : 02C9;
	2545 : 02D5;
	2546 : 00EC;
	2547 : FC70;
	2548 : FC21;
	2549 : FF5B;
	2550 : FC79;
	2551 : 0164;
	2552 : 0396;
	2553 : 0167;
	2554 : FE94;
	2555 : FD6B;
	2556 : FD0E;
	2557 : FAC2;
	2558 : FFDB;
	2559 : FE99;
	2560 : FFA2;
	2561 : FA49;
	2562 : FC3F;
	2563 : FE31;
	2564 : FE53;
	2565 : 00F3;
	2566 : 0001;
	2567 : FDD1;
	2568 : FBF9;
	2569 : 038F;
	2570 : FD6C;
	2571 : 00EF;
	2572 : FD6E;
	2573 : 03BD;
	2574 : 0081;
	2575 : 0042;
	2576 : FEB2;
	2577 : 023D;
	2578 : FE46;
	2579 : 013E;
	2580 : 0109;
	2581 : FD94;
	2582 : FF28;
	2583 : FF9D;
	2584 : FCEC;
	2585 : FC97;
	2586 : FC0C;
	2587 : FA9D;
	2588 : FD79;
	2589 : FB98;
	2590 : 0157;
	2591 : FD6F;
	2592 : FC9A;
	2593 : FC8D;
	2594 : FFB3;
	2595 : FD6B;
	2596 : FE30;
	2597 : FF87;
	2598 : FF0D;
	2599 : 0213;
	2600 : 03C7;
	2601 : FEEC;
	2602 : 023E;
	2603 : FEEA;
	2604 : FF15;
	2605 : FF77;
	2606 : 03B1;
	2607 : 0063;
	2608 : FEA4;
	2609 : 0009;
	2610 : 0143;
	2611 : FBAE;
	2612 : 02AC;
	2613 : 02F6;
	2614 : FD62;
	2615 : 00D9;
	2616 : 02F0;
	2617 : 016A;
	2618 : FB32;
	2619 : FC46;
	2620 : 0039;
	2621 : 00AC;
	2622 : FBDE;
	2623 : FCFF;
	2624 : 02D0;
	2625 : FF4B;
	2626 : FFED;
	2627 : FE4E;
	2628 : FF3F;
	2629 : 01D6;
	2630 : 024A;
	2631 : 0074;
	2632 : 03CD;
	2633 : FFA0;
	2634 : 030A;
	2635 : 036C;
	2636 : 03FE;
	2637 : 0367;
	2638 : 01B7;
	2639 : FECC;
	2640 : 03E2;
	2641 : FFF0;
	2642 : FF06;
	2643 : FF05;
	2644 : FDBB;
	2645 : 0109;
	2646 : 018E;
	2647 : 00B1;
	2648 : FE61;
	2649 : 03FE;
	2650 : 0197;
	2651 : 011A;
	2652 : FCBD;
	2653 : 026E;
	2654 : FFA0;
	2655 : 0218;
	2656 : 014C;
	2657 : FF0D;
	2658 : 02BB;
	2659 : 03C5;
	2660 : 02EB;
	2661 : FEF2;
	2662 : FEB6;
	2663 : 0269;
	2664 : 048F;
	2665 : 028D;
	2666 : 02E5;
	2667 : FFA1;
	2668 : 0158;
	2669 : FF5A;
	2670 : 01AE;
	2671 : 0393;
	2672 : 0249;
	2673 : 0037;
	2674 : 04AA;
	2675 : 05C3;
	2676 : 0100;
	2677 : 02C8;
	2678 : 00B1;
	2679 : FEE8;
	2680 : 01ED;
	2681 : 02B9;
	2682 : 018C;
	2683 : 0211;
	2684 : 021C;
	2685 : 01F5;
	2686 : FE1F;
	2687 : FDA2;
	2688 : FC48;
	2689 : FF2F;
	2690 : 035C;
	2691 : 02CA;
	2692 : FEC5;
	2693 : 02D0;
	2694 : 0197;
	2695 : 0406;
	2696 : 027D;
	2697 : FFD5;
	2698 : 008F;
	2699 : 0403;
	2700 : 0304;
	2701 : FD3C;
	2702 : 04DF;
	2703 : 024F;
	2704 : 0010;
	2705 : FE0D;
	2706 : 01F0;
	2707 : FF3D;
	2708 : 02A4;
	2709 : 038E;
	2710 : FD7A;
	2711 : 01B7;
	2712 : 01B7;
	2713 : FE62;
	2714 : 0260;
	2715 : 0301;
	2716 : 0079;
	2717 : FDE7;
	2718 : FC60;
	2719 : 021B;
	2720 : 03D6;
	2721 : 03AB;
	2722 : FC2D;
	2723 : FF3A;
	2724 : 0007;
	2725 : 0021;
	2726 : FF49;
	2727 : 022E;
	2728 : 0273;
	2729 : FB94;
	2730 : 0392;
	2731 : FE86;
	2732 : 0360;
	2733 : 0150;
	2734 : 0065;
	2735 : 04C3;
	2736 : FFAD;
	2737 : FE63;
	2738 : 034B;
	2739 : 02C2;
	2740 : FE84;
	2741 : FE50;
	2742 : FF0A;
	2743 : FCDA;
	2744 : 03EB;
	2745 : 037E;
	2746 : FCB2;
	2747 : 0418;
	2748 : FF6E;
	2749 : FF02;
	2750 : FE84;
	2751 : 0093;
	2752 : FD02;
	2753 : 0226;
	2754 : FC17;
	2755 : 012D;
	2756 : FC0C;
	2757 : FCE1;
	2758 : 0203;
	2759 : 0158;
	2760 : FE67;
	2761 : FD9C;
	2762 : FDC7;
	2763 : 01AE;
	2764 : 02EE;
	2765 : 002D;
	2766 : 00A5;
	2767 : FE64;
	2768 : FC95;
	2769 : FC5A;
	2770 : 0029;
	2771 : FC3F;
	2772 : 000B;
	2773 : 01AF;
	2774 : FE1E;
	2775 : 00BE;
	2776 : 0165;
	2777 : FC57;
	2778 : FCD9;
	2779 : 03BC;
	2780 : FE61;
	2781 : FCCB;
	2782 : 00EA;
	2783 : FE07;
	2784 : FBF5;
	2785 : FF5E;
	2786 : FD03;
	2787 : 01D7;
	2788 : 002C;
	2789 : FEA5;
	2790 : 02C5;
	2791 : 0018;
	2792 : FFD4;
	2793 : 0232;
	2794 : 028E;
	2795 : FFAB;
	2796 : FE66;
	2797 : 0223;
	2798 : FDF6;
	2799 : FFE5;
	2800 : FFBE;
	2801 : FC8F;
	2802 : FE6D;
	2803 : 023C;
	2804 : FD7F;
	2805 : 0132;
	2806 : FE3A;
	2807 : FF0E;
	2808 : FF05;
	2809 : 023F;
	2810 : FD2C;
	2811 : 0030;
	2812 : FD5C;
	2813 : FD4C;
	2814 : 0227;
	2815 : 0202;
	2816 : FD3D;
	2817 : FE01;
	2818 : 0434;
	2819 : FDEA;
	2820 : 0233;
	2821 : 0428;
	2822 : 035C;
	2823 : 00F8;
	2824 : FE02;
	2825 : 0097;
	2826 : 02ED;
	2827 : FDB8;
	2828 : 002C;
	2829 : 0054;
	2830 : 0079;
	2831 : FF69;
	2832 : FC56;
	2833 : FE73;
	2834 : FF76;
	2835 : FF13;
	2836 : 017E;
	2837 : FD67;
	2838 : 00A7;
	2839 : 00CE;
	2840 : 0114;
	2841 : 00AB;
	2842 : FD58;
	2843 : FCD6;
	2844 : 0134;
	2845 : FE3C;
	2846 : 03FE;
	2847 : FDC8;
	2848 : FE1E;
	2849 : 0262;
	2850 : 0397;
	2851 : 00CE;
	2852 : 0109;
	2853 : FCDF;
	2854 : FD53;
	2855 : 0293;
	2856 : 00FA;
	2857 : FF0B;
	2858 : FFB5;
	2859 : 01BF;
	2860 : FC72;
	2861 : FDB0;
	2862 : FE4E;
	2863 : FEB8;
	2864 : FF1D;
	2865 : FBE9;
	2866 : FFDD;
	2867 : 00AF;
	2868 : 00AA;
	2869 : FD66;
	2870 : FFCB;
	2871 : FCBC;
	2872 : 0175;
	2873 : FFC6;
	2874 : 03AB;
	2875 : FFD0;
	2876 : FF17;
	2877 : 011B;
	2878 : 008B;
	2879 : FF98;
	2880 : FCB4;
	2881 : FFB6;
	2882 : 013E;
	2883 : FC37;
	2884 : FD92;
	2885 : 01BD;
	2886 : 027D;
	2887 : FCF1;
	2888 : FD4B;
	2889 : FFBB;
	2890 : 00B5;
	2891 : 0021;
	2892 : 0085;
	2893 : FE91;
	2894 : FEBF;
	2895 : 00D5;
	2896 : 0136;
	2897 : 038F;
	2898 : FC77;
	2899 : 0181;
	2900 : FC45;
	2901 : 0160;
	2902 : 014D;
	2903 : 00CA;
	2904 : FE7C;
	2905 : FEF5;
	2906 : 0399;
	2907 : 0246;
	2908 : FD4D;
	2909 : 00EF;
	2910 : 0204;
	2911 : FF07;
	2912 : 01BA;
	2913 : FFED;
	2914 : FF76;
	2915 : 008B;
	2916 : 02D5;
	2917 : FF92;
	2918 : 0325;
	2919 : FCE6;
	2920 : 0160;
	2921 : FCA8;
	2922 : 0421;
	2923 : FDC9;
	2924 : 01DB;
	2925 : 00DA;
	2926 : 00A3;
	2927 : FD50;
	2928 : FD8E;
	2929 : 010D;
	2930 : 01FB;
	2931 : FEF5;
	2932 : FF2F;
	2933 : FF6B;
	2934 : 010D;
	2935 : FDAE;
	2936 : FC61;
	2937 : 03EC;
	2938 : FEF0;
	2939 : FE66;
	2940 : FF83;
	2941 : 0067;
	2942 : 0053;
	2943 : 02C7;
	2944 : 015C;
	2945 : FE17;
	2946 : FC88;
	2947 : FEE7;
	2948 : FD0A;
	2949 : 0036;
	2950 : FDAF;
	2951 : FEAE;
	2952 : 02EE;
	2953 : FF1F;
	2954 : FF85;
	2955 : FF1C;
	2956 : 029A;
	2957 : FD28;
	2958 : FCE4;
	2959 : FD46;
	2960 : FD29;
	2961 : 036F;
	2962 : FE64;
	2963 : 01CB;
	2964 : 0225;
	2965 : FE17;
	2966 : FEFA;
	2967 : FDCB;
	2968 : 03AC;
	2969 : 0384;
	2970 : FDD6;
	2971 : 01CC;
	2972 : 01E0;
	2973 : FC3C;
	2974 : 02CC;
	2975 : 00F2;
	2976 : FC71;
	2977 : FE29;
	2978 : FC5B;
	2979 : 018F;
	2980 : 0035;
	2981 : 0278;
	2982 : FE1D;
	2983 : 02E1;
	2984 : FD9A;
	2985 : 0412;
	2986 : FD30;
	2987 : 00FC;
	2988 : FC5E;
	2989 : FCDE;
	2990 : FF01;
	2991 : 0274;
	2992 : 022E;
	2993 : FFC0;
	2994 : 015E;
	2995 : 031E;
	2996 : 01BD;
	2997 : 0349;
	2998 : FEAD;
	2999 : FD34;
	3000 : 00F8;
	3001 : 02B1;
	3002 : 01CC;
	3003 : 0026;
	3004 : 0264;
	3005 : 0339;
	3006 : 030E;
	3007 : FC81;
	3008 : 005A;
	3009 : FF0F;
	3010 : 01A6;
	3011 : 00CE;
	3012 : 00C1;
	3013 : 0222;
	3014 : FEBD;
	3015 : 0065;
	3016 : 0258;
	3017 : FFF6;
	3018 : 0358;
	3019 : 00DC;
	3020 : 00ED;
	3021 : FFDB;
	3022 : 0007;
	3023 : FDDC;
	3024 : 01F4;
	3025 : FD3F;
	3026 : 00B3;
	3027 : 02DD;
	3028 : FE0A;
	3029 : 03ED;
	3030 : 01A0;
	3031 : FDE4;
	3032 : FD02;
	3033 : FBD1;
	3034 : FD73;
	3035 : 016C;
	3036 : 0222;
	3037 : FDEB;
	3038 : FD29;
	3039 : FD1F;
	3040 : FF26;
	3041 : FF01;
	3042 : FEAE;
	3043 : 0247;
	3044 : FF44;
	3045 : 024F;
	3046 : 0321;
	3047 : FED0;
	3048 : 00DD;
	3049 : FDE6;
	3050 : 0052;
	3051 : FF90;
	3052 : FED1;
	3053 : 0147;
	3054 : FEC4;
	3055 : FF96;
	3056 : 020F;
	3057 : FEF1;
	3058 : 0319;
	3059 : FDAE;
	3060 : 028D;
	3061 : FF19;
	3062 : FDB2;
	3063 : FE93;
	3064 : 022A;
	3065 : 01C0;
	3066 : FDC6;
	3067 : 003F;
	3068 : FD3B;
	3069 : 0192;
	3070 : 018B;
	3071 : FD46;
	3072 : FE28;
	3073 : FCAB;
	3074 : 0371;
	3075 : 00F6;
	3076 : 03E6;
	3077 : FE6B;
	3078 : 022D;
	3079 : 030F;
	3080 : 021E;
	3081 : FF2A;
	3082 : FD05;
	3083 : 001C;
	3084 : 011F;
	3085 : FFD6;
	3086 : 006C;
	3087 : FEBA;
	3088 : 03C8;
	3089 : 01B7;
	3090 : 008A;
	3091 : 0279;
	3092 : 0050;
	3093 : FDA8;
	3094 : FE68;
	3095 : 0058;
	3096 : FF05;
	3097 : 039B;
	3098 : 0311;
	3099 : FF1B;
	3100 : FEE2;
	3101 : FFC8;
	3102 : 0321;
	3103 : 028E;
	3104 : FD8A;
	3105 : FC6E;
	3106 : 021D;
	3107 : FE2C;
	3108 : 0172;
	3109 : 01FE;
	3110 : 03FC;
	3111 : FDF8;
	3112 : FEF6;
	3113 : 00C1;
	3114 : FDC8;
	3115 : 036D;
	3116 : 03B2;
	3117 : FEB4;
	3118 : FE82;
	3119 : FE88;
	3120 : 01D6;
	3121 : FF43;
	3122 : 03E4;
	3123 : FFED;
	3124 : FFFD;
	3125 : 01D3;
	3126 : 01BE;
	3127 : 0137;
	3128 : 03FB;
	3129 : 021A;
	3130 : FE34;
	3131 : 002E;
	3132 : 0380;
	3133 : FCCF;
	3134 : 0091;
	3135 : FDD8;
	3136 : 026D;
	3137 : 01A1;
	3138 : 0143;
	3139 : 02C1;
	3140 : FCE4;
	3141 : 028E;
	3142 : FF8F;
	3143 : 01DE;
	3144 : 03D9;
	3145 : FE99;
	3146 : FC0E;
	3147 : 01A3;
	3148 : 0216;
	3149 : 00FC;
	3150 : 0200;
	3151 : FCF5;
	3152 : FF91;
	3153 : FD96;
	3154 : FEC2;
	3155 : 00B9;
	3156 : FDDD;
	3157 : 0127;
	3158 : 01DD;
	3159 : 02FD;
	3160 : 0368;
	3161 : 03B4;
	3162 : 0009;
	3163 : FD70;
	3164 : FCBD;
	3165 : 00B3;
	3166 : FEA9;
	3167 : 0215;
	3168 : 0323;
	3169 : 030C;
	3170 : 0240;
	3171 : FC5D;
	3172 : FF4C;
	3173 : 01CB;
	3174 : 03A4;
	3175 : FC45;
	3176 : 026D;
	3177 : FC6C;
	3178 : 0289;
	3179 : FF54;
	3180 : 038E;
	3181 : 03DF;
	3182 : 004B;
	3183 : FF0B;
	3184 : 033F;
	3185 : FC99;
	3186 : 0115;
	3187 : 002F;
	3188 : 019F;
	3189 : FD2B;
	3190 : 00AE;
	3191 : 00C5;
	3192 : FC45;
	3193 : FCF0;
	3194 : 03F3;
	3195 : 0365;
	3196 : 0284;
	3197 : FF30;
	3198 : FCD8;
	3199 : 0242;
	3200 : 01C9;
	3201 : FC52;
	3202 : FF81;
	3203 : 013B;
	3204 : FE9B;
	3205 : FE67;
	3206 : 022F;
	3207 : 0191;
	3208 : 02DC;
	3209 : 038A;
	3210 : FE3A;
	3211 : FDD5;
	3212 : 019C;
	3213 : FD80;
	3214 : 0069;
	3215 : FC81;
	3216 : FD0D;
	3217 : FEF6;
	3218 : FDF2;
	3219 : FF91;
	3220 : FFDD;
	3221 : FCF7;
	3222 : FF02;
	3223 : 01BD;
	3224 : FD56;
	3225 : FF11;
	3226 : FE3B;
	3227 : FF23;
	3228 : FF04;
	3229 : 04A7;
	3230 : 02E0;
	3231 : FCF3;
	3232 : 03F2;
	3233 : 04AB;
	3234 : FFD0;
	3235 : 025D;
	3236 : 002B;
	3237 : FF26;
	3238 : 0200;
	3239 : 01DC;
	3240 : 0055;
	3241 : FD9C;
	3242 : 002E;
	3243 : 0290;
	3244 : FC92;
	3245 : 0023;
	3246 : 0095;
	3247 : FEE3;
	3248 : FC88;
	3249 : FC3F;
	3250 : 00F3;
	3251 : FFD2;
	3252 : FEA7;
	3253 : FD78;
	3254 : 0416;
	3255 : 00F3;
	3256 : 0187;
	3257 : 0353;
	3258 : 0494;
	3259 : 059C;
	3260 : 035D;
	3261 : 02D0;
	3262 : 00B6;
	3263 : 0334;
	3264 : 051C;
	3265 : 011D;
	3266 : 01DE;
	3267 : FCD0;
	3268 : FE67;
	3269 : FE05;
	3270 : FA7B;
	3271 : FF5E;
	3272 : 00A5;
	3273 : FE00;
	3274 : 004D;
	3275 : 006E;
	3276 : FE36;
	3277 : FED0;
	3278 : FF43;
	3279 : FEB5;
	3280 : FCFA;
	3281 : FE2A;
	3282 : 03AB;
	3283 : 032B;
	3284 : 037B;
	3285 : FFBE;
	3286 : 04D5;
	3287 : 01D0;
	3288 : 01AA;
	3289 : 0067;
	3290 : 0077;
	3291 : 033C;
	3292 : 0407;
	3293 : 02E5;
	3294 : 0116;
	3295 : 0264;
	3296 : FEAE;
	3297 : FD21;
	3298 : FCC3;
	3299 : FF8F;
	3300 : FCB9;
	3301 : FD32;
	3302 : 0144;
	3303 : FD76;
	3304 : FC67;
	3305 : 027D;
	3306 : FC91;
	3307 : 03B9;
	3308 : 0272;
	3309 : 0180;
	3310 : 012C;
	3311 : 01A1;
	3312 : FC8A;
	3313 : FFDF;
	3314 : 0318;
	3315 : 02B4;
	3316 : FEE7;
	3317 : FE27;
	3318 : 0072;
	3319 : FF19;
	3320 : 0116;
	3321 : 0234;
	3322 : 039B;
	3323 : 0107;
	3324 : 036C;
	3325 : FFF0;
	3326 : 00EE;
	3327 : FE9A;
	3328 : 00F5;
	3329 : 0270;
	3330 : FD86;
	3331 : FEEE;
	3332 : FDC4;
	3333 : 0410;
	3334 : FEC6;
	3335 : FEA7;
	3336 : 0313;
	3337 : 0137;
	3338 : FE26;
	3339 : FEB8;
	3340 : 025B;
	3341 : 0189;
	3342 : 003D;
	3343 : 006A;
	3344 : 0177;
	3345 : 0377;
	3346 : 0278;
	3347 : FF8C;
	3348 : 027D;
	3349 : FDF4;
	3350 : 025A;
	3351 : 0195;
	3352 : FDB3;
	3353 : 0157;
	3354 : FD7B;
	3355 : FE61;
	3356 : 00CA;
	3357 : 02E2;
	3358 : 02AE;
	3359 : 03D7;
	3360 : 0007;
	3361 : 031B;
	3362 : FE60;
	3363 : FCCF;
	3364 : 00AB;
	3365 : 0282;
	3366 : 0096;
	3367 : 006B;
	3368 : FE1B;
	3369 : 0046;
	3370 : 01D2;
	3371 : 0324;
	3372 : 0297;
	3373 : FFC6;
	3374 : 0377;
	3375 : 01F5;
	3376 : 01CB;
	3377 : 0030;
	3378 : 054A;
	3379 : 02FD;
	3380 : FE94;
	3381 : 0208;
	3382 : 0370;
	3383 : 03D4;
	3384 : FEE8;
	3385 : FEE6;
	3386 : 0469;
	3387 : FFA9;
	3388 : FE8C;
	3389 : 0031;
	3390 : FD72;
	3391 : 0035;
	3392 : 00E7;
	3393 : FE88;
	3394 : 0145;
	3395 : 01F2;
	3396 : 0152;
	3397 : FCF3;
	3398 : FFC8;
	3399 : FBE7;
	3400 : FEBB;
	3401 : FE42;
	3402 : FE1B;
	3403 : FFE5;
	3404 : 0240;
	3405 : 00C5;
	3406 : 01AA;
	3407 : 03F5;
	3408 : 05F9;
	3409 : 0412;
	3410 : 028E;
	3411 : 037C;
	3412 : 048A;
	3413 : 0160;
	3414 : 0172;
	3415 : FECD;
	3416 : FC78;
	3417 : 03DC;
	3418 : FFDC;
	3419 : FC90;
	3420 : FE77;
	3421 : 0005;
	3422 : FD58;
	3423 : F9D8;
	3424 : FF15;
	3425 : 0095;
	3426 : FBD3;
	3427 : FED8;
	3428 : FF3B;
	3429 : FB28;
	3430 : FE60;
	3431 : FB20;
	3432 : FF55;
	3433 : 01D0;
	3434 : 0173;
	3435 : 0106;
	3436 : 02AB;
	3437 : 01DF;
	3438 : 008D;
	3439 : FE3F;
	3440 : FE42;
	3441 : 043A;
	3442 : 0345;
	3443 : FE04;
	3444 : FC10;
	3445 : FC9A;
	3446 : 015A;
	3447 : 00FA;
	3448 : FD1F;
	3449 : 00CC;
	3450 : F828;
	3451 : FC92;
	3452 : FCF4;
	3453 : FC61;
	3454 : FFFD;
	3455 : FC50;
	3456 : FC46;
	3457 : FDF7;
	3458 : FFCF;
	3459 : F9D4;
	3460 : FC41;
	3461 : FDE3;
	3462 : 006B;
	3463 : 02FC;
	3464 : 00F5;
	3465 : 0135;
	3466 : 0035;
	3467 : FCBF;
	3468 : FCEB;
	3469 : 03CF;
	3470 : FD1D;
	3471 : 01C8;
	3472 : 01DF;
	3473 : 01AC;
	3474 : FF67;
	3475 : FCB3;
	3476 : FF5D;
	3477 : FD46;
	3478 : FCBC;
	3479 : FB56;
	3480 : FC84;
	3481 : FE2C;
	3482 : FBB2;
	3483 : FEB1;
	3484 : FCBC;
	3485 : 037F;
	3486 : 0123;
	3487 : FD4D;
	3488 : FE94;
	3489 : FD8F;
	3490 : FF28;
	3491 : FDA6;
	3492 : 0086;
	3493 : F98A;
	3494 : FBF7;
	3495 : FA89;
	3496 : FDC6;
	3497 : FECD;
	3498 : 0015;
	3499 : 0175;
	3500 : 02DA;
	3501 : 02E8;
	3502 : FE79;
	3503 : FE19;
	3504 : 009E;
	3505 : FCAA;
	3506 : F97B;
	3507 : FF8E;
	3508 : FC73;
	3509 : FE96;
	3510 : 0111;
	3511 : 037C;
	3512 : FE94;
	3513 : 0333;
	3514 : 00EB;
	3515 : FD2D;
	3516 : FEE2;
	3517 : 001E;
	3518 : 0038;
	3519 : FE0A;
	3520 : 00A9;
	3521 : FDC3;
	3522 : FD66;
	3523 : FFBA;
	3524 : 001E;
	3525 : 0041;
	3526 : 03D1;
	3527 : 02CD;
	3528 : 0225;
	3529 : FCBE;
	3530 : FEAE;
	3531 : 005C;
	3532 : FB13;
	3533 : FC7A;
	3534 : FEB1;
	3535 : FEE0;
	3536 : 0366;
	3537 : 02AE;
	3538 : FE91;
	3539 : 0259;
	3540 : 00CD;
	3541 : FF00;
	3542 : 010A;
	3543 : FE80;
	3544 : 0072;
	3545 : FFBC;
	3546 : 016C;
	3547 : FE9C;
	3548 : FBB3;
	3549 : FACC;
	3550 : FB7C;
	3551 : FB07;
	3552 : FC6D;
	3553 : FD12;
	3554 : 00F2;
	3555 : 005B;
	3556 : FE15;
	3557 : FFAE;
	3558 : 0404;
	3559 : 01FE;
	3560 : 01FB;
	3561 : FF23;
	3562 : FD04;
	3563 : FF42;
	3564 : FFE9;
	3565 : 020A;
	3566 : 027E;
	3567 : 0064;
	3568 : 0175;
	3569 : 01B8;
	3570 : FE31;
	3571 : 0040;
	3572 : 0047;
	3573 : FA17;
	3574 : FC25;
	3575 : FDDA;
	3576 : FDDB;
	3577 : 0046;
	3578 : FDA4;
	3579 : FF02;
	3580 : FECF;
	3581 : FCF8;
	3582 : 0007;
	3583 : 01DB;
	3584 : 028B;
	3585 : FFBC;
	3586 : FE86;
	3587 : 03C5;
	3588 : FEC0;
	3589 : 034C;
	3590 : FFD4;
	3591 : FE51;
	3592 : 0007;
	3593 : FE06;
	3594 : 0048;
	3595 : FC0F;
	3596 : 038E;
	3597 : FFAE;
	3598 : 0058;
	3599 : FFD4;
	3600 : 008F;
	3601 : FE3B;
	3602 : FE35;
	3603 : FED7;
	3604 : 0184;
	3605 : FD73;
	3606 : 001D;
	3607 : FE88;
	3608 : 0212;
	3609 : FCE9;
	3610 : 0308;
	3611 : 026C;
	3612 : 007B;
	3613 : 006A;
	3614 : 00EB;
	3615 : 0157;
	3616 : 0289;
	3617 : 0103;
	3618 : 02A2;
	3619 : FFEF;
	3620 : FD28;
	3621 : FDC2;
	3622 : FC9E;
	3623 : FC21;
	3624 : FEEF;
	3625 : 031F;
	3626 : FFBE;
	3627 : FE8E;
	3628 : FFC8;
	3629 : FDEA;
	3630 : FF23;
	3631 : FD93;
	3632 : 00F2;
	3633 : 0033;
	3634 : 0153;
	3635 : 0275;
	3636 : 046E;
	3637 : 0403;
	3638 : FFE6;
	3639 : FF0E;
	3640 : 0269;
	3641 : 0120;
	3642 : 024D;
	3643 : 049A;
	3644 : 0091;
	3645 : 004C;
	3646 : 01D7;
	3647 : 0128;
	3648 : FF9A;
	3649 : FF0A;
	3650 : 0055;
	3651 : FF56;
	3652 : FC54;
	3653 : FFE2;
	3654 : 0085;
	3655 : FF6B;
	3656 : 0280;
	3657 : FCF6;
	3658 : 01E8;
	3659 : 0486;
	3660 : 018D;
	3661 : 05F8;
	3662 : 069D;
	3663 : 0510;
	3664 : 06C1;
	3665 : FF26;
	3666 : FD48;
	3667 : 031D;
	3668 : 003D;
	3669 : FE81;
	3670 : 00A0;
	3671 : 04B8;
	3672 : 04C7;
	3673 : 0342;
	3674 : 047F;
	3675 : 021E;
	3676 : 0372;
	3677 : 0066;
	3678 : 0042;
	3679 : 0183;
	3680 : 0189;
	3681 : 030E;
	3682 : FFF2;
	3683 : 01F0;
	3684 : FFAB;
	3685 : 02A8;
	3686 : 03A7;
	3687 : 01A7;
	3688 : FE9F;
	3689 : 034D;
	3690 : 0688;
	3691 : 0118;
	3692 : 0047;
	3693 : 0282;
	3694 : 02AE;
	3695 : 03FC;
	3696 : 032F;
	3697 : 0052;
	3698 : 03FB;
	3699 : 0395;
	3700 : 02FB;
	3701 : 0310;
	3702 : 05EA;
	3703 : FFD6;
	3704 : 01CD;
	3705 : 00A0;
	3706 : 019C;
	3707 : FD15;
	3708 : 0243;
	3709 : FE1E;
	3710 : FEAA;
	3711 : 0174;
	3712 : FF6F;
	3713 : 019F;
	3714 : 03C1;
	3715 : 0220;
	3716 : 039B;
	3717 : 042B;
	3718 : 0602;
	3719 : 053F;
	3720 : 006E;
	3721 : 0326;
	3722 : 0283;
	3723 : 0060;
	3724 : 00A9;
	3725 : FEF1;
	3726 : FFFD;
	3727 : 03D4;
	3728 : 041D;
	3729 : 0388;
	3730 : 012D;
	3731 : 06EB;
	3732 : 04FB;
	3733 : 0209;
	3734 : 0079;
	3735 : 0131;
	3736 : FBF7;
	3737 : 0128;
	3738 : FE08;
	3739 : FEE2;
	3740 : 0063;
	3741 : FEB4;
	3742 : 0335;
	3743 : 008F;
	3744 : 008B;
	3745 : FFD8;
	3746 : 038B;
	3747 : 0479;
	3748 : FC70;
	3749 : 0034;
	3750 : 0366;
	3751 : 018F;
	3752 : FFE5;
	3753 : FDAD;
	3754 : FFF9;
	3755 : 046F;
	3756 : 02CB;
	3757 : 0032;
	3758 : 03BD;
	3759 : FFD7;
	3760 : FFED;
	3761 : 02B1;
	3762 : 030D;
	3763 : FF80;
	3764 : FF15;
	3765 : 0220;
	3766 : FF59;
	3767 : FDBA;
	3768 : FE1F;
	3769 : 01A8;
	3770 : 0363;
	3771 : FF4D;
	3772 : 03AB;
	3773 : 044D;
	3774 : 0194;
	3775 : 023E;
	3776 : FFEA;
	3777 : 0247;
	3778 : 004A;
	3779 : FE52;
	3780 : 0369;
	3781 : FE55;
	3782 : FD02;
	3783 : 0109;
	3784 : 01FC;
	3785 : FE5E;
	3786 : FFB2;
	3787 : 0542;
	3788 : 0434;
	3789 : 0179;
	3790 : 04FB;
	3791 : 0224;
	3792 : FF00;
	3793 : 025D;
	3794 : 0340;
	3795 : 03CA;
	3796 : 0157;
	3797 : 01DE;
	3798 : FD76;
	3799 : 0447;
	3800 : FF20;
	3801 : 0450;
	3802 : FFFE;
	3803 : 0287;
	3804 : 011E;
	3805 : FDE5;
	3806 : 0318;
	3807 : 0095;
	3808 : FE61;
	3809 : 0200;
	3810 : 0085;
	3811 : FF29;
	3812 : FDF3;
	3813 : FF7C;
	3814 : FE75;
	3815 : FE1A;
	3816 : 040D;
	3817 : FF64;
	3818 : FF35;
	3819 : 02D5;
	3820 : 036D;
	3821 : 03CA;
	3822 : 04EF;
	3823 : 0264;
	3824 : 0470;
	3825 : 01C7;
	3826 : 0176;
	3827 : 0151;
	3828 : FE40;
	3829 : 0048;
	3830 : 024B;
	3831 : FEAA;
	3832 : FDF4;
	3833 : 00F6;
	3834 : FFD7;
	3835 : 03BB;
	3836 : 03CA;
	3837 : 020F;
	3838 : FC7D;
	3839 : FED2;
	3840 : 035C;
	3841 : 0073;
	3842 : FFEC;
	3843 : FE62;
	3844 : 000E;
	3845 : 02AC;
	3846 : FF07;
	3847 : FF37;
	3848 : FFAF;
	3849 : FE16;
	3850 : FC72;
	3851 : 02A6;
	3852 : 02D9;
	3853 : 00C4;
	3854 : 02F0;
	3855 : 042B;
	3856 : FEA9;
	3857 : FCF9;
	3858 : 00D1;
	3859 : FF8B;
	3860 : FDA7;
	3861 : 0235;
	3862 : FE71;
	3863 : FEB4;
	3864 : 031B;
	3865 : 012E;
	3866 : FE87;
	3867 : FF85;
	3868 : FEEA;
	3869 : FDCE;
	3870 : FDEB;
	3871 : FF9C;
	3872 : 00AC;
	3873 : 0152;
	3874 : 01D4;
	3875 : FE67;
	3876 : FFAF;
	3877 : 01BC;
	3878 : FC15;
	3879 : FE5B;
	3880 : FE5C;
	3881 : 00E2;
	3882 : 023C;
	3883 : FE03;
	3884 : 02C4;
	3885 : FF81;
	3886 : FDA5;
	3887 : FD52;
	3888 : FCF5;
	3889 : 001E;
	3890 : 00F2;
	3891 : 023E;
	3892 : 03C1;
	3893 : 00F1;
	3894 : 0173;
	3895 : 016D;
	3896 : FEA7;
	3897 : FEF0;
	3898 : 023A;
	3899 : FD5E;
	3900 : FC8F;
	3901 : 01D4;
	3902 : FDBB;
	3903 : 0206;
	3904 : FD5A;
	3905 : 0380;
	3906 : 013F;
	3907 : FD45;
	3908 : 03CF;
	3909 : 00A0;
	3910 : 01A6;
	3911 : FF0B;
	3912 : FF8C;
	3913 : 0386;
	3914 : 0118;
	3915 : FF1B;
	3916 : 017B;
	3917 : FC4D;
	3918 : FE07;
	3919 : FEF8;
	3920 : 01F0;
	3921 : FCE0;
	3922 : FEB4;
	3923 : FCF9;
	3924 : 02C5;
	3925 : FF09;
	3926 : FF99;
	3927 : 002E;
	3928 : FC89;
	3929 : 0271;
	3930 : FF4B;
	3931 : 0365;
	3932 : FDB4;
	3933 : 0234;
	3934 : 0017;
	3935 : 039F;
	3936 : 0329;
	3937 : 030C;
	3938 : FFB5;
	3939 : 032F;
	3940 : 0351;
	3941 : 013C;
	3942 : FD62;
	3943 : FD1F;
	3944 : FC81;
	3945 : FC3B;
	3946 : 0200;
	3947 : FFFB;
	3948 : FF87;
	3949 : FDEF;
	3950 : 01BE;
	3951 : 0031;
	3952 : 0175;
	3953 : FE4F;
	3954 : FFF5;
	3955 : 01B8;
	3956 : 01BF;
	3957 : 0372;
	3958 : FF37;
	3959 : 0312;
	3960 : 00BC;
	3961 : FE67;
	3962 : FFBF;
	3963 : FC6C;
	3964 : FEEA;
	3965 : 00D8;
	3966 : FF78;
	3967 : 0068;
	3968 : 03CB;
	3969 : 009A;
	3970 : FDFD;
	3971 : FC12;
	3972 : 00C3;
	3973 : FF20;
	3974 : 01C2;
	3975 : 005A;
	3976 : FD3C;
	3977 : FECB;
	3978 : FD97;
	3979 : FEA1;
	3980 : FD0B;
	3981 : 0270;
	3982 : FE25;
	3983 : 0160;
	3984 : 0081;
	3985 : 0019;
	3986 : 0226;
	3987 : FE6C;
	3988 : FB98;
	3989 : FF08;
	3990 : FC48;
	3991 : 0078;
	3992 : FE6E;
	3993 : 0128;
	3994 : 00DD;
	3995 : FD34;
	3996 : 02ED;
	3997 : FE77;
	3998 : FFE5;
	3999 : 0302;
	4000 : 03B4;
	4001 : FC28;
	4002 : FC7D;
	4003 : 0377;
	4004 : 0111;
	4005 : FFD7;
	4006 : FE31;
	4007 : 03BC;
	4008 : 0073;
	4009 : FDCE;
	4010 : 0020;
	4011 : FE50;
	4012 : FF13;
	4013 : FFEF;
	4014 : 030A;
	4015 : 0074;
	4016 : 00CA;
	4017 : 025C;
	4018 : 0078;
	4019 : FAEB;
	4020 : FE3B;
	4021 : FD20;
	4022 : 031F;
	4023 : FBFD;
	4024 : FD28;
	4025 : FE2E;
	4026 : 00AF;
	4027 : FE0F;
	4028 : FE56;
	4029 : 01D8;
	4030 : 021C;
	4031 : FED7;
	4032 : FCD6;
	4033 : FF55;
	4034 : FFCF;
	4035 : FC1F;
	4036 : 0146;
	4037 : 039B;
	4038 : 0390;
	4039 : 01E1;
	4040 : FDCE;
	4041 : FB86;
	4042 : FB38;
	4043 : FC60;
	4044 : FE42;
	4045 : FC25;
	4046 : FEBE;
	4047 : 0124;
	4048 : FA06;
	4049 : 011F;
	4050 : FA81;
	4051 : FEBC;
	4052 : FBE9;
	4053 : 00B9;
	4054 : FF43;
	4055 : FCF9;
	4056 : FF2B;
	4057 : FEAA;
	4058 : FF0E;
	4059 : 00AD;
	4060 : 000E;
	4061 : FEEB;
	4062 : 0345;
	4063 : 0192;
	4064 : 0263;
	4065 : FF8D;
	4066 : FE85;
	4067 : FF29;
	4068 : FBD9;
	4069 : 001E;
	4070 : FD6D;
	4071 : FC80;
	4072 : FD09;
	4073 : FE34;
	4074 : 01BF;
	4075 : FB80;
	4076 : FB74;
	4077 : FE3F;
	4078 : FDC2;
	4079 : FDCC;
	4080 : FE02;
	4081 : FD75;
	4082 : FB76;
	4083 : FE52;
	4084 : FF5F;
	4085 : FC2D;
	4086 : FE09;
	4087 : 0059;
	4088 : FDCF;
	4089 : FDF2;
	4090 : 0143;
	4091 : 0215;
	4092 : FD50;
	4093 : FF1C;
	4094 : FF3F;
	4095 : 02B7;
	4096 : 018C;
	4097 : FAEE;
	4098 : FAF7;
	4099 : FE2A;
	4100 : FCCC;
	4101 : FE16;
	4102 : FA25;
	4103 : 0097;
	4104 : FA95;
	4105 : FB55;
	4106 : F90D;
	4107 : FF11;
	4108 : FD36;
	4109 : 0010;
	4110 : FD8A;
	4111 : 00AB;
	4112 : FF93;
	4113 : FDAF;
	4114 : FD7E;
	4115 : FCA3;
	4116 : FE1F;
	4117 : 005B;
	4118 : FFB5;
	4119 : FF6F;
	4120 : FDA1;
	4121 : FF83;
	4122 : 0221;
	4123 : FD6A;
	4124 : FEA5;
	4125 : 00F0;
	4126 : FD1D;
	4127 : FD58;
	4128 : FDBE;
	4129 : FCB3;
	4130 : FABD;
	4131 : FDD0;
	4132 : FD8B;
	4133 : FC6F;
	4134 : 0057;
	4135 : FD81;
	4136 : FB59;
	4137 : 01B0;
	4138 : FCF1;
	4139 : FEC1;
	4140 : FF93;
	4141 : FC7D;
	4142 : FE31;
	4143 : 0277;
	4144 : FE28;
	4145 : FFDB;
	4146 : 038D;
	4147 : FFA7;
	4148 : 01F3;
	4149 : 025D;
	4150 : 032E;
	4151 : 021D;
	4152 : FD03;
	4153 : FF98;
	4154 : 0117;
	4155 : 016A;
	4156 : FD86;
	4157 : FEB6;
	4158 : FE40;
	4159 : FD3B;
	4160 : 0028;
	4161 : FE2D;
	4162 : 0063;
	4163 : FFA5;
	4164 : FEBF;
	4165 : 043E;
	4166 : 0051;
	4167 : 04DC;
	4168 : 021F;
	4169 : 01B8;
	4170 : FC9B;
	4171 : 026D;
	4172 : 01DC;
	4173 : 0149;
	4174 : 0298;
	4175 : 0489;
	4176 : 00B4;
	4177 : 032B;
	4178 : 013E;
	4179 : 0153;
	4180 : 0288;
	4181 : 030A;
	4182 : 0177;
	4183 : 05F7;
	4184 : 02CB;
	4185 : 06A7;
	4186 : 0780;
	4187 : 00CF;
	4188 : 0441;
	4189 : 082D;
	4190 : 0393;
	4191 : 068D;
	4192 : 02BD;
	4193 : 03F3;
	4194 : 04A8;
	4195 : 01AE;
	4196 : 0635;
	4197 : 0086;
	4198 : FCB2;
	4199 : 03A2;
	4200 : FC71;
	4201 : 003F;
	4202 : FFF9;
	4203 : FF40;
	4204 : FE03;
	4205 : FDE4;
	4206 : 03E7;
	4207 : FEAB;
	4208 : FD6D;
	4209 : FE95;
	4210 : 01B9;
	4211 : 0170;
	4212 : 024E;
	4213 : 04D8;
	4214 : 08E0;
	4215 : 05E2;
	4216 : 040C;
	4217 : 035A;
	4218 : 0449;
	4219 : 01E5;
	4220 : 049C;
	4221 : 0198;
	4222 : 0386;
	4223 : 06B1;
	4224 : 0800;
	4225 : 013F;
	4226 : 023F;
	4227 : FE58;
	4228 : 011C;
	4229 : FD77;
	4230 : FCEF;
	4231 : FD40;
	4232 : 01F1;
	4233 : 00E4;
	4234 : FE9C;
	4235 : FFF5;
	4236 : FD21;
	4237 : FF35;
	4238 : 008B;
	4239 : 0264;
	4240 : 0216;
	4241 : 0351;
	4242 : 055D;
	4243 : 01E4;
	4244 : FED4;
	4245 : FF40;
	4246 : FFCA;
	4247 : 02EE;
	4248 : 031A;
	4249 : 017D;
	4250 : FFDE;
	4251 : 0354;
	4252 : 0425;
	4253 : 00AC;
	4254 : FFB1;
	4255 : 00EE;
	4256 : FE04;
	4257 : FEFB;
	4258 : 010A;
	4259 : 0108;
	4260 : FF3D;
	4261 : 01A9;
	4262 : FB90;
	4263 : 028E;
	4264 : 0017;
	4265 : FBCA;
	4266 : FFD2;
	4267 : 0405;
	4268 : FEE9;
	4269 : 0512;
	4270 : 0002;
	4271 : 0090;
	4272 : FB51;
	4273 : FE68;
	4274 : 0094;
	4275 : FB7E;
	4276 : 00CF;
	4277 : FD36;
	4278 : FE54;
	4279 : FDE3;
	4280 : FE7C;
	4281 : 0484;
	4282 : 02B5;
	4283 : 019B;
	4284 : 0085;
	4285 : 023A;
	4286 : FE60;
	4287 : FF07;
	4288 : FBCF;
	4289 : FF30;
	4290 : 015B;
	4291 : FCC5;
	4292 : FEC9;
	4293 : 0111;
	4294 : FE48;
	4295 : 03C6;
	4296 : FF67;
	4297 : FED4;
	4298 : FC38;
	4299 : FD8E;
	4300 : FF27;
	4301 : FD59;
	4302 : FF92;
	4303 : FB68;
	4304 : FF93;
	4305 : 01BA;
	4306 : 033D;
	4307 : 02BD;
	4308 : 0229;
	4309 : 029C;
	4310 : 0142;
	4311 : 0111;
	4312 : 006E;
	4313 : FC90;
	4314 : FDEB;
	4315 : 02B8;
	4316 : 0264;
	4317 : FE51;
	4318 : FDDF;
	4319 : FEC7;
	4320 : FF11;
	4321 : 00A6;
	4322 : 0706;
	4323 : 0311;
	4324 : FFFF;
	4325 : FF76;
	4326 : 00CD;
	4327 : F940;
	4328 : FB33;
	4329 : FC9C;
	4330 : FEC8;
	4331 : FDF4;
	4332 : 007D;
	4333 : FC80;
	4334 : 03CA;
	4335 : FFE4;
	4336 : FFCB;
	4337 : FCF4;
	4338 : FDD6;
	4339 : FD22;
	4340 : 0237;
	4341 : FC53;
	4342 : 01B1;
	4343 : FC3D;
	4344 : FC6D;
	4345 : 02C8;
	4346 : FEDB;
	4347 : 00B3;
	4348 : 0340;
	4349 : 00BD;
	4350 : 011D;
	4351 : 014B;
	4352 : 040B;
	4353 : FA49;
	4354 : FEAA;
	4355 : 008D;
	4356 : FE51;
	4357 : 0317;
	4358 : 032C;
	4359 : 0358;
	4360 : 0000;
	4361 : FEB2;
	4362 : FDDE;
	4363 : 0146;
	4364 : FED1;
	4365 : FE56;
	4366 : 00AF;
	4367 : 02B3;
	4368 : 025D;
	4369 : 016B;
	4370 : 00A3;
	4371 : FE85;
	4372 : FFE7;
	4373 : 035C;
	4374 : 04BD;
	4375 : 0347;
	4376 : FFFB;
	4377 : 0152;
	4378 : 0008;
	4379 : 01EA;
	4380 : FD42;
	4381 : FAD8;
	4382 : FF26;
	4383 : FB23;
	4384 : 001B;
	4385 : FFB8;
	4386 : 025D;
	4387 : FDFB;
	4388 : 0020;
	4389 : 024F;
	4390 : 0289;
	4391 : 0067;
	4392 : 03BE;
	4393 : 0088;
	4394 : 0068;
	4395 : 010C;
	4396 : 018B;
	4397 : FE13;
	4398 : 013D;
	4399 : FD98;
	4400 : FE93;
	4401 : 041C;
	4402 : 01A0;
	4403 : 01D9;
	4404 : FEA6;
	4405 : 024C;
	4406 : FB2B;
	4407 : FF2B;
	4408 : FEBA;
	4409 : FF12;
	4410 : FDC2;
	4411 : 0400;
	4412 : 00B4;
	4413 : 03BE;
	4414 : 01D5;
	4415 : FC69;
	4416 : 00D6;
	4417 : 0202;
	4418 : 042F;
	4419 : FCC6;
	4420 : 0157;
	4421 : 0305;
	4422 : 0188;
	4423 : FD22;
	4424 : 03FE;
	4425 : 0029;
	4426 : 02AA;
	4427 : 0220;
	4428 : FD58;
	4429 : 0069;
	4430 : 0095;
	4431 : 00E8;
	4432 : FED2;
	4433 : FDA3;
	4434 : 01C8;
	4435 : FD2E;
	4436 : 0352;
	4437 : FF5F;
	4438 : 021D;
	4439 : 035F;
	4440 : FDEB;
	4441 : 0231;
	4442 : FD4F;
	4443 : 01C8;
	4444 : FC06;
	4445 : FEC2;
	4446 : FCBB;
	4447 : FF27;
	4448 : FC3B;
	4449 : FE48;
	4450 : FE82;
	4451 : FC86;
	4452 : FD69;
	4453 : FF8F;
	4454 : 0079;
	4455 : 0127;
	4456 : 00DA;
	4457 : FFAA;
	4458 : 015E;
	4459 : 0366;
	4460 : 02A9;
	4461 : 029E;
	4462 : FF26;
	4463 : FF05;
	4464 : 01A4;
	4465 : 026D;
	4466 : 03C3;
	4467 : 017A;
	4468 : FD97;
	4469 : FDC0;
	4470 : 00A2;
	4471 : FE81;
	4472 : FFF6;
	4473 : FDEE;
	4474 : FDA1;
	4475 : FF0E;
	4476 : 0300;
	4477 : 0249;
	4478 : 002F;
	4479 : 0229;
	4480 : FD0C;
	4481 : 006A;
	4482 : FDAE;
	4483 : 008D;
	4484 : FD88;
	4485 : 010C;
	4486 : 02E2;
	4487 : FE40;
	4488 : FE07;
	4489 : FE01;
	4490 : 02FD;
	4491 : FEAD;
	4492 : 001C;
	4493 : FEE1;
	4494 : FD2F;
	4495 : FE74;
	4496 : 0124;
	4497 : 0333;
	4498 : FE33;
	4499 : FD90;
	4500 : FFC5;
	4501 : FAF9;
	4502 : 01F7;
	4503 : 0165;
	4504 : FC6C;
	4505 : 02A9;
	4506 : FD2C;
	4507 : FEDD;
	4508 : 015E;
	4509 : 0136;
	4510 : 01B6;
	4511 : FE04;
	4512 : 018D;
	4513 : 00FD;
	4514 : 0146;
	4515 : FEE7;
	4516 : 01D5;
	4517 : FE29;
	4518 : FB50;
	4519 : 00E8;
	4520 : 0039;
	4521 : FB18;
	4522 : FE84;
	4523 : FF18;
	4524 : FEB6;
	4525 : 0036;
	4526 : FC00;
	4527 : FFFE;
	4528 : FC6C;
	4529 : FE39;
	4530 : FD56;
	4531 : FF6A;
	4532 : 0012;
	4533 : FDB8;
	4534 : 01D7;
	4535 : 0259;
	4536 : FEDB;
	4537 : 0035;
	4538 : FFF3;
	4539 : FD33;
	4540 : 0041;
	4541 : FEFE;
	4542 : FF2A;
	4543 : FDFD;
	4544 : 0331;
	4545 : 027D;
	4546 : FEB7;
	4547 : FECA;
	4548 : FBCA;
	4549 : 0144;
	4550 : FEF9;
	4551 : FE9C;
	4552 : FE7E;
	4553 : 0195;
	4554 : 0214;
	4555 : FD06;
	4556 : FDA9;
	4557 : FE96;
	4558 : FE33;
	4559 : 0273;
	4560 : 03BE;
	4561 : 0144;
	4562 : FF28;
	4563 : 0102;
	4564 : FE7C;
	4565 : FF37;
	4566 : FF6E;
	4567 : FE3C;
	4568 : FD33;
	4569 : 0262;
	4570 : FD91;
	4571 : FEA6;
	4572 : 02BC;
	4573 : FEE2;
	4574 : FF50;
	4575 : 024F;
	4576 : 0277;
	4577 : 0438;
	4578 : FD97;
	4579 : FEC3;
	4580 : FFAE;
	4581 : FF22;
	4582 : 02AD;
	4583 : FC52;
	4584 : 0207;
	4585 : 0150;
	4586 : FE93;
	4587 : 02C7;
	4588 : 0428;
	4589 : 0183;
	4590 : 03F0;
	4591 : 0268;
	4592 : FFE6;
	4593 : 021D;
	4594 : 02FE;
	4595 : FEC0;
	4596 : FDEF;
	4597 : 0049;
	4598 : 01AB;
	4599 : 029B;
	4600 : FF2D;
	4601 : FEE0;
	4602 : 0259;
	4603 : FD98;
	4604 : FE03;
	4605 : 0114;
	4606 : FE62;
	4607 : 02A5;
	4608 : FCF1;
	4609 : FDEB;
	4610 : 0270;
	4611 : 017D;
	4612 : FF75;
	4613 : 00AA;
	4614 : 0137;
	4615 : 0011;
	4616 : FE11;
	4617 : FC68;
	4618 : FF53;
	4619 : 0270;
	4620 : 019B;
	4621 : FCFB;
	4622 : 01D7;
	4623 : FFDD;
	4624 : FEF9;
	4625 : 0133;
	4626 : FE96;
	4627 : FCC5;
	4628 : FC94;
	4629 : 0229;
	4630 : FF62;
	4631 : FD88;
	4632 : 0220;
	4633 : FF2F;
	4634 : 0382;
	4635 : 0189;
	4636 : 0540;
	4637 : 0220;
	4638 : FE56;
	4639 : FF5D;
	4640 : 0329;
	4641 : FBDA;
	4642 : FF23;
	4643 : FDAE;
	4644 : 02FF;
	4645 : FC26;
	4646 : 0333;
	4647 : FF03;
	4648 : 03BB;
	4649 : 0314;
	4650 : 02CC;
	4651 : 0279;
	4652 : 02D2;
	4653 : FFF4;
	4654 : FFF1;
	4655 : FC9E;
	4656 : FFDF;
	4657 : 032A;
	4658 : 01A7;
	4659 : 029C;
	4660 : FD87;
	4661 : 010B;
	4662 : 002F;
	4663 : 0489;
	4664 : 03FC;
	4665 : FED4;
	4666 : 02F3;
	4667 : FF4D;
	4668 : 0244;
	4669 : FF3C;
	4670 : 0233;
	4671 : FEEB;
	4672 : 0048;
	4673 : FEA3;
	4674 : 0174;
	4675 : 021D;
	4676 : 0042;
	4677 : 0119;
	4678 : 01BB;
	4679 : 0132;
	4680 : FCE1;
	4681 : 0240;
	4682 : 0222;
	4683 : 03E6;
	4684 : 00C8;
	4685 : FE80;
	4686 : 0289;
	4687 : 03B2;
	4688 : 03E3;
	4689 : FEDC;
	4690 : 023A;
	4691 : 036B;
	4692 : FFCF;
	4693 : FFED;
	4694 : FC72;
	4695 : FCF8;
	4696 : 031B;
	4697 : FD60;
	4698 : 0234;
	4699 : FCBA;
	4700 : FF56;
	4701 : FE7B;
	4702 : FF9F;
	4703 : 027F;
	4704 : FC28;
	4705 : 03E2;
	4706 : FF05;
	4707 : FFD7;
	4708 : FDF6;
	4709 : 004A;
	4710 : 0223;
	4711 : 0101;
	4712 : FCEC;
	4713 : FCE4;
	4714 : 01F1;
	4715 : 0298;
	4716 : FDA8;
	4717 : FF5C;
	4718 : FFAA;
	4719 : 03BC;
	4720 : 00ED;
	4721 : 021D;
	4722 : 0113;
	4723 : FEE5;
	4724 : 03B5;
	4725 : 033C;
	4726 : FD7C;
	4727 : 012A;
	4728 : FE6A;
	4729 : FD93;
	4730 : FED8;
	4731 : FFFF;
	4732 : 00F3;
	4733 : FF9E;
	4734 : 026A;
	4735 : 0195;
	4736 : FD74;
	4737 : 0239;
	4738 : 0171;
	4739 : FFCB;
	4740 : FF2B;
	4741 : FCAB;
	4742 : FDE7;
	4743 : 0133;
	4744 : 03FF;
	4745 : FF42;
	4746 : 0331;
	4747 : FEDF;
	4748 : FF6A;
	4749 : 03A5;
	4750 : FFE6;
	4751 : 02D7;
	4752 : 00D4;
	4753 : 0145;
	4754 : FF6A;
	4755 : FF99;
	4756 : FE37;
	4757 : FCCE;
	4758 : FC8D;
	4759 : 0186;
	4760 : FEA9;
	4761 : FC19;
	4762 : FE5F;
	4763 : 02F1;
	4764 : 0092;
	4765 : 00BA;
	4766 : 015B;
	4767 : FE70;
	4768 : 031F;
	4769 : FF37;
	4770 : FEFB;
	4771 : FF41;
	4772 : 03DE;
	4773 : 011B;
	4774 : FFF4;
	4775 : 008C;
	4776 : FEC7;
	4777 : 01E8;
	4778 : 0172;
	4779 : FE7E;
	4780 : 03F2;
	4781 : FC3A;
	4782 : FEE8;
	4783 : FEA0;
	4784 : 0188;
	4785 : FC54;
	4786 : 01F9;
	4787 : 0120;
	4788 : FD72;
	4789 : 0096;
	4790 : 0208;
	4791 : FEB1;
	4792 : FEEE;
	4793 : FDD7;
	4794 : FD9E;
	4795 : 011B;
	4796 : FEF8;
	4797 : 0278;
	4798 : FD91;
	4799 : 0332;
	4800 : 003D;
	4801 : 02D5;
	4802 : FE99;
	4803 : FC78;
	4804 : 0384;
	4805 : 035A;
	4806 : 014A;
	4807 : FC70;
	4808 : 0011;
	4809 : 01C3;
	4810 : FE37;
	4811 : FCB6;
	4812 : FBFE;
	4813 : 01B1;
	4814 : 0322;
	4815 : FE61;
	4816 : 02B6;
	4817 : 039D;
	4818 : 02D1;
	4819 : 0082;
	4820 : FCA0;
	4821 : 008D;
	4822 : FE5B;
	4823 : FC77;
	4824 : 03F8;
	4825 : FFCB;
	4826 : 03DA;
	4827 : 0393;
	4828 : FEEB;
	4829 : 0439;
	4830 : 0084;
	4831 : 0168;
	4832 : 0011;
	4833 : FF74;
	4834 : 0361;
	4835 : FE35;
	4836 : 00F1;
	4837 : 00CE;
	4838 : FC6E;
	4839 : 0257;
	4840 : 025C;
	4841 : 0023;
	4842 : 020D;
	4843 : 0028;
	4844 : FC81;
	4845 : 03F3;
	4846 : FD74;
	4847 : FCA2;
	4848 : FDF7;
	4849 : 00EF;
	4850 : FD90;
	4851 : 0285;
	4852 : FAEF;
	4853 : 0113;
	4854 : FEC2;
	4855 : 0365;
	4856 : FE5A;
	4857 : 057C;
	4858 : FD67;
	4859 : 0187;
	4860 : 01FB;
	4861 : 028C;
	4862 : 003E;
	4863 : FE60;
	4864 : 0391;
	4865 : 004D;
	4866 : 0273;
	4867 : 00B3;
	4868 : 0245;
	4869 : 03B7;
	4870 : FEBE;
	4871 : FD89;
	4872 : 0338;
	4873 : FD49;
	4874 : FCF0;
	4875 : FC47;
	4876 : 01C0;
	4877 : 0118;
	4878 : 034B;
	4879 : FBFD;
	4880 : 025F;
	4881 : FDF1;
	4882 : 0065;
	4883 : 0400;
	4884 : 041E;
	4885 : 0421;
	4886 : 04CE;
	4887 : 022D;
	4888 : 0222;
	4889 : 00D5;
	4890 : 0237;
	4891 : 0035;
	4892 : 01B6;
	4893 : 024D;
	4894 : FC21;
	4895 : 00B1;
	4896 : 0085;
	4897 : FEDE;
	4898 : FEFC;
	4899 : 02F9;
	4900 : FF2F;
	4901 : 0295;
	4902 : 008B;
	4903 : FCF6;
	4904 : FE1C;
	4905 : FE40;
	4906 : 0171;
	4907 : 0041;
	4908 : FE1C;
	4909 : 025B;
	4910 : 0093;
	4911 : FF18;
	4912 : 018D;
	4913 : FFD2;
	4914 : 0075;
	4915 : 03A2;
	4916 : 00F8;
	4917 : FD4A;
	4918 : 023C;
	4919 : FEC8;
	4920 : 0196;
	4921 : FE4F;
	4922 : FC6F;
	4923 : 0102;
	4924 : FEA4;
	4925 : 0045;
	4926 : FF91;
	4927 : FD6B;
	4928 : FF4F;
	4929 : FCD2;
	4930 : FDED;
	4931 : 02CD;
	4932 : FC14;
	4933 : 018B;
	4934 : FCC1;
	4935 : FFA3;
	4936 : 0267;
	4937 : 02C0;
	4938 : FE8A;
	4939 : 011D;
	4940 : FE2E;
	4941 : 0109;
	4942 : FFA5;
	4943 : FF61;
	4944 : 00A5;
	4945 : 01AF;
	4946 : 0057;
	4947 : 02B1;
	4948 : 0179;
	4949 : FE78;
	4950 : 00D5;
	4951 : FBC4;
	4952 : 0303;
	4953 : FCBE;
	4954 : FCEF;
	4955 : FF1F;
	4956 : FEF1;
	4957 : 0006;
	4958 : 022D;
	4959 : 0327;
	4960 : 02FD;
	4961 : FEE2;
	4962 : 027D;
	4963 : 0334;
	4964 : 02A3;
	4965 : 0105;
	4966 : 0272;
	4967 : FCAE;
	4968 : FA3D;
	4969 : F9FD;
	4970 : FCE5;
	4971 : 0098;
	4972 : 00C1;
	4973 : 014C;
	4974 : 0247;
	4975 : 03AC;
	4976 : FE6C;
	4977 : FFB1;
	4978 : FE2D;
	4979 : 032E;
	4980 : FD96;
	4981 : 0307;
	4982 : FDAC;
	4983 : FE83;
	4984 : 0159;
	4985 : 0203;
	4986 : 0017;
	4987 : 0439;
	4988 : FE4D;
	4989 : FE0E;
	4990 : FD4D;
	4991 : 009A;
	4992 : FAF9;
	4993 : FAB8;
	4994 : FC59;
	4995 : FA2B;
	4996 : F675;
	4997 : FD0A;
	4998 : FEB7;
	4999 : FDF0;
	5000 : 040D;
	5001 : 016F;
	5002 : 01D8;
	5003 : FE4E;
	5004 : 01CC;
	5005 : 0322;
	5006 : 03E4;
	5007 : FFE5;
	5008 : 03A2;
	5009 : 0001;
	5010 : FE3E;
	5011 : 0109;
	5012 : FE2A;
	5013 : 03AD;
	5014 : FF37;
	5015 : 0318;
	5016 : 0372;
	5017 : FC50;
	5018 : 011F;
	5019 : F97A;
	5020 : FC7C;
	5021 : FB5D;
	5022 : FA6A;
	5023 : FB8B;
	5024 : FF4D;
	5025 : FD70;
	5026 : FE1E;
	5027 : 024F;
	5028 : 003D;
	5029 : FE06;
	5030 : 02ED;
	5031 : 0016;
	5032 : 0013;
	5033 : 00EE;
	5034 : 0303;
	5035 : 0171;
	5036 : FF7C;
	5037 : FF85;
	5038 : 0033;
	5039 : FD80;
	5040 : FDD3;
	5041 : 00C5;
	5042 : FE8D;
	5043 : 0201;
	5044 : FEA3;
	5045 : 0098;
	5046 : FD53;
	5047 : FBE9;
	5048 : 00C9;
	5049 : FBDC;
	5050 : 017B;
	5051 : 01B5;
	5052 : FE68;
	5053 : FF27;
	5054 : 006B;
	5055 : FD2A;
	5056 : 0010;
	5057 : 0183;
	5058 : FE2D;
	5059 : FDED;
	5060 : FBD0;
	5061 : 0048;
	5062 : FD9A;
	5063 : 01E2;
	5064 : 0132;
	5065 : 0361;
	5066 : 0008;
	5067 : FD64;
	5068 : FE4A;
	5069 : FEFF;
	5070 : FD55;
	5071 : FC18;
	5072 : FD25;
	5073 : 0163;
	5074 : FC47;
	5075 : 018D;
	5076 : FE6A;
	5077 : 0004;
	5078 : 01B3;
	5079 : 03A6;
	5080 : 03DF;
	5081 : 05A0;
	5082 : 032D;
	5083 : 00E8;
	5084 : FEA6;
	5085 : FCB3;
	5086 : FDB0;
	5087 : FE6A;
	5088 : FFBF;
	5089 : 00D3;
	5090 : FF5B;
	5091 : FC7C;
	5092 : 0129;
	5093 : 0238;
	5094 : FF23;
	5095 : FEAE;
	5096 : FEB8;
	5097 : 0230;
	5098 : 0040;
	5099 : 033F;
	5100 : FE26;
	5101 : 0013;
	5102 : FD7D;
	5103 : 0312;
	5104 : 04AB;
	5105 : 03F0;
	5106 : 0081;
	5107 : 04C9;
	5108 : 0583;
	5109 : 0525;
	5110 : FFC9;
	5111 : 0136;
	5112 : FEA0;
	5113 : FCF1;
	5114 : FAAB;
	5115 : FA4C;
	5116 : FEF8;
	5117 : 00F4;
	5118 : FF70;
	5119 : 02CD;
	5120 : FFA2;
	5121 : FFC5;
	5122 : FF06;
	5123 : 0389;
	5124 : FDCC;
	5125 : FE4D;
	5126 : 00F8;
	5127 : FE44;
	5128 : 0067;
	5129 : 0218;
	5130 : FDEC;
	5131 : 00BA;
	5132 : FEE8;
	5133 : 0044;
	5134 : 0133;
	5135 : 024C;
	5136 : 01C3;
	5137 : 0599;
	5138 : 03A4;
	5139 : 0160;
	5140 : FDCC;
	5141 : FDF4;
	5142 : 0110;
	5143 : 00C0;
	5144 : FADC;
	5145 : FC0C;
	5146 : FF31;
	5147 : 02E8;
	5148 : 0194;
	5149 : FCF4;
	5150 : FCEB;
	5151 : FF6A;
	5152 : 0065;
	5153 : 01D3;
	5154 : 02C2;
	5155 : 023F;
	5156 : 0256;
	5157 : FD5F;
	5158 : 02CF;
	5159 : FFEA;
	5160 : 00D1;
	5161 : 01F4;
	5162 : 02E9;
	5163 : 010A;
	5164 : 05C5;
	5165 : 028B;
	5166 : 01B7;
	5167 : 00A6;
	5168 : FCEF;
	5169 : 020A;
	5170 : FE55;
	5171 : 0038;
	5172 : FDED;
	5173 : 012A;
	5174 : 0076;
	5175 : 03AA;
	5176 : FDA4;
	5177 : FCC1;
	5178 : FE11;
	5179 : FEA2;
	5180 : 03B2;
	5181 : 0194;
	5182 : 0029;
	5183 : 04B1;
	5184 : 00EA;
	5185 : FF54;
	5186 : F9FF;
	5187 : FF63;
	5188 : FDEA;
	5189 : FBDA;
	5190 : F947;
	5191 : FD8C;
	5192 : FB6C;
	5193 : FCC6;
	5194 : FCCC;
	5195 : FBF7;
	5196 : 038D;
	5197 : FF40;
	5198 : 0248;
	5199 : 0388;
	5200 : FF0A;
	5201 : FF97;
	5202 : FE83;
	5203 : FDED;
	5204 : 046F;
	5205 : 0187;
	5206 : 03F9;
	5207 : 0112;
	5208 : 008F;
	5209 : 01CA;
	5210 : 03E8;
	5211 : 0306;
	5212 : 0318;
	5213 : 00D4;
	5214 : FD93;
	5215 : F915;
	5216 : FE0B;
	5217 : F9A8;
	5218 : FEFB;
	5219 : F77F;
	5220 : FC0E;
	5221 : F8CF;
	5222 : FEBD;
	5223 : FD9A;
	5224 : 01C4;
	5225 : 0431;
	5226 : 0467;
	5227 : 01D9;
	5228 : FDAF;
	5229 : 01F2;
	5230 : 004F;
	5231 : FE23;
	5232 : FD48;
	5233 : 0152;
	5234 : FF1A;
	5235 : FDB9;
	5236 : FED7;
	5237 : FC07;
	5238 : FEA7;
	5239 : FDE2;
	5240 : 0175;
	5241 : FEAB;
	5242 : 011C;
	5243 : FB64;
	5244 : FA53;
	5245 : FF56;
	5246 : FCC2;
	5247 : F925;
	5248 : F7BC;
	5249 : F921;
	5250 : FCB5;
	5251 : 017A;
	5252 : 0351;
	5253 : 0024;
	5254 : 0194;
	5255 : 0142;
	5256 : FEF7;
	5257 : FDCD;
	5258 : FEE9;
	5259 : FE69;
	5260 : 02E9;
	5261 : FDDA;
	5262 : 00D2;
	5263 : FD11;
	5264 : 00CF;
	5265 : 0375;
	5266 : FFD5;
	5267 : 01F6;
	5268 : 0111;
	5269 : FE84;
	5270 : FB6F;
	5271 : FF6A;
	5272 : 0179;
	5273 : FC56;
	5274 : 0029;
	5275 : FC60;
	5276 : 01EF;
	5277 : FC4E;
	5278 : 003C;
	5279 : FF78;
	5280 : FE2A;
	5281 : FFF3;
	5282 : 0419;
	5283 : FEBD;
	5284 : 02B9;
	5285 : 00A6;
	5286 : FCAE;
	5287 : FDD9;
	5288 : FF02;
	5289 : 0374;
	5290 : FE9B;
	5291 : 0027;
	5292 : FE3A;
	5293 : FE39;
	5294 : 01CE;
	5295 : 00E4;
	5296 : 03B3;
	5297 : FD3A;
	5298 : 00A7;
	5299 : 0192;
	5300 : FD8A;
	5301 : 005F;
	5302 : 00E6;
	5303 : 0263;
	5304 : 0344;
	5305 : 02B6;
	5306 : FE76;
	5307 : FE00;
	5308 : 02FF;
	5309 : 006E;
	5310 : 0013;
	5311 : FF03;
	5312 : FF98;
	5313 : 0081;
	5314 : 018B;
	5315 : 01C4;
	5316 : 0277;
	5317 : FCD8;
	5318 : 031B;
	5319 : FE4B;
	5320 : FFAB;
	5321 : FC7B;
	5322 : FDCC;
	5323 : 01EC;
	5324 : FFAD;
	5325 : 0597;
	5326 : FF69;
	5327 : 01E9;
	5328 : FD09;
	5329 : 018B;
	5330 : FF35;
	5331 : 0043;
	5332 : 02AF;
	5333 : FEC1;
	5334 : 0653;
	5335 : FF5F;
	5336 : 011C;
	5337 : FF82;
	5338 : 00E3;
	5339 : FE56;
	5340 : FF89;
	5341 : FFDC;
	5342 : 026D;
	5343 : FD79;
	5344 : FF58;
	5345 : FF5B;
	5346 : 00FA;
	5347 : FE07;
	5348 : FC34;
	5349 : 01ED;
	5350 : 0384;
	5351 : 0486;
	5352 : 0340;
	5353 : 0009;
	5354 : 057B;
	5355 : 015E;
	5356 : 0431;
	5357 : 049C;
	5358 : 02C5;
	5359 : FECE;
	5360 : 0354;
	5361 : FF59;
	5362 : FFF0;
	5363 : 0322;
	5364 : FE6B;
	5365 : FEBD;
	5366 : FB97;
	5367 : 00D1;
	5368 : 0091;
	5369 : FD21;
	5370 : 01E4;
	5371 : FD55;
	5372 : 00CE;
	5373 : 019F;
	5374 : FC91;
	5375 : 02EB;
	5376 : FFF7;
	5377 : FC59;
	5378 : 02FE;
	5379 : 0171;
	5380 : 0106;
	5381 : FFF3;
	5382 : 023F;
	5383 : 0279;
	5384 : FFD3;
	5385 : 04AB;
	5386 : FE25;
	5387 : 0358;
	5388 : FFE6;
	5389 : FFD4;
	5390 : FEC6;
	5391 : FD59;
	5392 : FF4B;
	5393 : 01B2;
	5394 : FDF1;
	5395 : 00A6;
	5396 : FD2B;
	5397 : FC33;
	5398 : 004A;
	5399 : 0292;
	5400 : 00C1;
	5401 : FDCA;
	5402 : 0391;
	5403 : FEC6;
	5404 : FEFD;
	5405 : FE54;
	5406 : FFD5;
	5407 : 031D;
	5408 : FDA8;
	5409 : FF3A;
	5410 : 043B;
	5411 : 0537;
	5412 : FE0F;
	5413 : 027A;
	5414 : 03FB;
	5415 : 011C;
	5416 : FD92;
	5417 : FD66;
	5418 : 00BE;
	5419 : FB11;
	5420 : FADC;
	5421 : FAFA;
	5422 : 021A;
	5423 : 005C;
	5424 : 0138;
	5425 : FC60;
	5426 : FF7E;
	5427 : FEE8;
	5428 : 0189;
	5429 : FDF5;
	5430 : 0052;
	5431 : 0157;
	5432 : 03C8;
	5433 : FF00;
	5434 : FFF0;
	5435 : 01C2;
	5436 : FE34;
	5437 : FF80;
	5438 : 0191;
	5439 : FE71;
	5440 : FE95;
	5441 : FF7F;
	5442 : 025F;
	5443 : 0047;
	5444 : 0020;
	5445 : FF57;
	5446 : 01EC;
	5447 : 00CB;
	5448 : FF86;
	5449 : 023C;
	5450 : FDAB;
	5451 : FC26;
	5452 : FCB1;
	5453 : 0114;
	5454 : 027B;
	5455 : 0260;
	5456 : 02D4;
	5457 : FDB7;
	5458 : 021A;
	5459 : 01E8;
	5460 : FE0C;
	5461 : FF5A;
	5462 : 037D;
	5463 : FDF0;
	5464 : 0067;
	5465 : FE2E;
	5466 : FC5C;
	5467 : 0046;
	5468 : FCAB;
	5469 : FF94;
	5470 : FFF5;
	5471 : 02C3;
	5472 : FF21;
	5473 : FD8D;
	5474 : FC90;
	5475 : FC84;
	5476 : 029C;
	5477 : 02CC;
	5478 : FEC5;
	5479 : 025C;
	5480 : 0301;
	5481 : 02BF;
	5482 : FFDA;
	5483 : FF2D;
	5484 : 0148;
	5485 : 0005;
	5486 : 0304;
	5487 : 01CA;
	5488 : FF87;
	5489 : FD2C;
	5490 : 01EA;
	5491 : FEAE;
	5492 : 016F;
	5493 : FDC1;
	5494 : FD4F;
	5495 : FDAE;
	5496 : FF70;
	5497 : FE52;
	5498 : FDC7;
	5499 : 006C;
	5500 : 0271;
	5501 : 0026;
	5502 : FD9B;
	5503 : FF29;
	5504 : FDCB;
	5505 : 02C3;
	5506 : 0058;
	5507 : 00C8;
	5508 : FE27;
	5509 : FE30;
	5510 : FC11;
	5511 : 007F;
	5512 : FEF5;
	5513 : 0360;
	5514 : FFBB;
	5515 : 03BB;
	5516 : FDF5;
	5517 : FF6B;
	5518 : FF18;
	5519 : 0137;
	5520 : FC8C;
	5521 : FC3A;
	5522 : 032A;
	5523 : 037C;
	5524 : 020B;
	5525 : 0092;
	5526 : 01E1;
	5527 : 03F3;
	5528 : 0055;
	5529 : 0212;
	5530 : FD39;
	5531 : 03E0;
	5532 : 0353;
	5533 : 03C0;
	5534 : 0307;
	5535 : FDE1;
	5536 : FD16;
	5537 : FF0A;
	5538 : 0236;
	5539 : 01F1;
	5540 : 025D;
	5541 : FF4F;
	5542 : 0371;
	5543 : FCF6;
	5544 : FEAC;
	5545 : 0258;
	5546 : FF4A;
	5547 : FC9F;
	5548 : FE4D;
	5549 : 0284;
	5550 : 011E;
	5551 : 01B8;
	5552 : 0011;
	5553 : 03D7;
	5554 : FED4;
	5555 : FC08;
	5556 : 00E5;
	5557 : FC6A;
	5558 : FC55;
	5559 : 0015;
	5560 : FD7A;
	5561 : FD6C;
	5562 : 0299;
	5563 : 00EE;
	5564 : FDCA;
	5565 : 0394;
	5566 : 034B;
	5567 : 0101;
	5568 : 02FF;
	5569 : 0294;
	5570 : FD89;
	5571 : FEBE;
	5572 : FE0A;
	5573 : 00CB;
	5574 : FFDC;
	5575 : 02EA;
	5576 : 016B;
	5577 : 0051;
	5578 : FEF7;
	5579 : FE1B;
	5580 : FE77;
	5581 : FE92;
	5582 : FF46;
	5583 : 01E4;
	5584 : 033E;
	5585 : 00F9;
	5586 : FD4A;
	5587 : 021D;
	5588 : 0329;
	5589 : FCEF;
	5590 : FFDA;
	5591 : FDD6;
	5592 : FE62;
	5593 : 033B;
	5594 : FDD6;
	5595 : 0190;
	5596 : FD3B;
	5597 : 0073;
	5598 : FD9A;
	5599 : FF18;
	5600 : 0235;
	5601 : 023E;
	5602 : FCB8;
	5603 : 039C;
	5604 : FDE8;
	5605 : FE62;
	5606 : 014D;
	5607 : 0055;
	5608 : FF06;
	5609 : 01E9;
	5610 : FF61;
	5611 : 02AB;
	5612 : FBEA;
	5613 : 008B;
	5614 : 001D;
	5615 : FF4E;
	5616 : FCFC;
	5617 : 0158;
	5618 : 0161;
	5619 : 01F1;
	5620 : 0163;
	5621 : FDBA;
	5622 : 00E5;
	5623 : 039F;
	5624 : FCDA;
	5625 : FCD7;
	5626 : FD7B;
	5627 : 0305;
	5628 : FE4B;
	5629 : 0096;
	5630 : FCCD;
	5631 : FDC6;
	5632 : 030C;
	5633 : 0337;
	5634 : 011A;
	5635 : FEA4;
	5636 : FCA4;
	5637 : FE2B;
	5638 : FE65;
	5639 : 00CB;
	5640 : 01AB;
	5641 : 0139;
	5642 : FD1D;
	5643 : 00FB;
	5644 : 0001;
	5645 : 0105;
	5646 : FE61;
	5647 : 002D;
	5648 : FC59;
	5649 : FDE4;
	5650 : FFCE;
	5651 : FD21;
	5652 : 027F;
	5653 : FC67;
	5654 : FD6E;
	5655 : FF1B;
	5656 : FDF9;
	5657 : 0393;
	5658 : FEDB;
	5659 : FC1E;
	5660 : 0190;
	5661 : 0435;
	5662 : 0332;
	5663 : 009B;
	5664 : FDCA;
	5665 : 0034;
	5666 : FF82;
	5667 : 039B;
	5668 : FDB5;
	5669 : 0239;
	5670 : 01AB;
	5671 : FC4D;
	5672 : 018F;
	5673 : 019E;
	5674 : 04EA;
	5675 : FE6C;
	5676 : FE52;
	5677 : 011D;
	5678 : FBF2;
	5679 : 025F;
	5680 : FCE8;
	5681 : 0117;
	5682 : FEE4;
	5683 : 028F;
	5684 : FF0A;
	5685 : FE5F;
	5686 : 01E4;
	5687 : 009A;
	5688 : FEAC;
	5689 : 0185;
	5690 : 02A5;
	5691 : FE2C;
	5692 : 011D;
	5693 : 029B;
	5694 : 02E2;
	5695 : 04C1;
	5696 : 0091;
	5697 : 0330;
	5698 : FAF9;
	5699 : 0039;
	5700 : 0351;
	5701 : 0389;
	5702 : 0231;
	5703 : 01A9;
	5704 : FF74;
	5705 : 0049;
	5706 : FFB5;
	5707 : FDFD;
	5708 : FD87;
	5709 : FFCE;
	5710 : FDFA;
	5711 : FE7E;
	5712 : 038F;
	5713 : FF43;
	5714 : FC43;
	5715 : 0407;
	5716 : 0107;
	5717 : FE3D;
	5718 : 012D;
	5719 : 0056;
	5720 : 0050;
	5721 : FFD8;
	5722 : FDAD;
	5723 : FEF6;
	5724 : FF58;
	5725 : 01C3;
	5726 : 0291;
	5727 : 00DC;
	5728 : FEA6;
	5729 : 0270;
	5730 : 0171;
	5731 : 04E4;
	5732 : FE3E;
	5733 : 0544;
	5734 : 007F;
	5735 : 03E3;
	5736 : FF92;
	5737 : 0096;
	5738 : 0248;
	5739 : 016A;
	5740 : 0389;
	5741 : FCBF;
	5742 : FC74;
	5743 : FCA7;
	5744 : FF65;
	5745 : FE79;
	5746 : 0195;
	5747 : 0304;
	5748 : FE2B;
	5749 : FECD;
	5750 : 028F;
	5751 : FC3A;
	5752 : 0241;
	5753 : FD43;
	5754 : 033C;
	5755 : FC80;
	5756 : 012A;
	5757 : FFF5;
	5758 : 05EB;
	5759 : 015A;
	5760 : 050C;
	5761 : FEFD;
	5762 : FF8C;
	5763 : 016B;
	5764 : FC10;
	5765 : FC36;
	5766 : 02EE;
	5767 : 0095;
	5768 : 02D1;
	5769 : FC73;
	5770 : FC5F;
	5771 : 012E;
	5772 : 004D;
	5773 : 0034;
	5774 : 0305;
	5775 : 02C4;
	5776 : 00B6;
	5777 : 025D;
	5778 : 0571;
	5779 : 008F;
	5780 : FD54;
	5781 : 01F4;
	5782 : FF5C;
	5783 : FCE8;
	5784 : FDEE;
	5785 : 0478;
	5786 : 0268;
	5787 : 01C6;
	5788 : 04D4;
	5789 : 01A8;
	5790 : FE3F;
	5791 : FED9;
	5792 : FEA1;
	5793 : 00F1;
	5794 : FF4D;
	5795 : 03F5;
	5796 : 0136;
	5797 : 0280;
	5798 : 005F;
	5799 : 0165;
	5800 : 010F;
	5801 : FD4A;
	5802 : 0390;
	5803 : 00F4;
	5804 : 04DD;
	5805 : 005F;
	5806 : 02D3;
	5807 : 07CD;
	5808 : 008F;
	5809 : 0176;
	5810 : F89D;
	5811 : FAC2;
	5812 : FF4E;
	5813 : 0103;
	5814 : 0096;
	5815 : 019E;
	5816 : 05A2;
	5817 : 0150;
	5818 : 004D;
	5819 : 0275;
	5820 : FDF1;
	5821 : FD64;
	5822 : 02C4;
	5823 : 00D7;
	5824 : 00E8;
	5825 : FC93;
	5826 : 0305;
	5827 : 0127;
	5828 : 048D;
	5829 : 012B;
	5830 : 00D8;
	5831 : 0100;
	5832 : 01F8;
	5833 : 0013;
	5834 : 04EE;
	5835 : 02A1;
	5836 : FAF5;
	5837 : F79E;
	5838 : F93E;
	5839 : 0113;
	5840 : 0263;
	5841 : 03BF;
	5842 : 0355;
	5843 : FF22;
	5844 : FEC3;
	5845 : FDFE;
	5846 : FD32;
	5847 : FD84;
	5848 : 02A6;
	5849 : 01D7;
	5850 : 018D;
	5851 : 01D2;
	5852 : 0217;
	5853 : 030D;
	5854 : 0029;
	5855 : FDBE;
	5856 : FC7C;
	5857 : 00C8;
	5858 : FF6E;
	5859 : 04BD;
	5860 : 029E;
	5861 : FFF1;
	5862 : 03B1;
	5863 : FCFC;
	5864 : FC84;
	5865 : F7E6;
	5866 : FA4F;
	5867 : 005C;
	5868 : 0291;
	5869 : 0168;
	5870 : 00F5;
	5871 : FE5A;
	5872 : 0116;
	5873 : 0032;
	5874 : FD6B;
	5875 : 037B;
	5876 : FE65;
	5877 : 0268;
	5878 : 0174;
	5879 : 03C7;
	5880 : FF2C;
	5881 : 02BE;
	5882 : FDAA;
	5883 : FC55;
	5884 : 0239;
	5885 : 02CE;
	5886 : 0457;
	5887 : FEDA;
	5888 : 023C;
	5889 : 01B0;
	5890 : FB55;
	5891 : F98D;
	5892 : FAFF;
	5893 : FBC1;
	5894 : FCAB;
	5895 : 04DA;
	5896 : 01E7;
	5897 : 002B;
	5898 : 0086;
	5899 : 0107;
	5900 : FF35;
	5901 : FD11;
	5902 : 01F4;
	5903 : 04CD;
	5904 : FF0A;
	5905 : 0312;
	5906 : FD1A;
	5907 : 0378;
	5908 : 00C8;
	5909 : FD00;
	5910 : FFCC;
	5911 : 0181;
	5912 : FEDD;
	5913 : FE7E;
	5914 : FEF9;
	5915 : 0060;
	5916 : FCF8;
	5917 : FE96;
	5918 : FFAD;
	5919 : F846;
	5920 : F64B;
	5921 : FDD2;
	5922 : FEC8;
	5923 : 0303;
	5924 : 045C;
	5925 : 04CD;
	5926 : 02B2;
	5927 : FD99;
	5928 : 009C;
	5929 : 01FF;
	5930 : 031A;
	5931 : 03A4;
	5932 : 01A0;
	5933 : FCEB;
	5934 : 011C;
	5935 : 037F;
	5936 : FD15;
	5937 : 0173;
	5938 : FD52;
	5939 : 01A9;
	5940 : FDFE;
	5941 : 0245;
	5942 : 0216;
	5943 : 0023;
	5944 : 03C8;
	5945 : FC05;
	5946 : FAA1;
	5947 : F781;
	5948 : FC9B;
	5949 : FDBA;
	5950 : 0209;
	5951 : FE70;
	5952 : 0021;
	5953 : FFC5;
	5954 : FFD3;
	5955 : 017A;
	5956 : FE3B;
	5957 : 0250;
	5958 : FECE;
	5959 : 0449;
	5960 : FDC3;
	5961 : FF5A;
	5962 : FF30;
	5963 : 0141;
	5964 : 0137;
	5965 : FCC2;
	5966 : 02D1;
	5967 : FE7B;
	5968 : 002D;
	5969 : 044D;
	5970 : FDEF;
	5971 : FE7B;
	5972 : FF62;
	5973 : FCB2;
	5974 : FE80;
	5975 : FC91;
	5976 : FD10;
	5977 : FFE7;
	5978 : 0280;
	5979 : 001E;
	5980 : FFB2;
	5981 : FF54;
	5982 : FE19;
	5983 : FD10;
	5984 : FF60;
	5985 : FF1F;
	5986 : FEAE;
	5987 : 0191;
	5988 : 01C6;
	5989 : 015C;
	5990 : FD7D;
	5991 : 00DB;
	5992 : 03A2;
	5993 : 0188;
	5994 : 0239;
	5995 : FE6E;
	5996 : FD80;
	5997 : 0106;
	5998 : FF41;
	5999 : FF8E;
	6000 : 0145;
	6001 : 01A9;
	6002 : FBDE;
	6003 : FCB8;
	6004 : FBB7;
	6005 : 0048;
	6006 : FDC7;
	6007 : FF1B;
	6008 : FD4A;
	6009 : FE0C;
	6010 : 0380;
	6011 : 0059;
	6012 : FFBD;
	6013 : FEE2;
	6014 : 033E;
	6015 : FC6B;
	6016 : FFBA;
	6017 : FC28;
	6018 : FE77;
	6019 : FDCE;
	6020 : 038A;
	6021 : 039C;
	6022 : 03D9;
	6023 : 0206;
	6024 : 01F2;
	6025 : 0049;
	6026 : 0245;
	6027 : 0196;
	6028 : 0017;
	6029 : FDA7;
	6030 : FF13;
	6031 : FCA5;
	6032 : FAF9;
	6033 : FB37;
	6034 : FD7F;
	6035 : FBCC;
	6036 : FD86;
	6037 : FDD9;
	6038 : FE12;
	6039 : FF0D;
	6040 : 01A5;
	6041 : FC0A;
	6042 : 00CF;
	6043 : FF82;
	6044 : FEB5;
	6045 : 0223;
	6046 : 0185;
	6047 : FF9B;
	6048 : 00F7;
	6049 : 01D4;
	6050 : FCE7;
	6051 : 0139;
	6052 : FECC;
	6053 : FF96;
	6054 : FBF3;
	6055 : FCB3;
	6056 : 0072;
	6057 : 020D;
	6058 : 013E;
	6059 : FF91;
	6060 : FF81;
	6061 : FEF1;
	6062 : FCF2;
	6063 : FF7C;
	6064 : FD0F;
	6065 : FDEE;
	6066 : FF36;
	6067 : FD87;
	6068 : 001E;
	6069 : FE12;
	6070 : FDFF;
	6071 : FD66;
	6072 : FCC2;
	6073 : 0149;
	6074 : FC7F;
	6075 : FDCE;
	6076 : 012E;
	6077 : 00BF;
	6078 : FEBB;
	6079 : FCEE;
	6080 : FCF8;
	6081 : FECD;
	6082 : FDBC;
	6083 : FDC3;
	6084 : 00F0;
	6085 : 02A7;
	6086 : 029C;
	6087 : 0199;
	6088 : FFF4;
	6089 : 0116;
	6090 : FBC8;
	6091 : FAF4;
	6092 : FE28;
	6093 : FC97;
	6094 : FF62;
	6095 : 0039;
	6096 : FD05;
	6097 : FC15;
	6098 : FAA7;
	6099 : FDA0;
	6100 : 00CE;
	6101 : FE18;
	6102 : 011A;
	6103 : 0058;
	6104 : 0169;
	6105 : 0271;
	6106 : 02EC;
	6107 : FD7B;
	6108 : FEE2;
	6109 : FE1F;
	6110 : FE3A;
	6111 : FFD6;
	6112 : 0155;
	6113 : 0428;
	6114 : 0349;
	6115 : FC52;
	6116 : 00FF;
	6117 : 01A7;
	6118 : 0217;
	6119 : FC04;
	6120 : FB2F;
	6121 : FB07;
	6122 : FD2D;
	6123 : FCA7;
	6124 : FE02;
	6125 : FECC;
	6126 : FF1B;
	6127 : 0282;
	6128 : 0164;
	6129 : FFE8;
	6130 : 0353;
	6131 : FD33;
	6132 : 036A;
	6133 : FC82;
	6134 : 0389;
	6135 : 009C;
	6136 : 0198;
	6137 : 0177;
	6138 : 0557;
	6139 : 015F;
	6140 : FFBF;
	6141 : FD7B;
	6142 : FE29;
	6143 : 01B2;
	6144 : FC60;
	6145 : FEE5;
	6146 : 0393;
	6147 : 02B4;
	6148 : 021C;
	6149 : 00CF;
	6150 : F9E0;
	6151 : FE6C;
	6152 : 010B;
	6153 : FB4B;
	6154 : FCA3;
	6155 : 00AB;
	6156 : FCD1;
	6157 : FE8C;
	6158 : FCB0;
	6159 : 0065;
	6160 : FF1E;
	6161 : 0365;
	6162 : FDD4;
	6163 : 02B6;
	6164 : FDC9;
	6165 : 01D0;
	6166 : FDFC;
	6167 : 010A;
	6168 : 052B;
	6169 : FE90;
	6170 : 0155;
	6171 : 0195;
	6172 : FD93;
	6173 : FEBF;
	6174 : 0258;
	6175 : FE42;
	6176 : FBBF;
	6177 : FFFB;
	6178 : F9DF;
	6179 : 0117;
	6180 : FA99;
	6181 : FD4A;
	6182 : FD08;
	6183 : 00CC;
	6184 : FE4E;
	6185 : 0072;
	6186 : FDE1;
	6187 : FC3C;
	6188 : 0312;
	6189 : 0128;
	6190 : FD58;
	6191 : 010E;
	6192 : 033E;
	6193 : 0166;
	6194 : 0372;
	6195 : 0296;
	6196 : FEDD;
	6197 : 02D7;
	6198 : 0067;
	6199 : FF82;
	6200 : 03C3;
	6201 : 01D5;
	6202 : 020E;
	6203 : FDC3;
	6204 : 020A;
	6205 : 0044;
	6206 : 01DF;
	6207 : FC8F;
	6208 : 015B;
	6209 : 00BE;
	6210 : 0281;
	6211 : FCBE;
	6212 : 039E;
	6213 : 0100;
	6214 : 0113;
	6215 : 018A;
	6216 : 0210;
	6217 : FFB1;
	6218 : 03AE;
	6219 : 0121;
	6220 : FBB8;
	6221 : 0203;
	6222 : 0168;
	6223 : 0157;
	6224 : FE53;
	6225 : 012F;
	6226 : FFCA;
	6227 : FCC9;
	6228 : 00EE;
	6229 : 046E;
	6230 : 0564;
	6231 : FDF7;
	6232 : FF61;
	6233 : 006A;
	6234 : 0017;
	6235 : FE2A;
	6236 : FEB3;
	6237 : FCAF;
	6238 : FFE2;
	6239 : FE73;
	6240 : 00B4;
	6241 : 03AF;
	6242 : 017C;
	6243 : FE2E;
	6244 : 0321;
	6245 : FF2F;
	6246 : FF85;
	6247 : 0282;
	6248 : FCD1;
	6249 : FEBE;
	6250 : 0067;
	6251 : 0300;
	6252 : FD18;
	6253 : 001F;
	6254 : FC80;
	6255 : 0412;
	6256 : FD67;
	6257 : FF4A;
	6258 : FFC2;
	6259 : 0296;
	6260 : 006B;
	6261 : FED2;
	6262 : 03D6;
	6263 : FF35;
	6264 : FCA2;
	6265 : FF6F;
	6266 : FFA4;
	6267 : 0186;
	6268 : 0169;
	6269 : FE43;
	6270 : 00F8;
	6271 : 0132;
	6272 : FD39;
	6273 : 0023;
	6274 : 0328;
	6275 : 015B;
	6276 : FF73;
	6277 : 0196;
	6278 : FDC1;
	6279 : 0022;
	6280 : 025E;
	6281 : FD93;
	6282 : FC63;
	6283 : FF9A;
	6284 : 0125;
	6285 : 012A;
	6286 : 0236;
	6287 : 0323;
	6288 : 02DB;
	6289 : FDFD;
	6290 : FEDE;
	6291 : FC6C;
	6292 : 0161;
	6293 : 02ED;
	6294 : 015E;
	6295 : FF10;
	6296 : FD30;
	6297 : 031D;
	6298 : FFB0;
	6299 : 0041;
	6300 : 022E;
	6301 : FF6E;
	6302 : 0347;
	6303 : FC39;
	6304 : 01B3;
	6305 : FE7E;
	6306 : 03D6;
	6307 : FD55;
	6308 : 0339;
	6309 : 0256;
	6310 : FD07;
	6311 : 015F;
	6312 : FCA6;
	6313 : FFEC;
	6314 : 0239;
	6315 : 0150;
	6316 : 02B2;
	6317 : FCE8;
	6318 : FE56;
	6319 : FF68;
	6320 : 021F;
	6321 : FE55;
	6322 : 03BD;
	6323 : FDD7;
	6324 : FFF7;
	6325 : 03C3;
	6326 : 016D;
	6327 : 00AF;
	6328 : 03EC;
	6329 : FC86;
	6330 : 02EA;
	6331 : 0064;
	6332 : 012B;
	6333 : FF4E;
	6334 : FD44;
	6335 : 0231;
	6336 : 030B;
	6337 : 0177;
	6338 : FB96;
	6339 : 01AA;
	6340 : FE71;
	6341 : 00D2;
	6342 : FED4;
	6343 : 0109;
	6344 : FB5C;
	6345 : FD34;
	6346 : 0033;
	6347 : 0170;
	6348 : FB67;
	6349 : FD1D;
	6350 : 0214;
	6351 : 01B5;
	6352 : 0052;
	6353 : FDDD;
	6354 : 01C0;
	6355 : 0042;
	6356 : FDAF;
	6357 : 02D6;
	6358 : FDD3;
	6359 : 00D6;
	6360 : FF86;
	6361 : FD2D;
	6362 : 0271;
	6363 : FD71;
	6364 : FE93;
	6365 : 024E;
	6366 : 00C9;
	6367 : FFD6;
	6368 : 00AA;
	6369 : FD5A;
	6370 : FC5E;
	6371 : FEA8;
	6372 : FD50;
	6373 : 00E5;
	6374 : FB6D;
	6375 : FC7D;
	6376 : FCD5;
	6377 : 0032;
	6378 : FF85;
	6379 : FDDF;
	6380 : 0233;
	6381 : FF8A;
	6382 : 006B;
	6383 : FF24;
	6384 : FCFC;
	6385 : 019C;
	6386 : FEEB;
	6387 : FE3C;
	6388 : 0200;
	6389 : FDF5;
	6390 : 0079;
	6391 : FFF5;
	6392 : FD37;
	6393 : FE35;
	6394 : 007F;
	6395 : FD80;
	6396 : FC4B;
	6397 : F99A;
	6398 : FC85;
	6399 : FC5E;
	6400 : FD53;
	6401 : FD02;
	6402 : 00E1;
	6403 : FB5F;
	6404 : 019C;
	6405 : 015A;
	6406 : FC29;
	6407 : FF6C;
	6408 : FE35;
	6409 : 0415;
	6410 : 01CA;
	6411 : FD0D;
	6412 : FEE6;
	6413 : FFA1;
	6414 : 00F9;
	6415 : 0365;
	6416 : FC06;
	6417 : 019D;
	6418 : 0314;
	6419 : FBCF;
	6420 : FEA7;
	6421 : FB6E;
	6422 : FBAE;
	6423 : FCEB;
	6424 : FD09;
	6425 : FE9C;
	6426 : FBAB;
	6427 : FC92;
	6428 : FCBA;
	6429 : FC4F;
	6430 : FF96;
	6431 : FF48;
	6432 : 009D;
	6433 : FB0F;
	6434 : FEB8;
	6435 : 0047;
	6436 : 0240;
	6437 : 025A;
	6438 : FE35;
	6439 : 018E;
	6440 : FC38;
	6441 : 01F3;
	6442 : 00BF;
	6443 : 021E;
	6444 : 02B4;
	6445 : 0380;
	6446 : FCA1;
	6447 : FFC0;
	6448 : 00AB;
	6449 : 01F8;
	6450 : 0503;
	6451 : FEF1;
	6452 : 029C;
	6453 : FFCB;
	6454 : 026A;
	6455 : 04E7;
	6456 : 0290;
	6457 : 05D0;
	6458 : 03FB;
	6459 : FE29;
	6460 : 0277;
	6461 : 00C1;
	6462 : FE1E;
	6463 : FD7E;
	6464 : FF43;
	6465 : FB34;
	6466 : 037B;
	6467 : FC3B;
	6468 : 037D;
	6469 : 0001;
	6470 : 0324;
	6471 : FFED;
	6472 : 0331;
	6473 : 0041;
	6474 : 0280;
	6475 : 02D8;
	6476 : 009F;
	6477 : FF35;
	6478 : 02E0;
	6479 : 0155;
	6480 : 053A;
	6481 : 03B0;
	6482 : 03F5;
	6483 : 0527;
	6484 : 0632;
	6485 : FED0;
	6486 : 0271;
	6487 : FF45;
	6488 : FE6B;
	6489 : FD93;
	6490 : FE76;
	6491 : FC9B;
	6492 : FACA;
	6493 : 00B5;
	6494 : 0292;
	6495 : FD98;
	6496 : FDC1;
	6497 : 00E6;
	6498 : 009D;
	6499 : FFA6;
	6500 : 020B;
	6501 : 0040;
	6502 : 00E4;
	6503 : 0357;
	6504 : 034D;
	6505 : 0349;
	6506 : 05AD;
	6507 : 06ED;
	6508 : 03EB;
	6509 : 04CD;
	6510 : 0712;
	6511 : 02B2;
	6512 : 030A;
	6513 : FE61;
	6514 : FC9E;
	6515 : FEEB;
	6516 : 029B;
	6517 : FBD2;
	6518 : FD04;
	6519 : FB89;
	6520 : FCC7;
	6521 : 010E;
	6522 : 027F;
	6523 : 0285;
	6524 : 0025;
	6525 : 012D;
	6526 : FD76;
	6527 : 0069;
	6528 : 0303;
	6529 : 04B1;
	6530 : 0081;
	6531 : 051C;
	6532 : 069A;
	6533 : 07CD;
	6534 : 04E1;
	6535 : 093F;
	6536 : 0590;
	6537 : 0662;
	6538 : 0686;
	6539 : 01B8;
	6540 : FD78;
	6541 : FFC9;
	6542 : FD67;
	6543 : FFFA;
	6544 : FE2A;
	6545 : FCC8;
	6546 : 0061;
	6547 : FAC2;
	6548 : FB4C;
	6549 : FB98;
	6550 : 03D2;
	6551 : FEA6;
	6552 : FD13;
	6553 : 018C;
	6554 : 03B0;
	6555 : 0322;
	6556 : 03AA;
	6557 : 00C6;
	6558 : 050F;
	6559 : 04CB;
	6560 : 020D;
	6561 : 0644;
	6562 : 034C;
	6563 : 0158;
	6564 : 018F;
	6565 : 00EB;
	6566 : FEFD;
	6567 : FF81;
	6568 : FBF3;
	6569 : 0031;
	6570 : 0028;
	6571 : 001D;
	6572 : 0110;
	6573 : FFC4;
	6574 : 004C;
	6575 : FE9A;
	6576 : FC8D;
	6577 : 01F3;
	6578 : FC5C;
	6579 : FD18;
	6580 : FEE6;
	6581 : FC73;
	6582 : FD60;
	6583 : FF25;
	6584 : FF10;
	6585 : 016C;
	6586 : 0317;
	6587 : FFC7;
	6588 : 041E;
	6589 : FDC9;
	6590 : FDCB;
	6591 : FDE9;
	6592 : F822;
	6593 : FC54;
	6594 : FCFB;
	6595 : FEF5;
	6596 : 025B;
	6597 : 016D;
	6598 : 00B2;
	6599 : 0243;
	6600 : FFF7;
	6601 : 03F5;
	6602 : FE63;
	6603 : 023C;
	6604 : 0328;
	6605 : FDDE;
	6606 : FE49;
	6607 : FD8E;
	6608 : FF70;
	6609 : FCEA;
	6610 : FD88;
	6611 : FCAB;
	6612 : FF67;
	6613 : 0132;
	6614 : 006F;
	6615 : FDEA;
	6616 : FE7E;
	6617 : FBB8;
	6618 : F775;
	6619 : F730;
	6620 : F497;
	6621 : FBCA;
	6622 : 004A;
	6623 : 0138;
	6624 : 0280;
	6625 : 00F6;
	6626 : FF17;
	6627 : 0214;
	6628 : FE5C;
	6629 : 0317;
	6630 : FF67;
	6631 : FD15;
	6632 : FE63;
	6633 : 0407;
	6634 : 01DA;
	6635 : 0326;
	6636 : 0266;
	6637 : FD1D;
	6638 : 0389;
	6639 : FCF6;
	6640 : 0179;
	6641 : 00B3;
	6642 : FB7F;
	6643 : F98C;
	6644 : FA8C;
	6645 : FB62;
	6646 : FD07;
	6647 : FA7D;
	6648 : F81E;
	6649 : 0331;
	6650 : 01BF;
	6651 : FF66;
	6652 : 0164;
	6653 : 01A8;
	6654 : 01A7;
	6655 : 0031;
	6656 : FF5F;
	6657 : FD05;
	6658 : 00F0;
	6659 : FC20;
	6660 : FEC4;
	6661 : 0243;
	6662 : 023A;
	6663 : 010B;
	6664 : 0306;
	6665 : FD18;
	6666 : FD9B;
	6667 : FFB7;
	6668 : FFD0;
	6669 : FA00;
	6670 : F9F7;
	6671 : FEC7;
	6672 : FAA2;
	6673 : FDEE;
	6674 : FF84;
	6675 : FD4D;
	6676 : 032B;
	6677 : 008E;
	6678 : FF0A;
	6679 : FE01;
	6680 : 0393;
	6681 : 035A;
	6682 : 0266;
	6683 : 0481;
	6684 : 0150;
	6685 : FFC7;
	6686 : FE0C;
	6687 : FCD7;
	6688 : FD93;
	6689 : 036F;
	6690 : 02FB;
	6691 : FE36;
	6692 : FCF7;
	6693 : FEF3;
	6694 : FE40;
	6695 : FE17;
	6696 : FB53;
	6697 : FC63;
	6698 : FFC8;
	6699 : 00C3;
	6700 : 015C;
	6701 : FE36;
	6702 : FDED;
	6703 : 0254;
	6704 : FEDB;
	6705 : FE95;
	6706 : FF52;
	6707 : 0321;
	6708 : FF85;
	6709 : 00DF;
	6710 : 0146;
	6711 : 0060;
	6712 : FFAC;
	6713 : 03D8;
	6714 : FC12;
	6715 : 00CE;
	6716 : 0063;
	6717 : FEEE;
	6718 : FD49;
	6719 : 0134;
	6720 : FF38;
	6721 : 037D;
	6722 : FC55;
	6723 : FDB4;
	6724 : FDEE;
	6725 : FF29;
	6726 : FF3F;
	6727 : FF28;
	6728 : 00DE;
	6729 : FD52;
	6730 : 02B6;
	6731 : 00FD;
	6732 : 041B;
	6733 : 01E4;
	6734 : FBE5;
	6735 : 033D;
	6736 : 0261;
	6737 : 04A2;
	6738 : FFCA;
	6739 : 0099;
	6740 : 00D7;
	6741 : 040B;
	6742 : 026A;
	6743 : FE97;
	6744 : 01C9;
	6745 : 0353;
	6746 : 01D1;
	6747 : FF66;
	6748 : FF1F;
	6749 : FCDB;
	6750 : FE72;
	6751 : FC5E;
	6752 : FCF1;
	6753 : FD88;
	6754 : FF41;
	6755 : FCDC;
	6756 : 0308;
	6757 : 037E;
	6758 : 01E0;
	6759 : 0364;
	6760 : 0026;
	6761 : FFD8;
	6762 : FF7B;
	6763 : FFC6;
	6764 : FFD9;
	6765 : 025F;
	6766 : 0162;
	6767 : FF52;
	6768 : FD0A;
	6769 : FE54;
	6770 : FEAF;
	6771 : 00FE;
	6772 : 029A;
	6773 : 02AB;
	6774 : 0060;
	6775 : 0032;
	6776 : 0101;
	6777 : 0282;
	6778 : FF29;
	6779 : FC7A;
	6780 : 0330;
	6781 : FEBD;
	6782 : 0191;
	6783 : 02A1;
	6784 : 038C;
	6785 : 0165;
	6786 : 03B0;
	6787 : 009E;
	6788 : 0148;
	6789 : 0057;
	6790 : 01AD;
	6791 : 00FA;
	6792 : FCDE;
	6793 : 0096;
	6794 : FF3A;
	6795 : FE56;
	6796 : FFE1;
	6797 : FC00;
	6798 : FC12;
	6799 : 015F;
	6800 : 02A1;
	6801 : FE0D;
	6802 : FF95;
	6803 : 023D;
	6804 : FE9F;
	6805 : 0325;
	6806 : FEFB;
	6807 : FE18;
	6808 : 030D;
	6809 : FD6A;
	6810 : FDA2;
	6811 : 003D;
	6812 : FFEA;
	6813 : 002A;
	6814 : 00C2;
	6815 : FF36;
	6816 : 0113;
	6817 : FF73;
	6818 : FDBC;
	6819 : 002A;
	6820 : 00CD;
	6821 : 00CA;
	6822 : 0110;
	6823 : FEB4;
	6824 : FEFA;
	6825 : FFA7;
	6826 : FF48;
	6827 : FF06;
	6828 : 010E;
	6829 : FDB3;
	6830 : FDA5;
	6831 : 0119;
	6832 : 01B8;
	6833 : FEF7;
	6834 : FF4B;
	6835 : 040A;
	6836 : 01EF;
	6837 : 0097;
	6838 : 0307;
	6839 : 0007;
	6840 : 0296;
	6841 : FE1F;
	6842 : FE1E;
	6843 : FBDB;
	6844 : FEDE;
	6845 : 0009;
	6846 : FE0D;
	6847 : FE30;
	6848 : FD19;
	6849 : FCCD;
	6850 : FDF7;
	6851 : 02C6;
	6852 : 0270;
	6853 : FB6F;
	6854 : FE5A;
	6855 : FF59;
	6856 : 0347;
	6857 : 0134;
	6858 : FFDB;
	6859 : 03DE;
	6860 : 03EC;
	6861 : 0011;
	6862 : FD95;
	6863 : 02C3;
	6864 : 029F;
	6865 : FCED;
	6866 : 00D5;
	6867 : FE77;
	6868 : 019B;
	6869 : FADA;
	6870 : 012D;
	6871 : FBED;
	6872 : 01B2;
	6873 : 0052;
	6874 : FEE7;
	6875 : FE20;
	6876 : 0027;
	6877 : FAE7;
	6878 : FE45;
	6879 : FD87;
	6880 : FD0B;
	6881 : FBD4;
	6882 : 01B8;
	6883 : FDD0;
	6884 : 0183;
	6885 : 017C;
	6886 : 007C;
	6887 : FF60;
	6888 : 0254;
	6889 : FECD;
	6890 : FDDD;
	6891 : 0369;
	6892 : 000C;
	6893 : FEFD;
	6894 : 01F0;
	6895 : FCF2;
	6896 : 00E3;
	6897 : FC22;
	6898 : FCA2;
	6899 : 00B4;
	6900 : FBE8;
	6901 : F8F7;
	6902 : 0020;
	6903 : FB8C;
	6904 : FC39;
	6905 : FE7F;
	6906 : FE0C;
	6907 : FE8F;
	6908 : FB51;
	6909 : FF0E;
	6910 : 019F;
	6911 : 0399;
	6912 : 02ED;
	6913 : FD3F;
	6914 : 03FD;
	6915 : 01A5;
	6916 : FD03;
	6917 : FD1B;
	6918 : FE51;
	6919 : 0087;
	6920 : 0277;
	6921 : FF4E;
	6922 : 0344;
	6923 : 0150;
	6924 : FCB2;
	6925 : F999;
	6926 : FF39;
	6927 : F976;
	6928 : FC84;
	6929 : FBE2;
	6930 : F97E;
	6931 : FE50;
	6932 : FECE;
	6933 : FC41;
	6934 : FE1C;
	6935 : FCC2;
	6936 : 01F7;
	6937 : FCAB;
	6938 : FF94;
	6939 : FCE5;
	6940 : FF84;
	6941 : 02B6;
	6942 : 01E0;
	6943 : 02AF;
	6944 : FDF1;
	6945 : FCE5;
	6946 : FC73;
	6947 : 0071;
	6948 : 0102;
	6949 : 01C1;
	6950 : 0316;
	6951 : 00B9;
	6952 : 0198;
	6953 : FDB8;
	6954 : FD12;
	6955 : FF9C;
	6956 : FEB9;
	6957 : FE12;
	6958 : FEC5;
	6959 : FE7B;
	6960 : 004B;
	6961 : FE91;
	6962 : 00A6;
	6963 : FFE3;
	6964 : FC02;
	6965 : 03C9;
	6966 : FF0E;
	6967 : 01A2;
	6968 : FDE8;
	6969 : 0197;
	6970 : FC5E;
	6971 : FCFB;
	6972 : FCF4;
	6973 : FCD9;
	6974 : 0150;
	6975 : FDE0;
	6976 : FDFD;
	6977 : 03FB;
	6978 : 00ED;
	6979 : 03FD;
	6980 : 0280;
	6981 : 07A9;
	6982 : 007E;
	6983 : 0595;
	6984 : 0480;
	6985 : FF8E;
	6986 : 03EE;
	6987 : 04E3;
	6988 : 0420;
	6989 : 03BB;
	6990 : 02EE;
	6991 : FFB7;
	6992 : 004B;
	6993 : FE5B;
	6994 : 023B;
	6995 : FD31;
	6996 : FCB0;
	6997 : 037F;
	6998 : FD4F;
	6999 : FC84;
	7000 : FDC1;
	7001 : 0314;
	7002 : 00F2;
	7003 : 0128;
	7004 : FFF2;
	7005 : 0099;
	7006 : FD63;
	7007 : 0123;
	7008 : FF1A;
	7009 : 028D;
	7010 : 04C5;
	7011 : 04C0;
	7012 : 02E0;
	7013 : 0528;
	7014 : 04CC;
	7015 : 021D;
	7016 : 048D;
	7017 : 03C7;
	7018 : 03E6;
	7019 : 0540;
	7020 : FF3A;
	7021 : 033E;
	7022 : FED4;
	7023 : 0090;
	7024 : 035C;
	7025 : FF90;
	7026 : FC3A;
	7027 : 02F7;
	7028 : 025D;
	7029 : FDAB;
	7030 : 02E7;
	7031 : 0035;
	7032 : FC7A;
	7033 : FEC6;
	7034 : 012A;
	7035 : FD78;
	7036 : FF73;
	7037 : 03C4;
	7038 : FED0;
	7039 : 01EA;
	7040 : 012F;
	7041 : 03EB;
	7042 : 01A7;
	7043 : FC6C;
	7044 : FF80;
	7045 : 033D;
	7046 : FDAA;
	7047 : 020D;
	7048 : FE74;
	7049 : 03AA;
	7050 : 035A;
	7051 : FD86;
	7052 : FEA3;
	7053 : FD02;
	7054 : FC03;
	7055 : FC64;
	7056 : 02C1;
	7057 : FE9F;
	7058 : 0091;
	7059 : 0352;
	7060 : 0385;
	7061 : 0091;
	7062 : FEFF;
	7063 : FCA7;
	7064 : FDF3;
	7065 : 038C;
	7066 : 03E3;
	7067 : 01D7;
	7068 : FD69;
	7069 : FBEF;
	7070 : FECC;
	7071 : FC18;
	7072 : FE5B;
	7073 : 0312;
	7074 : FD63;
	7075 : FC67;
	7076 : FF91;
	7077 : FD3D;
	7078 : 01E7;
	7079 : 0065;
	7080 : FF44;
	7081 : 0338;
	7082 : FE6C;
	7083 : 00C0;
	7084 : FE40;
	7085 : 0178;
	7086 : 00A2;
	7087 : FDB6;
	7088 : 01D1;
	7089 : 02DD;
	7090 : 0130;
	7091 : FCBF;
	7092 : FD95;
	7093 : FE4D;
	7094 : FDF8;
	7095 : 018F;
	7096 : FBCD;
	7097 : FFA6;
	7098 : 0063;
	7099 : 018E;
	7100 : FBCA;
	7101 : 03A8;
	7102 : 01BE;
	7103 : FBFC;
	7104 : FFEA;
	7105 : 008F;
	7106 : FDF9;
	7107 : 0108;
	7108 : 0398;
	7109 : FCAD;
	7110 : 024F;
	7111 : 0366;
	7112 : FC96;
	7113 : 003E;
	7114 : FCE7;
	7115 : FEAF;
	7116 : 0373;
	7117 : FD7C;
	7118 : 01FD;
	7119 : FC79;
	7120 : 010D;
	7121 : 032A;
	7122 : FB47;
	7123 : FD46;
	7124 : FDCA;
	7125 : 014D;
	7126 : FD19;
	7127 : FDA7;
	7128 : 00B1;
	7129 : FCDE;
	7130 : FC8E;
	7131 : FFE9;
	7132 : 0199;
	7133 : FBD8;
	7134 : FE9F;
	7135 : 0389;
	7136 : FE69;
	7137 : 0304;
	7138 : 03C9;
	7139 : FFCF;
	7140 : 024C;
	7141 : FF57;
	7142 : 0342;
	7143 : 0257;
	7144 : 0099;
	7145 : FF98;
	7146 : 0385;
	7147 : 015B;
	7148 : 0027;
	7149 : FCB5;
	7150 : FE86;
	7151 : 0116;
	7152 : FC7A;
	7153 : FE0C;
	7154 : FFB7;
	7155 : 0176;
	7156 : 00D5;
	7157 : FF55;
	7158 : 0009;
	7159 : 00CD;
	7160 : 01C5;
	7161 : 03D5;
	7162 : FD15;
	7163 : FE1D;
	7164 : 003C;
	7165 : FC0B;
	7166 : FEDB;
	7167 : 032B;
	7168 : 02E2;
	7169 : 0243;
	7170 : FF2A;
	7171 : 0275;
	7172 : FD6F;
	7173 : 0255;
	7174 : FDF3;
	7175 : FEEA;
	7176 : 0131;
	7177 : FB5B;
	7178 : FEF0;
	7179 : FD67;
	7180 : FD9F;
	7181 : FC65;
	7182 : 0166;
	7183 : 0016;
	7184 : 00F5;
	7185 : 032E;
	7186 : FEFB;
	7187 : 01BA;
	7188 : 0024;
	7189 : FDB5;
	7190 : 022B;
	7191 : 02DE;
	7192 : FCA2;
	7193 : FCEC;
	7194 : FE93;
	7195 : FED3;
	7196 : FEB2;
	7197 : 0180;
	7198 : 01D3;
	7199 : FC1C;
	7200 : 0290;
	7201 : 021D;
	7202 : FD88;
	7203 : FEA9;
	7204 : 0085;
	7205 : 003E;
	7206 : FC0B;
	7207 : 04A6;
	7208 : 0014;
	7209 : 0500;
	7210 : FDC6;
	7211 : FE62;
	7212 : FE64;
	7213 : 008C;
	7214 : FCD1;
	7215 : 0087;
	7216 : FDE6;
