WIDTH=16;
DEPTH=400;
ADDRESS_RADIX=UNS;
DATA_RADIX=HEX;
CONTENT BEGIN
	0 : FEDF;
	1 : FFD6;
	2 : F990;
	3 : 0008;
	4 : FC21;
	5 : 0596;
	6 : FD91;
	7 : FE01;
	8 : 0397;
	9 : FCA9;
	10 : FBDF;
	11 : FC46;
	12 : FF59;
	13 : F977;
	14 : 01E6;
	15 : 0131;
	16 : 02D5;
	17 : 0012;
	18 : FD88;
	19 : FC42;
	20 : FC33;
	21 : FEC4;
	22 : 046A;
	23 : FC14;
	24 : FDE3;
	25 : 0067;
	26 : 0021;
	27 : FEB1;
	28 : 02CE;
	29 : 0169;
	30 : 0139;
	31 : FEC5;
	32 : FE11;
	33 : 03BE;
	34 : FBFF;
	35 : 00DA;
	36 : 0156;
	37 : FC63;
	38 : 0309;
	39 : 028C;
	40 : FDBB;
	41 : 0171;
	42 : FC7F;
	43 : FDE7;
	44 : 0116;
	45 : FCAB;
	46 : FD64;
	47 : FBD5;
	48 : 0188;
	49 : FFF7;
	50 : FF1C;
	51 : FB45;
	52 : FC0A;
	53 : FCDF;
	54 : FE47;
	55 : FD19;
	56 : FBBC;
	57 : FE78;
	58 : 01D5;
	59 : 01DA;
	60 : 0363;
	61 : 0213;
	62 : FCAE;
	63 : FFBF;
	64 : FDE5;
	65 : FCBE;
	66 : 027E;
	67 : FEBB;
	68 : 01B0;
	69 : FF6F;
	70 : FE40;
	71 : 002E;
	72 : FDB2;
	73 : 0140;
	74 : FACB;
	75 : 00C2;
	76 : 0108;
	77 : 01AA;
	78 : FDDB;
	79 : FB5E;
	80 : FFB4;
	81 : FF13;
	82 : 0408;
	83 : 03F9;
	84 : FB4F;
	85 : FDA5;
	86 : FFF6;
	87 : 001C;
	88 : 00DA;
	89 : FF2C;
	90 : FFFE;
	91 : FDA6;
	92 : FEC3;
	93 : FAC0;
	94 : FFE1;
	95 : 0176;
	96 : FD6A;
	97 : 0090;
	98 : 00AE;
	99 : 0188;
	100 : FCC7;
	101 : 014B;
	102 : 0105;
	103 : FA78;
	104 : FDA1;
	105 : FEFA;
	106 : 003B;
	107 : F8FD;
	108 : FD1E;
	109 : F8FA;
	110 : 015D;
	111 : 0349;
	112 : 02C1;
	113 : 011C;
	114 : FE53;
	115 : F852;
	116 : FF4F;
	117 : 017D;
	118 : FD76;
	119 : FE40;
	120 : 028D;
	121 : FA97;
	122 : 01AB;
	123 : FEFD;
	124 : F975;
	125 : F8B3;
	126 : 0142;
	127 : 0320;
	128 : FED3;
	129 : FC01;
	130 : FD79;
	131 : FEEB;
	132 : FEC2;
	133 : 02FC;
	134 : FBF6;
	135 : F9B2;
	136 : FB8B;
	137 : 04F3;
	138 : F900;
	139 : FFB1;
	140 : FDB5;
	141 : FE10;
	142 : 000B;
	143 : 019C;
	144 : F813;
	145 : 00A7;
	146 : FC76;
	147 : 0355;
	148 : FD1D;
	149 : 0087;
	150 : FC22;
	151 : FD20;
	152 : FEC4;
	153 : FABE;
	154 : FB58;
	155 : FD8F;
	156 : FDAD;
	157 : 0339;
	158 : FBAA;
	159 : 0519;
	160 : FA4C;
	161 : FD9D;
	162 : FF9A;
	163 : FB43;
	164 : FCD7;
	165 : FCDC;
	166 : FC9D;
	167 : FD36;
	168 : FDB3;
	169 : 01EE;
	170 : FA91;
	171 : 01AF;
	172 : 01E2;
	173 : FC94;
	174 : 02C3;
	175 : FDCA;
	176 : 035B;
	177 : 0299;
	178 : 0293;
	179 : 0080;
	180 : FBE5;
	181 : 011D;
	182 : FCB6;
	183 : FF93;
	184 : FDE3;
	185 : FC77;
	186 : FDFA;
	187 : FBC0;
	188 : 02AF;
	189 : 034E;
	190 : 001F;
	191 : FEC4;
	192 : FDE4;
	193 : FF4C;
	194 : FC03;
	195 : FCE9;
	196 : FD94;
	197 : 00D5;
	198 : FEE6;
	199 : 01EE;
	200 : FF90;
	201 : FF58;
	202 : FABC;
	203 : FD8B;
	204 : FEF4;
	205 : FCAD;
	206 : FC9B;
	207 : FE3B;
	208 : FF8E;
	209 : 0107;
	210 : FE27;
	211 : FA5F;
	212 : 0352;
	213 : FEE3;
	214 : 00DD;
	215 : 01B4;
	216 : FF92;
	217 : 0102;
	218 : FEB6;
	219 : FC46;
	220 : F806;
	221 : F9CD;
	222 : FE7E;
	223 : FDC8;
	224 : FF30;
	225 : FF1F;
	226 : 02E2;
	227 : F88E;
	228 : 0374;
	229 : 037D;
	230 : FF1C;
	231 : FE78;
	232 : FE3B;
	233 : FEF5;
	234 : FCD5;
	235 : 04EE;
	236 : FD59;
	237 : FDBB;
	238 : FC9D;
	239 : 0096;
	240 : FEB4;
	241 : FC28;
	242 : FE3C;
	243 : FDD9;
	244 : FC6D;
	245 : FBDC;
	246 : FD5C;
	247 : 0149;
	248 : FDC1;
	249 : 031E;
	250 : FF6B;
	251 : FDC1;
	252 : FB92;
	253 : 020F;
	254 : FC86;
	255 : FBBE;
	256 : 00DC;
	257 : FFCB;
	258 : 0575;
	259 : 006A;
	260 : FAC3;
	261 : 04DA;
	262 : FEEB;
	263 : FF1A;
	264 : 03F5;
	265 : FF36;
	266 : FD8F;
	267 : 004E;
	268 : FC42;
	269 : FCB5;
	270 : FAF6;
	271 : FB12;
	272 : FC73;
	273 : FDCA;
	274 : 0046;
	275 : 009C;
	276 : FD7F;
	277 : FB25;
	278 : FEC5;
	279 : FD82;
	280 : 02B3;
	281 : FCF4;
	282 : FD68;
	283 : 0662;
	284 : 00DE;
	285 : FF79;
	286 : 006D;
	287 : F802;
	288 : FBF4;
	289 : FAEB;
	290 : FE8B;
	291 : 0262;
	292 : FC57;
	293 : FDC9;
	294 : 032A;
	295 : FD96;
	296 : FC9C;
	297 : 01C0;
	298 : FE78;
	299 : FD85;
	300 : FF96;
	301 : FCFD;
	302 : FCDD;
	303 : 006F;
	304 : FF0D;
	305 : F8B7;
	306 : 0074;
	307 : FBF5;
	308 : 00CF;
	309 : FD7A;
	310 : F9AD;
	311 : FDC2;
	312 : 0123;
	313 : 0262;
	314 : 0135;
	315 : FD9C;
	316 : FBE5;
	317 : 010D;
	318 : FD70;
	319 : FE3B;
	320 : FA2A;
	321 : FDB6;
	322 : FCCB;
	323 : FCB3;
	324 : 02EA;
	325 : 012E;
	326 : 016B;
	327 : FD1E;
	328 : 005F;
	329 : 0150;
	330 : FC55;
	331 : 03FD;
	332 : FA92;
	333 : FF82;
	334 : FD29;
	335 : FE15;
	336 : FE56;
	337 : FFE8;
	338 : 0023;
	339 : FCD7;
	340 : 00A2;
	341 : 0433;
	342 : FC33;
	343 : FC11;
	344 : FB8D;
	345 : FBE5;
	346 : FC54;
	347 : 02FD;
	348 : FDA6;
	349 : FFAB;
	350 : 0562;
	351 : FC5E;
	352 : 00AB;
	353 : FE37;
	354 : FC38;
	355 : FA49;
	356 : FDBA;
	357 : 000F;
	358 : FDD7;
	359 : FC7A;
	360 : 0202;
	361 : 0163;
	362 : 0169;
	363 : 02C1;
	364 : FC00;
	365 : FFA0;
	366 : FB5A;
	367 : FC8E;
	368 : 0220;
	369 : FF41;
	370 : 01FE;
	371 : FFAB;
	372 : FF04;
	373 : FBFC;
	374 : 016F;
	375 : FC21;
	376 : 02F4;
	377 : FC41;
	378 : 013D;
	379 : 0132;
	380 : FB44;
	381 : F9A0;
	382 : 001B;
	383 : 0293;
	384 : 02E1;
	385 : FC64;
	386 : F92F;
	387 : 0310;
	388 : 001F;
	389 : FE62;
	390 : FE54;
	391 : FAF8;
	392 : FD58;
	393 : FC17;
	394 : 00FB;
	395 : FEF9;
	396 : FB95;
	397 : FDAD;
	398 : FC74;
	399 : 00A4;
END;
